[PAD]
[unused1]
[unused2]
[unused3]
[unused4]
[unused5]
[unused6]
[unused7]
[unused8]
[unused9]
[unused10]
[unused11]
[unused12]
[unused13]
[unused14]
[unused15]
[unused16]
[unused17]
[unused18]
[unused19]
[unused20]
[unused21]
[unused22]
[unused23]
[unused24]
[unused25]
[unused26]
[unused27]
[unused28]
[unused29]
[unused30]
[unused31]
[unused32]
[unused33]
[unused34]
[unused35]
[unused36]
[unused37]
[unused38]
[unused39]
[unused40]
[unused41]
[unused42]
[unused43]
[unused44]
[unused45]
[unused46]
[unused47]
[unused48]
[unused49]
[unused50]
[unused51]
[unused52]
[unused53]
[unused54]
[unused55]
[unused56]
[unused57]
[unused58]
[unused59]
[unused60]
[unused61]
[unused62]
[unused63]
[unused64]
[unused65]
[unused66]
[unused67]
[unused68]
[unused69]
[unused70]
[unused71]
[unused72]
[unused73]
[unused74]
[unused75]
[unused76]
[unused77]
[unused78]
[unused79]
[unused80]
[unused81]
[unused82]
[unused83]
[unused84]
[unused85]
[unused86]
[unused87]
[unused88]
[unused89]
[unused90]
[unused91]
[unused92]
[unused93]
[unused94]
[unused95]
[unused96]
[unused97]
[unused98]
[unused99]
[UNK]
[CLS]
[SEP]
[MASK]
<S>
<T>
김
##정
##은
(
배우
)
1974
##년
3월
4일
~
은
대한민국의
배우이다
.
서울
##에서
태어났다
어
##렸
##을
때
##부터
미
##술
##가
##의
꿈
꾸
##었고
##S
##BS
《
##희
##철
영
스
##트
##리
》
2010년
4월
20일
화
##요일
방송
출
##연
건
##국
##대학교
공
##예
##학과
##로
진
##학
##하였다
대학
재
중
##인
1996년
MBC
25
##기
##채
탤
##런
시
##험
##에
합
##격
##하면서
길
걷
시작했다
3
정도
단
##역
생
##활
거쳐
,
1998년
드라마
해
##바
##라
에서
기
##존
긴
##머
##리를
싹
##둑
자
##른
삭
##발
##제를
모
##으며
대
##중
주
##목
받
SBS
##형
##진
씨
##네
##타
##운
1월
28일
목
이후
행
당
##신
때문에
여
##천
##하
아버지
##와
아들
등의
##하여
경
##력을
쌓
##아
##갔다
2002년
##한
코
##미
##디
영화
가
##문
##광
으로
흥
##행
떠
##올
##랐
##고
극
이
##선
"
나
항
##상
그
##대를
을
부
##르
##며
사
##운드
##랙
##에도
참
##여
##해
많은
인
##기를
##았다
2004
년
##에는
파
##리의
연
에
##하였고
##대
##상의
##상을
받았다
##비
불
##어
봄
##람
내
남자
로
##맨
##스
##랑
##니
잘
살
##보
##세
하
##계
올림픽
핸
##드
##볼
종
소
##재
큰
##러
##모
##았
##던
##포츠
우
##애
최고
순
##간
다양한
작
##품을
통해
##서
좋은
활
##약을
펼
##쳤다
무
##위
##크
-
2월
##터
##뷰
##사
##①
##는
늘
변
##화를
##꾼
##다
!
##②
감독
##에게
힘
##이
되는
##이고
싶
##요
##③
##게
휴
##식
같은
초
##콜
##릿
##④
누
##구
##보다
제
자신이
또한
##자
외
##자로
##도
활동을
했다
2000년
KBS
라디오
프로
##그램
밤
잊
##대에
DJ
##를
맡
2001
한
##밤
TV
의
MC
##로서
##행을
##기도
##였
2008년
2011년
##까지
자신의
이름을
라
##이브
음악
##했다
##동
전
##념
##하는
동안
장
대학교
함
##으로
##써
##등
##록
##적
##되었고
2009년
새
##내
##생
신
·
구
칸
2일
##공
위해
##부에
##입
졸업
늦
##깎
열
그들은
왜
?
동아일보
25일
한편
2001년
한국
##제
##작
##협
##회의
##거
##부
##태
문
휘
##말
##려
##동안
##만
오
##다가
##합
##병
##원
2
를
복
##귀
했
월
##화
##시
##즈
울
##랄
##들이
##규
金
奎
植
1881
1950
12월
10일
대한
##국의
##교
교
##육
##이자
일
강
##점
##기의
독
##립
운
통
##일
정
##치가
학
##회
대한민국
##학자
##관
##이었다
언
##더
##우
선
##사의
비
##학교
##수
##감
등을
지
미국
유
1918
##리에
##청
##당
##표
##견
##되어
10
##횡
##무
##약
##하며
국제
승
##인을
##도록
위하여
심
##혈
##울
##였다
##현
이야기
##물
2005
청
##출
##판
2007
501
##페
##이지
각
##지에
세
##워
임
##로부터
##권
##사와
##장에
##명
##되었다
1919
상
##임
##부의
총
##되고
##부를
조
##직
##하고
위
##장이
됐
##외
##위원회
##본
##장
##총
등으로
##하다
1921
창
##조
##파
개
놓
갈
##할
입
서
뒤
##정을
##나
##단
##체의
##노
##력
##과
하다
1935
민
##족
##혁
결
##성을
좌
##환
##정에
다시
1944
##년부터
1947
##주
##석
##냈
주로
##동을
##개
광
##복
후에
등과
함께
환
##1
귀
##탁
##통
##치
반
##처
##음
##대의
##사를
표
##했
##으나
뒷
##날
##문을
읽
후
##분
##적인
찬
##식의
##낸
송
##남
##헌
증
##언
中
##섰
수
있다는
것을
깨
##닫
견
##해를
앞
##결
##지
##소
당시
테
##달
##야
1948
남
##독
九
##앙
북
##너
##북
##였으나
5월
##반
##참
##장을
바
##꾸
##맹
##들에게
초대
##2
국
##마
권
##하기도
전쟁
납
병
##망
8월
1920
1930
11월
1932
##치를
##멸
##피
##하였으며
敎
名
요
Johann
아
##호는
尤
史
죽
竹
笛
등이
본
##관은
##풍
淸
風
중국
##명은
'
##성
成
仲
文
##민
一
民
余
왕
王
介
石
별
##칭
##갑
이라는
##름
있었다
[
http
:
/
www
ch
##risti
##anto
##day
co
kr
view
htm
id
=
1831
##47
허
##섭
칼
##럼
]
만
크
##리스
##찬
##투
##데
노
##론
##종
방
##손
##남도
동
##래
##군이
##친
관
##리로
집
##하던
태
##어난
##지는
홍
##방송
##편
##용
##식은
족
##하면
조선
智
性
과
어머니
##씨
慶
州
李
氏
셋
##째
##하자
양
##산
잠
보
적
있는
그는
결국
따라
갔
따라서
그를
간
한다
##군
##촌
##면
##포
할
##버
묘
있다
손
원
##경
삶
2009
pp
##방
房
派
23
##찰
##징
澄
8
構
##유
는
그의
7
배
명
벽
거
##두
##였던
##양
등
##었다
##익
##로는
현
##지만
형
6
그러나
분
##류
##된
몰
##락
##했고
東
璇
벼
##슬
올
##봉
參
奉
##냈다
일본
익
##혔
##전
역
##클
1
##넷
##뉴스
##닷
##컴
15
##실
근
2000
##항
러시아
돌
##왔
##나라
##안
##카
袁
世
凱
##과의
##평
인해
발
##책
##린
것이
빌
되어
##배
##성의
곳
없었다
1887
혹은
법
##저
##었
어린
숙
##들의
##겨
##졌
##들과
친
##척
##들
##웠다
1886
##걸
찾
##갔
##는데
##루
##했지만
##이의
눈
##엔
##기가
있어
첫
고
겸
예
##금
##등학교
온
다
##닌
##다고
##드는
번
라고
##렀다
윤
21
##일보
##후
##뒤
##종의
호
얻
##원을
설립
##했으며
처음
직
##사가
직접
##들을
##든
##원은
##식을
##신문
Christian
Today
걸
치
##료
못
##받
##각
2006
241
##쪽
사람이
없
##들은
##사는
##었으나
약
들
##열
질
포
쳐
##놓
##덕
##지를
먹
달
애
##난
여러
가지
잔
##레
##순
順
愛
##랫
##질
##렸다
하였다
233
##이가
몹
##픈
않는다
많이
불구하고
너
채
##되
##었던
##라고
삼
##키
규
##원으로
데
##변
틀
##림
##없
것이라고
##면서
##드를
말
##곳
##하지
않고
##리고
쇠
##님
##께
##이를
##히
##호
##하게
앓
##극
##기에
벗
있게
되었다
영어
##쳤
빨
##차
##졌다
설
있고
그가
갓
1888
##틴
##확
##백
##는다
##니다
의해
잡
##혀
되
##돌
##향
##밖
1891
1892
1894
완전히
##웠
역시
##력이
계속
철
##정한
##준
멸
차
##별
성
영향을
것이다
##인이
된
##간이
냉
##라는
평
이러한
어떤
계
##벌
##거나
##스로
엮
하지
않았다
이를
두고
도
##처럼
토
##착
##찍
##되었으며
이것은
두
하나의
##단의
2008
265
##담
처
않는
##함
회
##선을
갖
##심
폭
##넓
접
투
중에
가장
##능한
하나로
없는
릴
험
마
##치고
##영
官
立
英
語
學
校
영국
##슨
W
F
Hut
##chis
##on
轄
治
臣
교장
체
하는
것
보다
##늘
##색
즐
##겼다
1896
##필
면
徐
載
弼
##업
운영
〈
〉
취
받아
##라의
위한
##구의
##물을
##오는
필
##설
##억
##길
p
##42
##0
1897
버
##니아
##주의
253
##에서는
달리
괴
##롭
따
##리는
##웃
##이트
막
##쳐
##주는
기타
하여
##련
9월
루
##대학
준
1900
##식으로
R
##oan
##oke
College
1903
254
庶
子
##왕
義
親
##계를
5
논
실
1902
##침
이름으로
##논
관련
독일어
산
쓴
글
2006년
##하기
이라
##탄
1901
##최
받고
특
##집
프랑스
등에
뛰
##났
##강
##룡
땅
혁
##명의
66
웅
##테
라는
##럽
뉴
##욕
##빙
##턴
##창
##절
92
##점을
6월
전체
##었으며
번째
##부는
천
##능
##이며
음
타
##겁
겁
##쟁
##득
##있다
255
머
##않
드
침
##략
멍
수도
있을
졸업식
4
##제로
이때
일본의
러
결과
##전에
1904
1905
5일
최
##대로
10월
황
##사로
##박
금
65
프
Princeton
University
석
##원에
##위를
박
##한다
##됨
Y
##MC
##A
##사에
|
##베
262
얼
##됐
##츠
##패
7일
뤼
##토
##폴
##회를
##녕
가운데
##갈
500
皇
城
基
督
靑
年
會
1913
있
##으면
담
1906
21일
군
趙
淳
煥
##녀
恩
受
16
와
##혼
##간을
##조를
##나는
1907
鎭
##월
大
韓
留
生
1909
7월
##법
책
펴
1910
##7
세계
尹
致
昊
대회
네
추
##년에
헌
55
숭
修
辭
##옥
1986
48
##간에
셀
키
편
##있
1911
경기
충
##기로
뽑
1912
1일
보고
도쿄
入
105
사건
날
##가와
##속
##적으로
##체
저
##33
##5
탄
##압
##삼
목적으로
망
갑
##원의
##놈
##살
굴
모든
새로운
256
##도로
##훈
##겠
많
##으
##조의
##농
##제의
##44
##스트
##리아
어느
##다는
뜬
이런
##획
##듣
##자가
될
냈
##서는
##왔다
베
난
먼저
있던
##촉
263
13
##메
##싱
탕
##샤
##오
웰
##링
V
쿠
##분을
##았고
冷
橘
##군의
邦
阜
까
##대는
府
##온
##벽
張
勳
##퇴
264
춘
##수가
##년대
몽
##골
##때
08
20
1914
2년
지방
1885
1972
맺
압
##북도
검
피
또는
게
##릴
류
##렬
##끌
##란
여기서
##용을
쉽
##되지
않
##좌
12
73
맞
바로
河
北
省
용
판
##매
1916
앤
&
##이어
Anderson
Meyer
Company
##몽
1917
폐
##3
##초
##장으로
##줄
##므로
##해서
이는
몇
둘
殷
넘
##동차
##막
횡
##량
11일
##어를
줄
알
##움을
낙
37
漢
字
일본어
모두
##8
##11
지역
##마다
##자를
겪
톈
上
海
新
黨
祜
감
먼
##서를
미국의
윌
대통령
##19
##21
##칙
깊
희
절
명의
##쇄
널리
##대한
##와의
이전
혼
여성
##수를
##켰
##수의
##수는
##하라
##켜
꼭
매
느
##끼
##중에
안
##성은
##탕
##홍
##권을
##급
갖고
푼
##돈
##지가
팔
돈
##요한
337
339
##났다
중국어
다음과
같이
벌
##법을
##될
경우
##격을
13일
266
9
샤
38
##번
##실을
이어
이들은
L
IN
##DE
##P
##EN
##DA
##NC
##E
de
LA
CO
##RE
et
PA
##IX
##건
팜
##플
##렛
##임을
##택
일을
18일
유럽
처음으로
공식
##시대
09
측
왔
##했던
위치한
佛
02
17
17일
##령
백
##부가
##송
23일
次
長
##지의
137
儒
林
Da
##um
더
##꼈
탐
받은
##들어
문서
촉
대전
패
답
14일
있도록
##신을
응
##답
##끝
다음
414
국가
##응
##되면서
크게
옮
9일
향
쉬
##프
쳤
##낀
灌
龍
##델
범
##흥
##불
##멀
##승
6일
워
D
C
및
멕
##코
징
역할을
47
##내는
Far
Eastern
Situation
팽
그대로
##용된다
뿐
아니라
##용하여
이라고
묻
##져
펜
##곧
싣
물
##액
캘
샌
30일
맥
##웰
31일
##멘
띠
##뉴
##앤
##젤
##레스
3일
##객
##제가
서로
##적을
##측
뇌
243
되었고
속
썩
##세가
악
##앉
쏟
탈
초기
가진
##용이
써
##장은
##떠
##가는
##당한
##완
閔
甲
完
##낌
##교의
1997년
##31
##렵
퇴
##증
끝
##심을
1960
##원이
267
육
흩
##어져
始
榮
##뇌
혹
##긴
것에
대해
##인은
##구를
협
수상
##엄
##그
William
Hughes
##20
##9
22일
##놀
##룰
南
京
號
##밀
첩
##휘
##간의
닥
최대
##습
변경
대신
원래
밝
##힘
##용한
곤
않은
##었는데
사이에
##근
야
된다
26일
##검
##추
29일에
솔
##14
153
##체를
##장하는
들어
사이의
열린
1922
##균
##쿠
8일
##륜
##털
##죽
##공화국
極
共
和
國
##딘
##군은
##시아
털
257
##장에서
##자의
DO
##C
##UM
##T
S
OF
KO
##AN
COM
##M
##UN
##IS
##숙
##도의
지정
##학적
핵
##이다
##르게
##황
높은
흡
레
##륙
확
##해야
쟁
##취
##뉘
그리고
##수로
1923
朝
鮮
축
LL
1924
烈
團
##칠
##몇
##씩
##느
1927
동시에
丙
浩
華
院
급
##도에
설치
##상으로
개교
취임
띄
##특
##학급
푸
캠
##퍼
##스의
아닌
쫓
##명을
겨
1940
쓰
##촨
仁
15일에
三
존
블
1925
니
##범
昌
範
카
Lev
M
Kara
##kha
##n
##자와
겐
芳
澤
謙
吉
밀
움
##돼
58
##롯
주요
反
結
必
要
轉
士
談
全
回
걸쳐
29일
15일
이상
1926
崔
天
祥
里
公
##83
##호를
##윤
甫
潤
288
光
濟
安
睦
錄
텐
津
洋
1929
##것
##년에는
딸
##딸
잃
1931
녹
1990
122
것으로
더욱
특히
SK
##L
美
X
2002
03
11
12일
##웅
85
1933
##25
##궐
1991
214
##명이
관한
##켰다
##케
리
1934
215
對
日
戰
線
統
同
盟
64
##체가
都
몸
##곤
##것이
##층
일부
1946
216
217
훈
220
##악
1942
봉
식
1938
페
##정되었다
시대
##49
1939
되고
1941
孫
科
400
化
協
##업을
1943
##김
업
Hi
##nts
on
English
Composition
Writing
##글
24일
대하여
##렌
##랜드
J
Allen
Greenland
나는
있지만
1일에
吳
鐵
엄
嚴
恒
燮
原
僑
福
利
1945년
鄭
桓
##인의
궤
＜
報
＞
기자
얄
Practical
300
307
308
##혹
싸
##움
넣
착
2005년
다른
볼
##가를
##축
##계에
##46
470
경기도
139
매우
##냐
##엇
효
莊
풀
##의를
중심으로
##텔
각각
##소를
끌
##암
##장의
##시간
1993
146
##례
혈
썼
놈
##먼
짓
하며
221
27일
##랭
##벨
##탈
영국의
윈
즉
76
점
암
연구
##위에
663
16일
또
##도가
##진다
31
의한
##혐
##쾌
##뀌
며
##화가
##뿐
235
끊
362
28
##정이
俊
淵
##성이
363
364
2003년
##티
50
1995
88
89
19일
꺼
46
蘇
주의
격
앉
##32
1996
2003
321
侍
堂
##힐
##십
##까
22
20일에
##듭
100
168
169
곧
것은
主
이와
##읍
터
혜
223
##자는
1986년
따른
##빈
##갖
##꺼
##짐
##자인
126
의하여
제2차
1992
589
##낙
##찾
##잡
shi
##ndo
##nga
dong
##a
com
doc
##s
magazine
29
##12
##90
##50
##00
##13
_
html
현대
②
믿
##떻
##엽
붙
##붙
뿌
##싸
습
40
##접
太
古
寺
빈
衆
읍
높
##이나
밝혔다
##었지만
162
홀
탁
99
%
282
78
던
##곡
##힌
거의
쓸
14
없다
##쓰
171
43
##녔
01
<
##른다
>
싫
##렇게
하고
혐
이에
품
##묘
##묵
얘
##상이
75
##셨
##꼬
퉁
말했다
##굴
굳
##쁜
욕
##같
##땅
77
##렇
듣
##찌
##리가
가지고
묵
##즘
##갱
##되는
빚
융
##우스
앨
브
마지막
425
118
굽
##았으며
쏜
같다
IOC
현재
전에
옷
根
炯
흉
«
»
G
##10
촬
든
##이는
##띤
200
201
586
##59
593
173
545
##정에서
밑
36
##르는
염
52
331
590
딘
헬
##믹
낭
57
##어진
있다고
포함한
##쩔
없이
빠
申
彦
##먹
172
궁
있어서
192
虛
行
108
##용할
2007년
1988
275
##양의
元
鳳
朴
憲
永
##춤
##챈
이유로
115
찍
##위로
##죄
긋
##15
180
걱
1949
##충
##율
葬
##전을
##지로
##기는
탓
썰
##렁
##냄
301
302
378
##이터
##이스
49
억
##보를
83
##붕
星
淑
##썼
씌
30
##하의
때문이다
news
nave
##r
main
read
n
##hn
mode
LSD
mid
sec
sid
102
o
##id
020
aid
0000
##6
##36
##세의
##쪽에
##셔
짐
##킨
뭐
71
만든
34
##가지
정도로
##퉁
68
숨
##뒀
1952
색
1987
##재한다
188
意
택
41
##뢰
←
芦
隱
##∼
1937
四
川
##및
##69
87
赤
있었던
꼼
##꼼
뜻
先
毆
226
228
꼽
978
694
##첩
6일에
메
란
##큼
균
훌
##륭
놀
능
##폐
82
##치는
듯
筑
摩
書
357
358
##지고
mun
##hwa
지정되었다
##분에
보인다
##끗
232
##나다
##쩌
準
##짱
##된다
밖
좋
풍
234
45
맹
##있는
이미
연합뉴스
##냉
쪽
sick
##ly
##찮
슬
##픔
##뜨
ML
2004년
##53
燁
##깝
##품
좀
##껴
1991년
431
##풀
챙
236
##세는
##세기
許
政
##허
샘
1979
81
##녁
##껏
쌀
##쌀
옆
모습을
늙
티
빛
##도를
독일
700
닦
2010
끈
객
##맥
##30
1985년
농
1984
뉴스
490
信
念
1회
텍
빼
났
∼
27
셰
##름이
all
##80
##4
756
04
##씀
##욱
##혜
##못
##이드
##뷔
##푸
##랜
낳
씬
##콥
##좁
제작
비해
##짓
폼
80
##슴
##팍
멀
##염
흘
##린다
룸
##롱
죄
##팔
##춘
##룩
※
##B
Pro
##logue
##냥
##긋
엇
18
19
Love
Theme
E
##pil
##ogue
24
1978
##룹
H
O
T
j
##t
멤
가수
##J
blue
Sky
Melody
Top
Star
해당
##엘
##젝
##앨
##셜
앨범
曺
承
佑
1980년
000
##션
##률
뚫
클
멜
짧
##신의
뮤
##컬
##킬
##롬
##톤
헤
##윅
##펙
##짜
맨
오브
##일한
퍼
게임
빙
2012년
2014년
2015년
2017년
숲
서울특별시
##깐
##칸
##명한
##딜
##늦
중요한
같
따르면
커
##숍
##닐
씀
##죠
##빠
##음을
##누
십
##늙
##줘
여자
##줬
꼬
노래
히
알려져
70
케
##겐
덕
봐
떨
굉
끼
##납
BM
##X
야구
웃
##펠
칭
녀
CD
##커
곡
##폰
##무를
150
팬
삽
##브
1999년
캐
##팅
첨
##틀
##넥
낡
째
##듯
The
Impossible
Dream
##딴
최초로
##펫
밟
촛
끄
콘
##뇨
훗
다만
좁
앵
##킹
##몸
##둥
즈
뭉
##랬
술
##릭
컸
##춰
##좋
##전에서
##맡
락
##딪
딱
##젠
##호선
젊
DVD
졸
##튼
맛
##쉽
##블
곁
##봤
NHK
アジア
發
見
明
の
##ミ
##ュー
##ジカル
##スター
##を
##め
##ざ
##して
##큐
##릇
##듬
보통
##섯
##쁘
##칼
그녀는
##랐다
봤
위에
##떨
똑
##똑
##르고
뭔
멋
깜
##짝
##깜
많다
개발
줬
소속
##i
PP
##흡
트
##닝
톤
##번째
##봐
##쁨
##주시
으
있는데
##겼
##되며
##키는
##비스
##씬
##섬
이란
##갤
옛
##버스
완
섬
짝
##룻
##태로
##뤄
##깨
긍
확인
턱
60
##췌
벤
63
##빌
##딩
##군을
경우가
뻔
##틱
컴
##퓨
##팬
섭
##낼
##얘
낯
하지만
액
##폭
##맞
##닉
##값
딴
졌
덜
웹
웬
풋
##풋
##kg
##PER
렉
햇
밥
##스터
넓
곽
몫
획
롱
엽
##틈
A
현재의
##물의
척
0
팝
##쉬
LIVE
밋
##밋
##둔
##새
콩
##콩
##능을
##Q
##뜻
##럴
##쌍
##콤
##잔
옳
1970
겠
곱
괜
골
섞
였
겉
##퀴
##딱
윗
끔
##깁
##류의
흐
찌
##빛
##끄
『
』
「
덮
」
##많
닿
##꿔
돼
##둠
##섞
98
앙
작은
##겸
혀
##벤
##엑
##도는
엉
##널
##이션
Final
Transformation
##컨
##효
섰
PMC
##능하다
##뮤
##선의
##웨
##슷
##깔
헨
쥐
짜
딕
di
##ction
功
이다
##튜
+
컷
롤
예를
닮
시즌
디
뚜
##렷
##잉
##넘
얹
찰
##얼
CM
514
껍
묶
엔
自
閉
兒
開
##빨
록
빅
2020
##괴
떡
기준
꽤
##벼
##덤
깃
##트를
##사카
알려진
##템
##D
뜨
33
##뱀
덧
플
##뻔
##맑
##뚱
곰
##16
684
##넨
MT
##톱
끓
엿
##룬
##옷
##끈
##낄
꿀
##스를
대부분
쇼
선수
##몬
##렀
##삭
##렐
렌
겹
##켓
값
##첼
이상의
MR
##대가
얽
작곡
줘
##긍
웨
##팀
##큰
##70
##밴
톱
낼
낸
밴
##맛
돕
촌
##꽃
둔
##숨
돋
틈
##텝
CJ
##듀
깐
옹
낮
##슈
##넣
##제는
튀
##멋
꺾
##둘
##숭
쌍
킹
CH
##O
Z
##디오
춤
##콘
##덴
대부분의
##낮
##뭇
큐
섹
롯
2011
##리그
##츄
펄
##펄
멈
##펴
홈
##폼
##닿
##룸
##겹
##닥
PD
있으며
낀
왼
600
##랩
팀
##쇼
##쓸
##어는
2012
톡
##톡
##쥐
##싼
##싶
뿔
2013년
##깊
개시
2013
##얀
런
핑
##툼
현재는
ABC
Some
##where
Between
흔
널
밸
템
##어로
##쭉
사용하는
##갯
iz
##e
맘
paus
##것을
##랍
26
35
컨
##셉
##어졌다
##뀐
##몰
##겟
target
빗
층
##팩
센
2016년
벅
##렉
##쇠
냄
##툰
707
208
915
2015
##뉜
##뭄
##텐
##센
##턱
##맺
##끔
##팽
멘
뚝
넥
A4
지역의
핀
경상북도
젠
##롤
##흔
##븐
##볍
##빗
##돋
씩
2018년
##괄
숫
2019
1865
sal
##oon
##개의
쏘
Salon
Bu
##lgar
##ol
##gar
Bol
##ğa
고대
그리스
All
in
Beautiful
Days
麗
的
陳
思
曹
魏
紀
建
이며
譙
縣
##곱
煮
豆
燃
漉
以
為
汁
在
釜
下
然
泣
本
相
煎
何
急
七
步
之
詩
才
銅
雀
臺
賦
登
憂
愁
##잠
沈
潛
贈
答
기준으로
##눌
前
期
白
馬
篇
遊
俠
志
趣
野
田
黃
諸
侯
##핍
##잘
［
蓬
］
洛
神
水
213
그들의
있으나
##란드
얀
##옌
##딕
https
yn
AK
##R
##17
##100
##01
1836
##랴
Antônio
Sousa
Net
##to
1845
폰
1992년
이탈리아
도시
##성되어
姜
;
青
嗣
た
##け
##だ
せ
##い
##じ
이름은
正
秀
胤
##모토
꽃
1966
##55
峰
雄
##헤
つ
##か
##こ
##う
##へ
1971
붉
1982년
츠
86
‧
##28
1990년
##쥬
잦
인구
인구는
면적은
543
km2
랴
°C
1895
1898
개의
1899
1500
岛
迹
威
卫
市
第
支
军
师
创
地
1988년
刘
山
头
최초의
##26
##km
838
##℃
776
##mm
독일의
##쪽으로
옌
##팡
르
113
##m
730
km
일반적으로
훨
GDP
528
774
1984년
km²
泽
小
珠
栈
桥
万
国
博
览
八
关
老
人
##츰
##궁
1000
##광역시
축구
牛
Hai
##niu
1994년
泰
均
KB
리그
kt
LG
##윈
FA
1981년
늑
##촬
1883
1958
시리즈
우승
듀
슈
32
캄
##넬
39
42
53
##탠
MLB
##스는
Dodgers
흑
MVP
1955
1607
1650
1964
庚
##인이다
사용한다
1993년
##홈
762
1954
56
##픽
벨
→
SB
AT
10000
106
910
NP
New
York
Gotham
Giants
1827
翔
月
宗
1875
造
紙
所
1861
1863
1864
1871
寧
1884
六
任
制
1893
315
316
##궤
疏
頭
##흘
##왜
斥
倭
倡
秉
式
營
將
泳
##핵
接
궐
懷
德
起
包
##솔
軍
宋
敬
259
칠
##IN
論
道
켄
펀
랜
컵
콜
덴
##쯤
##흙
1600
Mile
High
City
薰
洲
戊
鄕
聞
셸
1973
넌
1989년
##늬
##23
쾌
1989
1999
##2000
##깥
애니메이션
벚
へ
268
271
##프트
펫
숍
Pet
Shop
Boys
##성된
##팝
Electronic
Syn
##th
Pop
1915
齊
晩
岡
贊
朋
옥
放
歌
1936
骨
董
品
創
作
副
詞
系
1953
1957
1981
1961
1983
convert
##ible
링
Ca
##brio
##let
Open
Car
##늄
##탑
닫
1976
엘
last
America
Ta
##rga
top
900
머신
##PM
Fantastic
Plastic
Machine
鹿
屯
島
沙
붕
822
俄
輿
圖
1430
1860
1448
興
1880
勘
界
案
1890
1870
Chicago
White
Stock
##ings
하나이다
TD
Amer
##itra
##de
Joe
Rick
##ett
Thomas
116
763
1908
연속
Lo
##vab
##le
Loser
챔
North
Side
##rs
Lake
View
West
Addison
Street
1060
1873
1876
캡
Colts
Ans
s
3000
선수이다
##펀
Or
##pha
##ns
팅
Johnny
Ever
챈
잭
Jack
Taylor
Ed
Re
##ul
##bach
P
##fies
##ter
##val
Overall
K
##ling
말한다
Park
##rig
##ley
Field
Bill
Ve
##eck
Sr
double
Bills
AL
191
켈
309
##닛
Ga
##bby
Hart
##nett
Billy
Sia
##nis
뱅
##흑
론
1967
1968
##즌
1969
Ken
Holt
##zma
84
120
1977
래
##캠
NBC
경기에서
릭
##햄
싱
숀
Jerome
Walton
Dwight
Smith
93
NL
##펜
Will
Clark
Gary
##etti
90
183
##캐
79
96
##툴
##럿
젤
Ike
97
306
111
AA
맷
폴
Al
Br
##well
Mo
##ose
##c
##or
##mick
##G
##inni
##ty
##쑤
1928
##붓
190
176
Charlie
Grimm
Cliff
Ka
##ch
##line
184
165
Most
Use
##ful
ESPN
RI
##K
MO
##ND
##Y
YOU
MA
GR
##EA
PL
Bruce
Su
##tter
National
Association
힐
Glen
##allen
Hill
Wave
##land
Ave
Nicholson
1959
Roberto
Clemente
##more
Dave
King
##man
555
477
145
Jenkins
Mad
##du
##x
셔
shirt
1869
Red
Houston
Colt
1962
훔
1965
돔
##돔
1975
컬
싱글
1963
1665
291
NASA
Astro
##naut
NBA
725
793
151
104
Rainbow
Gut
313
##앗
Nolan
Ryan
Atlanta
jp
##g
250
##p
450
69
1983년
509
294
1995년
368
킬
##프리카
B
103
59
95
67
##왈
44
322
##겔
콤
107
탬
꼴
랭
2500
캔
2017
346
101
61
CNN
콕
##홀
톰
햄
헐
퀸
Jon
Bon
Jovi
John
Francis
##gio
##vi
Jr
Richie
Sam
##bora
David
Bryan
Ti
##co
Torres
Hugh
McDonald
Alec
Such
##lip
##per
##y
When
Wet
Keep
the
Faith
It
My
Life
Lost
Highway
왓
What
About
Now
발매
340
2600
UK
Music
Hall
of
Fame
Award
Merit
Song
##writer
Rock
and
Roll
Per
##fe
##TV
BS
i
刊
##붐
U
2A
##밭
mine
barrage
No
HMS
54
La
##비아
##40
##꿨
##꼽
973
602
718
횟
AP
##EC
철도
Quick
##sort
log
##텍
CPU
memory
51
divide
con
##quer
pi
##vot
index
##덱
list
Left
Right
##벗
x
##솟
##봇
function
quick
q
Ω
codice
Pascal
formula
void
##ort
int
ar
left
right
{
##wa
a
b
low
high
public
Private
Fun
Q
As
Long
Di
hold
Do
While
And
Loop
If
Then
End
Call
count
let
re
t
##l
##am
version
rest
def
partition
start
end
sort
Ar
##ray
Int
*
var
position
鍾
郁
Global
Drug
Facility
鏑
木
玲
린
Lyndon
Johnson
tropical
medical
center
Scientific
American
Partnership
to
Stop
TB
##F
by
##페인
TIME
}
WHO
SC
##I
World
Health
Report
Indo
Iranian
languages
속하는
기원전
##흐
Mall
##ory
Mai
Victor
##rim
Mu
##mmi
##es
Ancient
China
Mystery
Earl
##iest
Peoples
from
London
Thames
Hudson
ISBN
05
##룽
##융
DNA
뷔
Og
##ier
##his
##lain
Bus
##bec
##q
뷰
룬
Ari
##us
로마
un
##cial
원본
非
BC
e
u
FOX
##덜
##엣
Jolie
Hare
International
Airport
fast
##back
눌
Mau
##sole
灣
닉
##틸
프랑스의
Case
Anton
Operation
Tor
##op
sq
##oop
1718
##핑
##묻
엣
373
209
196
잇
펠
374
陽
##닭
Tv
##N
텔레비전
Fighter
Wind
梁
KC
슛
##쿼
##곽
sports
005
0001
##64
##52
023
##35
##200
##24
힙
1987년
탑
댄
TN
짱
OST
Yu
##cka
Squad
aka
##뱅
Movement
편곡
##ID
##엿
##뻐
랩
Fresh
Boyz
디지털
##띠
Sm
##okie
Just
Two
Us
Mercedes
Give
Me
JA
KBS2
득
伴
ちゃん
と
##ん
洙
NA
##VE
Seo
##ng
Soo
Kim
쿨
##넌
Flowers
for
al
##ger
##non
07
1724
뱀
OK
911
N
EX
럭
##펑
##옹
SF
##TB
##쿨
##잇
Co
##ats
##따
빽
MI
7일에
엠
엑
FIFA
월드컵
##녹
Over
OP
##PA
붓
립
Jump
##ing
khan
sk
cat
art
##91
##04
540
pt
##v
##댄
旭
NC
WBC
##꿈
239
359
##릎
397
350
244
##윙
517
227
202
##IA
cm
##졸
##멧
299
278
382
쇄
155
143
247
27일에
121
800
깎
388
갱
옵
AD
MK
503
389
109
OS
PS
##PO
##캡
1100
270
1200
125
440
166
74
1300
154
134
138
kb
##ase
##ball
396
red
##irect
false
230
563
529
##02
##82
30일에
##핀
370
212
324
248
246
189
286
511
385
In
Ay
##er
##콕
62
잉
몬
##DS
##CS
##컵
킴
젝
Power
##FM
##윗
Holy
##z
Project
룰
Bug
Bobby
##킴
Presents
Heart
Soul
##톨
##챔
Double
##뼈
께
Old
Vocal
##ist
777
FBI
##OW
##OD
琉
璃
畵
ガ
##ラス
##の
SG
Wanna
##be
故
THE
##ST
Be
3rd
Master
##piece
Sent
##iment
##al
Chor
##d
Friend
Gift
From
BY
Part
By
KM
##봄
Pre
##cious
君
だけ
##が
僕
帰
る
場
##NA
BE
둥
##IC
I
##IT
##H
Simon
##rf
##unk
##el
##카와
荒
路
1956
그녀의
Pi
##lon
Mary
Mono
##poly
##vento
Progressive
Who
Did
Pass
Go
Charles
Dar
##row
Panzer
Division
1945
acht
##ung
##pan
##zer
Ros
##law
##jas
##ma
##sha
##ts
##k
##앞
352
SS
##zy
##sko
##stra
##bro
##dnie
Wehrmacht
##u
na
je
##ńca
woj
##ennych
w
II
Wo
##jnie
Ś
##wia
##tow
##ej
##zym
Dat
##ner
Warszawa
##ES
紐
約
FC
MLS
Land
Joseph
Gordon
Highland
##ers
Yankees
Yan
##ks
Farrell
Dev
##ery
틸
롬
##므
샀
샹
##콧
Island
##렘
##첨
393
##Base
Reference
110
175
Jo
##lti
Les
Brown
Betty
Bonn
##ey
##aggio
##썩
##갚
델
280
Neu
Buck
Harris
킨
1951
Arnold
Fin
##덩
Ford
Fr
##ick
240
CBS
##꿀
Mel
Barber
870
Mike
Burke
##끓
캣
335
Free
Agency
Bronx
Zoo
Mr
October
댈
##½
Torre
260
##ighet
##ti
Luis
Tian
Bob
Lemon
Mur
##cer
Dick
How
##ser
Chris
Cham
##bli
##ss
Ce
##rone
Win
##field
Gene
Michael
Andy
Hawkins
Jim
Ley
##ritz
##ido
Perez
Pascual
Fay
Vincent
144
Cl
##uele
Watson
Brian
Cash
114
Subway
Series
땄
Cory
Li
##dle
CC
11일에
289
422
512
090
696
Freddy
Se
Sc
##hum
##an
##굉
孝
靈
帝
劉
宏
156
章
解
瀆
亭
竇
武
膺
清
流
濁
渤
179
球
181
奐
段
規
商
##윽
熹
平
経
177
画
鴻
門
学
賢
良
師
##렴
苛
斂
誅
求
樊
陵
嵩
西
園
尉
刺
辯
霊
##흉
雲
229
眞
定
卒
伯
話
槍
術
飛
207
糜
婦
牙
将
劍
211
翊
219
肝
덩
虎
護
征
鎮
斜
谷
##눠
261
爪
盆
唐
픽
맑
##22
##43
Spot
##light
Shows
Lives
Reporter
Korea
Times
May
##45
##뤘
Son
Ye
jin
Ko
Bring
Romance
##싹
518
866
##51
560
tvN
##드라마
DC
160
kg
##킷
챌
첼
subsidiary
units
Army
Group
##US
##AG
fi
##cti
##tio
force
SH
##EF
##셀
1544
惟
1610
僧
應
離
幻
松
泗
溟
峯
慈
通
弘
尊
者
守
汝
獻
事
默
尙
禪
奧
1561
菴
荷
湖
1575
沃
鑑
蘭
若
1592
훼
1594
摠
兵
退
俗
烏
印
1597
架
善
知
樞
1604
3500
嘉
御
酬
忠
祠
碑
葛
洪
283
343
晉
煉
丹
家
稚
抱
丞
司
徒
關
內
諮
議
句
漏
令
廣
兪
奇
濬
##18
1807
1803
1800
281
ON
##OX
哲
萬
初
##TM
Deutsche
Tour
##en
##wagen
Meisterschaft
Touring
Championship
IT
刀
찔
服
具
級
##캔
##ht
category
ml
##b
c
mod
office
049
article
##71
003
1874
1889
왈
Hit
##less
Wonder
Black
Sox
Un
##lu
##cky
Eight
Say
it
ai
so
jo
넬
94
##깃
317
128
502
328
117
##38
015
##57
451
mk
php
no
1410
year
2014
#
r
##cto
##ken
650
##41
forces
##ecu
##re
174
star
m
st
##view
type
out
##link
279
439
1412
Boston
Eno
##lau
##ghter
ma
das
##h
Carlton
Fi
##sk
home
run
error
Media
Rojas
흰
Cap
Braves
##ians
Americans
League
##싯
Somerset
Plymouth
Rocks
Bean
##eat
Collins
##ites
##lg
Bo
##ox
Chi
Pa
##w
Saw
Baseball
Club
Fe
##way
Huntington
Avenue
Ground
##앵
456
760
067
495
RE
SO
##럭
304
Come
Away
with
分
析
Principal
component
analysis
PC
벡
뢰
Kar
##hun
##ève
transform
Sing
##ular
Value
Dec
##om
##position
SV
Gol
##ub
Van
Loan
Ei
##gen
EV
##oll
##iff
Com
##ponent
Analysis
Springer
Statistics
2nd
ed
NY
XXI
487
ill
##rt
Young
Har
Schmidt
Mir
##sky
Sir
##ovich
Lorenz
Brooks
Karl
Pearson
Harold
Hotel
complex
statistical
variables
into
principal
components
Journal
Educational
Psychology
417
441
498
520
Relations
between
two
sets
varia
##tes
Bio
##metri
##ka
Shaw
Multi
##vari
##ate
statistics
Environmental
Sciences
Ho
##dder
subsp
##ace
k
XX
##form
##ula
##벡
⋅
−
괄
##댓
×
##셋
Λ
λ
보존된
or
Σ
σ
On
Lines
Plan
Close
##st
Systems
Points
Space
space
Line
##ar
Disc
##rimi
##nant
##lier
Le
##znik
To
##fall
##is
##hra
her
ac
uk
bits
##tream
handle
715
pdf
Esti
##mati
##ant
Using
Dia
##gonal
Reg
##ression
##onat
##hon
##hlen
Tu
##torial
Lin
##sker
mutual
information
ii
Tech
Note
낫
##빼
Miranda
Borg
##ne
##tem
##pi
Route
Mini
##mal
App
##rox
##imation
Er
##ror
Volume
Number
June
##ral
Processing
Letters
d
##IP
##AL
Non
linear
##erat
##ive
partial
least
square
E1
GS
##밍
Hus
##son
Lê
##ès
Spike
tri
##ggere
##ance
100m
ensemble
prior
##imu
##lus
sorti
##imo
##thy
Con
##firma
##tory
Factor
Applied
Research
Method
##ology
social
sciences
##uil
##ford
Press
Cor
##res
##pon
##dence
Jean
Paul
Benz
##éc
##ri
Conti
##ngen
##cy
table
Det
##rende
correspondence
Canon
##ical
Multiple
##rba
Ke
##gl
Wunsch
Zi
##nov
##yev
Eds
Mani
##fold
Data
Visual
##isation
Dimension
##uction
##SE
Berlin
Heidelberg
뼈
##맵
Eles
##tic
map
ge
##odes
##ic
positive
##inite
MP
##CA
way
Tucker
##RA
##FA
ST
##AT
DI
##알
Spa
##rse
℃
5°
780
##뮬
CA
##RT
BBC
CN
##뚝
Blue
Jay
GM
現
91
##GM
metros
##eo
##60
꾀
##켄
宦
1449
騰
族
宮
刑
269
싼
솜
##뜬
Im
##ola
San
Marino
Grand
Prix
421
##무라
z
##bek
##iston
AF
pu
پول
ISO
ama
##ni
Krause
Chester
Clifford
Mis
##hler
1801
18th
Publications
Schule
Kurt
Table
Modern
Monetary
History
Asia
Tak
##har
province
##쫓
랍
USD
640
½
##켈
5000
Anwar
Ha
Ah
##adi
貨
1298
افغانستان
af
##γ
##ān
Norman
##cev
430
작사
##VV
##U
##Z
##EP
##pel
Any
##cal
Ceci
##SM
##OP
##UL
##OCK
Samsung
##OL
MSN
POP
Japan
Galaxy
記
826
竪
weekly
cho
##sun
site
data
dir
##97
##컫
僚
掖
庭
局
##27
1466
140
Hermann
Heller
Rechts
##staat
oder
##ktat
##ur
soziale
Hof
##ge
##isma
##rer
Kreis
Staat
##sle
##hre
Got
##hia
505
gut
##iska
raz
##da
628
277
갤
##륨
##칩
떼
AU
St
Mann
##licher
NATO
A1
designated
marks
rifle
룩
##셈
SAS
M4
Sturm
##wehr
HB
##AR
Scout
Rangers
Special
Service
Groups
Security
Force
AR
M1
##85
FN
HK
IM
##MA
SI
##dina
##nce
Corps
SM
##dna
##dn
Bhd
##au
A3
##갓
##딧
似
##もの
ス
##ター
ユ
##ン
・
ソ
##ナ
##と
##ユ
Cho
Online
エ
##タ
##メ
##コ
##リア
質
1705
1776
齋
遺
稿
1753
高
夢
象
1727
1799
Schumacher
F1
ID
Super
##bik
헝
##GP
GP
랄
Ralf
express
sport
f
auto
##sport
1177
health
update
Matilde
Leonard
##cm
452
379
167
無
渡
玉
引
晋
豹
今
注
曲
琴
操
怪
物
1237
836
Magnolia
Home
Entertainment
HD
##맷
調
達
廳
EC
經
企
劃
Economic
Planning
Board
EP
편성
셈
財
務
部
Ministry
Finance
Economy
消
滅
危
機
言
l
hot
Pain
##in
##OT
휩
祐
赫
CR
##TI
More
Drama
Fl
##ip
Rev
##erse
Sun
Hot
富
驪
叔
農
僉
舍
孺
72
1822
캅
밍
Graham
Edward
##worth
Vi
##vien
Law
pages
Ab
##rah
Alexei
##vere
Ethnic
Conflict
Caucasus
Barth
##old
Minor
Georgian
State
summary
George
An
##cha
##bad
##ze
##rb
Ina
##pa
##ata
Za
##kare
##ish
##vili
editors
##pects
Cultural
##nu
##ity
Conte
##xt
##building
August
736
770
므
786
##덟
850
950
872
873
878
879
908
898
899
916
917
960
##gris
##zeti
Ime
##reti
part
969
976
##캅
1040
1071
1099
112
Rap
481
484
1770
1816
##hy
##ming
we
##aver
Bar
Ball
##car
##ry
Ulster
Weaver
Robert
Burns
Hewitt
1791
1802
##kt
##ória
##há
##csi
1994
醫
兄
弟
池
壽
亨
乙
錫
運
1882
保
貫
冠
鏡
湧
适
溪
繼
催
腸
得
溺
體
育
容
合
歡
酒
姓
母
瑞
復
重
329
447
##뤼
Abdul
Ras
##ya
##f
KS
149
Itt
##ih
##ad
Islam
Bara
yi
Az
Islamic
Union
Liberation
Afghanistan
1478
1535
1529
1532
1516
Ut
##opia
틴
1504
1510
1518
1517
1521
1523
1525
1505
1515
≪
≫
1502
맏
1509
##떤
율
1527
칙
1530
1531
1533
1534
RC
1499
（
）
單
說
mono
Phys
単
説
453
Leo
##avia
##nus
449
Dios
##cor
助
祭
##laria
Robb
Council
##phe
##sus
Marcia
Therefore
whilst
also
stand
decisions
relating
cree
sacred
syn
##od
which
took
place
formerly
at
whose
leaders
most
holy
were
Cele
##stin
Rome
Cyril
Alexandria
papal
##ency
##clic
##als
net
council
##cum
콥
Cal
##edo
Church
nic
##kel
ca
##mium
battery
Ni
##clo
##alkan
##he
##xan
述
熙
希
875
945
節
惠
毅
宜
羅
璿
源
譜
匡
935
943
訓
十
條
##곶
廟
ket
##one
R2
耽
1404
牟
涉
胡
夷
傳
又
有
玄
衫
918
919
吏
兼
徇
律
郞
936
994
995
##pir
mg
1763
##rmon
##uc
##lea
Experimental
##act
##ER
##ET
2025
203
204
IV
氣
壓
mm
##헬
##abteilung
SA
뉘
##첸
代
父
뮌
##헨
##벅
힌
슐
時
Anschluss
뚱
Reich
##sma
##chall
des
Gross
##deutschen
Rei
he
##뛰
##슐
等
1862
1849
Bach
Khan
##dran
Pac
##ha
팍
1A
CG
1855
1877
Harvard
School
Early
Legal
##ditions
CIA
##hor
##oen
võ
##rok
##õ
##야마
국도
JR
##쿄
784
794
##릉
House
Chip
Chemical
Brothers
Tom
Rowland
Simons
Dust
Her
Sea
Beats
Must
##rum
##ble
Roller
##coa
##ster
Let
##lide
Baby
Naked
Under
Lea
##ther
Leave
Your
Own
Hole
믹
Mix
Ele
##ro
##bank
##sy
##ched
##eli
Set
##ting
Think
Mercury
Delta
Bot
##tlen
Brother
Gonna
Work
Out
Rene
##gade
Sound
##wave
Meat
Beat
##festo
Kenny
##pe
##nza
##les
Hey
Boy
Girl
With
Guitar
##셸
Bou
Xbox
툼
##ush
Button
Gal
##vani
iTunes
Believe
Ал
##аг
##и
##́
##р
TBS
##역이다
00
##멤
В
##их
##оре
##вка
Touch
죠
愚
갚
##탭
##58
NTV
TOP
Miss
Lonely
Yesterday
##OS
##AD
##철도
IC
允
卿
雙
Philip
Jason
堤
仙
皮
Os
##ia
聲
1879
館
갇
權
監
悌
夔
業
箕
春
衡
雨
養
042
1872
童
蒙
習
絲
1878
試
殿
講
奭
1644
1715
1722
1788
差
鉉
契
導
敏
塾
##bin
output
##fr
柔
干
材
鍊
村
旨
圭
貞
種
夏
鎬
邊
樹
辻
勝
千
歲
丸
敵
斗
ki
327
廷
Wells
##llen
##beck
Wilkes
Barre
Harry
Academy
Ja
##iso
Columbia
##cora
Lafayette
##닦
Doctor
Garfield
Hospital
Muriel
Armstrong
Buchanan
Stephanie
法
外
辦
禽
獸
##hm
##yne
##ws
##WS
Web
pg
aspx
##000
##48
進
着
眼
含
卷
煙
稱
負
手
而
出
獨
問
Independent
06
補
員
朱
顧
Gen
##dre
禮
Great
##house
柏
卓
##ea
##vy
典
委
##푼
迎
峴
底
洞
330
奴
婢
度
喬
絶
影
貴
1537
Che
##nut
street
됨
Evening
Led
First
Korean
Congress
Friends
Review
Floyd
##kins
由
處
466
sv
content
cont
Information
Bureau
Appeal
##떼
##줌
柳
il
Han
han
577
##ean
①
1997
홉
튼
360
탔
굿
old
649
##휴
157
365
158
929
159
勉
益
252
284
406
깔
##뭉
盲
##chan
##dra
##홉
卑
不
1998
于
UN
넷
##ㆍ
쭉
fel
##ds
##par
g
##눈
##슘
KA
Na
微
可
能
多
樣
座
標
近
傍
脈
Chang
##bai
Mountains
別
HC
context
aware
computing
##쓴
Georgia
Institute
Technology
공립
System
Ángel
Cabrera
530
Em
Savannah
Ivan
Liberal
Arts
2018
Metz
At
##hlon
1400
뮬
NCAA
Commission
##reng
##the
##ning
Peace
Stab
##ility
AC
##FS
##PS
##RI
Guangzhou
Canton
434
羊
花
穗
百
越
番
禺
佗
交
1841
##슭
Fair
江
门
肇
庆
韶
汕
茂
口
湛
1736
218
821
1203
812
1189
659
##AC
##빅
GA
##HC
华
街
镇
구간
677
CB
粤
剧
广
东
料
理
菜
柠
鸡
炸
云
吞
麵
足
俱
乐
media
dau
soccer
league
breaking
##eid
Sp
##o
AFC
工
暨
方
医
范
语
贸
农
业
##gha
She
##rza
Mohammad
Sha
##fiq
IS
Yusuf
Pas
##un
Kitty
Hawk
991
總
聯
##sh
##rano
Ji
##샬
ان
ش
##اء
الله
##옵
##hall
##ah
Religious
##vo
##cations
Arabic
topic
transition
##jal
##á
##xa
##lá
Hip
##po
##bos
##cidae
cam
kam
暗
依
存
str
##oma
ATP
##DP
Calvin
cycle
bio
##thetic
phase
photos
##ynt
##het
carbon
reduction
PCR
뒀
C3
C4
Biochemistry
Chapter
Cycle
Pen
##tos
Ph
##osphate
Path
Jeremy
Berg
Ty
##mo
##cz
##ko
Lu
##bert
FR
##EE
##NY
C2
Bass
##ham
Melvin
James
Andrew
Benson
pH
##cera
##lde
ph
##organic
덤
BK
##탐
1700
830
624
Meister
795
님
468
668
855
538
837
825
Ito
##gi
##sero
##ssi
##jskoj
per
##ep
##isi
nas
##elen
##ija
god
Kaliningrad
##ska
##ja
oblast
Band
Tabelle
1325
##ß
##isch
##yla
1765
1812
##즐
Roman
##az
Ba
##grat
##ioni
1782
1792
1794
1805
1808
1809
톨
312
돗
夫
##시마
1980
427
##⅓
904
en
UTC
IP
死
gen
##ocide
К
##ула
##к
391
383
ru
Treaty
Portsmouth
猪
狭
露
戦
争
に
した
##늑
血
淚
樓
Eric
Wenn
##holm
Johannes
von
We
##lc
##ck
7000
193
警
察
댓
698
五
翼
1457
墓
綏
嬪
異
續
儀
喪
編
낱
Kaiserslautern
GNU
GC
Front
org
Retrieved
November
Mod
##HD
##MP
##fort
##ran
##IL
##cc
patch
ms
##TC
Remo
##ve
chi
##ll
July
UP
FS
##j
boot
##눅
CF
Soccer
##oos
2022
뤄
ti
CV
strike
##CO
Hun
##min
Chong
Manu
##sc
##ript
Memory
Programme
Object
##ives
##jong
Liter
##acy
Prize
Day
UNESCO
##fu
##cius
Reading
IRA
##웹
320
130
148
smoke
fog
vo
半
旗
AG
楊
642
644
645
丈
果
傅
伏
演
孟
餘
冬
序
汀
集
漫
Ⅰ
vol
堯
佐
牧
藁
觀
吟
楡
圓
測
613
雅
627
常
辨
唯
識
奬
664
牒
寶
窺
深
密
毘
曇
實
譯
676
乘
顯
證
693
菩
提
695
叉
難
陀
闐
授
룽
香
google
maps
Xi
##ang
##shan
##si
@
552
478
##aa
##xe
##af
##f6
##ong
##men
Mountain
##34
549
486
##ff
553
479
hl
ko
豊
曠
敦
煌
惶
周
塔
銘
他
692
逕
版
判
管
닷
밭
欽
則
呂
幹
鎔
鐸
禎
contents
do
quer
戴
禹
##OK
386
WWW
##훼
遍
歷
387
떤
閑
居
爲
Cu
Cerambycidae
맵
##컷
잎
##bata
Petra
He
##gra
##ada
Sal
##zne
ال
##خ
##زن
##ة
Even
##ari
But
but
멧
1833
519
1813
##큘
Pe
##acht
##ree
Standing
Pit
##ach
1823
1835
1837
뻗
##쪽으로는
1828
1838
head
Head
##head
1842
럼
량
1847
1846
1848
1854
1867
1868
Centers
Disease
Control
Prevention
CDC
Gone
wind
Fortune
Ci
##ngu
##lar
Wireless
Depot
##atur
NFL
WNBA
Aqua
##rium
Bernie
Marcus
Arthur
##lank
Ron
Brill
Pat
Big
Trading
room
Exchange
Place
Historic
Landmark
Survey
retrieved
trading
Hybrid
Market
human
interaction
fully
electronic
post
auction
##mit
base
value
points
670
1366
seats
533
625
Arch
##ipelago
券
去
來
Office
##ax
Hu
##witz
Feuer
Circuit
Best
Buy
Inc
Bernard
Henry
Kr
##oge
딜
Dillon
Fred
609
##tail
Pub
##li
店
Department
Store
Ware
##nha
##use
##텀
##ky
app
CEO
弗
forward
474
##86
Jurassic
Shark
##cin
Donnell
Discovery
Channel
닝
##°
##rgu
##ani
Moll
##et
Page
Af
##fil
##iate
Moss
Landing
Marine
Labor
##atories
##힙
Alice
Tri
##xie
Ralph
Norton
쯤
##ulations
##hale
fishing
ban
sh
##ark
Resort
considering
alternatives
exhibit
One
Travel
Animal
welfare
groups
oppose
Singapore
casino
News
Limited
Hand
##werk
Sharks
Kill
##ed
Dis
##placed
Gulf
Oil
Geographic
cite
Cá
Ông
##andi
bal
##ilan
Ocean
Ambassador
##oce
확인함
鮫
魚
鯊
##lach
##rp
Am
##pul
##lae
##ini
藻
1820
1818
1819
##탓
1853
1856
1858
直
心
翁
巳
凶
賣
討
件
署
臨
펑
##톈
連
宇
顒
杞
郭
394
幼
請
斬
賊
互
凌
鼓
租
361
告
195
景
虔
碧
只
○
港
탱
##ube
Goldberg
聖
咸
取
履
波
遣
隊
柱
索
옴
178
OM
070
541
052
124
859
Город
##ский
Округ
район
М
##уни
##ци
##пал
##ьный
NE
SE
툴
SW
MSK
030
옐
Helene
Berta
Amalie
Len
##ief
##ens
##tah
##hei
##nz
##hausen
쾰
Kontakt
##뫼
##탱
##ntra
Punkte
Die
Reihe
Moment
Can
Licht
퀴
##돗
Om
##olog
##ation
kaki
곶
柿
饼
hồng
khô
脆
##잎
##ür
##ke
Louis
Maximilian
Engl
Heinrich
Gustav
Adolf
Pr
Eugen
Nat
##ürlich
Pflanzen
##familien
Eu
##cle
##py
##ros
##욤
lot
楽
AN
革
裂
肉
毬
鱗
##껍
食
빵
333
334
샐
닭
##걀
##TO
142
206
420
782
783
539
쿡
771
791
젖
356
얇
##밥
##썰
787
224
656
쉐
660
661
496
Factbook
쿼
##셰
Marketing
Nu
##trition
farmer
share
food
dollar
after
paying
input
costs
has
##ead
##ily
declined
about
percent
less
than
Food
prices
rising
across
world
March
Trends
Production
##sum
##ption
Effect
IB
##W
##ld
353
372
##CP
##pen
##bou
Twin
##ject
Mind
Eat
Why
Than
245
231
464
콰
187
Public
Sector
空
Air
겔
Block
##BU
2030
##ME
TA
##IF
VIP
747
737
VC
BA
748
RF
205
412
AS
UC
##AV
펙
軌
411
1601
懿
后
殯
魂
覽
用
庫
1866
閣
封
妃
冊
模
程
․
般
蜜
尼
誦
賓
末
癸
亥
丁
胎
室
欄
改
##쏘
蠶
班
奏
匠
賞
##숫
黑
檀
##bon
祖
覇
솟
超
傑
奸
惇
騎
潁
遂
酸
棗
邈
虞
堅
荀
彧
矯
布
殺
兗
岱
巾
擊
於
。
鮑
婁
表
瓚
陶
194
##뚜
備
197
宛
繡
韋
198
車
胄
羽
##밑
顔
醜
冒
頓
琮
210
흙
賈
詡
丕
樂
短
龜
雖
##높
핍
毛
沫
雜
##륵
視
鞭
撻
害
鞅
策
情
算
禦
後
勒
##꾀
杜
棟
伊
霍
惡
줌
##쉐
側
740
넛
Cola
niti
acum
##inata
cu
##cu
##zza
얕
漿
Ⅱ
Ⅲ
켜
女
fiction
隋
秦
辟
雍
舜
庠
、
1390
1392
孜
每
陪
啓
819
903
578
汴
605
907
923
947
951
1279
982
1234
1157
1214
1368
1642
寨
1662
1843
##샹
460
区
县
陇
铁
1735
峡
댐
1599
1658
튜
1482
1479
1628
Iron
##sides
1645
1648
1649
1653
1651
1641
1656
natural
1643
퀘
1655
Confederation
Ki
##lken
##ny
Dr
##ogh
##eda
Fox
will
fa
##ls
##ification
evidence
Encyclopædia
Britannica
notes
that
work
is
fact
##ually
detailed
preserve
much
first
##hand
material
Reformation
uno
##bt
##aina
elsewhere
was
typical
however
late
nineteenth
early
decades
twentieth
centuries
treat
text
as
not
be
trust
father
lies
thought
master
invention
readers
Encyclopedia
sic
advised
war
##ned
plantation
1654
iris
##centra
roots
history
olive
##rom
massacre
drog
##hed
God
our
Hum
Ser
##vant
Mars
##ton
Moore
Model
1660
1661
諫
##nst
##rance
1640
1625
##ym
Ham
##den
##tea
##떡
APG
##ron
##quist
Acer
palm
##atum
띤
mat
##ura
Ma
##kin
Mal
##é
屬
Linnaeus
Carl
Species
Plant
##arum
##멜
Swing
system
Tanaka
##trina
primitive
cit
##rus
near
true
##cit
##trus
Pape
##ici
Lim
##llus
##unti
##tro
##ph
##orum
##loc
##it
Meta
##se
##udo
##une
##lla
芸
Jussi
##eu
Antoine
Laurent
Genera
296
1789
Ruta
Aur
##anti
##oidea
##lio
##idea
##uto
Todd
##ali
##inder
##sio
Amy
##rido
##neo
##roi
##dea
Hy
##dro
##cot
##yle
Cent
##ella
Chandler
Pl
##꼴
Pan
##뿌
浸
侵
1489
救
簡
易
諺
乞
Cook
##ye
Tang
gi
##nsen
1795
##ins
##eng
ins
닌
草
翰
苑
頂
兢
宣
使
紅
藥
貢
799
珣
謁
##램
굵
467
劑
132
腺
AIDS
HIV
sap
##onin
##osi
##des
OH
476
qui
##nque
##fo
##lius
noto
##gin
##sen
##rki
PT
ole
##anan
Ra
細
胞
plu
##rip
##oten
cell
line
em
##bry
##onic
stem
cells
adult
##uri
##pot
##ent
##em
Cell
Different
##iation
capacity
Tot
##ipo
##ten
췌
Bi
Uni
##ps
gene
therapy
virus
self
ren
##ew
um
##bili
cor
bone
mar
##roma
le
##uko
##dy
##stro
##yl
##sul
##fat
Raffaele
Luigi
##ldi
Lan
##tivi
##hera
blood
ary
##uf
##atas
Alles
##san
##ffi
hem
##ato
##ieti
benefits
meta
Science
341
614
linked
Ad
##ren
##ole
very
long
chain
fat
acid
Williams
binding
cassette
transporte
Florian
##ler
##mat
##oi
##eti
Therapy
##bral
England
Medicine
377
1630
1638
graf
versus
host
disease
##PR
CAS
##han
##hu
Ou
2016
##bination
Technologies
Human
β
tha
##lasse
##mia
Mi
##ce
Reports
off
effect
gli
##ngt
##NS
induced
death
receptor
TR
##mor
Ne
##cro
##sis
Related
##pop
##duc
Liga
##nd
Juli
##gó
##rap
##tical
engineer
neu
are
tu
##mou
homi
##hib
progression
##ob
##last
Nature
Communications
Hope
Medical
Center
Karen
##ood
enzyme
pro
##dru
fl
##uo
##roc
##yt
dea
##minas
##rou
##rac
##il
ret
##rov
##iru
grade
Jana
Port
##now
Based
Anti
##can
Study
Rec
##urre
##nt
Grade
Gli
##ients
Clinical
Cancer
295
mese
##nch
rege
##nera
##tive
medicine
Kei
Oz
##awa
##yos
##uke
##chi
##bori
using
doi
1007
014
##또
HS
##lono
##geni
ass
##ay
Surface
Marke
vitro
model
bl
##asto
##sts
038
##뮌
伍
豪
少
觉
悟
社
勤
俭
鄧
穎
鵬
動
製
拔
萃
163
##99
compound
沼
驛
##tion
Environment
##up
LAN
Boot
Rom
客
衛
瑀
沆
衍
1270
1209
郊
歸
1225
私
邸
昇
降
免
移
銓
色
題
仕
－
積
柴
賜
邑
牌
寄
投
託
占
奪
療
土
佃
戶
輸
##웬
Twenty
Questions
려
##붉
6000
##Wh
##낱
Pueblo
##ident
USS
127
°
nego
##tia
power
％
拜
誓
郎
463
屆
數
陛
炳
314
465
卜
303
305
舊
647
##bc
拍
Ses
ind
##icum
##illa
fr
##utes
##cens
油
麻
脂
芝
荏
苣
巨
##ris
USB
Coffee
Cambridge
Spiegel
Happy
Birthday
##og
##cam
##jul
Ela
Golden
Gate
XP
##ress
September
텔
Pasha
TM
##V
Alaska
Peninsula
벵
797
崑
Paz
Organización
territorial
México
Estado
municipios
dele
##ga
##ciones
438
##lapa
##ala
Mérida
Mer
##ida
Península
Baja
California
1250
##²
Sang
##FL
泉
582
631
욘
健
煕
•
380
Oct
Chief
Custom
Officer
392
472
濫
獲
##콰
漁
撈
沮
止
拿
捕
瀬
戸
郡
箇
See
701
△
抗
爭
bu
go
sub
##page
yon
##pne
ci
001
arti
society
area
##äm
##een
##ö
El
##ämä
ja
aur
##inko
##rska
kur
##ju
Nuo
##rena
nuk
##kun
##ut
##hmi
##sel
ih
##anu
Po
##ika
eli
el
##ämään
##sä
Kerr
ku
##vai
##len
##äi
##vä
Kore
##kei
##mmillaan
Dann
##eb
##rog
1219
Linda
Ε
ε
α
##ι
ψ
##ιλ
##όν
Semi
alphabet
Northwest
ab
##jad
割
United
Nations
General
Assembly
Resolution
638
Committee
Palestine
##SC
419
Amar
1557
兩
flag
##sp
##ot
col
Kingdom
colour
Colour
Flags
Of
website
1603
1606
1634
1707
짙
1282
1542
##chiff
VII
726
790
kn
753
630
123
##rata
##egu
pin
##nati
##fida
뾰
psi
##losa
Schneider
major
BR
##빽
pub
##escens
##kai
査
糖
蘆
engineering
phi
##shing
private
##rea
##king
voice
1336
板
橋
Coleoptera
蟲
Dy
##nast
##inae
假
##뿔
terms
entry
744
##숲
##KA
료
MY
##ON
##EL
は
##ま
##り
##は
##つ
##も
##HI
Timur
1281
阿
斯
壤
164
1286
1811
323
1778
否
附
辰
岳
1317
未
溥
撰
是
也
徙
至
葉
照
毗
480
482
485
497
蘿
488
489
493
##찔
井
避
射
匣
【
】
午
忌
怛
誕
乃
宿
格
聘
駐
Foot
燧
##ci
Lawrence
Lowell
EM
##BA
##SS
##OM
Eaton
畜
驗
Theological
Seminary
##lbe
Bunker
Gilmore
##uche
Smithsonian
Institution
藩
ノ
庄
領
1598
1608
1614
1616
1618
彰
742
森
429
513
##NP
∙
858
랑
딥
背
卦
708
705
量
純
皐
崎
藤
珪
錦
好
瀛
環
略
119
禧
産
巡
左
岐
岩
淺
逸
稙
勸
隣
1465
靜
pressi
asp
num
601
Section
448
麟
加
增
特
赦
詔
勅
宰
讓
位
維
友
著
彗
輪
OECD
盧
與
##TA
槿
寅
遇
楣
尋
譏
沿
衙
右
拒
素
恨
##ō
nom
nombre
common
nou
abstract
##cret
Count
##able
##cou
##nta
Collective
non
##썬
Python
Guido
van
Ross
dynamic
##ally
Monty
Flying
Circus
##yth
typ
##듈
##lue
language
##te
code
##type
##IG
##yre
##IO
Programming
Community
Index
Monthly
PHP
CW
Colle
##ctor
문서에서
ACM
PE
##IM
##TD
there
more
one
Battery
##lude
XML
HTTP
##TP
CS
HTML
##llo
SD
##ame
So
Pack
##ages
rep
factor
##ial
iOS
##LE
shell
CL
##UI
Unix
##cs
Joy
TC
command
completion
##bbe
1588
1679
Vic
##mes
##bury
school
Magda
1629
1631
physics
Giorgio
Vasa
1511
1574
Arezzo
1524
1550
1568
più
ecc
##ellen
pit
##tori
##cul
architetto
##inent
##ters
##ptor
Architects
Rin
##as
##cimento
Renaissance
Vita
De
##cce
##itet
Pitt
##ori
Palazzo
Vecchio
Duca
palace
KK
circle
Ku
##lux
##klos
κ
##ύ
##κ
##λος
clan
Klan
colonel
UA
544
741
1192
1333
1467
461
붐
869
奈
827
##옴
GMT
##UT
TU
Standards
##quent
asked
questions
FAQ
閏
秒
franco
##phone
stat
census
recensement
sa
fra
cf
anglo
1840
René
##éves
##que
Chr
##ét
##ien
546
131
237
##윌
877
康
諡
睿
穆
勇
嶽
896
906
909
927
敞
926
隆
延
桐
裏
鵠
嶺
命
僖
肅
895
弓
裔
精
槐
粲
忍
恤
912
浦
灘
437
913
袍
905
##뚫
930
920
924
925
934
壯
931
932
想
戒
誡
940
遮
942
##hd
휠
쉴
##2010
board
##bo
nid
訴
MB
242
Sports
##oul
free
##chal
##iewe
1689
##rch
play
##time
##os
##oki
h
##2011
VS
tv
SMA
##SH
##삿
##tub
핫
램
▲
369
182
consumer
##news
##GO
Inn
Pont
##ifica
Anthem
its
##ificio
la
sua
storia
Italian
national
ant
##hem
inn
nazionale
hy
##mn
over
##tones
quite
different
those
single
piece
music
names
Papa
distinct
pieces
would
referred
Antonio
Alle
Text
##ffa
##ello
##va
##gna
徑
簿
襲
從
芬
紹
執
鏞
汶
##bs
##mb
section
823
##끊
vs
issue
Politics
politics
assembly
424
##bn
##ie
se
biz
##ald
010
##tn
##cente
025
##llet
##mh
##tt
joins
競
選
｜
325
847
706
846
巴
鮎
貝
828
835
感
840
841
845
851
二
罷
其
汾
ㆍ
淮
祁
奚
荣
888
珍
1347
台
861
殊
739
Trade
ships
藝
陸
斐
晴
濃
杉
駿
遠
火
翠
当
繁
1538
条
頼
1536
輝
町
幕
賀
1541
垣
甘
飯
諏
訪
笠
継
沢
1543
窪
1545
与
1547
い
1548
湯
温
塩
尻
峠
弦
砥
崩
れ
横
1551
真
幸
綱
1553
尾
広
1554
1555
曽
1556
向
揆
1559
角
枝
1564
盛
1566
1560
織
桶
間
1565
1567
徳
荻
誉
삿
薩
垂
1569
穴
蔵
増
1570
昭
1571
騨
姫
1572
秋
県
来
各
浅
倉
願
坂
俣
浜
ヶ
1573
篠
駒
恵
碁
快
喜
読
売
テレビ
斎
内
禰
寮
1578
栖
揚
蒲
住
職
栃
実
傘
黒
滝
1546
鳥
資
梨
賴
홋
発
桃
1552
彈
庵
埴
幡
施
虚
盃
堺
徹
岫
벳
當
栗
鶴
寿
犀
裾
熊
鼻
巌
髻
1558
亂
裡
舘
椎
那
厩
縄
須
蓮
칩
鎌
萩
総
駄
妻
両
状
1562
1563
関
付
簗
尚
久
臼
淨
顕
1576
如
畠
続
1577
々
米
その
歴
が
いた
1669
キ
##ッ
##ー
##マン
株
会
circuit
pre
##fect
##ure
Galilei
Lucius
Anna
##eus
Seneca
##sola
Sex
##tus
##rani
Burr
##grip
##pina
Younger
446
震
667
遼
1804
溫
兎
殘
失
普
墟
1834
1851
闕
誌
籍
藏
癖
蒐
讀
沒
1815
變
階
Boo
考
investigation
laws
founded
mathematical
theories
logic
##babil
##ities
勞
UAE
岸
Pirate
Coast
Arab
Emirates
Federal
Supreme
Ministers
consulta
##rant
del
##icate
Secretaria
Secretary
Not
Southern
Transit
##ional
電
EK
##jee
Th
##obe
1432
1437
##앱
DS
551
NG
temple
885
881
621
028
410
Outlook
607
Roads
Transport
Authority
RT
MAN
Palm
Islands
AE
ER
耶
##WN
릉
047
##몫
纜
136
CK
808
681
988
820
亦
乎
285
ATM
##quire
veri
##tate
ex
pra
170
TO
PB
Start
Deutsch
DE
JP
Auto
Core
AB
RA
492
Bell
063
615
251
405
779
BT
273
712
##nku
Univ
named
president
395
GL
##OC
Identity
US
788
DR
##NK
앱
961
首
楞
##UD
Ky
##ok
Library
##ument
##trie
##lob
Summer
Graduate
Scholar
##ship
##ING
##챌
455
548
1382
##GB
CT
1493
937
413
719
523
EU
390
710
##Ⅱ
2021
##UR
515
‥
Kwa
Hockey
팡
##WA
##NG
##퀘
491
977
防
群
NS
##nam
Foreign
Language
映
像
Original
誠
Since
##rity
Phil
##hro
꾼
680
尺
送
崗
丘
141
冶
hoc
demand
Distance
Dynamic
Source
##out
RFC
RR
팩
Basic
Rate
Interface
Bear
NT
FM
沖
984
惺
圃
晦
役
孔
1050
推
謀
拾
靖
散
邪
擧
1037
虜
妙
碣
配
享
Józef
##ław
##ski
Polish
Democratic
Party
##wski
##cent
Karol
##ano
Third
Symphony
Warsaw
Conservatory
Witold
Mali
##sze
림
Rim
Kors
##akov
Odessa
Sy
##mp
Variations
Grzegorz
##tel
##berg
Andrzej
##nik
Dan
##uta
Bog
##gani
Suite
Carol
Piano
Pieces
Melo
##die
##dowe
Związek
Kom
##tor
##ów
Polskich
##KP
Workers
Socialist
Real
##ism
##hda
Children
song
Concerto
Orchestra
Row
##icki
Autumn
Festival
Contemporary
##zyka
zal
##na
Five
songs
Jeux
v
##éni
##tien
Der
##wid
Biennale
Zagreb
Trois
poèmes
Henri
##chau
Par
##oles
##ssée
Peter
##ars
##burgh
##jam
Britten
Second
Pierre
##lez
Direct
##ési
##tant
Katowice
IR
##trum
##poser
Livre
pour
Orchestre
Cello
##vich
Ł
##ań
Chain
Anne
Sophie
Mutter
Sa
##cher
Partit
violin
piano
Louisville
##ra
##wem
##eyer
$
Fourth
Chant
##ef
##leur
chante
##fa
##bles
soprano
Order
Eagle
Marne
##nay
Reims
Lou
Fan
##art
sept
paroles
du
Christ
Traité
contre
##point
fu
##gue
harm
##onie
th
##éo
##rique
pratique
##iglia
##no
Rus
##dri
Queen
Principles
Rhythm
Rat
Met
##ric
Nota
##asure
Time
Revue
##éta
##ys
##ique
Moral
relations
entre
physique
##pé
##rime
##ntale
math
##ématique
Général
Pure
##quées
1175
Reprint
##hes
Ch
prize
Membre
apo
Académie
depuis
création
##care
Sur
dy
##nami
electron
1508
##mma
Russell
Spring
Quantum
Theory
Isis
1086
캉
Rubens
Westfalen
Siegen
Jan
Maria
##peli
##nc
Silent
1589
Tobias
Ver
##eg
Adam
Otto
Held
Guild
Luke
Bel
Lao
His
Sons
Kunst
##sches
Helena
True
Cross
##hl
Marche
##sa
##igi
Spin
Doria
Santa
Vall
##ice
Chiesa
Nuova
Belt
554
Pietro
Paolo
1609
Antwerp
Twelve
Years
##ruce
1633
Isabella
##huis
Prometheus
Bound
Rai
##sing
Des
1611
Scuola
##di
Rocco
##ru
##fix
##ion
Martin
Balthasar
Lucas
Vor
Pau
Hendrik
##tz
##ius
##att
Mayor
Print
People
1621
es
222
225
199
1624
Władysław
1627
Fall
Man
##gor
War
Ass
##umption
Virgin
Four
##ment
##ast
Venus
Museum
Three
Grace
Judge
Paris
Fu
Het
Pel
##sken
##udi
##ca
Medici
1635
Château
Steen
Hunter
Farmer
Return
Fields
Gallery
##emi
Ker
##mis
##ous
Entry
##ian
Ruben
##iaan
Massacre
Innocent
##yd
##onia
Boa
Hunt
1612
Get
Collection
found
hun
scene
inspired
them
邱
亞
542
704
##tele
##com
Medi
Farm
584
law
ls
##nfo
1472
##yang
574
1593
002
##hak
JK
##cra
##coe
Uma
##rae
##hig
##go
Kevin
gun
##hee
Kemp
You
Too
Feat
me
Tiger
Heavy
Dil
##ated
##kaa
Zee
##bra
##kim
##굿
MF
##bir
Mass
##zzy
Feel
##hood
##cima
bit
binary
dig
ni
##bble
word
1626
Basil
##chon
Baptiste
Falcon
1732
Sem
IBM
##멍
Abrams
theory
codi
McGraw
섀
Mathematical
Communication
Labs
essential
##plosion
Nuclear
Ex
##plosive
Lens
Mar
##ghi
##ta
Margit
##tai
Neumann
Faso
Evan
##gé
##likus
##im
##názium
László
##át
ET
##put
Numbers
an
Application
Entscheidung
##blem
IA
Games
Behavior
assure
destruction
≠
켓
1761
Ricci
flow
arXiv
##ver
##gence
flux
y
##lko
##vsky
rocket
equation
variable
mass
fuel
magnitude
##얄
408
031
1857
Iz
##vs
И
##сс
##ле
##дование
мир
##овых
про
##стра
##нс
##тв
р
##е
##ак
##тив
##ными
при
##бора
##ми
Friedrich
##nder
##smo
##ics
Society
OR
Military
Zhu
##kov
##łk
##owski
項
##벳
Disco
##urs
méthode
借
音
757
比
伐
註
浪
′
1313
##65
5500
沛
1473
隷
##빔
867
469
678
雉
蟾
：
351
355
801
027
580
401
402
404
599
瑟
639
濱
658
朔
1263
襄
1423
柄
407
832
318
040
1464
326
986
891
457
##샐
152
쟈
릿
쥬
##FC
##IR
SP
SU
##MM
Concert
##TER
～
TOUR
VI
##VA
AM
##DM
pa
##ink
##ap
SAM
FOR
##YS
up
super
modern
artistic
performance
tour
Fa
SPD
MS
##PD
KPD
##KI
Storm
V6
20th
Century
Coming
MAX
턴
##GE
7th
Kids
##ojo
##ZA
ミ
##ッド
##イト
シ
##ャ
##フ
##ル
硝
album
わ
##た
##し
される
##より
だ
##き
##て
껴
フ
##ラ
##ワー
##IE
組
LOVE
##あ
##る
き
##に
##な
##って
##く
して
ボ
##ク
には
がある
み
##んな
気
かい
Anniversary
Single
Selection
Harmony
December
Thank
さん
##ゅ
BEST
##ャン
##ペ
##ーン
Everything
happens
reason
えない
Bij
##oud
変
わった
##ち
ま
涙
##らない
悲
し
##み
／
恋
匂
へと
り
##ぬ
を
ギ
##☆
##ギ
薄
##ディ
ビ
##ロー
##ド
闇
hen
tree
Lawson
##erm
##꼭
##톰
##NR
##ISE
##OR
##AP
PR
sweet
##MS
##UE
truth
days
##AS
TOKYO
Lovers
Trouble
##maker
Monster
Scene
##corn
##TION
DOM
##NT
Live
##★
BL
Hawaii
##GI
Japon
##66
##jk
##kst
##UB
NO
##TH
##pping
just
wait
ak
hom
랫
pan
po
##nya
Б
##ел
##гор
##о
##д
##ская
о
##бл
##аст
##ь
620
##ря
##́н
941
Leon
##rots
##쯔
ima
##eil
NKVD
##cak
령
かな
セ
##ジ
##オ
archive
search
jap
cgi
bin
##wg
Gateway
initiative
Alliance
썬
##nect
Regis
##try
Framework
Oriente
Architecture
Bund
installed
started
stopped
updated
uni
##alle
Resident
BMW
Sim
##DO
Clare
Ale
##ront
##cun
Fleet
Management
Sol
##ution
class
mani
##fest
Plain
Java
Objects
publish
find
bind
bun
instal
stop
##all
method
Process
triangle
row
column
height
##rian
##gle
given
Unit
Franz
##ber
1704
活
pat
##rix
matrix
1377
##ret
##rati
1140
##chard
Worms
##ec
Libri
Melchior
Nou
##esia
Colonia
three
books
Biblioteca
##posto
##lica
Vatican
Va
lat
und
##sto
Archiv
##io
Capitol
##are
Duomo
##nders
##roth
Concord
##rdan
##tium
Lec
##tura
##umm
##Pa
##uca
##pal
##agi
Roland
Bologna
##ugu
##ccio
1210
##imon
Bis
##ign
專
Corpus
##uris
Codex
Anglican
##mun
А
##му
##рская
область
844
З
##ея
При
##стань
##400
##rik
##öller
Wiki
my
role
accessed
Archived
ano
##nymous
Daniel
Als
user
User
Wikipedia
states
his
real
name
editing
this
За
##вити
##нск
猶
britannica
##che
##cked
653
##vre
Yi
##ddi
##pedia
Bir
##obi
##dz
ב
##יר
##אב
##יד
##ז
##שא
##ן
655
VL
Сол
##жени
##цы
##н
Две
##сти
лет
вместе
769
Brook
Promise
Siberia
Well
劇
##hol
##iche
##bba
521
減
426
Soviet
Jewish
story
##djan
Encyclopaedia
Ju
##dai
Mord
##echa
##ost
Features
returns
185
Arena
Atlas
Religion
Russia
spiritual
religious
##ам
##урс
##кий
государственный
университет
имени
Ш
##оло
##м
Але
##й
##хема
Об
##лу
##чь
Ак
До
##ву
##ра
Максим
##онг
##у
##жу
##кови
##ч
##ун
##зу
##su
Uz
Тур
##ан
성우
辺
key
｢
Remix
｣
テ
##ニス
様
HP
ば
##ハ
##カー
満
##ルム
1637
砕
Ana
##xima
닐
候
壬
娘
輔
兌
區
評
琬
喆
硏
究
1985
381
587
珏
休
滿
姬
謝
Андре
##а
##поль
##900
杰
##TS
721
##캄
Ч
##ав
ч
##ы
##вао
##руг
Па
##лана
029
751
己
輩
Period
##옮
713
714
287
##탬
535
耕
050
energy
Э
##в
##эд
а
##вт
##оном
##най
округ
767
080
697
802
550
862
054
423
766
EMI
back
潭
杓
彤
低
噴
撑
瀉
欲
滄
我
滉
珥
早
稲
魯
310
男
勢
裕
##bala
##즉
薛
1982
Class
##ified
##going
Radio
##gram
USAF
Lang
##don
Central
Files
##ima
File
##titude
towards
##upat
Forces
272
311
186
338
Bad
Stein
am
##ee
##ern
##ig
##ört
##hers
##uck
Put
##zi
##rce
él
##égi
##aque
Ich
ein
##öhm
Ein
##dern
Dirigent
##me
man
like
Mahler
##dale
##밸
805
617
mi²
928
633
709
815
poverty
Passion
ke
##bab
Los
Angeles
宅
暉
辛
冕
##BC
Better
##WC
558
564
走
job
966
##밝
寬
##낭
##rede
zu
pie
record
##anus
##hul
##cker
##von
Wei
##gan
潘
碩
Senior
DP
##KO
Ban
ur
##ges
rapid
progress
negotiations
new
climate
change
##ct
Centre
##II
state
solution
LGBT
Climate
Summit
Women
##PG
Anders
moon
Lead
Jacob
##brunn
BD
Blu
ray
ROM
Record
##wr
##itable
MPEG
AV
SMP
##TE
##EG
Virtual
GE
##table
MH
펌
CE
Picture
Bonus
##×
1280
007
1839
##рм
##я
##л
Бо
##кс
##ито
##ск
585
Ба
##лак
##во
1762
albedo
intensity
bond
integral
°F
Cloud
conde
##nsa
nu
##clei
##CC
##idu
trees
破
壞
843
814
1016
剛
浮
效
1294
1339
1330
1332
燾
卍
1316
1322
1323
1315
1344
暠
忽
戎
1343
貿
997
981
訟
989
983
掌
置
姆
993
崇
980
伸
克
恭
999
1001
庾
檢
1345
1394
1389
滋
瑤
桂
杆
鈞
廢
廉
曰
昏
已
稷
1416
992
詢
996
1006
1010
1024
坊
祀
桑
收
1097
1095
욱
昱
殤
1054
1096
鑄
錢
1101
闊
盈
魔
俁
瓘
寵
晟
韻
1119
緣
悼
1120
偶
1146
楷
1126
拓
1135
1145
1170
升
除
挺
坤
1202
旦
旼
面
1204
凉
1198
裨
碓
1199
帳
撫
1211
陂
1205
1206
1207
1208
廊
楹
粟
紫
鸞
1215
1227
1152
1213
厚
1259
1212
1249
怡
1257
1258
1218
1231
1235
再
彫
1254
1274
1269
坦
1275
1290
1268
1273
1236
1308
1299
諶
1260
1272
朕
1277
哈
璋
1296
1287
1289
1297
黎
力
1307
忙
潮
脫
顏
禿
妹
1337
1348
昕
祿
賑
漬
1338
1352
1351
嫡
1350
愍
聰
1365
1374
1388
丑
追
曾
沔
列
及
屍
厝
1371
召
納
1373
諱
妾
夜
啼
黜
獄
指
吾
此
頹
僅
頗
竟
瀋
筵
1380
1383
1387
佇
塘
旺
偕
燕
謹
皆
供
目
固
琳
帥
按
賄
賂
浚
給
添
設
瑩
犯
賤
充
葳
璘
畿
焰
쑤
Василь
##ев
Александр
Тим
##фе
##евич
1780
Fach
##hochschule
Münster
幌
Най
##хо
##ро
147
##Ч
##ис
##лен
##ность
населения
России
федеральных
округов
субъектов
Российской
Федерации
районов
городских
поселений
сельских
населенных
пунктов
##ай
##цент
##ров
и
с
населением
тысячи
более
человек
Photo
##kina
WDR
RTL
Claudia
Ara
##pine
##nsi
Hogan
Cologne
##harf
Mega
##lit
##hic
Portal
editor
Burn
459
785
1288
bat
wo
##rri
1080
Article
##öl
##sch
Ea
1685
1766
471
1709
##äu
Wir
Tol
Tage
##fast
##nacht
Wie
##elo
##ven
庸
隨
徭
課
稅
雑
絹
脚
1859
758
376
器
崙
站
篤
栢
뫼
##п
##ше
##рами
##ль
Watt
Dawn
Age
750
##aya
Angela
Howard
Boris
Marsh
##ak
Bai
Zhao
Feng
Metropolitan
Art
姚
薇
訂
茹
雁
つまり
蠕
Lau
Sarah
That
Gold
##bei
##nament
Northeast
##enn
Rep
edu
##con
##tent
1480
edi
##sser
##tations
##sar
##ras
Sophia
Karin
##ex
##ami
##nation
Political
Monument
Seri
Vol
##stor
stable
1447
션
##□
1418
1450
禍
navy
mil
Navy
1826
Administrative
Waters
Pearl
##ai
##mi
##ʻ
##ulo
##KS
366
135
646
狀
Брат
Константин
##ович
Петр
##ько
1073
1074
im
＋
稻
##LA
##git
Content
DM
liberal
arts
教
境
片
349
닛
閤
検
狩
墨
攻
め
な
卯
絵
弥
ね
##ね
紋
研
1583
1590
観
1579
1580
1581
屋
1582
返
攝
堀
宝
鉄
斉
亀
1584
党
望
権
1586
1585
鈴
1587
バ
##テ
##レン
1591
戻
297
##sta
船
1595
1596
1615
DF
람
둑
凡
people
front
tab
##SP
##ista
##ear
禁
ky
##uja
##ngga
IL
##VI
ils
##cla
month
day
king
##name
EA
B4
##굵
##멈
##뒷
箱
Hawaiian
2400
636
526
ah
Camp
##nser
##wai
##ʻi
##oa
458
냐
뭄
첸
##reole
##ré
##rio
bus
om
##nibus
Nantes
product
##nes
1830
##romo
Siemens
Sieger
##벵
Wilhelm
##äng
Dag
##mar
Bela
##friedhof
572
939
T1
T2
##EM
UD
##엠
##핸
Sand
##oy
##oya
##rtu
##nni
##lin
882
速
bank
turn
tar
##isin
##ess
Et
##ymo
##logy
Dictionary
1829
Cave
Adams
뇨
##jun
##dien
jam
gu
##mbo
pop
##lig
Fletcher
示
290
8000
苦
348
292
③
Charleston
1670
##town
1783
1690
슌
被
数
適
閲
覧
web
Hyundai
##ever
Leading
##ient
through
Smart
Digital
##reat
Frederick
Theodore
Albert
Del
##by
Max
Adrian
Christopher
##anga
Cali
##nda
Village
Romeo
Juliet
Walk
Paradise
Garden
뻐
Bernstein
銃
Commando
Sub
##mach
##ine
Gun
MP3
M3
섯
鴉
앗
op
##ium
Annual
Op
##걱
##nida
##ria
腔
珊
瑚
菟
葵
類
擬
Ä
##yy
##üb
Ә
##ю
##б
##еп
あ
##お
MD
727
Il
443
nm
##ono
IATA
ICAO
RJ
##rita
NR
##AA
##vide
OL
##PC
##pt
child
fon
菅
##１
##FK
季
について
Shi
##kait
Is
##achi
ya
##ii
ï
ë
ほか
##６
##SD
Base
LC
1310
2700
Niko
##sur
##iis
##ki
##hil
##ov
双
爾
transport
D0
D1
B8
BF
B2
te
WORLD
STAR
AI
랙
##rai
central
airport
##дор
1683
1796
Усть
С
##ыс
##оль
1777
Во
##шил
##ов
SR
##тав
Советская
Республика
Северо
Кавказ
##ivu
см
smo
##la
殼
veg
##etaria
B1
Football
Seoul
##퐁
860
##슛
641
576
849
759
##AF
SN
져
Gruppo
##HA
##estro
Rosso
##nero
Fiesta
Leader
Crown
BP
LED
Future
Sensa
##sation
Point
Mina
槻
tube
##rmi
valve
kW
Glass
髪
袴
帯
け
1850
Heath
Manual
Greek
Mathematics
Dover
Hen
##ahan
Sean
Update
Dirk
##RO
##UC
Keller
##mei
ta
##coma
Thom
Alexander
Archie
metro
geometry
##ug
##gles
Records
Stone
Papers
π
Pearce
Ian
Computational
Andrews
Matteo
瑪
幾
形
##ago
例
整
Platon
347
Dio
##ntos
institution
musica
ari
##meti
Caldwell
Musica
Margaret
Gibson
Oxford
Blackwell
Folk
##erts
Mens
Wiesbaden
Steiner
Verlag
##br
wa
##qa
##bila
Liber
##aci
Grant
Murdoch
eds
##age
Marshall
Madison
Wisconsin
Math
##esis
##oso
##phia
##hola
##stica
Intro
##duct
lib
##éraux
philosophie
au
Moyen
Âge
Montréal
Institut
Études
##éd
##ié
##vale
Ars
magna
##gono
1436
1476
1540
bien
##duire
raison
cherche
##té
dans
les
erg
sum
1639
##덧
570
632
622
##mora
##ndum
Raymond
Est
##hus
##ft
Kat
Agreement
Reality
Myth
JSTOR
Jong
Cha
Mem
##oran
##dum
##ons
##ider
Pacific
Historical
Aug
打
倒
1852
der
##ere
##chten
##덮
##hel
Off
##baru
둠
##tri
##riti
1844
Lage
arbeiten
Klasse
heilige
Familie
deutsche
##deo
##logie
Kommun
##istischen
Partei
Prinzip
##ismus
Bauern
##krieg
Revolution
##vol
쁘
##lekt
##ik
natur
##ü
##hri
Ursprung
##igen
##tums
Staates
寒
穀
黍
粱
稗
麥
Motors
258
郵
叙
殖
碼
探
偵
274
央
途
Voice
588
##eur
##ope
336
689
陣
砲
筆
鐘
滎
誘
Indian
mo
##usta
콧
紳
熱
技
Bern
1667
1748
dl
##cience
M2
1696
퐁
##ath
kim
min
##jo
title
ED
B0
A8
력
Novel
Fund
##amentals
5th
edition
##α
##β
##Ⅰ
##Ⅲ
##Ⅳ
晶
θ
##θ
빔
Simple
radio
##graphy
Ray
因
爵
係
facto
蔣
齡
席
悅
振
彬
促
Funk
Family
Meter
Parliament
##adel
Label
Lyn
##enstein
##max
Mother
Fine
Davis
Clinton
Tim
##ba
Phi
Rafael
##iego
##ñez
1784
1785
1814
captain
general
1821
Roc
VA
ℓ
Wade
Nicholas
Finger
Stanley
eye
optical
instrument
camera
ob
##scu
Helm
##holt
perspective
##ception
PMID
##her
photo
527
Var
##num
1241
1752
##zeul
Ţ
##ării
##şu
##rilor
car
##tiere
m2
曦
sudden
card
##iac
##chy
##card
頻
Johns
Hopkins
Harriet
Lane
Handbook
Philadelphia
##sby
Elsevier
available
##edi
##cine
##diat
##rics
1434
##tr
para
diu
гр
##ош
пари
pen
##íz
geld
ra
argent
dinero
χ
##ρή
##ματα
##rima
pé
##inga
air
##gea
sold
pieni
##ąd
dinheiro
День
##ги
Den
钱
##ián
प
##ै
##से
Pai
##ē
お
don
പ
##ണം
мөн
##гө
tiền
bạc
pe
tien
Te
##za
幣
Straight
Keith
Stan
trans
##late
source
逐
literal
translation
抄
select
complete
梗
##nse
縮
##ridge
una
##bridge
direct
##rans
##lation
Kaspar
##ek
Trans
##lato
Endless
Forma
##qui
##valence
Perfect
Physics
Chemistry
##lec
##tics
formal
雪
##lating
17th
other
horror
stories
actual
Present
Kelly
Essay
Translation
1790
Sept
##ua
##gint
Saint
##굽
keren
kami
##los
##elos
woman
whom
greatly
loved
Tours
who
beautiful
##fait
Didier
É
##rud
##ition
##rman
épreuve
étranger
Action
##visi
##bility
Methods
##rase
functional
Back
Quality
Info
##rmed
##sent
Form
Practice
round
trip
Cohen
Historia
##lesia
gent
Anglo
Philosophy
Knight
Tale
##rise
##yde
Rose
Ton
beau
Pardo
French
This
윙
Kad
Bil
##ingu
##alis
샬
Susan
novel
##wm
だが
##rl
##lion
tests
observe
Claude
dé
##fi
langues
Challenge
##matta
Computer
assisted
computer
aide
machine
##HT
Economist
many
voices
Washington
Post
Mechanical
Turk
For
inter
##pret
journal
##ook
journalism
book
##읽
Wheel
Drive
##WD
time
##ght
Corner
##aki
full
EE
Heritage
Population
Census
Demo
##scope
Armenian
##lic
1712
戀
874
##iu
##dice
Marguerite
Struggle
1262
eva
##nge
##lis
##út
##rk
##ík
##ingas
##vei
##tin
Northern
Viking
gov
Cape
1492
1659
1697
Dom
##튀
1793
Convention
February
##olis
##hing
Slave
Colo
##nies
Tropical
Jeanne
##nai
##ves
4000
##yi
##zan
Arti
##ite
Pic
Selle
département
Worldwide
Welt
##hung
##hilfe
IF
²
##ire
Ireland
##áil
Éireann
borough
Euro
##stat
U2
##án
##árt
##hai
##gh
Dublin
traffic
route
within
Irish
##amine
Fra
domina
DA
윅
Wi
##low
Way
Marley
steel
pipe
SSR
Mil
##ime
##cir
Baku
Tbilisi
1768
Prince
1278
1806
987
##gnan
Ville
##fra
##nche
En
##vali
Shqipëri
Republika
Shqipërisë
1190
##CE
Alban
##ët
1255
Clements
encyclopedia
governments
Byzantium
had
##ceded
arch
##gon
succeeded
establishing
Albanian
Middle
Ages
principali
##hi
##isht
Sami
Studies
Kosova
East
European
##graphs
1271
##leva
Albania
Western
Visions
Border
PDF
1331
1335
1444
1415
1431
1443
##ili
##bëtare
##dh
Pri
##slim
##ëve
të
##ër
##tet
##ë
##ësi
Prin
Vilhelm
Vid
Elisabeth
Leopold
Kammer
##hof
Forschung
##bourg
Wissenschaft
##verlag
##him
##iter
Country
##rel
##igio
Campaign
dhe
fe
në
Morocco
dela
Rok
për
nga
ori
##jinal
Lua
Omar
Els
##aries
Europe
Scarecrow
Bez
##eme
socialist
Financial
##gil
Economics
1093
##je
##dl
854
Musa
##raj
Tales
Alba
##rado
Material
##yramid
##heme
Anthropology
1111
1360
##ration
mostly
Italy
Greece
Switzerland
Germany
mi
764
068
ft
Tiranë
Tirana
##kod
948
雷
帶
##곰
April
938
893
population
ethnic
cultural
##filiation
Republic
765
610
Muslims
Unity
Diversity
568
Yearbook
Jeho
##vah
Witness
Watch
Tower
Same
##oe
Rescue
Hundred
Jews
Holocaust
Brunswick
original
##sim
fillo
##rë
mes
##ëm
univers
##itar
##tat
1285
alba
##nia
januar
President
##mini
##stri
Republik
##ës
së
##sht
##etu
##yka
##ese
Pol
##icia
##hte
##tit
##NE
##cat
Arm
##atos
##hta
##bi
Për
##gjithshëm
##kë
##sore
##jr
##ore
Active
Ende
##avour
##fektur
Bas
##kia
Komuna
Lag
298
lokal
Act
##ual
Individual
Business
Cyprus
register
economic
growth
##times
##tron
potential
puts
Panama
term
investment
Property
##wir
ARM
IPA
潟
蝕
##mbit
3G
MW
729
RTS
Tel
##evi
##zioni
##qi
##ptar
një
##jet
da
##fine
##bat
Yuri
cited
foot
##note
Translated
published
Filip
Fish
##kolla
quoted
##face
Du
##yra
1462
pag
##ont
##meni
sp
##erti
seni
1497
##rës
ver
##nac
lingua
Ritual
romanu
1636
Prophet
##ën
##esh
##kli
身
츄
Fed
##erata
Futbol
UEFA
FK
CP
021
974
1632
1745
眠
醉
輒
驥
寫
瞋
1773
繪
1774
1781
瓦
夕
1797
1723
瀾
1725
愼
猷
舞
淡
##샘
病
聚
娟
妬
强
曳
更
貌
粧
飾
仇
冑
慮
盡
尸
磨
娛
讚
耆
婆
냥
403
筍
舒
弱
鬚
鬼
慾
鳴
強
陰
愈
顥
頤
隻
徽
1824
PBS
Guevara
daughter
visits
bomb
memorial
Hiroshima
Friday
##tona
nature
iPhone
smart
Eng
##get
VG
##MI
feature
phone
##lines
can
Evolution
market
##oit
Telecom
##ications
Prediction
##cono
mini
##hne
##wind
USA
page
9000
Nokia
##icato
hin
921
##팟
3D
GSM
##HS
LCD
Personal
##forma
III
S1
S2
Program
Student
Assessment
motiv
Organization
Cooperation
Member
Countries
##tain
Book
PM
magazines
880
DOS
Seattle
Products
Microsoft
##SI
##rol
Multimedia
Monterey
Franklin
##rill
##green
Was
Software
Publishers
Iran
##yan
1256
1731
##hom
##ein
##bri
Hassan
##ou
##hani
狹
##맘
Walter
##lst
Ravi
Zach
##arias
Cult
Nine
five
##hab
Sen
Gupta
Persian
South
##spects
problems
regional
cooperation
##stitute
seven
nine
sixty
Iraqi
Daily
report
Issues
States
Broadcast
##ms
曜
open
##used
revised
remix
##rib
##uted
Wiley
##onte
officially
closed
fine
Creative
Commons
Welcome
License
##캣
##fini
Definition
##DC
license
##fin
approved
conform
Timothy
##lmer
creative
##common
released
ro
MIT
采
1728
nation
building
##oh
##istor
Chicken
Genome
##quen
##cing
Consortium
##BL
land
##mine
##uster
##nition
Monitor
RIAA
2550
##ntyre
Bachelor
Patricia
McCartney
primary
secondary
Transfer
##red
Junior
due
##wd
Stockton
attendance
see
passing
plus
soon
became
friends
tende
talk
down
him
because
younger
grammar
meeting
Harrison
family
earn
where
they
lived
died
##bolism
gave
plate
trumpet
later
traded
Zen
##ith
acoustic
guitar
when
rock
roll
popular
Luxembourg
Little
Six
Tall
Sally
ever
sang
534
number
stage
Qua
##rry
played
spirit
set
half
ski
##ffle
Beata
Moon
##dog
Silver
Bee
##tles
perform
Hamburg
never
formally
served
Beatles
manager
##rn
Nobody
wants
bass
##body
did
playing
##cliffe
##posed
gradually
began
withdraw
active
participation
ce
##ding
group
bassist
Bonnie
##lac
Starr
##leman
cut
joining
LP
Help
Their
recording
involved
only
band
member
recorded
use
classical
elements
their
covered
described
critics
advance
explored
face
romance
philosophy
lyrics
catalogue
Both
Lennon
have
claimed
lead
authors
##hip
##olver
Paper
Writer
consecutive
sides
release
Rain
##eru
##nner
videos
films
aired
Sullivan
Show
Eleanor
neo
hybrid
Sgt
Pepper
Hearts
concept
sense
une
among
##mates
wanted
maintain
##ivity
creating
identity
ut
##ilis
tape
vari
##eed
looking
li
turns
conducting
Recording
required
forty
orchestra
##berry
Forever
Penny
##ving
##튬
cover
featured
##gina
##ude
track
standing
cele
##brities
design
growing
influence
hip
##pie
style
##oof
Britain
military
fashion
Magic
Yellow
##marine
Critical
response
Filmin
promotional
trailer
soundtrack
ve
been
negative
since
Epstein
passed
away
Album
wedding
birth
Abbey
Road
still
us
departure
personal
appointment
Klein
disa
##gree
management
##unes
Strangers
said
she
##rasi
gauche
sank
##hisky
soa
##ked
##liv
knew
how
save
Mail
Maybe
Ama
##zed
Heat
Frank
Stories
Behind
Classics
Pavilion
Books
Bible
Ram
Uncle
Admiral
Hals
Peak
chart
positions
Birth
Stella
traveled
##rup
##usly
avoid
Wings
Speedway
sy
best
peak
Run
weeks
charts
Jet
Helen
Pos
##itive
critical
spot
Rolling
Greatest
Albums
Speed
Seen
Face
##bird
Lady
Madonna
included
associated
something
##wil
previously
featuring
modest
hand
tune
decided
mis
##take
few
After
extensive
##hea
##rsa
Loves
selling
singles
They
Know
Christmas
biggest
hit
career
Town
Luck
Egg
##est
certified
platinum
Fool
tours
details
composed
performed
himself
Up
Ivory
Thriller
Mine
Stewart
##pes
Last
character
point
##ards
Broad
film
Nights
Gilmour
##ies
Like
Play
##нова
в
СССР
Ferry
##sey
Dir
Elvis
Costello
Trip
##ping
##usement
decade
longest
highest
gross
show
award
Liverpool
Ora
##torio
##forme
around
Week
MTV
##plugged
Official
##leg
##ries
Ships
Forest
##obu
Honorary
Fellowship
Yeah
kind
##zing
some
doesn
note
##aming
Pie
Night
Rush
Devil
battle
cancer
Working
Classical
Coll
Nova
Garland
Freedom
##iving
box
marriage
Mills
XXX
performing
Bowl
##lter
Chaos
Creation
##yard
Almost
Full
Electric
##gum
##ents
##master
Good
Kiss
Bottom
Mus
##ares
Grammy
Awards
Billboard
##sco
Mexico
shows
Jude
Sandy
Relief
Change
##ute
Gan
Kendrick
Letter
Mayer
Urban
Katy
Perry
Penn
Stevie
Tribute
List
Anno
##unce
##bil
Only
##eco
##nds
Natural
##lod
pitch
acute
pair
ear
Motown
Jam
##erson
Clarke
##fn
##backer
Vox
##pli
##fier
Fender
Woman
Word
come
own
starting
improvement
Brand
Midnight
Hour
Lucy
Diamonds
Looking
Through
Michelle
Rocky
##cco
Jenny
Tex
pick
electric
fie
angular
slide
solo
Tax
Morning
Another
깁
NME
Again
Down
##iver
There
Honey
Feeling
tempo
##bust
soul
Monk
##ight
##엉
Every
Thing
Hello
Goodbye
Maxwell
Hammer
Loup
1st
sensitive
synthesizer
touch
keyboards
Dear
##udence
Martha
Wild
Ballad
Yoko
USSR
Shine
Celebration
Dark
Tomorrow
Never
Knows
loop
used
Chuck
Berry
Buddy
Holly
Presley
Perkins
Richard
Talking
According
taken
##nna
tell
you
wrote
thing
player
exactly
same
fitted
perfect
##chu
invasion
Qing
Jose
壁
1623
1619
汗
Ing
##ū
##lda
箭
舟
##word
guide
##탔
築
Character
wing
Steven
##cho
##tom
Twentieth
##clu
chapter
Bellamy
Thought
##nde
965
漸
synagogue
SEC
018
Vir
##tres
militia
Christi
Konstantin
##ät
Monte
##fio
Stalin
Court
011
Pärnu
Saar
##emaa
linn
vald
##mist
blog
##world
differences
ee
##hina
##ita
##ev
kes
pal
tous
Dialog
varv
EN
##NF
path
##bas
##atura
resources
##ores
lang
maa
##vara
dit
##yon
##eem
Linn
##ulation
figure
composition
##elig
##ious
##pid
536
Ethiopian
Defense
Ethiopia
651
departamentos
##ml
vos
634
##fs
##ir
##ssar
イ
##ス
##ラム
寛
頁
ア
##ラー
ニ
##ポ
##ニ
##カ
islam
マ
##レー
##シア
デ
##モ
##ud
democracy
##êm
##ēm
##rat
##ía
Morris
##laub
Democracy
##ana
##lib
##rary
library
coordination
anar
against
ἀ
##ν
##ρ
##χ
##ός
ἄ
##να
##χος
crime
##thi
freedom
Libertad
alb
##ert
libertad
cult
carri
texts
author
##itarian
##rchy
hierarchy
Wolf
Lands
##tre
##icher
Native
Wing
Eun
Schuster
Crime
mich
##ail
bak
##uni
##lity
slavery
control
sociali
##sm
##tual
Tan
##untary
Social
##graph
##lce
##nter
fighting
hat
extrem
files
individual
rich
##ard
##rand
##ence
##퀸
Rudolf
##dica
##wart
Clarence
Lee
Ren
rent
##wit
capital
dream
liber
##tarian
nothing
known
movement
proper
##tzer
Against
accept
##ists
camp
concern
equality
justice
interested
calcul
##ating
men
##cap
prac
##tis
operation
even
if
might
therefore
called
rather
Harper
Perennial
565
important
distinguish
certain
strand
times
example
Murray
Roth
##bard
Saul
Newman
Edinburgh
physical
form
Oakland
frequently
employed
synonym
largely
attempt
distance
themselves
##nota
##tions
deriva
##tives
situation
vast
complicated
recent
rise
minimal
stati
extreme
laisse
faire
advocated
such
theo
##rist
adoption
words
now
become
necessary
tradition
Within
represents
minority
actually
argues
total
elimination
However
claim
quickly
shown
allows
each
person
supply
police
army
else
pur
##chas
these
services
vender
what
remains
anti
##ined
va
hac
##ney
defense
reduce
fraud
Saba
##tini
Winter
排
卵
痛
mittels
##mer
##unia
症
過
ana
reaction
쿤
렘
##chie
##rlo
##stan
##owe
##ind
##door
Martinus
Herman
Door
Utrecht
Technical
Zurich
Strasbourg
##hen
##heim
Agriculture
##ses
chair
Würzburg
##rook
Nikola
Tesla
Philipp
Lena
##rd
window
elect
##rost
##atic
field
##board
##cense
##uh
##kor
coi
bar
platino
##önt
Kind
Über
eine
neue
diagnostic
ion
##izing
radiation
Bertha
Ludwig
Josephine
Düsseldorf
Deutsches
museum
諜
秘
secret
agent
384
Network
Matt
Rosen
##burg
Protocol
WM
##ML
bear
SMS
Access
##dication
SL
URL
##xy
##so
MM
linea
notice
398
Player
##fung
Presse
##geo
携
mobile
FCC
Advanced
Mobile
Phone
##RC
Rad
##cino
ha
##zard
膠
腫
聽
##띄
Abraham
Michel
Naval
Internet
Wang
Maa
##tha
Vis
##iting
Fellow
4500
Mae
##leo
Ya
Wan
Stevens
syndrome
Nico
##lsk
sign
痙
攣
肺
塞
栓
want
函
##bolic
angle
sinh
cos
entire
702
HQ
##via
Morgan
Mei
##lka
##vik
##kal
##kul
Edwin
Brady
탭
2050
2200
2100
2300
##얹
RPG
Dragons
Mor
##hone
##mics
Hebrew
##ctic
Structure
##tax
##tern
Res
Intel
507
Una
##bom
##czyn
Logic
Ling
##uis
CONCACAF
Major
퓨
NHL
猴
棒
敖
猿
簾
蟠
托
哪
吒
琢
爐
睛
釋
迦
奘
##itia
##ndas
##heng
箍
娥
齒
釘
霄
捲
杖
禾
DB
優
enter
sto
asi
##ae
1414
Hongkong
Shanghai
Bank
Corporation
Ben
##oth
Θ
##ω
##hut
Bud
Gods
Egyptian
Thu
##mose
Biography
Clin
Connor
Michigan
January
born
skull
heart
ḏ
##ḥ
Theodor
tier
alten
##gy
##pter
nach
den
griechisch
rom
##ischen
beri
wichtiger
##aler
Wien
kom
##mission
bei
Hold
060
VP
##aut
##ī
Collier
415
616
positiv
##rich
griechischen
Alter
auf
die
Jugend
Beck
##nke
Trend
Fischer
Grafen
Yo
##rc
Katherine
##tman
Seis
##nun
Kuno
Oswald
##lers
Hans
##pp
Eduard
##ranger
Georg
Erich
##acker
##dam
##orno
Ernst
Cass
Emilio
Bet
Jürgen
##mas
Heidegger
Regeln
Talent
##nte
##vina
##hoe
##recht
699
Идел
Урал
div
ng
371
О
##рд
##жо
##ники
##дзе
Д
##за
##уд
##жи
##ка
Frederik
André
Henrik
##GS
1666
##им
##би
##рс
1671
##홋
##сил
##ьку
##ресе
##ала
##чин
Feyenoord
##ijen
##oor
dat
stadion
nl
KNVB
PSV
Frédéric
##iji
Traffic
Person
dt
##oda
1751
569
990
868
BB
##ews
##욘
##LL
##뭐
435
133
129
354
579
293
442
716
755
746
VT
972
803
##iva
GO
Roux
Overseas
Taiwan
1118
##raphic
雞
！
刻
##lant
##INE
Japanese
Homer
Sada
##haru
Oh
532
078
1475
1186
752
504
319
猛
micro
lens
Jansen
Lippe
Anthony
##uwen
##hoek
Hook
1703
焦
點
距
focal
length
aber
1758
Dollar
ach
Ze
##iss
ref
numeri
ap
##ertu
##넛
##팜
963
＆
Generation
ne
Movie
☆
Game
VHS
鋒
Ж
##ура
##ёв
Алексей
Александрович
член
фр
##ции
Е
##дина
Россия
го
созыва
Официальный
сайт
Государственной
ду
##мы
##В
##оз
##ждение
партии
Род
##ина
г
Sovet
Rossi
##jti
kandidat
por
##ši
##ури
##льский
городской
пр
Л
##жина
##лк
##ику
##чки
Ф
##ус
##са
1772
Ло
##мон
##осова
1681
##ар
##пи
##нского
##бек
1156
вул
##кан
樺
##ерно
##яр
##ского
уезд
##аны
ул
FIDE
Остров
Ан
体
Disaster
Escape
Кот
##ель
##ный
##ад
##де
##евский
Kota
1647
##°C
##го
##ед
##ый
homo
層
斷
res
nerve
Carta
semi
##nar
##nction
resolution
Pokémon
3DS
##쿤
##쟈
##핫
##pas
##pass
NH
2800
##잭
399
स
##्त
##ूप
##rr
tur
ə
Sid
Roger
Austro
##asia
Ur
##at
Southeast
River
Parts
Origins
diversi
##fication
case
Dynamics
345
Canberra
Linguistics
Mon
Khmer
Vie
branch
##lang
##ờ
đỏ
sao
vàng
쯔
販
CX
##VO
ia
JB
act
1017
Motor
##born
##quette
Manufacturing
chassis
##amar
Thunder
Mustang
Ia
##cca
Alex
##rot
Jacques
Nasser
##kur
##rko
Av
##obil
##vod
Flat
Premier
##motive
混
##кал
肪
洗
1708
Fuchs
持
Brun
##dt
852
Vasco
Gama
1460
1469
1503
Sin
##ide
##ór
##cut
航
1498
##ndi
##mba
mon
Gujarat
Ibn
Maji
Manuel
Seas
mir
##mori
1519
##igue
##ira
Eduardo
##nez
Goa
##chin
Explorer
##plo
##ndia
say
1825
##here
##몹
##ец
##щ
##ёр
Новый
Н
##из
##овой
На
##рт
##сан
##э
444
##уды
##мка
Г
##ъ
##ж
##ие
к
##ал
##кат
##ери
##но
##дар
Rex
Bundes
##gericht
##shof
##ächer
##stadt
Frau
##nho
##fer
##szentrum
Karlsruhe
Landwirtschaft
##liches
Technologie
##zentrum
Auguste
##nberg
Zentrum
für
Medien
##tech
##nologie
##isches
Landes
##museum
##liche
Kunsthalle
Musik
##akademie
Hochschule
Gestaltung
Technische
##ä
##dag
##ogische
##chs
Dur
Baden
Красный
Я
##mel
##yano
MV
Aviation
Herald
terminal
##noj
Cher
##ems
burned
Х
##ки
##ау
##аш
##ин
Кам
##ыши
##раны
##вал
##ын
皓
##댐
燦
3A
##sea
##pted
service
reference
country
731
Bradley
##lot
Alves
Gérard
Proto
crea
##iros
Drie
Rice
##mon
##lands
Main
Saga
##wood
##tru
##cting
Languages
Leiden
favour
middle
Yang
Adel
##aar
Are
four
additional
##rec
branches
Presenta
Bangkok
##mmar
##ized
NJ
classification
Mathias
comprehensive
##ylogenetic
##tros
##pect
##spect
Leipzig
##osing
conference
Planck
Evolutionary
Phylogeny
innovation
corre
presented
workshop
##rating
##ference
past
findings
current
issues
Jena
Beziehungen
aust
##rischen
Sprachen
zum
connections
Aust
Wiener
Beitrag
zur
Kultur
##geschichte
##tik
comments
Campbell
Holm
##mated
Families
Lex
Similar
Current
##liff
##rico
##urt
Georges
Introduction
à
historique
mia
yao
introduction
historical
##onology
Mia
Yao
Bulletin
École
Française
##ême
Orient
Cai
際
す
Zhang
##uma
##sang
##bang
##wo
Raiders
674
1720
##еме
##рово
1657
1701
1721
##뻗
##лин
510
軸
##ös
Gyula
Sino
Denis
Hungary
##win
Ltd
Tokyo
Hitler
Attack
Harbor
Boulder
Lynne
##ienne
Mark
economics
six
great
powers
international
comparison
Nazi
##gg
executed
Lowe
Policy
Routledge
RS
Alfred
Lithuania
revolution
above
Amsterdam
Rod
Kennedy
Caroline
Cold
Manchester
Sep
##kka
Suomen
ul
##kom
##aan
##kau
Finnish
foreign
trade
British
Archive
556
##kip
##tko
##sodan
RAF
##jar
##java
wil
##stone
Malaysia
Thailand
Wars
##onos
Fight
Enter
Santi
##vaja
Miller
Mussolini
Secret
Meeting
Enigma
161
Phillip
Zo
##gos
##love
##nski
narod
##kret
##bor
various
Sar
##ho
##vas
ger
temp
Gers
##hman
Vas
##DH
##ovac
Memorial
armée
française
victoire
défaite
France
années
noire
##ém
Seuil
édition
coll
histoire
Tome
##brun
biography
Presidential
official
Pax
##aboration
État
Ann
##ées
Noire
François
Éditions
Pot
##ash
Argentina
Yr
##igo
##yen
Perón
Stanford
Lewis
Hampshire
PAL
MAC
Guy
Walters
Hunting
Evil
Criminal
Quest
Them
Justice
Broadway
naval
dk
Danish
Historie
Ik
##gt
Danske
Brigade
Sverige
##iel
tema
ju
##bel
##tig
Gerhard
##ack
Hidden
Portland
Donald
##gee
Changing
##uring
Interest
Sharpe
Churchill
Houghton
Mifflin
Harcourt
Neville
##yli
neutral
belli
##geren
during
Isabelle
##ohr
Spanish
##sem
##itis
opp
##unis
##bourne
Oregon
##ESS
Wayne
Bowen
Spania
##rds
collaboration
order
Missouri
Payne
Franco
regime
Regime
##atz
Latin
Maryland
Joel
Philippines
singular
plural
Colorado
##sci
Spain
##shaw
Fate
Choice
Ten
##ision
##ides
##lare
RMS
792
##좀
덱
##rmo
##bia
domestic
##ficu
##icular
813
##nama
capita
Living
Magazine
Panamá
1673
Viejo
416
Tony
Hoa
Π
##έ
##τρο
##ς
##τρα
##mir
##ich
hai
Enrique
價
vale
gap
conduct
酉
1453
謨
1455
charge
##eis
##cene
Geological
凍
##lco
Copper
Ice
##pola
##kup
##lje
axe
suggests
earlier
believed
##seh
Gregory
##eger
Complex
Lakes
Bronze
，
Dol
##phins
1775
磁
Au
슨
Si
019
008
032
531
″
##SSR
Γεώργιος
γ
##ῆ
##ε
##γός
Károly
##dw
kor
Carlo
##ovi
418
006
036
652
就
hep
pare
µm
##meter
Hair
Lodi
##pur
Mats
##uda
Baltimore
##nell
Molecular
Biology
Fifth
Edition
Freeman
Lajos
##lete
higher
algebra
hab
##ilitat
restricted
problem
##ates
Masse
##É
##risk
theorem
ad
##szt
absolute
##dge
cycles
##endi
Fest
##schrift
##city
##nak
徵
3200
##онд
##оп
##ога
##ntu
##hja
##ndu
##оро
811
Куйбышев
輕
са
##ры
тау
край
город
республика
##ная
＊
倫
sex
##RS
AND
NGC
##AM
WB
Twins
CAN
643
↔
hour
minute
Hz
864
ep
##TF
atomic
fou
Prime
祺
1341
1349
1369
亮
1354
1356
濯
1358
乂
1359
1361
1362
1363
1364
換
鷲
1370
1372
瑄
獵
Pennsylvania
1740
1755
MBA
##cus
1779
583
Ivy
admission
rate
under
##grad
Rankings
##utati
Universities
Schools
Education
Zürich
Frey
Hero
##sé
Jonas
##rrer
##öss
##ische
##yte
##chn
Swiss
knowledge
##SL
Domain
##ön
##gger
Ir
##chel
Forum
949
暎
Universiteit
IEEE
Local
Area
Draft
##bit
MHz
##ac
Target
Wake
WP
infrastructure
1x
Zero
Fatal
Fram
ゼ
##ロ
零
蝶
〜
Crimson
Butterfly
Director
Cut
Wii
Soc
##kh
Exposition
partly
reflected
Russian
История
Со
##чи
city
##och
ancient
sites
Olympics
Hop
##kir
game
Fortress
##vka
##zs
Riviera
ghost
hau
hotel
Guardian
##uro
##pea
Map
##las
green
##wich
##mea
##nti
Investment
Support
Krasnodar
region
##vest
##ku
##ban
location
Region
ven
##tina
Guide
##gui
##dula
##danie
Cities
Landscape
Era
Berghahn
Kimi
##taka
##uzat
##national
minori
##ties
challenging
##state
Ming
##zia
hosts
Sport
Putin
##fir
GPU
##date
1221
##Р
##ос
##кин
##С
##овки
##А
##вр
##ора
##Г
##ори
##зон
##т
Ms
##lav
##ча
##дал
##rolle
detail
1030
bd
Pembroke
Worcester
Self
dual
topo
smooth
Souls
Applications
Mathematik
##ell
Tate
Né
Vo
##jta
genus
橢
##efficient
−1
珂
JC
666
蔡
Chung
##yong
894
##슌
Avon
##tsi
Respublika
276
rs
##cella
##neous
Goal
譽
Graves
##tone
Ecke
##rodu
##ced
Gott
##sche
„
seine
##mne
Eine
Einführung
##ize
url
oa
images
publications
noti
##zen
Feature
##gay
Walden
##rode
Nowa
Nei
##ße
Ny
##pert
José
Marcelo
Salas
##ina
Mata
##dor
sea
##gul
follow
tra
##wl
think
##rdin
thrown
##킥
OBE
##rafo
##ord
Holger
Greta
窒
nit
genes
Stick
##stoff
##sid
Nostra
chemistry
##boken
Interscience
##NO
Parker
012
1°
0°
1a
##Å
mol
##oby
Chem
##isty
6th
Belmont
Thomson
Cole
Child
Lab
network
AMD
##햇
Madrid
454
socio
€
Dong
##fen
Liu
##iri
##dani
##ásico
##ño
Team
Ranking
kas
##sies
Inst
##itu
##ción
Libre
##ña
Campo
otras
ment
##iras
TV3
Diario
##tera
##brica
§
Cup
Title
holder
logo
##rid
Quinta
##ác
##ticos
Fear
Story
Barcelona
Random
Alberto
Moreno
angl
move
Marca
bow
Ronaldo
£
ag
stretch
winning
Gareth
Bale
score
Lorenzo
Valencia
Fútbol
Corona
Blanco
711
win
fourth
Yahoo
##ñas
Facebook
Pages
##list
Ultra
##ix
Noi
##ibil
##kaj
Kleiner
Lie
##bau
##rée
Més
que
club
Ramón
Blau
Jimmy
Atlético
##iación
negra
Peterson
Marc
Him
Hala
Cousin
domain
hol
##omo
CBE
##펌
985
Colonial
Cooke
Colony
1526
1528
1702
Florida
##멕
1692
Weber
Frontier
1769
##ios
pueblos
Camino
Rolle
1664
1674
##mmen
Aman
##dus
##wed
Delaware
1682
1730
Hubert
Howe
##croft
Works
online
1676
Alan
Ronald
Heine
##mann
Dominion
Commonwealth
Virginia
1620
##tan
1663
Lords
##pri
##etor
1729
1733
1754
Vickers
Companion
1750
Percy
Rural
economy
beginning
century
1764
1693
##rem
Experience
Sydney
Light
##dman
Demographic
Cost
Sugar
##bate
##ieties
Americas
紛
##lico
Squadron
HM
##탤
Training
AH
VM
til
squadron
Til
Test
Evaluation
Medium
ME
Enemy
AIM
##eria
Vehicle
##llan
acquisition
##onnaissance
##agle
Tier
056
aircraft
carrier
Gerald
ba
旧
Tra
##cey
digital
fac
Battle
Sama
Tamil
##aka
Tha
##zh
##aga
複
票
Electoral
##istance
Nils
Wright
##æ
##hot
quota
enhanced
690
Samuel
cent
##샌
Gustave
Molina
Ν
ν
Noël
Babe
1760
##chus
##iet
é
##gau
milli
Counter
Intelligence
Weather
##ïc
##ité
est
République
##ivi
##sible
##ïque
sociale
##eci
##fy
generate
Grammar
##mali
drive
Categoria
Link
Tree
##ining
##ocha
##stic
structure
##xico
construction
Hilbert
program
structural
proof
##uka
##sie
##wicz
Stanisław
##ś
##kowski
Gent
##bina
anal
##yti
strength
ord
##inal
well
##ness
##öd
pone
##ces
##sita
逆
##cript
second
Stephen
Simpson
RCA
WK
ATR
##heimer
Dieu
##né
Léon
Mot
##gma
##fet
Smoke
CRC
##ffs
deep
詳
618
612
啟
Academia
##ica
Chinese
##лив
##ива
亜
湾
Lynn
爆
核
##otic
particle
Abd
Sala
Theo
Foundation
##tung
Medal
Lycée
##rophe
Archives
##rite
Collected
Essays
Penguin
Selected
Writings
serious
written
directly
democratic
understand
printed
greatest
writers
Police
##nk
Observer
##rick
Blair
ps
Bengal
unknown
transformation
Wigan
Pier
Ida
Mabel
Reno
##vation
Author
house
begins
bi
##pra
##bh
##avi
##pulsion
Sec
##ker
##dico
Bow
Royal
Golf
unos
##pace
Were
Ala
##ring
Norris
Inside
Wish
lower
upper
Henley
Oxfordshire
Standard
##lay
Publisher
##adh
##ams
Remember
Connolly
##rge
Parti
gives
successful
candidates
21st
Imperial
riding
test
Unknown
##lden
##ised
Hang
Burmese
Shooting
Elephant
Ruth
broadcast
Pla
##ques
Rue
Weekly
##paper
##gr
Poor
Peters
##hical
Development
##헐
once
met
##erg
##yman
Daughter
Complete
##ulli
Diary
Avril
Dunn
##imate
Sonia
Angus
letters
Borough
##ington
##ady
##lady
paral
##umu
Chat
Constable
Edwards
Dudley
##lan
Hay
##cock
##air
Interview
##mage
Catalonia
##rod
Lionel
##lling
OCLC
membership
Col
Telegraph
Continental
Andrés
Jacobs
Save
Hoover
Tuesday
Marx
mu
##ddle
##ple
##asan
Facts
Carr
essay
Cynthia
Bert
##elsen
Tomatoes
Patriot
Diaries
##dia
##press
Lion
Genius
tried
take
Jun
Have
Tell
Truth
Please
xx
Literature
bbc
Rebel
##UP
##rton
Ash
led
quiet
life
HarperCollins
working
bad
made
write
##monds
Scotland
road
political
Room
##mortal
pla
reprinted
Communist
##inte
Ez
love
government
KGB
##burn
Nation
Propaganda
##uff
##nor
Annals
##iable
Morse
##istic
classes
##bord
##pers
Steele
味
Жан
##не
##тты
##tte
Генри
Henrietta
##нет
##та
Bennett
##иль
##цкого
##хов
CNRS
##brook
##ires
students
fall
demo
##graphic
##pro
##file
Ward
Melville
Saturday
Combined
Masters
Engineering
##medi
##cism
##crat
Corporate
Executive
sun
ranks
schools
colleges
rankings
Colleges
##bes
bro
university
Humanities
Building
##vit
Lecture
Campus
Rail
쥰
킷
駁
Reeves
Bond
Aaron
Wall
終
巖
某
驅
銳
Ц
##зин
##ен
Jing
旅
狂
狙
捉
擲
慘
Ter
##enti
##yk
Nikolai
##bed
Leonid
##sin
Jasper
Becker
Rogue
##omi
guerre
widely
older
##eri
legendary
feat
suspected
being
next
step
build
image
elevated
status
hero
bol
leader
prove
tige
Mt
##ekt
village
##oun
##gda
disc
##redi
put
wasn
Sung
fighter
libera
##ted
mother
匪
決
圍
脅
泡
待
##ич
##эн
##vr
旋
擎
Ким
Сен
sen
軒
輓
##ベ
br
鼎
端
況
ケ
センター
惱
ゃ
魁
蠢
潰
朗
踊
参
##～
訊
##kok
Biographie
溝
汪
##す
##ず
039
綴
檔
纂
静
並
巻
004
１
##５
９
２
から
##２
傷
坡
糧
困
落
掠
衝
突
拯
垠
驍
誇
アルバム
謎
写
で
えた
##その
糾
する
４
３
C1
##７
##４
揮
粛
##０
５
祕
胃
试
论
苏
战
间
际
联
瞥
讨
游
击
运
动
问
题
给
历
汇
FF
ss
Apache
KDE
Ruby
Samba
##org
Google
##nty
Forrest
Stand
##alo
Cosmic
##alla
툰
до
##лган
ты
ки
##хи
##ха
##г
##2013
691
##nova
nucleo
##syn
##thesis
Es
##court
Atkinson
Energy
Stars
##idge
Geoffrey
Fowler
communication
1446
Acta
##urn
##DK
kin
##etos
##cope
##ward
Killer
Newsletter
##uge
Cet
##acea
##sor
Resource
亡
Ellis
Bal
Classification
##cae
killer
Olsen
##cas
Edge
Name
##ccus
Wildlife
Federation
##lp
##hin
African
##region
##esi
ball
##enas
##lap
Laura
visited
Gram
##pus
Larry
Hobbs
##ises
eastern
adjacent
Arctic
waters
identification
Cour
率
狼
##once
biology
##phology
Baird
Vancouver
Scientists
white
Canada
Find
##awn
Reuters
Seal
Waves
Robin
Voyage
Still
##water
Spy
##hop
NM
틱
studies
Deep
##over
Pilot
TP
##ab
##ael
Gran
gone
pod
##lich
Sara
Bora
survey
coast
Zealand
documented
males
ben
dorsal
fins
Born
Nam
##cov
Men
##Д
##ух
##овна
культура
Spiritual
culture
##sect
Indigenous
Rights
Под
##дер
##жка
прав
кор
##енных
народов
Сибири
Eski
##mos
interview
scientists
animal
examples
especially
Asian
Spirit
922
NSDAP
##ule
##führer
Schutz
##ffel
Ober
##gruppen
Allgemeine
Waffen
Ordnung
##oli
##zei
##itische
Staffel
Toten
##kopf
##verband
Sicherheit
##sdienst
##she
##rdes
Ersatz
##heer
Volk
##turm
Death
former
##zinger
Himmler
##솜
귄
883
弑
##combe
##tadt
##tiny
Orlando
Tragedy
frame
1427
##uk
##hov
##tez
Leningrad
Mol
##vard
kap
##ill
##iset
Suomessa
Rebellion
Its
##cend
##ants
Finland
##kki
Wes
##smann
Icon
ido
package
att
807
Да
##мба
##ржи
##ева
хор
##инский
б
д
е
Ё
ё
ж
з
Й
й
л
м
н
Ө
ө
П
п
Р
Т
т
У
у
ү
ф
х
Һ
ц
ш
Щ
щ
ъ
ы
ь
э
Ю
ю
я
Леонид
Васильевич
По
##тап
KV
##LS
bem
GB
MGM
##NI
آ
##ذر
##ی
循
ә
##ты
чу
##куп
язык
륜
##ор
##уз
##нец
##кие
татар
кон
##дом
##ские
##рас
975
Samo
##yed
dog
##portation
Acad
Rouge
Rhin
Need
Choir
iste
##sso
Troy
Dora
##bella
ny
ning
ga
dan
nang
nen
ö
ü
##ālo
##pou
粹
祉
晃
##oo
##fon
1739
1787
瓣
潼
蹴
##꺾
##NL
qua
side
##ways
eta
霞
樑
Levin
generator
衣
艱
Juventus
Bianco
Nero
##neri
##cchia
Sign
##ora
##bre
Tau
##rini
Giovanni
Trap
##oni
Mundo
Deportivo
Extra
##cts
County
鋸
烙
蹄
morning
##ote
##uth
##lo
##ops
綿
갯
\
frac
maximum
sini
sin
##akt
##tar
##of
##lex
##tare
Lei
##mbar
bay
##onet
Mount
##lera
606
1757
岑
仍
洵
宙
往
lb
STS
Constitution
mph
max
##biter
Design
Aero
Morton
##kol
債
敍
誼
1749
乾
儲
1756
憐
哉
坐
悔
夭
慕
1771
1786
1759
跟
藍
棘
儉
最
峙
僻
盜
莉
茉
蹟
誣
##옆
1817
濮
Horse
Water
ウ
##ビ
##ソ
##пас
##ское
станция
##ген
##ьев
TK
TSR
trap
modul
##ponenti
##ama
麿
Instituto
Nacional
Estatística
Censo
1687
Fortaleza
##ji
Memoria
Osvaldo
Vieira
NB
MMA
湄
沱
890
##³
UMP
##cano
##xica
Chico
##cana
Rodolfo
Cork
Joaquin
Villar
##real
poc
##quez
chica
Sinclair
sand
##sne
gar
sot
Raul
Salinas
Oscar
Zeta
Acosta
Guillermo
Gomez
##teca
Guerrero
César
Chávez
Rodriguez
Ritchie
Vale
Carlos
Santana
Joan
##ez
Sunny
##steria
rhythm
blues
Lopez
Malo
Toro
##tli
Volta
Cedric
##vala
Jen
Rivera
Kid
Frost
Mello
Ace
Gang
Lil
Rob
Capo
렐
Psycho
Selena
Jennifer
Christina
Aguilera
Ricky
Frankie
Mystic
踏
釉
1413
1513
Od
計
圈
Fire
RD
Inter
##base
light
##weight
##BSD
ASP
Mozilla
GPL
##SQL
Server
Guthrie
Proc
Geography
Tai
##aw
Julius
Petersen
Hee
Koch
##ging
rings
chains
##ppo
gate
Color
Kenneth
806
Batu
##ğ
##ças
##ara
擇
1767
凝
審
奠
酌
翎
瑭
Germain
Lay
commune
豐
綾
還
##finder
戚
甕
箋
梓
饌
篆
宴
旌
裁
緬
覺
祝
詹
羲
祚
膳
〔
〕
扈
陞
Enterprise
Government
Plata
##nist
Randall
##dub
Mammals
Knopf
##phi
##idae
##tidae
##gia
India
域
778
768
775
##msky
Powers
Reflections
Pluto
Homo
sapiens
##밟
##lat
Maxim
sit
Advisory
##mera
Opus
Dei
##ware
Carmen
##pia
##─
Bomb
─
Together
friendship
Very
Circle
##ternal
correct
##lice
morti
##ronica
##icias
Hume
Diocese
Westminster
Walsh
Vittorio
Mess
Patrice
Mag
##ied
##lander
Croce
termin
##tling
Parish
Priest
妨
拷
VfL
Justin
##lb
013
Universal
##evan
裝
hyd
##raz
Emergency
Å
Prentice
##lle
Academic
Diego
Aux
##ilia
Frei
Boeing
367
720
B5
717
glass
##ckpit
Next
738
RB
##verte
twin
engine
jet
Classic
wide
body
pass
ratio
core
turbine
momentum
Bombardier
Somali
sl
landing
Kingston
顫
tr
flight
display
EF
Flight
Engine
Crew
##rti
Aircraft
classic
RP
random
pol
##yn
##omial
Павлодар
Департамент
статистики
##ской
области
##tora
abad
1483
Short
Barra
##cuda
LE
##rkan
##roads
Culture
332
Mara
##kan
sam
##ă
##mara
town
kan
Marka
PSP
##ār
##ā
RM
Don
##nie
##urg
##rj
1398
1408
1409
褒
1438
1442
1451
1399
857
901
逵
萱
892
煊
鬱
黔
幢
停
勃
塹
##plus
莘
902
訶
楓
甑
彌
914
##챙
閻
萇
##nos
todos
os
países
mundo
Panda
##hik
##istan
Texts
Civic
si
dus
tj
829
839
1063
955
Serial
Phoenix
API
Places
Para
##diso
##nne
Aurora
Beta
add
##zil
CSS
Fast
Soft
Cyber
##net
Browser
##pide
V8
##GL
Hard
##ock
##we
possibility
proprie
##tary
works
chose
compatible
Firefox
replace
scheme
PG
Coral
##cation
##bar
Key
events
via
trick
bug
Portable
Extended
Release
ES
fire
##ssin
Foods
##yst
paper
##mmer
trim
Jin
citizen
##uben
##vite
citizens
vent
##ices
wins
women
ska
##citi
interna
internet
ネ
##チ
##ズ
##ット
ザ
粉
盤
雌
##эс
бо
##ц
seng
砂
烹
蒸
曆
цу
##с
串
1719
ICC
##ètre
##log
##ramm
Seconde
##férence
générale
poids
mesures
Syst
##ème
##és
cd
rad
Windows
x86
##erien
##led
cn
1386
tag
##nco
ISS
wi
##cles
##oft
##cycle
Mac
HF
mac
BSD
##isk
##hav
499
##station
Mk
##inu
Micro
##erne
Linux
##ables
Kern
Box
##ely
##eta
Puma
Jaguar
##hat
Panther
##code
Image
Video
Audio
RSS
Leopard
UNIX
Snow
##der
Apple
seeds
Safari
##CL
##veri
##cks
Tag
##play
Dock
Mode
Late
Macintosh
Siri
watch
inch
iPad
Silicon
itu
genre
2D
Je
Espinosa
Joanna
Hoffman
Crow
Horn
Jerry
##feld
Kot
##tke
RAM
##into
##mut
##sling
##ulle
##III
##int
Lotus
Jazz
##mming
##aker
##rome
##and
Plus
fan
##aris
##roje
Impact
##Works
flat
panel
era
operative
multi
##tas
##desi
##gn
Industrial
Station
##pad
Pentium
##lone
Computing
hall
##mark
##dler
Cube
nan
##rne
Services
Darwin
scholars
establish
genetic
relationships
families
little
success
からの
##こと
##ば
Corée
Corea
Gustaf
Rams
##tedt
##vin
##gur
##yo
isola
kot
##oba
E3
linguistic
reports
Arbeit
념
##hard
Prof
##iciency
腹
隸
蝌
蚪
룡
##ël
Bellas
menu
897
或
##eni
systems
rand
##tta
022
婚
Mat
##iga
##taan
Ini
Ulysses
##얻
1230
1248
Ridder
pk
Document
Format
Bien
Version
Adobe
rende
##voy
Common
##allo
dj
##vu
standard
Prag
##wiki
wiki
##iden
##ow
Magnetic
Select
Type
輯
##ffice
ASCII
Hangul
rpm
deb
##pm
lock
##GA
##anc
##DB
##ans
od
Gara
##mond
誤
ASV
##CD
Kenya
ere
##ctus
KP
ara
Moi
Coalition
週
Nairobi
Ewa
##iro
PKK
Russ
Wallace
dar
scholar
Carroll
##rint
Origin
special
claims
attention
significant
fundamental
permanently
alter
vision
argued
ri
consiste
##ncy
##oq
##uent
evo
##cati
##cally
Shrewsbury
Episcopal
Reverend
Theology
Keynes
moc
facts
stability
##book
reforms
publishing
years
Notes
1098
017
Sul
Finch
Legend
Browne
Read
americana
Proceedings
Zoological
##wki
##usion
bibliography
DSM
##tism
Abi
Sabina
Dos
journals
brit
##ych
##iat
aut
creat
link
exception
ability
fit
##gera
lo
tay
##lor
franc
964
##BB
reader
Ost
##rese
##ntation
mark
##oste
##erling
Brod
##sek
##섹
Pod
##ě
Jakob
##wy
##bens
##chule
Mas
##ná
Mit
Alt
##stä
##dte
Gymnasium
Stare
Mesto
##nský
##icu
##razioni
Bro
mill
eng
theatre
##sens
##ká
Ž
##ž
German
Verkehr
PGA
Beethoven
Kap
##meister
Magdalena
##yer
##eden
Pfeiffer
##ovan
Wege
Breuning
Jahn
Albrecht
##sberg
##ieri
롭
Cooper
1798
depth
##otion
level
originali
ingen
##uit
motivi
tona
##pulation
musika
##lische
Zeit
##wi
Josef
##ří
Theater
Grove
耳
Ist
nicht
Solomon
Clive
Missa
Sole
Gesellschaft
##fre
##unde
##nsky
1150
Johnston
Austrian
Berkeley
emperor
din
manner
silver
laid
Gates
##önen
blau
Donau
Dana
##pris
Danas
##tius
apa
##zdy
Herodotus
Histories
Julia
##ande
##uli
connected
disco
##cted
蔚
344
409
鳩
拘
什
訳
諦
##mā
##rā
##yana
炎
涼
##ogy
Tin
##bergen
Konrad
Comparative
psychology
Mondo
lycée
##oti
Simone
Hie
Franc
Théâtre
Alger
Republica
##ony
Combat
Beau
Café
Flor
pied
noirs
sens
##ossa
##rma
##rin
Cemetery
##luse
Provence
Alpes
Côte
Azur
##ault
Cahiers
Libération
##tés
combat
Sérgio
Willi
lu
##stig
##nges
##chte
kleine
##frage
Schatten
##nä
##chine
Das
##mä
##rchen
Written
Hann
Phan
##tasi
Politik
eines
##espräch
Fantasy
conversation
Norbert
##cken
##dic
##ckte
Nash
Mirror
lab
##yri
##nth
Filem
##lten
##reich
##ggo
libretto
Jagd
dem
##hla
##rg
##lm
##ond
##legen
lange
Weg
Cruz
##änger
anything
goes
##deka
##οί
Messi
1726
1747
1742
旬
1738
型
##낫
##leu
##cid
##bee
Has
##mona
Dynasty
##dae
##zar
Edo
##mite
##azi
##quis
##ruz
##huri
chromosome
founder
张
俺
开
赐
帽
software
1743
##vois
15th
842
che
##logist
Bali
##bid
##cules
##iques
chim
Donovan
science
administration
Mémoire
sur
##bustion
général
principe
##gine
##fel
##ions
Acid
礎
##hode
nomen
##ture
dictionary
literature
11th
cha
Gazette
249
##è
dis
familles
臘
##ï
##xi
Merriam
Webster
Collegiate
seventh
week
##ör
##stag
##saba
Limit
Führer
##gd
##øy
##idt
Nan
Nas
##jonal
##bov
##skom
##missar
Tromsø
Troms
2558
##undsen
Umberto
##bile
Blade
Nord
##lys
Pedersen
##for
Sinne
Playing
確
limit
limited
exists
Wesen
liegt
ihrer
Freiheit
Aus
##dies
Cantor
uns
geschaffen
soll
niemand
vert
##reiben
können
Une
##ema
##tische
description
quant
Emma
Seymour
Hicks
Always
Wife
Pleasure
Lodge
Pictures
Ring
##mail
Rich
Strange
Lord
Cam
Ladies
##umont
Much
Agent
##bot
##lz
##nick
Sus
##pic
Mrs
##dine
##lanti
Stage
Curt
##ain
##enz
##orio
Hitchcock
575
стал
Nad
##ezh
##ilu
##뽑
Nikolaj
##Е
Assassin
##ryn
Finding
gained
##cta
approval
pers
##istent
appeal
tele
##post
##ils
opinion
000291
436
NEWS
seg
Articles
##dar
##stve
##nno
##opa
##sno
##sti
##дение
Берлин
mart
Command
##dance
quelques
célèbres
##mètres
XVIII
siècle
Pétersbourg
strong
weak
odd
Oliveira
Silva
prime
##ED
Film
Palais
Festivals
Congrès
Jury
Eugène
##tier
То
##лс
##то
##́й
##sil
Brain
Journey
##dos
##chter
Density
Mean
local
density
generali
gradi
consistent
exchange
B3
##YP
##cture
^
representation
plane
wave
orbital
Gauss
pseudo
##entia
瑜
Edison
Alumni
Salle
##zier
Green
Hornet
Kato
##lowe
##street
Warrior
Kung
Harvest
鄒
Boss
##ouse
Hong
Kong
Baptist
Host
##pital
##ito
Fighting
##qua
##gesi
Elizabeth
##venture
Tea
Wu
Grave
Site
搗
##ʊ
##əm
##ə
IUPAC
##rca
series
chemin
download
file
##OH
Television
pay
Dem
ATV
##dig
##ital
ITV
DVB
Ontario
CBC
Fly
##jalan
##kos
##asa
Neo
Cover
##tex
Premiere
##nium
Enric
##aniu
##ssion
Weapons
Resources
Defence
##fic
det
##ect
tracks
north
missile
launch
##uter
##korea
missiles
engl
allt
##wright
range
launched
933
998
1261
##tago
spoke
##sman
inverse
night
##was
Express
擴
##life
播
##hair
##bedded
eo
Font
508
Empire
##igan
Dor
Kinder
##sley
lati
tribu
##peri
Hooker
##istrat
723
724
Liv
##uria
##dering
##urd
##ue
chapters
BCE
##perator
##ibus
Romani
VIII
Herbert
##ario
Connell
##arre
592
Civilization
Bois
596
##isen
Pohl
Calgary
475
Nathan
Bray
1025
Gibb
##rku
##tto
##mans
Whitney
Morley
Metropolis
servi
nobili
novu
##leta
##rii
tribus
cum
su
##rag
sine
familias
patria
pot
##estas
gens
gente
maiores
Werner
litt
magister
##inn
##dze
gram
##zak
##itas
##efe
price
557
559
Civil
Pere
##gri
villa
insula
##egi
##erna
Lehmann
Jonathan
##aty
##szak
nume
geni
Collegium
##if
pont
##ife
maxim
##amen
rex
sac
##lass
##rout
Pal
Matthews
corn
##cina
lit
##uus
##posite
##sca
##blo
##wing
591
##loa
maxima
Supply
1038
##ei
##ved
Published
evolution
##bria
explosion
selection
##mble
Barn
Baker
##ville
McCarthy
Brief
Speech
Pavlovic
##dele
Dmitri
##eva
##ogical
毒
Inf
influenza
##rami
cold
RNA
Ort
##yx
##ridae
##my
##xo
##vir
fer
viri
##µ
viral
protein
##agg
##lut
##inin
lec
##쌓
3a
##RNA
mRNA
##elta
storm
live
##cci
killed
##far
##lane
##mino
##phen
##cet
##amo
Rey
Cochrane
##mant
##uilla
Barr
Edgar
drift
shift
fred
##do
epi
##demi
gr
Bush
Patrick
Lai
##dla
Wende
surge
Xavier
infection
Fel
##hino
##tra
cal
##ogen
zoon
nag
chu
羌
惹
瓊
錯
吐
蕃
慰
朵
##üs
촨
1714
1688
1694
1710
1713
Sparrow
BV
beyond
visual
Bloody
Sunday
Amelia
##nton
Robinson
##vel
525
Selma
Montgomery
Trail
871
##box
##bone
Illusion
##rion
炭
precursor
##−
ort
eno
##aton
##eny
##zona
較
##SF
Dog
Mouse
Karate
Guard
Warren
##lie
Harding
Caledonia
##gus
Marion
db
撤
设
为
个
级
务
批
复
춰
##sam
##tse
##ê
##zhi
ka
##shi
##tsa
stod
##elu
屈
氷
斑
Um
Bright
##names
Oklahoma
##ём
絕
ubi
E2
liga
NF
##oc
##osis
transcription
coupled
repair
##some
Cie
##ram
Irwin
Tem
##pla
sem
contain
ada
##ors
bid
access
strict
fun
pred
nt
element
operator
##menta
Range
Missile
weather
##SA
Norwegian
DDR
淫
切
Beth
Joint
Strike
Lightning
FX
Marie
Lockheed
1110
Rodney
decree
holiday
Belarus
Moldova
maintaining
average
salary
506
516
522
524
537
238
Andrei
##eş
Gheorghe
##mur
##esen
##ilor
isto
##rie
##eș
##ră
Vasile
Ol
##tean
##nul
Național
##ște
##tă
român
Brașov
342
375
428
432
433
445
462
473
483
494
澗
葆
展
DD
Glory
滓
灰
麴
醴
##oz
##lli
##ご
##tere
rice
wine
##xir
Wine
獅
1706
Does
Brazil
Tornado
Texas
Cindy
Sherman
##stru
photography
688
dada
##baret
Voltaire
##feste
Dada
Clément
##otta
##pier
Hugo
##zara
Marcel
Barry
Lamar
##LC
796
619
743
##ече
##нский
Ин
##гу
##ш
##сет
##аба
##рди
##лка
##рский
Кара
##чае
##вский
Zu
##holder
Richmond
761
Scarlet
594
prova
security
exact
concrete
DEM
Programm
Vertrag
##sgemeinschaft
##prache
CDU
Allianz
fur
Deutschland
Lothar
1066
1675
Mid
does
##nou
##upa
TT
Chorus
Yourself
Eo
Usa
websites
##ech
Beaver
Build
Element
prints
##cover
Neill
Someone
Listen
NSA
IX
##van
troops
separat
##lash
Milwaukee
Sentinel
newspapers
##IB
##cea
##neg
581
Logo
Sands
Sinn
##éi
rev
##olu
Theorie
Jeff
Goodwin
Other
Revolutionary
1486
PS2
scientific
Barbara
##엮
Léonard
Él
Descartes
##sse
Oliver
relativ
##ising
1652
573
##bii
##gat
Infante
Vila
1481
Skin
##zie
studio
##glo
centered
##vus
mafia
Mafia
Made
Tun
Chu
Shin
##ruption
幫
Jackson
Ching
Francisco
##qing
筋
枚
傾
貸
哥
##ара
##тас
##brella
Commander
##ena
##mbu
833
●
1698
1484
##mu
Carles
Mechanics
Newark
Trento
edit
print
096
A2
Sve
Stanislav
##isa
##bol
##ić
Branko
##šić
##jana
Marko
##vić
Marija
##nka
텝
serial
946
##횟
legal
mind
process
graph
width
values
scales
zero
scale
properties
fill
##blu
offs
effective
equal
opportunity
884
Io
Mundu
##vial
anno
Pers
##gic
1613
suggest
Kepler
Jupiter
eru
##ptive
##reus
Nun
Pasadena
color
erosi
signs
ESA
volcanic
±
劣
1×
ring
structures
6°
##rons
Near
Infrared
µ
sta
##gnant
lid
Gori
Strauss
##enberg
Pia
Armando
Diaz
Bose
1320
pm
Charlotte
Champ
##cate
Symbol
Poetry
##rock
Quartet
Dry
##vages
##idd
Murder
Cathedral
셜
Cat
Expo
##CH
##band
##thes
##izer
##orce
GT
VR
dB
Dolby
##AX
L2
TX
Graphics
IGN
XIII
##™
DL
Profile
PlayStation
##nica
Maguire
1239
Forbes
Tae
won
##캉
Concordia
Fou
##uen
686
tabel
vaste
##tega
nel
##jell
＂
##шы
##з
##сы
##ъв
##бина
Vietnam
##onan
Capital
##walk
1490
1419
1305
970
1424
Österreich
##bund
##wara
##rmat
##hara
##sana
Salt
sat
Vice
##roy
艦
Fort
Versailles
偏
latitude
##oar
##voir
μ
Tas
##sig
Triangle
Drei
Sommer
gleiche
##schen
Himmel
dark
##ening
Cox
##yū
##ūt
Ami
##tab
##tay
tỉnh
Đô
thị
loại
đặc
biệt
Thành
phố
trực
thuộc
Trung
ương
thành
huyện
xã
phường
083
635
Commissione
Construction
Dam
Greater
##kong
Qu
Duo
##dim
budget
affected
sequence
dam
Geo
##pts
##tog
profile
Events
Conference
##얽
Ernest
deu
##biq
##inat
##unit
loading
presentation
Fisher
##vic
Robertson
MJ
Vos
Krishna
##nial
Stadt
##mauer
study
bort
patients
##sed
##tle
ly
##col
vivo
肥
mas
##lma
aller
汚
染
Rodrigo
Muñoz
López
狗
Chiến
tranh
Đông
Dương
큼
##iker
Minh
##땃
Sinh
Nguyễn
##ất
quốc
học
阮
##av
Thanh
Nie
PCI
Popular
Blum
爺
巷
蜂
Prison
Strategic
IEC
ß
ñ
å
##ска
810
圻
##oux
号
‰
SED
##wan
竿
莒
媽
犬
閩
1180
Willis
Train
Willy
Truck
便
Barbarossa
昆
1253
1353
##cast
NEC
##ogi
MIDI
1085
046
Soon
##gs
揺
籃
##əs
##tä
Ity
##гел
##ьная
##уба
##оме
Има
##дут
##инов
##жие
Из
##яс
##лав
Із
Wilmington
Би
##йский
Ен
##ейс
##аи
Красноярск
##ий
##рым
Томск
##уха
968
979
##cis
origins
Poul
##mad
Fact
##ets
Safe
Safety
oz
睢
戟
緩
gray
##aster
##pens
4th
Vision
##pest
Strong
##hold
Exodus
toll
help
sight
reading
singing
presenting
Elias
Eli
##dote
opere
opera
##ntis
##υ
##στ
##ριο
Sacra
##mentu
##삽
##off
TS
1B
LR
GPS
Year
Earth
marble
##ale
SAR
Guns
##uch
ll
really
miss
Simpsons
Marjorie
##vier
##olo
##ded
##iah
Mona
Poe
##bie
Ned
Flanders
##sting
kang
kod
EPA
tro
ら
Aldo
Huxley
姻
茶
傀
儡
熾
door
oni
##uting
##verso
Reed
##schlag
Ding
Nick
Oni
project
TCP
Hell
##gers
##tad
UDP
DNS
alpha
Symposium
##vacy
Dane
##zis
Low
bridge
flash
Ob
괌
##rail
##zco
event
##vent
##ota
679
info
korai
##hill
Sussex
Dach
geographical
centre
Lux
722
Iso
##nzo
Trentino
##etzen
##dorf
Verona
Falk
##hay
##kl
##ussa
Cullen
##oss
Jane
##sd
##chor
Phase
662
Turki
熏
逢
橡
Straits
Settlement
MCA
Minister
Housing
eje
ASEAN
Armed
##rupt
Investigation
Judicial
Brunei
Corpo
##hment
offen
extra
ea
Hoy
Elliot
##gata
Birds
Vu
##ltu
Guinea
Lynx
Edicions
EL
醮
Newport
Russen
Russo
på
##oja
##оя
по
Fernando
Márquez
Nach
##rla
Sierra
los
##gam
##oides
Dina
##rama
Fang
##oria
Bola
Cristal
quién
import
う
遷
亶
##rier
##rtar
Wide
##lve
##ende
Toma
##hawk
Ship
##shu
Returns
##stand
##IV
廬
渥
鄂
渭
1456
director
mail
##vert
Solutions
AOL
##izo
Yet
Hier
##arch
##icio
Oracle
費
producer
professional
掃
Take
##style
##cies
##sume
##zo
##uve
璜
杭
887
俶
971
窯
Match
Vert
Launch
##rua
##yg
2n
##yai
##wie
566
technology
Electronics
Mission
Operations
Horizons
GHz
##uida
processor
★
##rm
##crit
##LD
認
##ography
charter
Eisen
Accessed
##ove
##mus
turi
northwestern
迫
FAA
ā
##ány
##áng
##ój
##ì
##ǎ
XI
Industries
957
Hear
mortal
sound
broken
noble
ent
worth
throne
opened
Provinces
Argentine
ones
lau
##ernal
able
achieve
crowned
##lory
##wear
Sting
Vers
Org
og
FL
##iki
Radar
##anne
Hội
trường
##ống
##mic
Butte
##lies
##흰
##vement
Knowledge
Distribution
Maps
##tler
2535
2542
Professional
##ffer
##ences
obtain
latest
pack
raw
##cket
controls
fixe
any
doubt
##enic
Catholic
##tur
##gical
Trent
Quo
Response
##ardi
Certain
Doc
##trine
Jedi
##nci
##lien
Herder
Freiburg
vous
dira
Mama
礼
佳
悠
ジ
##ャパン
勲
菊
綬
秩
##ensa
Romania
##cole
##ctura
##grafi
##că
României
##isu
##nă
##нат
##лис
##мор
##иш
##је
##š
##ħ
##ēta
gama
ji
ente
going
##zane
Č
##ithe
travelled
Wladimir
Obra
##dov
als
##held
Zur
##ierung
ser
##bischen
##lichen
##bild
durch
liter
##arische
Kommunikation
Olga
##sia
##rdi
##eter
##yf
##uss
##ass
##ino
##lou
Studien
Geschichte
Süd
Frankfurt
Publishing
##én
Shu
##gli
##ú
A6
Reisen
##ón
##bě
##īn
##ín
HR
m³
Kur
##vez
Progress
prop
##ellan
##hz
ITU
Soyuz
Running
articles
##ization
bacteria
##gal
communities
surfaces
Hán
¥
voci
##fero
campaign
alleged
communist
institutions
carried
Senator
period
Many
accused
black
##liste
lost
jobs
although
belong
Activities
567
Lists
Haynes
##ongo
##bong
aim
##lef
##rth
Reds
Tre
##ason
##acher
Terror
Hate
Legacy
鱲
m²
##laza
涌
菱
ふ
##そ
扶
Padre
##fare
##ěny
Tá
¢
##LM
Terminal
hectare
acre
monitor
gul
Aki
speed
stars
##ји
##на
Kraj
A7
팟
낌
637
敗
彩
描
Chao
##chua
##リート
734
ロ
##セ
Shot
Kun
##tej
Akademi
Esperanto
##atik
##amento
##ilo
oil
shock
욤
מלחמת
יום
כי
##פור
##amma
##rych
009
016
1292
##lej
##rising
Poland
Jerzy
Janusz
Europa
##mna
letter
Tribune
611
##dde
##bu
##owa
Visa
##yas
ton
PJ
PK
ABS
##vis
cc
648
Nm
VV
8D
rive
Later
##DI
Budget
Plaza
Premium
Lounge
Musée
##atique
##ui
##met
Parks
1468
1514
Treasury
##SU
伽
倻
Solid
殻
Alone
958
##rono
Ajax
inner
application
Flash
筠
謂
倖
耗
Â
Ê
Î
Ô
##nom
##oj
Kritik
ŭ
##war
Alfa
##bet
ʔ
##dis
vad
##hit
Where
kilo
mille
Fuck
1070
ing
1520
媛
弊
巢
explore
Beyond
026
凹
渦
靴
稼
拐
涯
喝
褐
缶
頑
挟
襟
隅
渓
蛍
嫌
皿
桟
肢
蛇
宵
壌
唇
甚
据
逝
挿
槽
棚
挑
眺
釣
塚
泥
搭
凸
把
漠
肌
鉢
披
扉
猫
瓶
雰
塀
俸
抹
岬
妄
厄
癒
竜
枠
燈
灯
栄
える
憩
か
##れ
謡
##ウ
オ
膚
##くら
阪
埼
茨
刹
賭
遡
哺
錮
勾
毀
憚
哨
挨
曖
嵐
畏
萎
椅
彙
咽
唄
怨
艶
臆
諧
崖
蓋
骸
顎
玩
伎
嗅
惧
窟
詣
憬
稽
隙
桁
拳
鍵
舷
股
喉
傲
頃
痕
挫
柵
拶
恣
摯
餌
嫉
呪
袖
羞
憧
拭
芯
腎
凄
醒
脊
羨
詮
爽
痩
踪
遜
汰
唾
堆
誰
綻
緻
酎
貼
嘲
捗
瞳
貪
丼
鍋
虹
捻
罵
剝
箸
氾
汎
眉
膝
肘
訃
蔽
餅
璧
蔑
頰
昧
枕
冥
麺
喩
妖
瘍
拉
辣
慄
侶
瞭
瑠
弄
籠
麓
脇
勺
錘
銑
脹
埠
algorithm
yet
seen
verte
while
DIN
A5
Brüder
ae
Māori
；
瑕
疵
擔
reverse
consensus
Steve
詐
欺
罪
Tat
##tand
##keit
##huld
罰
fortune
Ceylon
tea
##ense
Adventures
##SR
採
援
##var
close
##aur
M6
Matrix
IQ
##каз
об
Иван
##рак
его
двух
брат
##ья
##х
Се
##мене
во
##ине
Та
бр
##хан
нем
##ой
се
##стр
Мала
##нь
ст
##аро
##вол
трех
че
##рте
##нят
##ах
Poll
##ficial
##čić
##rija
##hole
Erin
##uren
hed
##hog
ぎ
##ものは
##あり
##ら
蝦
parts
1425
cento
٪
SQL
Bala
Roy
##빵
##dida
Lac
##cil
san
##sce
##nsis
Rosa
##ough
Minneapolis
Rein
##hart
##rust
Lor
Kitchen
sou
##rdo
##ugh
Eclipse
Cannon
漆
independent
implement
io
##iza
String
Editor
get
sette
窓
##jeva
##cise
determination
motion
planets
astronomi
constant
observations
IAU
##uiu
Solar
Asteroid
Cunningham
Monat
##dez
##rere
Ferdinand
Δ
##ή
##μη
asteroid
largest
then
talks
crossing
belt
exist
dwa
planet
having
designation
1020
1021
anh
##rous
##innon
Large
Being
Into
Outer
Astronomical
##rate
3°
IUE
listed
rounded
uncertain
sig
Properties
Asteroids
Arizona
particular
chance
ocean
Ang
generated
##meri
Quant
##ṣ
##aj
guru
vai
##ḍ
##rya
##āja
Buddha
Edmond
Halle
Edmund
1678
Synopsis
Astronom
Comet
##icae
1672
1684
1686
1691
1695
gali
Catalog
##iles
Philosophical
##action
Alma
##gest
kome
Caro
mint
##fied
Catalogus
##rali
Astronomy
Comets
##eles
Apollon
Nicole
Reine
##rten
##iot
##oration
Amb
empty
snow
falling
driven
ground
hard
##rage
淘
artificial
breeding
fitness
Competition
##away
son
hypothesis
##tation
spring
##wer
Miles
パ
##アー
##つき
OVA
1746
bill
billion
##eji
##GC
##kit
##zent
1056
1680
##iselle
ou
##phile
##utier
Jules
##noy
##risi
싯
##lari
Bath
##ild
Mitchell
Dance
Theatre
Harlem
Ek
UU
Here
Mundi
1402
Марко
鎖
##hari
##riy
##umo
Transportation
##stop
here
##dou
Associates
##riva
Nathaniel
Hat
##horn
##σ
∈
∘
∇
∞
飢
餓
Consulta
Status
##à
##mé
##í
Airlines
圳
Youth
mission
Make
Known
Jesus
##gel
relationship
based
suport
depende
upon
financial
provision
##iples
Omega
zone
梅
pull
##down
UV
##pling
aspect
som
##ben
Lance
Printing
Card
Typ
##brar
Students
##cri
##bing
Making
Graf
##fficial
programme
manual
粒
潔
D2
interest
heavy
drugs
##oum
ho
Milton
Catherine
Mill
Dayton
Otis
##eth
Alphonse
##éna
Laurence
##nbar
penn
far
Lili
##hal
Langley
##ave
Chan
Leonardo
Vinci
##lch
Devils
Hills
rud
Jak
룻
##sl
push
##drome
##hid
Daniels
Doug
##rew
Professor
##lick
Prairie
1244
Patterson
Amos
Root
Bluff
##eurs
##iers
##rnas
Banks
blu
##ffe
Mans
##aud
##ières
##éro
Besançon
Edith
##lée
Madame
##lee
Federico
Valle
Fulton
clima
Matthew
##lton
Glenn
Curtiss
Indianapolis
##eh
Martens
##mele
Rodgers
Eddie
##cter
Griffith
Brewer
Lindberg
Wilton
##orn
Administration
Aeronautical
Chamber
Commerce
ACC
Aerospace
##kell
Guggenheim
Fry
##stellation
Wood
##mter
##kini
##gem
##emble
##nem
Salomon
##ader
##ssem
##bler
symbol
061
ado
small
hell
message
Alternative
Damon
Camille
Talk
Price
1327
Rowan
##ode
綜
嚆
矢
址
##aea
棧
藪
舌
衿
##culture
##cons
滑
entity
##FF
##EB
夾
##ndre
proposal
Venice
鷺
呼
吸
hydrogen
aq
2e
oxygen
4e
Pt
##wal
Hydrogen
production
solid
routes
organic
water
##ysis
##aly
conversion
##hanol
distributed
generation
##roch
##imi
Clean
solutions
saved
reform
Sources
Lam
##roca
##tal
##xida
##brane
Carbon
coal
Hyun
##vind
##jit
review
Role
iron
species
cost
Faro
electrons
Ano
Gas
diffusion
Gibbs
##aday
equivalent
weight
##ult
##kali
##rop
mach
Half
should
interpreted
follows
##xide
043
Opera
organ
Dome
pianist
Liszt
##Net
Pauline
Bay
Paterson
Neil
##iman
Ø
限
guten
session
Casey
1832
dra
Aa
aa
Ai
AJ
aj
Ak
Ao
ao
av
aw
ay
AZ
az
Bd
Bf
bg
bo
Bp
DH
dr
ds
dx
ef
er
eu
ez
ff
fx
gh
Hg
hk
hp
Hr
hr
ie
ij
ir
Congo
KG
kl
Km
ks
vertical
align
ol
##leh
spatial
##μ
LM
MX
mx
np
NZ
Lectures
Ok
ok
ot
##come
Spice
pl
pr
PV
##reme
ħ
vare
##psilon
≈
contract
με
mèt
1668
Wilkins
##¼
##hain
斤
##ile
緯
##mile
unit
pars
##lax
arc
Angst
##hr
radius
tenth
meter
##π
anv
thi
rat
##chet
dia
indicato
Johan
鋼
kHz
慣
Navigation
Annie
qu
Rt
Sb
sg
sm
Sonic
Sega
TJ
ty
ua
uz
WC
XL
ye
yr
za
Maker
Roi
exclusively
magic
opponent
fame
##ister
Crowley
noted
extensively
throughout
##Millan
Martins
poet
Wikimedia
##ann
##ghe
##ply
Beginn
Crawford
##nur
Wilson
Reform
Protestant
Issue
citing
Humphrey
Carpenter
##kling
##gator
triple
##arde
##vil
Marty
Lloyd
Jones
Bloch
##ekom
vi
1243
Gemeinde
##kas
Sankt
Augustin
Königs
Hon
Alf
Markt
##platz
Alte
Rathaus
##sdorf
Bonner
Loch
Ausstellung
Bundesrepublik
##kunst
##halle
Museums
##mente
Raven
##craft
channel
##reg
chip
##set
Shoot
simulation
##ulator
Trainer
Merrill
##ggs
flying
憶
store
Turing
Brooke
##zation
split
Thompson
mountain
##wis
colos
Cedar
Steel
Vengeance
1711
Hub
##mai
1485
##ttle
Teil
Restaurant
1930s
call
Nassau
doors
reporting
##gner
Sisters
dedicated
matter
##dne
##icist
##iant
daily
Feb
ἐ
##κλησία
Knox
Scott
congregation
话
yu
ei
ang
etc
Formosa
Hubble
Telescope
Polar
Lande
Apollo
Race
##schloss
##nius
Leadership
##ussion
before
Representatives
Session
##wen
##riot
μm
Mg
leading
##phere
trail
##pse
G1
1440
L1
##wyn
Stern
Chihuahua
Our
Clyde
Tomb
Rao
Task
Search
##nue
Planet
girl
Diamond
Jubilee
##lesi
Body
unico
幽
Sao
##jir
プ
##ルー
##ト
Vương
atmosphere
##hane
abu
##ndan
stella
##ations
press
Astrophysics
Ames
Ευρώπη
##isto
##vesti
##gating
##cence
uranium
salt
Matter
Chad
##wick
Walther
##ène
Curie
giant
nuclear
##とう
硫
黄
##たい
じ
Bernardo
Juan
865
##ilea
##zong
Satellite
Before
Galileo
Chapman
Interior
##rater
Discov
##ered
##tok
explanation
ros
##cient
Arne
Titan
19th
Macmillan
vols
acknowledged
##preme
musical
unity
##firmation
heritage
Lahore
Maynard
##hir
Harvey
Faber
##fta
##hita
Tokio
##kona
fakt
pri
familio
Zbigniew
##xu
efekt
esti
tie
mal
##riba
ili
dung
##stino
##jn
Med
##ży
##tna
№
Elementary
Stream
segment
Bin
##ary
##ila
association
filter
##atio
##pora
1293
硬
forti
軟
len
ten
##lott
##sene
know
Rede
livet
雯
탠
##dem
##raaf
Wolfgang
Bauer
voltage
Foi
duke
courses
##tering
node
poste
##cel
Rare
##top
Laser
calor
##imet
##gnet
Had
##roni
proton
mer
AGS
##erman
##RN
##vat
##RF
τ
##λε
visi
##work
##ohn
##gie
##arat
patent
filed
Crystal
Palace
Studios
##vio
television
demonstration
Audi
Tests
##ume
##but
##unces
##ise
##tatus
Vest
##igia
##onal
##xin
##sion
##fying
##ievi
Braun
##eber
Verfahren
Demon
##strat
Studium
ze
Verlauf
##röm
course
Physik
Chemie
##adow
mask
2307
##bal
Trio
吹
胴
tenor
joint
bell
羣
屎
繫
682
##CI
烟
Conseil
##pée
Recherche
##cl
##éa
Organisation
Stora
sci
##WF
Underground
ICE
##tial
Cool
Experiment
Universe
interactive
Χ
frequency
short
Moscow
Broadcasting
##ков
радио
Peking
WRC
対
044
Lancaster
Fleming
##fair
絃
848
816
Не
##ва
ireo
##chen
Tudor
Kostel
##ane
##efer
##vd
movie
imdb
Hollywood
UCLA
Terrestrial
Rui
Samantha
##slow
##sg
##cht
##barkeit
agreement
##rator
Commercial
叢
妥
抵
觸
拙
##diction
束
Permanent
Geneva
Claus
琦
歐
揭
における
Rules
AAA
豫
1506
672
Fairy
galego
lady
maiden
Ant
##lia
##bé
Nicolas
##aille
pne
##tica
##pin
Pieter
##sz
Keys
##rius
Aquila
##dox
##dens
##lian
birds
壇
##auri
Arie
Mesa
δ
##ipse
##öte
亢
##öt
##terio
Came
##lop
##arda
Κ
##ο
##λλο
##ρο
##βο
Canis
Dwa
##rnu
##ged
ω
fish
Auge
Gall
##lt
##uco
##pei
ρ
η
publication
##aurus
solar
ο
Fabricius
##kar
Kai
##eon
##jek
cloud
##rci
##umba
ι
Orion
Petrus
Coma
Bere
##nice
Fritz
Eye
##teris
1602
Gaius
Aria
##hod
gala
Α
Β
Γ
Coal
##wel
Crescent
##bula
Dum
##phin
Sua
Alpha
Rota
##nev
Palermo
Nicolaus
##nato
Niccolò
##ccia
##tore
Dorado
##aco
##qu
##idan
Gemini
Cast
##ux
##ico
##pterus
GSC
Abel
##lito
male
snake
##pat
##aal
##¹
browser
atlas
1717
Indus
##erta
##veli
Easter
秤
habita
Could
zi
##bani
##tu
sky
object
牽
Μ
##ον
##ό
##κε
##ρος
Bart
##pis
Norma
Odin
##ected
##stellar
##pent
##arius
nova
##arii
675
Argo
Argos
Juno
Hera
Sau
##ids
Levy
Pegasus
Alp
IK
733
##pos
Bayer
##nal
##quin
Typhoon
##rinus
##lha
ζ
##ticu
##lum
##oide
##gitt
φ
##orp
##utu
##uti
##bies
##cian
##hiu
ξ
##tans
Boom
Taurus
##eia
##ück
discovered
##esco
##ulu
Vela
ans
video
##js
##argo
##yw
sponsor
terror
Axis
evil
Railroad
■
ATC
562
Bourne
again
Min
Blood
1397
clave
##옐
Forte
衰
##캘
##markt
Want
##bulo
Meet
Sale
Ride
Liz
Maggie
Grass
Bird
Flow
##씌
Maha
##rish
Sexy
Sad
Majesty
Something
Comes
##opus
予
ɛ
ɔ
Nga
ŋ
Ng
##pak
##ʃ
ʃ
ɲ
##jaan
##nakan
##eka
##rno
Yogyakarta
##gja
hari
##gu
domingo
buku
boek
##aban
##hong
ose
##oline
Bernd
Virus
##IH
669
boat
unique
##loss
Alexandre
##gab
##onde
Cosmos
ર
જ
હ
##ૂ
##ી
##ૃ
##ṛ
##gida
K2
745
1622
mag
##llu
quart
##zm
##zoni
granite
閃
綠
dio
##dio
ferro
##lite
gran
##odio
##dil
Olivier
##aen
＝
gab
Mare
##enbach
##este
nor
esse
##xit
trok
##tol
##ovia
Evidence
##wise
pero
##dot
##yr
##leri
##lv
##ene
##dali
##logo
##pite
扇
Newton
##aire
##oral
##HP
Katrina
Rogers
##biology
Biol
Bull
##ull
Loi
Temple
##ige
##verse
##xid
isolated
submarine
basal
ig
##ēs
##σαν
##ί
##της
##θος
##lug
##logische
##örterbuch
deutschen
Sprache
Auflage
##selt
##sal
Loew
Less
Petro
Lexikon
Moskau
basa
##ní
Organic
sed
rocks
泊
1184
876
Sari
pet
##sou
札
##äus
##rato
Alessandro
##schi
Ғ
##ғ
##ё
##ө
Ӯ
##ӯ
Ү
##ү
##ф
Ҳ
##ҳ
Ҷ
##ҷ
Ъ
Қ
##Қ
1646
1716
Leibniz
Gottfried
Bibliothek
Libraries
Lower
Saxony
##rui
together
similis
differenti
##oro
discussion
priority
dispute
##rber
##lley
##xis
discuss
emerge
machines
projects
societies
Riley
1677
Val
##uation
Celtic
Rocca
Tommy
Doch
Cop
Robson
Clayton
Swift
##fford
962
Dama
Ferguson
苅
093
Disk
Philips
##duce
Compact
##hou
developed
eight
fourteen
Polydor
Alpen
##fonie
research
dossier
1605
##ioso
hi
##dal
Qui
Mancha
Segunda
parte
##ero
Alonso
##jano
string
pointe
destination
execution
address
copy
##chang
greater
too
return
calle
termina
completed
Algebra
Kitab
numero
##ptunus
Neptune
papers
done
calculation
unsur
saying
##mmat
following
documents
recovery
appeared
##ehan
##ller
##strom
Craig
##aff
##lf
##eal
Baum
Herschel
024
##monia
Elk
Tanto
703
804
Courage
##gali
Burgess
##oot
Small
Giant
Planets
##lja
Petar
##ći
##ć
##eš
##anin
Bogdan
##era
##jić
Supplement
Gale
requires
Osa
Laden
says
##din
UB
##ṭ
##الم
##جاه
##د
##īr
الشيخ
Š
##ḫ
##يخ
##م
ح
##ج
Message
audio
delivered
##zeera
originally
Pakistani
Nov
Tanzania
attacks
##ulated
dated
Among
Knights
Rand
Idea
##had
Networks
Sage
Destruction
Merchant
Money
Makes
testi
##mony
Jamal
behind
witness
trial
##rka
Rashid
Taliban
##rusade
translated
document
newspaper
##polita
Canadian
Summary
concerning
##rei
Agence
Doubleday
##resi
##dent
Powell
wearing
traditional
robe
tan
reads
plain
brown
background
Speak
tells
ordered
##gain
##pol
##rest
##isar
Guillaume
##bidden
Mouth
mirror
##tici
discussed
Mee
Pakistan
Kuwait
Siya
##ssa
TNT
##eron
Qaeda
dead
officials
÷
626
Geographical
##llar
Qur
Ahmed
Should
Medina
Huston
Revised
illustrated
Alta
##mira
##erste
##tee
Illustrated
Muhammad
##erd
##ûr
cities
Minnesota
Khalid
##isal
appointed
governor
Saudi
##father
Sicily
Massachusetts
Asa
##tir
Secrets
Moses
Gast
Asiatic
##app
##zam
Oriental
periods
##api
Ira
lands
1405
##ibi
Kamal
Jordan
Kemal
Turkish
selected
essays
BRILL
Arabia
turning
Vegas
contains
##lets
depicting
molecular
Flint
دي
##ن
إ
##يم
##ان
ī
Ark
Dee
##aru
sis
tok
rei
sir
tou
樽
##かり
##place
##sol
##bb
historic
Napier
##nite
俘
④
lik
S0
München
##buch
##see
Bremen
Bremer
##haven
楚
洮
陝
达
岭
长
Monroe
Archibald
sphere
Bolt
##zmann
static
diagram
Alla
appena
##zata
Giovanna
##ffin
Romano
##aron
텀
casa
papel
sve
##glia
bella
##ao
trovato
parti
##giano
porta
sent
morir
##ppel
##lir
las
##ù
montagna
sotto
ombra
bel
Tutte
passer
##anno
È
questo
morto
libertà
培
1459
Elements
tale
Rutherford
prou
Zahl
##smus
##ikka
##wei
Stefan
Zweig
Präsident
##bahn
##ölker
Sei
##äste
Garmisch
Heinz
Tiet
##jen
Bald
緊
措
Quincy
037
Branch
Carolina
##ckor
Biographical
Directory
Conquest
##nard
Jefferson
##agu
##atin
trying
kill
Belo
##vek
##ints
Quarterly
toward
Tennessee
Aubrey
##olia
Diploma
Maarten
Alps
airline
bomber
##una
Godine
moving
headquarters
Dallas
Quarter
residential
lines
Corp
Luce
andro
mater
##nity
leave
Wort
Mont
fé
##sme
Falls
GAD
##HF
UHF
transfer
signal
transit
Junction
virtual
satu
gain
thermal
##bers
##cuum
sil
sel
##eniu
german
crystal
乏
layer
aval
##anche
break
##gula
##quilibrium
浙
##iated
##read
Spectrum
##Ω
dry
##quence
##mitting
receiving
cable
Blackburn
##tec
Jersey
seo
Grund
##gleich
##ungen
ele
##gänge
##weg
Körper
##amental
Moving
Nachrichten
Wissenschaften
Göttingen
##tisch
Raum
Zeitschrift
Lew
##erto
Ves
Montreal
##titut
##cilla
網
Warner
##inio
Español
Chile
Türk
Indonesia
##Ṭ
륙
##shed
##ensi
Staff
Kansas
跋
堡
Louie
Tempo
Governor
Holding
Elections
惑
##beri
descendants
##blica
Patria
עבר
##ים
ʿ
##יים
##iy
墳
vitamin
##nki
##irs
created
coverage
ceremony
##ptic
earth
coming
쿄
##duk
dum
##deak
Anime
Absolute
suit
Liquid
Angel
Mensch
Unterschied
##end
##blatt
Hamburger
Abend
abgerufen
März
##ダム
##kamp
リ
##リス
##リン
##stol
Engel
Akira
Princess
##nok
Animation
Palgrave
##hiro
Memoirs
Studio
Manga
Bridge
##ION
Neon
Genesis
##û
##drom
##azen
##ὐ
##λιο
νέο
##έν
##σι
ά
##γε
##cion
1266
肖
1507
肄
褥
袞
遵
薦
꿨
削
荊
澍
뭇
彭
塢
瀟
灑
冤
迪
諭
巫
属
jan
##gro
##dda
##luence
Dewey
Republican
FDA
Names
##hael
≡
Birch
Hayes
youtube
Metal
##chem
錬
腕
##meta
礫
偽
りの
咎
たちの
跡
霧
##グ
##レ
Dual
##mpa
zo
銀
銭
##rack
eni
##ér
##ó
##ő
偃
焉
瞞
邳
Autonomous
Honduras
Cerro
##uz
##zt
Villa
Miguel
Vivian
##걷
##agon
Jos
Sony
revela
meg
##γα
medium
##hyl
Moritz
##raf
Fries
##aven
Sera
1217
##gno
##dan
##itel
bona
Hale
1185
1245
1238
1242
##viet
Amour
Parma
1247
Tommaso
Cela
Julian
Speyer
##uton
##icus
Legenda
Maior
1265
縱
橫
##dek
Andromeda
##rgus
##zita
##usal
Zusammenhang
##elis
針
##휠
##lever
maha
##yu
Gaia
##anos
chaos
contact
Wheeler
꿔
1367
1403
1407
1420
1406
1461
疇
Kuhn
惜
薪
鈔
仗
浣
鍼
醋
廠
书
馆
廂
1401
匹
螺
蚩
疑
轅
頊
戌
睡
掛
蜀
紘
瑾
恪
峻
gur
──
点
燭
斧
滸
伝
禄
枢
檜
藺
哀
珙
1276
Dai
ön
1264
##rde
1301
1304
Mongol
1340
貳
rank
##vile
servit
戱
倪
琵
琶
屠
澎
邁
緝
鬥
榕
Sven
Olof
Joachim
revolutionary
##heter
Detta
borde
vara
vår
arv
##borg
##bladet
kar
##ession
##arity
Giles
Lisa
ola
expanded
##ioi
ved
20e
##mployment
Isabel
gymnasium
##kola
##kes
##skola
Growth
Welfare
edited
Flora
benefit
kallar
oss
##erot
Clan
##dest
Kick
Cinema
##mens
##gre
##gati
Tasmania
##ust
Reserve
##endix
##ruga
##nini
##went
##uary
Cove
Hobart
Harbour
Penal
Illa
##acon
##sfield
collapse
Strait
1617
##rad
Clair
Gutenberg
Universität
Mainz
Bradford
Shock
##cula
##ctions
##dium
##loride
injection
Instruments
##ductor
Laboratory
もう
瓜
ʊ
ын
ийн
##йг
##ас
та
##уу
би
нар
##эр
энэ
##нд
хаан
аль
ям
##ээ
##ага
##аж
##аа
##ша
態
комп
##ью
##тер
##нте
ко
##active
##cay
##cited
radi
eman
##tua
##hie
ene
label
activity
capture
metall
environments
mystery
varying
During
##parti
##print
rates
systematic
ブ
##リ
ヲ
ゲーム
##ア
##ム
##スト
##ダ
済
楕
889
sections
1395
initial
rivalry
satellites
countries
leadership
Baru
coins
##cei
today
Chronicles
Christen
##mau
##rice
Vier
Roberts
##enne
∩
◆
♥
∪
∨
∅
##finite
##rable
571
Toronto
##issa
##uga
##amp
Vaughan
##nian
Jar
SOS
corporate
Doors
Bishop
Downs
Airbus
1810
Exhibition
uses
##etro
##cide
Violence
chiffres
Stat
##nnu
draft
Ά
##ρα
Ripley
iPod
##group
赣
壘
Lourenço
##quês
Danny
Elf
冀
紆
##hanes
Kaya
Rond
曉
dias
##pore
耐
鹽
Tunnel
Dara
##γό
##ρας
##ade
##inan
Fashion
梯
它
##nesia
μικρό
νησί
Victoria
Nya
opens
##tree
##tma
lake
##toria
pole
Outside
##run
Palmas
윽
軋
墩
蔬
剖
棺
戮
Мезень
##kwa
Checa
##gou
Friendship
Ani
Kapoor
Sister
##rica
玖
Eugenia
髙
艮
苞
璐
Girard
595
598
politiques
idées
nap
##éon
##iennes
pau
##risme
ordre
María
Díaz
##jur
珉
Ali
Tata
Ill
##ustrator
Adult
##rue
##tale
##gne
Illinois
Pink
Estes
Wolves
Kamen
Critics
##tales
Meaning
Athens
Ohio
Ion
famous
1240
944
##nier
莖
##arie
Antoinette
1385
Sans
##say
Baron
Thatcher
Milk
##nat
Красная
звезда
газета
##gare
speech
##앓
##oes
celebrate
Emperor
1435
Metro
marine
ibn
Nobel
##ssen
sodium
##iegel
Emil
Constitutional
⑤
artillery
Pale
##λα
pala
stone
##hos
Baile
Átha
Cliath
Dub
Trinity
messe
##nger
##hio
##nine
##del
##rens
##scher
##mak
Vries
trait
mutation
Lamarck
pang
##enes
Philosophie
Zool
##ogique
Gregor
Spencer
Stati
##ctive
Francesco
##zani
Pasteur
硅
dich
##odi
##ydi
oli
Airborne
warning
Integrated
##conde
##roga
Cornelius
Dre
##qe
Tur
Cairo
##okban
parent
BBS
##rit
date
Acoustic
Torpedo
Wire
Track
##oper
##cción
##χο
##λη
scho
735
1088
gra
natura
##ficit
2540
ὁ
##λ
##alan
Cornell
Beginning
##sworth
Elton
empire
compilation
##rnia
keep
Total
##gni
##tatu
Philippe
fin
romaine
셉
##emia
Lagrange
powered
括
液
疫
nai
尿
辞
Girls
Comics
##ctory
##sr
Kate
##terns
##ーク
Axel
Models
諾
囲
も
##zog
##uchi
Male
Fiction
Kan
Nor
##missioni
Unionis
⇒
##tide
deo
##CT
##det
alle
mature
##ifu
alternative
##lici
##hance
Sharp
Cech
Sidney
##yote
##onu
circular
replica
##pti
ACT
##ymer
##rze
##kro
##mol
##ül
focus
dependent
##meras
init
##onga
##DNA
prizes
laurea
##llis
lecture
Gilbert
##anger
##ination
##quences
sanger
NCBI
##ank
酵
##strate
##gies
Enzyme
##yme
##cata
ferme
##ühne
coin
passage
##vers
##tändnis
vor
##zu
##ugen
läst
##reibung
##meiden
##lä
##trag
##ender
unge
organi
##sir
##rmente
deren
Wirkung
ohne
Anwesen
##heit
Organ
##ismen
aus
##halb
derselben
erfolgen
kann
bez
##chnen
##viat
##rst
##ngs
##ome
lecturer
designa
organized
action
occur
without
presence
organisms
outside
##ymas
naming
adding
acts
trace
scientist
Émile
Duc
intended
honor
discover
##tase
introducing
practice
lac
alcohol
Bild
geb
##rau
ich
sagen
dass
##cos
wie
Schloss
##üsse
eina
passen
müssen
chemische
##lucose
must
chemical
‡
Nelson
##inger
principles
##Δ
turno
Lys
碎
ラ
##ヴ
ヤ
##マ
なし
##ぽ
や
腐
慧
Olympia
results
搬
Sawyer
nearly
amino
replacement
Drosophila
Natl
Sci
pnas
Bertram
##niego
causes
consequences
##essa
1002
##rak
Holland
JJ
1391
Hastings
##pski
Rosenberg
##isms
Reviews
Genetics
nr
##tein
genome
##genes
1155
Thornton
Protein
ann
##rán
origin
##mps
young
Genet
1463
##lah
##romos
specia
humans
##zee
1512
Ayala
##omosom
mos
##quito
Suppl
Wer
##yot
597
##sper
##omy
Botany
plants
Learning
##esti
applied
Thorpe
##젖
fed
lag
##most
##bido
reactor
Sudan
##gut
Mito
##logijos
enciklopedija
toma
Vilnius
##nn
##ugo
##ütz
##laz
##stu
##works
##udes
##ère
diseases
beer
means
preventing
##iological
##kner
bot
Buch
##chemical
##nish
Universitat
philosopher
Lager
##vist
Ulf
tre
##asu
Rune
##obert
meio
crossover
##pati
##oto
##xic
lys
tumor
specific
##gens
##ulin
##family
##gment
fragments
ry
##stal
##liz
storage
##ün
##tsch
Drums
Automatic
sharing
Burroughs
continu
1291
1396
##roise
##sée
##sade
1075
1130
1128
1187
1191
1228
1147
1226
1229
1216
1309
1393
1487
1421
1422
嘎
呀
##rme
##onta
Ideas
Ready
##rys
Indoor
sail
Fontaine
Choi
1699
##nau
##quel
##send
##ustre
笑
##mt
##ière
Père
Comédie
1734
##byen
Mari
##vost
Mort
canon
唱
Boat
Petit
榜
紂
##elt
Carlson
Mason
##usan
##ias
8°
Byrne
Greenberg
겼
##éry
VW
##char
sugar
##ά
##χα
##ák
Database
##drat
##alde
##ket
simple
rule
Esch
##chia
coli
##ake
Fat
##tero
Amin
Academie
FAO
expert
##citation
ὅ
##μο
##ιος
Lexicon
##τά
##ficie
##rco
mam
##arra
complement
蔗
sucre
##mie
fondée
##thèse
gas
673
Ada
Agricultural
Pastor
ख
##ण्ड
cand
##ा
##ख
##र
##āk
##ρη
Andreas
faites
desse
tire
diverses
plantes
##ssent
nos
##rées
experiments
intention
diverse
grow
Histoire
##adémie
royale
belles
lettres
vulgaris
##fera
vu
##lgare
##osta
diffuse
Treatment
blanco
directo
drie
substance
Kane
Animals
Diseases
##ococcus
Elm
##hurst
Animated
teeth
##uin
need
##amed
drink
adults
children
Vega
régime
Export
euro
Fiji
##iqué
##lition
Fuel
##훌
Dad
##ugar
Lyons
Woods
Müller
燒
溜
Nello
Benjamin
Constant
##eaux
Lettres
##loso
XIV
tol
##éra
voyages
##arm
##entado
écrite
par
lui
même
##did
##timi
##tine
Ingen
XII
manuscrits
Que
bon
sau
##vage
Mond
dai
Dictionnaire
Denise
##élique
##ligi
##euse
##UF
685
Collège
Champion
Madeleine
Puis
##ieux
Église
Medicinal
Twain
Maj
Literary
##quiry
##tue
##sées
DK
##edia
##isso
馥
##pl
Designer
hoch
##schule
aktuelle
archi
Position
##ρι
##στό
##ós
##dienst
撃
##wak
Tara
Sai
Okinawa
Dragon
Raja
##èma
quen
sind
##arin
2x
º
##º
E0
Code
passenger
kilometer
TGV
爱
澳
粵
嶠
##eye
Warning
##iste
##books
##ほ
##え
##ろ
Charlemagne
Vive
República
País
##ncià
ronda
##lles
Ronda
##ncia
Francesc
Borja
Salvador
##uar
llengua
Millor
##tge
##rso
medio
##ática
catalana
refer
especialmente
##ió
verbal
##rra
##cions
amb
##ició
Sense
terra
##mesa
Temps
batu
hori
idea
script
##ures
##tl
##sher
##lom
##ddo
Kings
Israel
风
现
##heten
##elli
##arta
##esu
##lfa
##clama
拼
Beijing
##ʲ
##ɕ
翻
##ェ
##ブ
##ージ
##キ
##サ
薊
1125
1267
##bali
##bul
732
772
滬
housing
Dash
##anz
District
quan
Heaven
1223
##ege
civili
Links
Uppsala
universitet
län
1477
##sson
Sten
##qvist
##kse
##elmo
Aosta
1494
quae
intel
##tum
Nanjing
许
鄴
1378
隠
櫃
廻
쩔
え
のような
れて
児
筧
蕭
Greco
##dom
033
莽
Members
Churches
discovery
stake
Zion
referring
Isa
##rington
summer
Saints
Desert
Alman
church
grew
Ultimate
ritual
dedicat
sufficient
moun
internal
disputes
pani
Dale
Charter
calling
Independence
Quinn
farw
##ural
Neal
faith
saints
may
heir
Romans
##inti
provided
condition
##aran
persons
pure
##alt
sinne
seal
promise
describing
Fifty
noting
prepared
##inted
##igd
running
mate
Bit
Pioneer
migration
quest
Las
Nevada
Utah
expedition
secretari
interior
attorney
relative
territory
##ferred
territories
Firma
##gru
Declaration
Apr
##kley
Ask
Statistical
824
Presiden
Basin
##qual
Amendment
##mbling
##room
Gender
##tract
##tral
Legislature
Lester
##moni
Negro
Overview
##eret
Collections
##RD
Mons
餐
눅
Tail
Creek
Armand
##front
##ature
##kie
Changes
Tribe
devoted
tribes
continent
native
clearly
descent
samples
tested
Maya
generally
founding
regarded
##mons
closest
##phis
##polo
##gist
including
speciali
similarly
related
mainstream
##ologists
Merr
##wet
##drial
Indians
817
##lman
##rmin
argue
Mongolia
founders
specifically
perhaps
present
both
derived
ancestral
##ably
##hur
strongly
favor
southern
majority
lack
geographic
locations
prominent
##amer
##ican
##ologist
##eritus
Yale
writes
volume
Dialogue
trained
sees
believing
join
valid
##ptis
bishops
parish
records
Partners
綺
畝
晏
##ivas
Approach
Olson
revival
secular
蟹
Gay
Christoph
hae
##tae
1737
Universitäten
Niedersachsen
##ders
##ächsische
Ministerium
Stiftung
Centrum
##wicklung
Präsidenten
Zukunft
##nze
##pte
Zahlen
##kten
Higher
Statistik
##bibliothek
Sammlung
Deutscher
Druck
##ände
besondere
Aufgaben
##deutsche
##hoff
##sato
##dyn
Versuch
##sans
##talt
Eis
##els
##leb
Köln
Weimar
##sit
##rien
##versi
##tät
Gruppen
Studenten
Turm
##trale
##saal
##gebäude
##logi
##nomi
##verbindung
##schaft
öffentlichen
Ö
##ffen
##tlichen
##äsi
Abteilung
##srecht
Träger
##zin
Vorstand
Figur
##rike
Bei
##sieg
wird
##ftige
##rche
##latz
Informationen
Gebäude
##mana
##gement
##plätze
##bezirk
##stischen
Bezirk
bis
kB
##etting
##ädtische
Einrichtung
##ifikation
Studie
Personen
Fakultät
Conservation
Amt
Mitteilungen
vom
Nr
##hren
##ester
Allgemeinen
##sbereich
Winters
##emes
##träge
##zeit
Mitglieder
##verzeichnis
##orat
##iv
För
Förderung
Gemeinschaft
Laboratorium
##sicht
über
##ität
##sna
Einrichtungen
Coimbra
##ftig
Jahr
Datei
##zellen
##zini
Physiology
Funktion
##forschung
##ött
Grad
##erten
Geist
##wissenschaften
Tradition
Innovation
##issen
##schaften
##eku
##NB
##aus
Siegfried
##kta
##feln
##weise
Marin
攘
Congressional
Rode
Odd
##nten
longitud
coup
##atea
##itori
##ală
##gă
##uzi
Cea
##î
##ăn
##ом
##рат
##нов
##ление
##РО
##Ы
Moldavia
##sari
##cier
##ţ
Copa
##nca
##jov
##нес
##тров
##ье
пока
##зал
му
##ску
##лы
##vie
enforcement
armed
熒
polar
##ndering
##idia
Hellas
impact
basin
sol
Conform
requirements
recommendations
Berne
##posal
953
##ivat
breaks
valida
Question
##mania
automatically
programs
13th
navi
##gate
Nexus
protocol
2616
uniform
resource
loc
##ator
relay
chat
NN
##ardo
beta
Platform
Ava
Download
##ecko
soft
654
oft
bli
passion
MG
frames
developer
Fork
char
##coding
server
device
serving
Φ
##rela
Nordic
##iron
Harald
##åt
さ
##ない
Bluetooth
##dach
Frans
Bengt
##logico
PAN
##nymi
Consumer
channels
Signal
##dicat
hop
spread
spectrum
quality
Connection
wire
Duty
scenario
HTC
##ptation
##gth
Extension
twice
transmission
†
narrative
ἱ
##στο
##ρία
wei
wit
wise
wis
vide
##ati
##nl
none
historia
##ερ
Τ
Ζ
Ι
##ís
##tō
historian
Irving
Ritter
concepts
sources
##port
Greenwood
Archaeology
Leone
Cain
##unn
intra
##rane
Nielsen
favorite
singer
Bohemia
Rhapsody
Champions
Crazy
Called
Somebody
##reck
Montserrat
Amigos
Sie
##mpre
Freddie
##loads
Katharina
Ehren
Lise
##tner
##skog
##telling
##xta
##ibe
##vey
produce
##sthetic
Spur
##geon
Switch
connection
Gallia
Abs
easy
pose
approach
Thorn
anime
often
considered
Brenner
Understanding
manga
Unlimited
Gilles
poi
##tras
Nordisk
##panie
##inska
Briggs
committee
clear
hearing
Initiative
Tie
Words
Dead
Ain
Easy
usato
tech
pictures
728
alias
astronom
##στρο
##μος
Physical
shed
##plitude
CCD
Compton
Gamma
Observatory
##mospheric
##enko
Kami
##oka
##dels
##plin
anima
animation
954
959
瞬
圧
値
災
茫
Bernhard
Riemann
##ceum
Hanover
##eum
Lüneburg
Jacobi
Strings
Saddle
Pick
gitt
##ela
##lins
Dent
methods
vector
≤
bij
렁
杯
热
炒
醬
Baza
observer
participant
礪
Zeitung
Kraft
ist
allen
Ü
##yclone
Maritime
##eca
scope
こ
##ころ
iza
挙
歳
resistance
##pere
volt
専
##ボン
##ラック
##ャック
##りの
##ルフ
ぐ
##ガ
##さ
団
##ァ
##リー
##ランド
ル
##パー
ホ
##テル
倶
##よ
##ヂ
##ボ
##イ
ピ
##ピ
チ
淀
図
##シ
虫
砦
ど
##いた
Done
Wrong
##zuka
##쉴
##stitution
JAPAN
Commissioner
##ajo
Und
behavior
符
purpose
BASIC
reported
look
why
##fus
went
ahead
compiled
certainly
essentially
spaces
block
toa
##tomi
##dka
055
咤
##etz
Booker
Waiting
##bari
ゲ
カ
##ネ
笹
壮
荘
##ibility
essence
孤
饒
Job
João
Gilberto
##hã
Carnaval
겟
Regina
Sergio
Mendes
##guin
##nici
Moraes
Conceição
fosse
##uais
você
Sacha
##dade
##evo
Nos
Amor
Ella
##ça
Sinatra
Brasileiro
São
Batista
##ão
Atom
##gun
yo
Unicode
1194
##efa
Found
##cologia
##ione
Marburg
##lasti
Rudolph
##sic
##logia
humana
itself
preserved
appears
contemporary
Franjo
##zice
Natal
##laten
##nalis
##ndt
paperback
combined
1328
Wert
perception
##ump
apparent
Kohl
Gestalt
straight
Hull
Perl
processing
##leve
##ctural
conditions
clinical
Rapid
##nabis
##dition
##arcia
##eld
##orf
##elling
aver
resulting
exposure
gamma
cognitive
development
operational
conservation
##ots
##cology
Eco
##system
coordinate
Noble
causa
transaction
ISSN
Weil
Riccardo
##torie
Giordano
architecture
##thas
BMC
1471
##ploring
##kna
##race
##oty
Concept
##dity
definition
tribute
experiment
transformed
coat
##plot
million
SNP
Scale
##tili
Yer
##sini
##mot
Sylvia
##bere
Douglas
Sina
##uer
stored
Schwartz
mito
##dria
Bibcode
##esche
Zusammen
##setzung
Eit
##erze
##nisch
Untersuchungen
habe
daher
später
mit
meine
Versuche
ganzen
gehalten
Trennung
einst
weiteres
##jud
##iz
einem
gün
##eren
##lassen
##nage
environment
##bio
instant
saw
picture
mouth
fell
##lse
race
Athen
shaped
pattern
indicating
crucial
hel
archives
Korn
Hamilton
##ibo
##lei
##rence
motifs
##toso
##sif
Ivanov
##jeri
conta
##gium
fluid
caps
莢
坪
膽
##귄
暢
spin
Entre
##pre
##neur
##ŏ
軾
琪
##key
##start
땃
臟
痺
dud
bed
TCN
偉
爻
##riz
algo
ð
##ɪ
##ð
##ior
SAP
lose
custody
database
##mys
##lad
tool
##aes
Heidi
NET
##plicit
##gging
練
folklore
centri
root
rapport
programming
Wyatt
Tek
nar
##rang
meri
Aid
Chatham
##sian
murder
aims
##asi
Shell
##omu
api
module
Mach
##prise
Lesser
default
TER
console
graphic
FIBA
##lemen
Wenzel
Slavic
##○
Columbus
ras
##stre
Марий
Эл
##̄
тур
ev
##ань
##рия
seme
##ike
姦
Wilhelmina
rape
Gloria
##zal
##dua
Monique
Witt
Katz
Ester
Warhol
##rida
Rubin
Sue
Ellen
Lauren
##elma
Foucault
Wat
Judith
Butler
Eve
Doll
Hal
##ngo
##kuk
Bang
ABA
Mouvement
##ulaire
Révolution
Afro
##bett
##kon
##pher
痴
軫
瑋
Sato
supra
##ricu
SVT
AVN
regions
##rain
梧
嬉
蠟
##ер
шо
##рек
Су
##очет
##нать
поп
##уля
##рност
Виктор
Ibrahim
##haf
##aji
Rahman
hala
##ngin
##NH
##iara
##mari
Zeeland
Satan
潑
Southampton
Birmingham
##lly
Oak
Glasgow
Faculty
Medicina
##rurgia
##cala
楠
##vera
college
Jour
##ste
##tric
##첫
棣
看
##bod
diplomatic
discussions
agreements
Basse
厳
##イン
ベ
##イド
##プ
##レイ
ヴ
##ィ
ち
げ
##パス
琇
筒
región
腰
湘
倍
擾
孰
捧
械
Hank
##yor
縉
Dalton
障
碍
##order
Syndrome
Sava
Piper
ك
##باب
##gir
Príncipe
Dall
Por
dose
bitter
har
intervention
effects
Afghan
movements
estimated
precise
figures
mechanics
Barnett
Fragment
chief
department
match
tax
engagement
##nsel
Soldiers
Warriors
Kaplan
Vintage
##part
told
translator
irrigation
##ches
blow
flooding
valley
malaria
outbreak
followed
Mala
##dicated
returned
thanks
pool
caused
widespread
another
relatively
minor
呈
Vichy
搜
DOI
Urbana
##unter
##ligen
assistant
deputy
directors
agents
##curs
procedure
ide
##pare
expression
statement
implementation
##scal
porte
Nixon
begin
##versa
##lexikon
##bum
Algeria
Indiana
Bloom
##giers
##ñ
##ñón
1302
##quista
corsa
Cel
##frontation
Rule
##umi
##uj
Selim
##lem
##cen
pas
Tomas
Habib
peoples
Valley
iso
bas
##uate
##ride
##cade
##lta
##fur
##pton
θα
##λό
鉛
蒼
moment
##rque
fly
Bruno
processo
Updated
switched
Triple
tai
boreal
forest
Shield
霜
Arno
Pinus
##ensis
##hylla
床
floor
##odo
Salix
##ulus
##inii
Quercus
Ulm
wood
##arse
mari
Strom
lar
##rbus
replacing
banks
##iana
##lves
##tris
Rang
##ifer
##andu
##rv
##aden
##reo
cap
##uridae
tim
american
##bilis
##asca
##iformes
##pit
##not
##haga
vir
lago
##xia
collision
##plex
plant
##sei
##ktion
##radi
##oron
akt
rade
834
Delhi
Batavia
Pak
##uw
Pond
##dah
Kabupaten
Kecamatan
##saka
##バ
##ンク
reactions
##elem
أن
##جم
##ينا
##mando
##lai
##bay
##jame
Libya
conflict
##usse
##bré
Félix
Oued
##dei
##ij
##ijs
##olina
guerres
civiles
##thal
eventually
similar
Idris
##mns
rebel
attack
##sara
Strip
Gaulle
culturel
##dja
##mena
##pu
Denne
Djibouti
Tripoli
Yaoundé
##nil
##xiu
metal
863
##δ
Chart
nucli
Boca
sama
##gnac
magnetic
##mous
##teti
967
956
synthesis
##agen
ses
##quio
fiber
##tice
cel
##₃
##₄
tung
wol
##fram
Rhine
##cke
##idi
1324
Cotton
1741
034
drawing
098
戈
1035
Thor
fertile
mild
direction
eut
mixture
##f3
Enrico
Fermi
Niels
Hahn
Jl
Darmstadt
##ionen
##bru
##ünzen
client
##leen
thick
thin
##jang
Dartmouth
濤
寔
goods
##ags
曙
礁
卞
Ata
Salazar
Alto
Perú
Ante
##quera
Castro
##ゃ
迷
Suva
##ди
##ат
task
##iration
溶
exploration
robot
spacecraft
Shuttle
tourism
##пу
##тник
##vocacy
hope
##kä
##imes
##fing
NK
##ико
##endo
##Я
##♂
Wesley
##lake
mars
##rship
##osa
##ames
Notable
##etta
Phelps
Anny
Terry
Singer
Contributions
##wn
##solidated
##ments
##rias
ぴ
1429
##왓
浴
Niño
##lano
Hagen
##lim
##wach
Weiss
##lid
##kop
##rter
Dit
Rostov
sharp
dress
Sword
##ib
Bulgarian
Brave
Scotia
##rey
##noi
Andre
Eure
##igny
Papp
Mannheim
Europäische
##zial
Verfügung
##ард
##жоу
コ
##tery
Haarlem
Munich
ज
##न
##नी
जन्म
##भ
##ू
##म
##िश
##्
##च
##्वर
##्ग
##ाद
##पी
गरी
##य
##सी
sva
##āda
infant
623
##vun
Stjepan
##ča
Herz
port
##sure
MUSIC
##fal
##aso
##ppa
##laar
Immanuel
Kant
##ziali
##stische
Demokratie
##rüstung
##bilitat
Dieter
Rote
Junge
##sgruppe
Integration
##istische
Forschungen
##erk
##ckle
Luxemburg
##reis
##uerung
Klaus
##eschäft
##führen
##smitglied
##eling
Schulen
Hofmann
wikipedia
Curse
##gas
##idad
Ona
nam
##vori
Tomáš
##zur
##ą
##wskiego
##же
##ба
##ј
нам
##рно
##нос
##ити
##ма
От
##џ
##бин
што
не
двор
коју
наши
ми
##ши
##цам
Ми
##ани
##мо
др
##жим
през
##ир
##ћи
##љу
##бри
сви
##оли
живи
##ња
##дра
##ре
##ћ
сл
##авна
##ће
##раг
на
##жа
##лим
пре
све
свом
народу
укр
##лага
##лије
стр
##рст
дома
##об
##оде
##шти
##тника
##ног
##рани
##по
Од
##вар
##ства
##пасти
Њ
##ег
##его
Дом
##ој
##није
##ем
буде
том
##ру
правда
тог
##оти
##ла
##пки
##ло
Он
св
##име
##рв
љ
##тов
за
наш
име
##ћу
око
##ви
Том
ће
свету
од
##зи
##вати
##аки
час
буд
круг
##лаг
##ља
нас
##voj
##rnoj
##nosi
##tim
##bini
što
koju
##šim
##cama
brani
##ži
##zir
##ući
##že
svi
živi
##nja
##ćem
už
##rli
pret
##cim
##vna
svom
ukr
##lije
##oga
doma
slo
##šti
##tnik
##nog
hra
##stva
##asti
č
##uva
##jeg
Njegov
##nije
##jem
nek
bude
tom
##jeru
prav
tog
rast
rot
nama
##jim
got
##še
ime
bra
##ću
oko
će
svetu
dug
##ziva
svaki
čas
##agos
##any
hu
##guen
##eno
1488
##cq
Villiers
Plessis
Gil
##mee
Marais
##rda
##joen
##llon
##aun
##ool
Rio
ek
##rika
sala
kura
hur
boa
bai
##dha
nak
##raa
kaam
##iya
##abu
##haa
hoa
##kra
lhe
##aku
##gai
##heen
kuri
##maa
##amat
vun
##kama
madh
##yyat
##lam
##hini
##bun
Seed
##hau
##zat
##hah
мен
##ý
Ş
##ş
##М
ns
##porta
nau
tek
##tvo
##dova
##tels
##zda
##niya
создания
нового
государственного
ги
##мна
Республики
номинации
##дова
##тель
работы
##ому
##шку
##Л
##АР
##У
qe
û
dana
ala
ş
##êr
bike
##cê
##ên
##xus
î
sor
##şi
dî
##jan
##dene
##dane
Kendall
##zett
republic
Flag
Arms
##aldi
items
devices
Italiana
##enza
##iti
Maurice
##ühl
feeling
Terre
##eux
Casimir
Doppel
##iser
GMA
Filips
Rijk
##tuur
het
Nederland
##chap
##erland
##loed
##oed
##eit
hart
vrij
voor
zijn
volk
liefde
zang
Hij
wel
Oranje
vader
grond
onze
gaat
plek
waar
stond
##icht
ons
ster
##aat
##eken
##jden
##erz
##houd
lie
Voor
koningin
vanuit
fees
##jf
oud
steeds
één
gezin
prins
aan
kant
##waar
##stel
##ijk
##nas
##kr
collections
##ruk
##ova
##klas
Lausanne
Manila
တ
##ရား
##မ
##ျ
##ှ
##တ
လ
##ွ
##တ်
##လ
##ပ်
##ခြင်း
##န
##ဲ့
##သ
##ေ
၊
##ို့
##ပ
##ြ
##ည်
မ
##ျား
##ူ
##ခ
##ိ
##မ်း
င
##ြိမ်
##း
##ျမ်း
##စ
##ဖ
ခ
##င့်
##ည
##ီ
ဝ
##ါ
##ဒ
##င်
ပ
##ထ
##ောင်
##စု
##အ
အ
##ဲ
##ံ
##့
##ဓ
##ဋ
##္
##ဌ
##ာန
##်
##ု
ထ
##န်း
။
က
##ဘ
##ာ
##က
##န်
##မာ
##ို
##ား
##စ်
##ကို
##က်
##ေး
##ယ်
ဒ
##တို့
##ိုင်
##ျိုး
ည
##စွာ
##ဆ
##တာ
##ဝ
##tau
kui
kwa
nya
##tam
sui
zoo
##fession
##rre
##gels
Negara
##sunda
adopted
##source
##ait
themes
advanced
##lust
##isce
rele
##vance
##cant
##gres
##ludes
Malay
进
吧
Singapura
மு
##ன்
##ன
##ே
##ற
##ட்டும்
சி
##ங்க
##ப்
##பூர்
fellow
Susanna
Potter
Dying
elder
priest
Prayer
every
examination
##hs
##gation
##mentar
Ent
Burton
##usto
Deal
Hutton
##ndorf
##nh
ista
tua
saving
##grave
Turner
felt
stran
##gly
warm
Evangelical
Dix
##ples
Piet
Rapids
Davies
Methodist
Julie
啄
璞
BWV
Sirius
1136
瞻
Joanne
Kathleen
Rowling
Ginger
rules
##alogy
##dbu
Primary
Hannah
Register
Sheila
ride
Associated
##tch
future
Globe
Judy
suicide
Mora
Writers
Barnes
Heather
Hilary
Nest
##lé
sales
writer
##ows
##sbury
unlikely
Scots
finale
Pauli
fastest
Walker
Million
##aires
dates
Mojo
Yates
##med
veto
Spielberg
Wayback
Wizard
Gill
##iam
Bitter
Exclusive
Producer
##show
Bros
mentions
Outstanding
Contribution
variety
fant
##astic
movies
##eller
Female
##tainer
Contact
Nichols
hide
Bos
Alison
money
shoulder
Trust
Thirty
Via
##bis
midi
d4
e4
c4
름
Stay
##mero
衢
琰
蠡
潦
byte
##lement
anyone
##onario
##ict
##ionar
Essential
Kelley
##ngton
##pene
##eros
##pona
Siam
█
##█
garrison
Stuart
Vladimir
##bber
##će
Henning
Schulz
2543
Phantom
fest
Kidd
Lover
##mem
ハ
Stefano
##olin
Damascus
blade
摺
鍛
dama
##scus
sword
##uine
##bide
##oom
塊
##puri
Kata
bright
罔
殆
##fig
##hter
deal
hundred
fifty
##presso
Pittsburgh
Ethics
##smith
##igh
ва
##там
##oman
Prins
##lag
Dylan
Scala
駅
օ
ֆ
Interstate
##trin
allo
##ele
global
艾
賁
##vog
##tö
##ögel
een
ker
##enger
Pig
Prior
rare
##ander
窩
##bara
##oid
Scientist
遙
##erbe
Nil
Iraq
Nestor
Neue
Ziel
##gale
##mang
gift
##heritance
##thers
always
peace
energi
serve
Botswana
##ciliation
prototype
protected
actions
extends
##ية
##onato
##ип
##бол
##ои
инженер
##арин
Kino
Viktor
жив
##И
##Н
##О
nn
##ông
泛
鄰
鶏
##chos
##club
training
writing
##튠
Gentleman
Daddy
8th
FIPS
瓷
墜
##ois
1549
##stein
Bed
Greg
Ces
##ped
Ruiz
misi
##onale
Companhia
##aca
internacional
promovido
pela
funda
##cao
oriente
revista
##teria
Lisboa
abril
佩
寇
侃
扣
##lok
queue
##tula
##ndra
1346
##mum
##tang
leaf
intersection
nearest
nei
dimension
跳
躍
##flow
forced
rein
##sert
##rtus
##anic
##inen
Martino
##ič
##lova
latin
##pet
##ceae
##psi
tel
##mate
gigante
##etum
547
략
讒
買
暴
遲
Martina
Yong
沸
椋
綢
舫
怒
昔
仏
遁
657
781
兆
患
漕
閥
暑
刷
¼
懶
棉
粗
帖
竺
Rasmussen
checklist
Peru
Hymenoptera
##cule
sob
##eran
Malta
Rhodes
1522
##lager
##malt
##lette
##ż
Stadium
##bl
2a
##inge
constitution
##zz
##joni
翅
##got
Canto
degli
##telli
Italia
##ffre
Michele
Reale
##vine
##vator
Giuseppe
Blanc
Repubblica
##ptera
Shift
freestyle
683
665
Armor
紺
霖
莞
048
heter
##putation
intensive
##lobus
Foster
##ssel
##lki
modeli
earthquake
Militar
your
bases
Invasion
Robot
裸
boy
耀
##wne
봇
椿
##kine
綸
頌
##occo
observa
argument
Description
##side
##lative
aux
##dius
sila
Salman
##assa
mina
things
architect
Massa
##stant
sopra
sistemi
mondo
##rsi
Mate
Due
##enze
##aye
cet
##rif
Kaufmann
##őt
Einstein
##rody
principle
Ferenc
##ütt
##osse
Lorentz
##lati
##vt
##heorie
théorie
réaction
##aise
naturelles
##lung
##räge
##örp
seinem
energie
##inha
abhängig
Devi
relation
Sitz
##bericht
Akademie
Wissen
##ften
##ysik
##lini
##rious
measure
Mohr
Newell
##omme
##nded
proportion
##alem
##dul
##cura
instituta
modo
##nje
ˈ
##ŋ
##xel
##enos
Ríos
##tama
Mexican
Ángeles
Nuestra
074
USC
##vian
successfully
removed
abdomen
recovered
received
recognition
Alicia
Reagan
Gallo
ave
Groove
sure
##ernity
##gile
Atlantis
Hurricane
ONE
Amazing
Sweet
ぶ
声
##song
##ノ
##ヨ
メ
make
brand
beat
eyes
聴
##せ
Sunshine
Yuta
##vid
Smile
drop
Past
10th
Look
##burger
Wonderful
stari
この
##まま
##で
##いい
##のか
Atomic
##market
AKB48
Clock
##ucus
##ourt
##ative
property
酋
璽
槎
##llä
##racht
##rün
Polizei
Bergen
sexual
##even
juni
tot
augustus
##imin
Ivo
##zers
Gabriel
Rhein
##berger
##onn
##tag
Carolus
##udia
##onsa
##onis
##landi
Jamaica
Systema
Natura
Coro
##ianus
Ola
##kao
Fauna
Linnean
Severin
Tyson
Marcello
Bibliotheca
##anica
libri
XVI
linna
taxonomy
##ckel
sim
Gmelin
prima
niger
ramo
##sima
##ulos
##lab
##tato
serra
##hibe
##ntes
plantas
rit
genera
##lata
nomi
natal
secundum
Cry
##oco
##jö
##flower
Linné
Emanuel
##ehn
Manfred
née
Dorothea
Reuter
western
Knut
Gedanken
##zung
leben
##digen
Kräfte
Natur
##poru
primo
dil
##ucida
##two
Frage
Auf
##klärung
##legung
Sitt
Anfang
##wissenschaft
Vom
##kale
##ösen
menschlichen
##pern
##ikan
Wen
##dung
缺
##stis
##umon
homosexual
##veno
drug
users
cases
areas
Scarlett
Oral
Vince
##nzi
Halk
##itud
##tami
Sexual
Risk
##eman
##mitted
implications
Africa
##vana
##ison
Wong
load
northern
##uir
##mune
Def
##dr
Oko
rural
difference
median
survival
compared
industrial
highly
##iral
Soria
##cami
Domingo
tat
##bell
##quier
Watkins
Kale
large
Uganda
analog
##itor
mara
##lte
Meredith
1090
##ocht
Zhou
bao
##ℓ
膜
隔
尖
乳
腱
##glen
roca
##ille
##èche
monde
##aine
Poitiers
##pendium
Monde
Quiet
##métrie
##eche
extension
##enu
extensa
mechanical
Wasser
combustible
Provisional
Nomenclature
Aquitania
Aquitània
募
傭
據
1501
Augusta
##ulare
##lons
##uille
Alam
##pua
##iba
561
随
catch
##aper
sector
slow
##fected
##beat
##vention
##mante
Luc
窮
##gung
Diplomat
##eul
##nological
頸
Mikhail
♣
##holl
##üst
Antony
Stal
Dennis
Upper
Peck
Worth
Saunders
媒
##dami
Magister
##itum
##leda
##und
##unt
##hala
Aude
##γο
##herent
勵
髓
##lima
feedback
forcing
prim
fri
##gid
Amon
##tons
Celsius
Observations
degrees
Lambert
Francois
##four
Krebs
Emile
Verde
Desire
Irvine
##metric
##quo
##nkin
Comité
Vienna
mean
##version
##nique
##our
##ár
##mán
##⁵
##⁸
##⁶
##±
O₂
H₂O
CO₂
Loma
trop
##rmal
Stahl
Mendoza
Motiv
Clerk
heat
Beziehung
zwischen
##är
##mest
Temperatur
sessions
##sung
conte
diabetes
##rade
厘
寸
斛
咫
##edu
Wit
##iges
##tige
Lot
legenda
conclusion
##organ
Tolkien
Doom
Andersson
Really
Witch
Rings
##erry
Gunn
##ív
##lev
##itz
##kyn
Portrait
Bailey
WBA
remember
rivers
molte
wound
until
cool
lay
dragon
shape
##ited
torture
quarter
##itati
Odyssey
elf
elv
##rve
Estate
##ír
Ragnar
Episode
Yun
Forgotten
Schwarz
##wald
Lights
Shadow
Darkness
Aby
gel
Haven
##felt
Rachel
Sacred
##dess
##named
Isle
Monastery
Nightmare
Moro
##gard
identical
Robbins
##yce
Canyon
Juni
Pine
Wales
Duke
Northumberland
Gray
Gardiner
Hubbard
##hima
##data
茅
##ード
壱
獣
鰐
ヒ
##ツ
##ゴ
郷
舶
矛
##べ
鍬
鉱
cup
敷
弩
乱
弐
1246
庁
応
糠
1433
堵
従
禅
鈍
##ンド
ポ
##ータ
詰
芋
尽
騒
廃
税
Anatolia
##το
##λή
##iane
##wizja
luz
##àn
bird
Valentine
lover
Australian
##bem
##arle
Stephens
Acts
include
Garry
##venti
##rling
Affairs
##êt
##chner
Engineers
arguments
declaration
rights
check
hands
##dici
rendered
kept
strictly
confidence
learning
inte
degree
Chase
##zoo
Editions
##sant
##vive
Monti
##cello
Calendar
Style
Descriptions
vin
##ifera
Poco
Atlantic
Radical
Adler
Mortimer
convinced
enjoy
##ppi
belongs
living
naturally
##pire
##teen
##forced
longer
Jul
quo
ces
Zone
cinema
Esto
extraordinary
collection
talent
gathered
possible
alone
dinner
##reate
呑
菁
687
754
Appleton
贖
Colin
Christianity
suggesting
marked
several
doctrina
##logical
##phase
catholique
##λικό
##λου
##όλου
kat
##kles
Orthodox
Sede
Jaroslav
##ucci
##roa
Duffy
##inum
naturale
iu
Cum
##uario
Città
Vaticano
Edit
095
##itus
##rimo
disciplina
cultura
rerum
quod
viven
Ecclesiae
proprio
circumstances
finds
usu
##bus
sola
##posit
processi
Father
authority
successor
##mpt
##oris
##kott
Romana
Ρ
##iere
##cili
##tria
Michal
Cause
Rise
Medieval
1375
1417
Creed
Owen
##iasa
##etat
Bau
##wers
Chronicle
Pope
Try
Municipal
Bethlehem
Vera
Bab
##test
##inate
##afa
##usha
斌
昶
煜
預
Sherwood
Insight
劫
##ange
Traditional
Gospel
tribe
##쿡
##헝
蛟
슴
Chambers
Shakespeare
Problems
Clarendon
Rowe
Dow
##olio
Sanders
##댈
Ы
Вы
##dosi
##sville
鞨
ה
##מנו
##רה
Regione
Liguria
Kyoto
臥
龐
擒
郃
郝
擁
矜
脾
嘆
蒯
瑁
涪
恂
赴
蓼
疾
낄
冏
掾
蛾
彊
沓
歆
隴
狄
罕
弋
爰
駱
芒
柝
峨
嵋
##may
##guita
KZ
CAD
bottom
girls
dust
performers
lifetime
achievement
##숀
Torah
Esther
Talmud
##onom
12th
Hindu
Lithuanian
##rvi
Cope
##rni
posse
##ssed
northeastern
probably
acqua
##inta
##ground
historii
##ół
##cze
##ści
##mpo
##ń
1491
1495
##ntar
##iol
##biu
1470
Nicolai
##star
Nasir
Aristoteles
Clement
##etter
Schönberg
1539
Spiel
##leute
Chelsea
##fire
Break
Been
Turn
Deacon
efforts
##cision
Gregg
Locke
##tende
région
administrative
préfet
##bilité
textes
Alsace
Moselle
consulté
janvier
##ères
droit
tabla
##tist
##teni
撥
ud
響
##poli
##stab
zion
Israeli
045
##hv
##irt
jsou
pale
heb
##エル
Debussy
Springfield
Jakub
pathway
##entat
##dd
##cko
##sena
##ln
CoA
fut
##pler
##zou
voted
lasting
legacy
football
tam
Fans
Demi
##ending
champion
bou
##nces
try
##eba
rough
Ones
£1
calls
Mater
proceedings
suspension
fines
community
##gret
Legends
ready
Stevenson
plays
players
good
legend
##inho
Riva
##ldo
dreams
##nks
Soccerway
##india
TF1
##dona
##itto
Ode
defeat
bronze
statue
Enzo
esta
temporada
UNICEF
funeral
grandfather
Jessica
##닮
Guinness
Wahl
Rivers
Brooklyn
kick
##aken
crash
Arsenal
already
Diana
concert
Dona
##ção
títulos
nacionais
Santos
anos
Esporte
##pped
##pani
Primera
División
##üe
destroy
##lens
reveals
Cristiano
##foot
chega
Brasil
##tola
fala
presente
gan
presentes
Milan
ter
volta
jogar
contra
Corinthians
Paulo
mais
festa
Globo
gol
assist
##ência
##pach
##ndri
##riga
罗
奥
队
##leti
gal
##porte
futebol
noticia
presidente
anuncia
novo
seleção
após
fica
fora
amis
##ôme
goals
ruled
scored
season
RSSSF
retire
##jor
Gala
agrees
##ching
Flamengo
##uan
Olympic
medal
everything
Een
moments
falt
lights
wrong
##mption
east
makes
team
Yokohama
30th
##eet
winners
Images
third
Hatch
Ghana
Heroes
emotional
fare
appearance
receive
Seleção
Goals
Named
impossible
Documentary
Antara
vas
antara
challenges
Nadal
duel
becomes
owner
##derd
##naldo
games
##mbre
retirement
confirmed
footballer
##bbed
##BOL
inde
Bayern
Fenerbahçe
##kala
hits
킥
즘
##guard
rus
bana
throwing
champions
injured
gold
##иа
##гт
##өр
##рои
##цк
##оса
##ээд
##ив
##ях
Сергей
Владимир
##овка
祗
according
needs
##pari
influences
Alvarado
Teaching
剩
產
##namite
Suzanne
##jah
Famous
Excel
##celle
##quate
Joshua
##chtung
vocal
乗
##zá
Ḥ
Bahá
##áh
Kit
##qda
Í
##ám
##estan
Á
##sí
##hán
##hí
##úr
##dara
##atia
##⅔
classe
Operator
Sri
##made
Kerajaan
Singh
1342
##kung
##lele
##mbra
##upu
##hya
##dari
##rub
Mead
Bates
Hanna
Kris
##rong
Bat
##sak
##pasa
tower
Gian
##yar
1379
Roja
##ví
##dete
##venil
##itan
DFB
Ferrari
．
듬
Ottoman
Turks
##lik
mah
##ūs
Osmanlı
İmparatorluğu
Devlet
Bey
##liği
1326
Tanz
تنظيم
##ات
##dish
Shah
Sultan
sela
Jorge
##eses
ilhas
dos
Papua
Ortiz
Nueva
Territories
Kent
菌
Ski
##rrow
##orus
1284
county
district
Perth
metropolitan
##remo
kay
Infinity
indie
artist
##enie
融
Commodore
Amiga
interface
##ур
##umis
贝
欢
妮
你
##ometer
Dominique
Kahn
1428
2551
š
##Š
##āh
Nora
##ppur
##mida
arra
Dot
##tida
Blog
Isles
##alne
Shake
Elles
##mere
831
Flores
Auckland
Linkin
Meteor
Tracks
Minutes
Thousand
Suns
Things
Course
##mation
Step
Closer
##kak
Breaking
Encore
Rising
Given
Rest
Lock
Haiti
##birds
Artists
Songs
##osan
Burning
Ashes
Conde
##lene
Round
##hout
##gant
##emon
##çon
漂
咱
儂
Philippine
Iglesia
Filipina
Independiente
Cristo
Mindanao
##dana
##ulla
##uddin
峽
舛
欣
##nificent
Seven
##рид
##ман
##gene
como
##eau
Credit
##enan
##jung
Tanah
Melayu
peninsula
##nin
##sula
Halbinsel
Cleveland
繭
Coco
dens
##iflora
pine
thu
##ulis
vit
##tata
Canary
Pin
sleep
cause
answer
belief
urban
杏
鴨
##itatu
##otica
cultures
bilo
##esta
##otes
##ppu
胚
##ysta
fossil
unveiled
##έας
##ριά
##ée
##barra
looks
Nom
##oking
Around
Deputy
leads
delegation
##мот
##рел
##ока
##polis
렛
##hle
Roots
ARD
##cre
##ulat
Evans
Nancy
Kumar
dies
##roen
Sebastian
Victory
Tennis
Mixed
##mpi
##rle
Renato
ESP
##cating
##bore
PhD
thesis
optimal
##uran
mira
##eir
##zai
##isson
択
Horizon
Ultima
##ddon
##cular
##pper
Presbyterian
##zaren
恐
arm
Shannon
pad
Loeb
Universiti
##dega
##liard
##edit
Raw
streams
curs
Android
##locke
WEB
##baum
Taipei
##vet
Metropolitana
Pedro
##lings
烽
萊
覓
슘
Первый
##рам
##уш
Второй
гора
##сок
##ая
##йк
##ово
Liam
Islas
886
853
Jebel
딩
漑
Results
##weis
Invisible
Pamela
##ako
##mmet
particles
produced
bos
streaming
mixed
massive
compact
hal
Halo
Planetary
##vita
##tional
Astrophysical
intera
mechanism
##kter
ди
##але
##кти
##ческом
исто
##ри
материал
##изм
##krit
##phie
##atus
##gik
##omis
Jahre
##xion
Vai
劭
629
靺
striking
drag
tida
##lge
##gression
喊
欠
monthly
儁
晝
##done
踐
弔
##siden
Dharma
##ṃ
懐
釈
籤
##pun
顗
Opening
譬
1376
莫
兜
1452
1454
coro
tal
##wder
腦
虐
sus
cerebral
Cada
##trat
##rut
##elet
muscle
##haber
Nieto
##bur
intorno
nuo
scienze
##esso
Else
Alfonso
##ceo
Additional
editions
depends
experience
Godfrey
believe
Christiaan
Huy
pré
traité
font
##euvre
Porter
Jerusalem
##duction
Janssen
Mauro
##mpe
##linger
prej
aside
gallo
acceptance
members
Sims
responsibility
Imre
##kat
ideas
mental
experiences
proto
broad
##icient
specialized
Once
opinions
consisting
formed
offers
Brody
Astra
learned
Felix
##haft
¶
lectures
Copenhagen
##rsti
Schiffe
Peer
changing
Aston
##ishing
ABD
announced
occasion
favorable
testing
Ceará
##dington
island
Principe
yield
photographs
Greenwich
showed
##viation
measured
seconds
prediction
Antoni
Rapport
Square
##fors
##ünn
getting
showing
##arty
Linus
Horace
##dson
##coming
##mising
Elite
##iou
Personality
##aben
thinking
##xpected
##nnon
Thinking
##lba
##plete
Tal
contribute
brief
edge
##ological
##ept
##icis
statements
challenge
delu
CSI
1426
1445
嶼
髮
##wana
覆
譚
mai
lov
息
穢
rain
到
彼
Ā
##gama
##ās
##pita
designar
##vig
##essen
dot
撮
迅
uri
##nary
##enen
pria
pus
胸
##orax
鰭
##titi
##oner
Surgery
Большая
советская
энциклопедия
Comme
1321
Inferno
##lent
etter
dolor
perdu
mio
alto
fatto
fece
divina
pode
##ienza
amore
cose
create
duro
##cia
ogni
##eranza
voi
intrat
##atorio
眷
曼
猥
祈
禱
く
蔓
##훔
懺
Treasure
##rove
√
universal
Problem
Biblia
##braica
Testament
Shelby
##zn
Speaker
chest
Anatomy
Pressure
##onar
ede
sever
confusion
≥
ante
##rió
##ondo
Reservoir
Moravia
Nieuw
##erie
##owi
##jne
Lanka
##bane
##bhar
Rama
Ved
TNA
nationalist
alliance
##muk
##wati
##eder
##dera
isolation
others
Schweizer
##deu
##rva
sobre
instituto
prensa
noticias
Nación
Española
España
Hispania
##πε
ultima
med
##pali
Jesús
##nchi
##llos
elemental
span
Fernández
volumen
península
Ibérica
época
##rro
##sier
##logía
¿
tierra
##ejo
Portugal
Iberia
Seele
Browning
##alus
Castile
León
##quest
Bourbon
dynasty
Desa
crimes
fighters
fled
granted
citizenship
##lange
española
tradicional
Movimiento
ETA
Euskadi
##aps
Partido
##plan
Aten
##tados
marzo
gender
##quality
Triumph
Opposition
Parlament
##lí
##cé
forum
##achment
ultimate
poll
kop
##tek
nucleares
##vidos
viento
propose
español
más
vel
segundo
puntu
##dad
rail
Prat
##vour
Jobs
Province
Lozano
diocese
Sixth
##ñu
##dó
Orden
##ación
Sistema
##tivo
##ndor
Bratislava
##tón
3166
##eas
yard
眾
了
截
Cheng
Chin
仔
戲
卡
recommended
##̍
ō
Xu
Cao
##ulate
Sociology
14th
Noir
Reason
##øn
Towards
Hegel
neither
ideal
##pist
Dordrecht
interpretation
critique
finite
##pod
pari
Pato
Smiths
##nio
##zle
Lauri
##ego
Lombard
Biological
Revision
##saur
##pravy
##nih
##šta
terrestrial
##brate
##anat
Muséum
naturelle
série
tem
##yda
earliest
Devon
##cki
Garcia
Hancock
locality
Mississippi
wet
fauna
Kentucky
give
releases
Beer
##bow
##aldo
##ustration
Phillips
Shea
##ystem
##systems
Kirk
Milne
Amphibian
##poda
Benton
Colbert
Morales
##rates
##jord
Formation
reas
##smen
lift
feeding
Cretaceous
##odon
Australasian
Reynolds
Reis
maximal
inclusion
taxa
missing
Systematic
##rania
mor
##rais
lifestyle
##bian
Reptile
##hips
Schultz
##stock
##haca
evolutionary
reptiles
controversy
##áros
##kow
Perm
##kovic
Czech
Slovakia
##logica
##nod
##urus
Burmeister
##brücke
##gebirge
##itte
Abt
Deutschen
##egos
Zoology
extinct
##rach
Daly
##roll
FIA
alt
tae
Huang
USGS
##zards
learn
Christine
Season
##suna
Extreme
Bron
##sua
##its
Democrat
ark
1303
santa
##rosa
happened
##ituary
Conrad
Eastwood
Lucia
damage
Insurance
Industry
Memories
Mental
Effects
##deros
Winston
Mackenzie
##lance
company
companies
reconstruction
contracts
clause
changed
business
##roe
Kerry
##mier
Panic
##ennial
##serie
Irma
Calling
survivors
victims
Survivor
Dies
Croatian
Graz
##uskas
Elo
duc
Anjou
Sachsen
tubes
format
##ete
Chun
Doo
Destiny
Oberst
Fuller
##uid
phenomenon
leaves
Millennium
Mein
Herr
Stranger
Taking
Brit
##boy
Dawson
Sales
certificate
IFPI
Platinum
Brits
Rebecca
##ache
Mandela
albums
copies
25th
Viva
Wembley
##gga
邢
騷
independence
垢
evaluation
delay
oriented
instance
##loni
##bla
Abad
Luca
##gua
conca
##tena
operations
yw
ɡ
ɣ
Muse
Resistance
Bliss
##ones
Toy
樟
嵯
##aid
Oro
Ó
##hasa
só
##isia
##ais
##hé
##wał
##쾰
variations
balance
Ima
##cite
Lukas
Novo
##olt
iri
Slim
##tell
Jade
##teller
Җ
җ
ң
Ў
ў
Ь
陕
经
锦
撒
简
د
##ِ
##ْ
ﺎ
ă
Ұ
İ
تو
##ت
ء
ۆ
گ
ڭ
پ
لا
##nima
responsible
##reta
oldest
documentary
manifestation
parliamentary
Keane
##pole
##miu
pares
Nothing
competitive
Partie
##tims
##cutor
##cution
Registrar
茄
苳
崁
埤
呉
miles
mile
##wu
age
##gla
##fish
Patrol
patrol
##ēt
##ņu
Joaquim
##ório
Duque
Estrada
贅
甸
泮
鰲
佰
VF
##rush
Grandes
##ò
isla
bara
lama
gloria
kuras
pueblo
tin
lucha
logra
vik
dun
asina
ono
lea
bandera
union
pais
amor
ora
rekord
playa
##nan
##uy
hasi
##uba
apre
cun
vene
resp
grandi
nada
dor
escudo
Grande
##lidad
conserva
##rated
though
indeed
este
beach
##mire
arms
symbols
pride
Песня
род
##ной
земле
Ил
##ьи
##он
##чар
##шев
Mask
Eden
executive
ほ
##uce
Orléans
Arc
Aber
Apocalypse
##hant
##nç
investigations
ordinary
reca
##rial
verdi
affirme
vice
objecte
jurisdiction
grounds
Bailly
appel
##iar
##venu
##ieu
sentence
##habilitation
##♪
##ぴ
##エ
##ンジ
##ェル
##げ
녕
宁
##ià
##nj
##dō
Nomina
##qin
Banner
Inner
##jian
##ушкин
##оры
##ła
##ść
##эг
##і
##ён
##elia
##nham
##ssus
Poems
Lazarus
Ariel
##tana
##tane
Cardinals
##lates
Marques
wife
Pest
##ertion
merge
##ιν
Є
弾
についての
独
##mande
##nome
ARIA
樵
楫
笙
簧
##dir
##ssie
##loge
tone
Jacobsen
##tten
Labour
elections
##dala
##ぼ
##nating
##lifi
##peda
capa
##cita
reso
##nance
shield
passive
mains
##cking
Seth
Patent
parallel
clip
##phon
divided
##ups
##itt
##енс
##кое
Илья
Яков
##левич
##жне
Наталья
Денис
##аза
##лова
punk
funk
叱
##gang
Lyon
Amadeus
forman
##nale
external
filma
dok
minimum
spanning
##uska
##ála
套
Din
Sykes
稟
counter
##abe
Garda
瀕
蘄
灸
診
TVB
##esch
##ines
hardcore
LLC
挹
勿
妊
娠
谿
##deia
凰
##ственная
история
##ней
##ших
времён
года
Павел
##шке
##вич
ישראל
Angels
##til
Care
Unite
Elektra
Seasons
Miracle
Sleep
Falling
Beast
##okan
##ava
Motion
Hollow
Shadows
##enta
Pretty
Dramatic
Drum
Reader
awards
##зак
##ден
Jacopo
Democrats
汉
词
趾
1411
兀
賽
濠
1355
鄱
1384
沐
##nol
Tao
柯
##stice
冢
牲
cubic
autonomous
##maid
焚
坑
帛
沂
懸
##big
fem
Nem
Berger
Grey
1474
炊
798
##tique
1046
4°
856
寂
lye
##lui
##gah
fantasy
presse
trophy
defence
court
halve
quasi
##ission
reservoir
Kelvin
dynamics
Vincenzo
Accademia
dei
Bella
##ggiato
Marina
##nzio
##tilia
##cchi
affair
Reid
Cosimo
##zzi
Angelo
Brecht
Balance
Mario
##curi
cm³
spider
Weird
Terra
Raj
Faye
##cure
mouvement
périhélie
cette
planète
##ptes
rendu
sé
##ances
##mendi
unde
##tecte
9°
##τί
##ων
plan
##menn
##nomy
UFO
葦
旱
龕
箔
矣
##rebro
stroke
##iple
##irin
##fari
##ssu
##smin
##arter
##ival
Factory
Pound
ik
Adi
Missing
Bermuda
##bius
gang
rap
pound
##촛
##gative
NDR
unes
flagship
activities
registered
##wang
│
├
毎
XV
fields
secure
foundation
acquire
grada
Bertrand
##eim
Engels
Gotha
Meier
##usia
Korps
Mittel
##stras
contained
Several
elu
##cida
theoretical
Ernie
account
##irne
durable
located
historians
headed
These
Dresden
671
Nineteenth
Carey
Napoleon
##para
Materials
whole
Whole
##rley
##kad
Blume
Siegel
ceased
Montes
##cque
labour
producing
dialect
Gud
##dat
##ckett
subject
objective
alien
organisation
alternate
McGill
Queens
emphasis
Französisch
##bücher
##riat
Fallen
##fere
##ndar
Verein
##politik
##franco
##ggi
##lucht
Marianne
##brug
Som
##bart
Career
##cone
1496
Gert
##bilder
##redo
##eto
Jura
Derek
##rillo
parliament
##rchie
##erung
##chse
##hang
##igkeit
##ordination
##hön
##gig
Löwen
馴
##digt
Forst
##inie
控
邵
Köppen
Geiger
BRT
Dante
eri
Durante
olim
##catus
nuova
##olc
##inar
##emma
##uel
##llin
Stil
##lvestre
脩
叛
貶
##ぐ
奨
Etienne
##ūna
##rava
##nadi
##mian
##υς
##δες
##tva
##nikov
##rkas
##ovo
##sov
##lk
##aba
##sheim
siya
Æ
##tla
##lacht
##rek
##zel
##üne
##ünen
Hung
##aro
Pál
Weser
tau
Jahren
##nen
unter
ihrem
König
sich
einen
Namen
gemacht
sie
noch
jetzt
##lieferung
##walt
erscheinen
##äß
mö
einer
solchen
Weise
bekannt
werden
daß
niemal
wieder
etwa
auch
nur
##zus
##ehen
Ibu
鷹
断
1439
##ügen
##walde
##łowo
Ingeborg
Danmark
替
匝
姿
豈
례
繞
梵
衞
Ⅳ
issued
Compilation
鋪
握
巧
涅
槃
抒
儷
剎
緋
矩
娑
忒
疊
Recht
##fert
##igung
Glauben
Christus
Luther
##demann
Erfurt
geschrieben
steht
Römer
##tud
##ται
##ὲ
##ίκα
##ως
##σε
Werke
Macht
morali
Akt
Gottes
##nma
##üge
##dit
Deus
##jeta
##ρει
victoria
寡
陷
渠
屢
忘
薨
祇
裴
瓢
迴
歧
##pana
蛙
悉
押
兮
1160
##rker
Magnus
Kristina
Björn
##otte
Eriksson
Margareta
Erik
##rdt
##ales
Amateur
瘧
viva
##lci
oval
aria
剌
##cline
null
boards
紇
渾
蠱
垓
駕
弁
且
##mme
##nel
kommun
svenska
##än
##äl
##kk
##runa
##jala
##orne
##å
##svar
##ona
crown
ABBA
Katarina
##enburg
Scouts
Guides
敢
毁
剃
incidents
튠
捜
渕
##ぶ
##ろう
##ulse
##ckt
##クト
##zera
Crisis
Formula
Automobile
Seat
Racing
##atile
Eugene
##hli
Farbe
WR
PSD
RL
牡
Moran
##oks
Sporting
##ょう
sing
tena
CSU
NFC
Киров
Советский
Ленин
Октябрь
1744
##isti
##isha
advantage
chosen
roof
finde
pris
##blad
shut
auxiliar
blind
cameras
sixth
Citation
Units
publisher
Nur
integra
##eres
##gari
Burg
##loga
Chili
Euler
measures
Wald
##mid
##portant
Bordeaux
automobile
Vanderbilt
racing
Renault
##aha
##atti
wheel
Rally
rally
pace
JG
NASCAR
##ag
Wally
Rallye
##cross
kart
厥
##cı
##rto
##uğu
##ım
##tul
##ntou
##rical
Williamson
##rzy
strain
##hore
##зам
##рем
##mala
mala
##tens
Verdi
##istics
琥
珀
##tti
##ли
actor
actress
comics
plot
Svalbard
SJ
##slu
##sels
##tröm
Hamlet
Norfolk
##tats
##apon
Rifle
receiver
ati
navigation
Direction
##pment
Instrument
##lope
computers
airs
altitude
##valent
awareness
##aration
incident
瞎
nasa
Internal
##еш
##таў
Ulrich
Normal
Andrade
complexity
Gould
##plane
SAO
XXV
Gravity
displays
##lida
chama
IUCN
##nic
##vity
##culum
rue
##okk
##anischen
Atlantik
##küste
##tzt
##wachsen
seinen
##äs
Gattung
##stid
Meer
alat
Groß
##dü
sowie
##blätter
##hyllum
spp
kleineren
bilden
einzige
Lebens
##raum
finden
Acacia
darunter
##곁
##phus
##む
##トン
##デ
##ケ
##ニー
Sander
Product
reed
##inne
offices
salut
##atori
Honor
tuto
Assistant
Arbor
##theater
travel
##leis
campus
##dole
dolce
Havilland
071
Deutschlands
##sgericht
曝
pois
##oning
biological
Sv
##eso
##richt
robusta
Ranch
##ctes
##osus
鯨
stock
Gigi
poor
weapon
##ει
##αν
##ης
7°
蓄
棄
##hibition
##pili
RAI
fund
##ūra
##νό
##σου
cyn
##osu
lod
lei
##ðar
leit
##stern
stelle
sole
##asse
dice
##lendi
##igua
##citu
Vene
saint
censo
##ény
lore
meaning
Figure
Togo
捷
輦
穩
并
藉
毋
戍
即
舉
##っ
##ゼ
饅
peer
torre
seed
##undan
abuse
##load
##igu
tas
##video
1334
Gull
##gren
sequences
extant
maternal
inherited
characters
ym
Nouvelle
Angleterre
juba
##rtes
Mana
Tina
Ghose
Apart
##ecie
##pten
Mammal
604
##halen
INSEE
mont
ville
Nîmes
##inda
Seventh
##aje
imágenes
Lunar
luna
俵
organize
organise
ise
Pam
Savoy
##mique
quai
Ruf
##nei
Adalbert
Abu
##ppe
Originally
soldier
Osman
indigenous
colonies
Haupt
##gebiete
Railway
##gom
##uts
Königsberg
Ruanda
##ovu
colonia
colony
namun
歎
辱
棠
榴
炫
澈
洸
excellent
minut
##veg
鼠
mau
迥
鑿
煬
蛹
漱
曷
隧
椽
皂
奢
咄
咨
臧
邛
頡
営
狛
驃
麤
嬰
603
608
臂
##iosa
##uza
##eki
vehicle
车
腳
Comte
##vra
Chrome
畸
mori
##folium
promote
Lingua
Franca
泌
攪
##zler
##ök
beni
okulu
yok
ikke
##øya
Bare
##Ӏа
Ğ
##tsu
ken
りに
##kura
##kih
Cafe
Starting
##urance
Porsche
Maison
Blanche
##mber
Normandie
renn
Orne
##nee
##zzare
##fum
##icata
basi
pos
##teur
Exempt
statut
musiciens
professionnels
feu
scène
Petrov
##lov
##раво
##бер
##еж
Лев
##ере
##жный
Герой
Ioannes
artifacts
##τα
Пред
##анна
революция
##щи
##ту
ма
##рк
##си
##зма
workers
##orme
##тоги
пер
##спект
##ивы
##вет
това
##щу
Иванов
Сталин
Филипп
Правда
февраля
Архивировано
июня
吃
McKinley
Что
дела
##ть
##лий
##арт
Ascher
##anie
Lenin
Anthology
##ilien
##pierre
сов
##пир
##ио
##мони
##зм
##али
##крити
##рана
##ктор
Но
##ipes
Краткий
курс
истории
ВКП
##кономически
проблемы
со
##циал
##изма
##пер
##ёд
Ул
##ьт
##има
##ти
##сты
##К
##Й
##КА
##З
##Щ
##СС
##Ю
март
апрель
##уна
Анатолий
##ые
##нис
Де
##тская
бол
##ез
ле
##ны
##ни
##енная
##зиция
##аб
##чая
##мед
##жан
Коми
##рн
страни
рус
##нание
##нима
##ние
##мени
ин
##фор
##ционный
##ума
##тар
порт
Оценка
##оче
##позиции
РКП
де
##мок
##рати
##ческого
центра
Группа
##рическая
ред
##укова
##рава
Михайло
##вин
##яются
шп
##ион
Гл
##ге
##ЕС
##раз
##ование
##ник
##цкий
##вая
пол
##ческая
годы
СПб
Изд
Европе
##йского
университета
Санкт
Петербурге
Hitlers
Chef
##ologe
Там
где
Великой
##чит
##ся
##ско
##цева
##ыка
##шу
##кова
##дя
##ста
##мый
##дой
##ечно
Ол
##гой
святой
##пе
##ще
бар
над
каждой
баш
золото
крест
##ься
##че
##шний
##ству
новый
коло
##кол
небо
##льный
живе
##оды
ли
##гин
##ут
как
##ым
мы
##род
##про
##ет
времени
##вер
##дын
кам
##енный
##ром
сил
##хар
##slav
nationality
policy
Lega
##mila
##irn
Achievement
##pik
kV
Territory
Midway
Reef
Interpretation
##wane
Municipality
Mart
Preto
##bele
##cara
Santo
Guzmán
Ciudad
Trujillo
##lama
Cameron
haute
##ivo
##rive
##dé
##pend
##üp
maya
Nederlands
Orange
NED
1458
驚
招
陟
几
轎
Marks
##valiere
1441
##ště
vinto
##rez
Cardinal
vero
809
◎
Maserati
Turismo
Nissan
Karim
Dua
##wat
##eration
squad
##utz
##normal
##unki
Reza
##pah
##shin
##smine
Wrestling
ECW
WWE
NWA
WCW
Clash
WWF
NXT
margin
normal
Cortes
##kis
Website
radial
basis
Murphy
Allison
Pereira
Basilica
Sant
Royce
Alain
##ép
Associations
##color
##das
タ
レ
Elevation
fixed
loaded
##abi
サン
##ホ
Across
##ärchen
緑
ゆ
mix
##돕
滴
Plato
##ntial
episode
Alive
Leaf
Asahi
##ɐ
##サー
##ː
Sammy
Shirley
菲
Cine
##ュ
##cte
Dreams
Dolores
baby
##kea
Ways
Loving
Wisdom
Lama
##poche
##ipa
##halte
Kaiser
Britannia
Flower
Nha
##dau
Habita
Ezek
queen
Waltz
Matilda
Editors
Australia
##ティ
##ンナ
ダ
##ライ
##オン
って
昨
よ
苗
##ンス
##わ
鷗
琛
額
録
Khu
##rab
Abbott
##abad
Glacier
Plains
Astor
september
could
held
Édouard
Dal
Nye
##ран
маршрут
Yugoslav
Macedonia
Ahmad
##wani
tram
Meg
Milli
گرم
شاه
تا
ا
ی
مقدس
##مار
##ا
ای
دا
آزادی
ن
##کم
##ار
##غی
م
##و
##ژ
پا
##تو
##فان
##ون
##وک
##ای
پر
کر
بار
##را
هم
##رو
شپ
ده
را
##نا
سر
##باز
##کا
رو
##ر
##ق
##ـ
##لا
##بی
و
##طن
او
##س
کار
##گران
دی
##غ
##ه
ز
##مر
می
##ث
ب
##ز
ت
س
##تم
دور
وار
##زد
##وران
کی
سو
##له
##روری
##یار
##ستون
##کو
##اخ
##رت
کو
،
کا
##لی
渚
##qan
##brique
Nationale
##hine
CAF
##ktop
Gwen
埔
Dans
Tam
貓
Ukraine
determine
##gott
pedig
nok
##llt
Tiny
抑
Bacon
Myers
##ules
宕
閬
盱
眙
貯
##oms
モ
HBO
##iller
brings
monster
Gaelic
Sparta
Midlands
##rder
##latt
##aria
##erus
Blatt
orientalis
japonica
Savoia
motori
supplement
ottobre
##cup
Carrera
럿
##nete
諍
捺
裟
捨
蚊
União
Portuguesa
Futebol
Florence
Luisa
##zzini
Molly
Dakota
Fiona
Carthage
motor
lap
Königreich
komme
Moe
Kiel
Tito
珞
SNCF
cluster
##trix
autumn
##htar
Athena
##ledge
send
RW
払
われた
賠
償
##９
締
された
び
による
億
ドル
である
##ことに
##よる
でもある
##ガン
壊
##けた
累
させ
##ながら
まで
貧
だった
っていた
しかし
個
すると
として
のための
したことで
圏
けた
渉
担
掲
げて
したが
づく
##ために
じた
しか
##なかった
めている
円
款
などを
にして
することで
イン
げた
##iin
##media
theme
fair
需
芮
邨
Begin
clock
enable
size
represent
assigned
signals
below
continuously
##pac
Upon
comment
multiple
##xer
transparent
##igned
generic
Hathaway
Aiken
##game
##zine
肃
欧
阳
坚
杨
丽
萍
龙
##upi
Suzuki
巩
詠
媚
穿
蟒
梟
disaster
##シー
##toma
洹
presents
Trophy
corruption
probe
Hodges
##laze
##ibes
accepted
informa
bulan
喀
旻
启
thus
Aku
ming
Jimi
拏
颜
济
潢
SAD
誨
鶻
##tlu
BAFTA
##hti
1224
Candy
Goes
Johansson
Following
Split
Romain
##vor
枯
influenced
Francesca
##옛
Liberty
##otov
恢
奮
Representative
抽
##HL
敕
堰
鹹
･
壩
岷
冰
瀘
沽
蓉
户
图
举
变
脸
喷
았
兔
钟
饺
韩
炮
赖
汤
圆
沟
园
萨
亚
护
单
庙
庞
统
换
马
凤
坟
诸
绝
胜
丝
顶
剑
崴
艺
术
瑰
类
结
娱
继
红
观
刚
场
攀
瀑
坝
雕
钢
树
气
滩
玛
瑙
翡
砚
苴
却
节
泼
筝
绵
环
线
酥
粘
镶
碗
罐
疋
锅
雾
险
挂
鹰
稳
诺
临
氧
纪
库
鱼
糕
宫
枇
杷
蛋
稣
脐
橙
优
甜
鸭
椒
绿
种
团
烤
柑
棱
冻
渝
资
绕
陈
飞
营
报
bod
rang
khu
须
泸
跑
碉
尔
乡
纽
洁
规
畅
货
奖
综
诗
灵
脏
跃
毯
绣
绸
橄
榄
蕨
菇
药
苍
猕
柚
饭
兽
련
莲
萼
遗
维
阙
韵
载
盐
龚
扎
剪
纸
姐
贡
传
骄
窖
荆
纳
尧
酱
银
针
荔
儿
耙
糟
伞
卤
邓
锋
邻
折
幅
铜
锣
谢
暖
时
彝
叶
姑
丧
嫁
娶
箐
楼
毕
Plans
Promotion
Protection
##ége
Musical
苾
臚
徴
馳
拂
謊
Psychological
Warfare
Ranger
壹
Screen
##üter
totala
poli
##enar
胥
##ど
巍
Internationale
Denny
Tyler
Harrington
厨
inspection
娼
汽
##oze
霆
兇
馨
盾
寢
飽
壺
桀
縛
茵
factors
steps
##tly
comparable
##tw
contributions
simultaneously
supporting
reached
practical
moral
discipline
##lih
concentration
##dhi
effort
iii
stages
consciousness
扁
Fürst
##bano
sagt
##sprach
##sweise
zufolge
##sagt
##nig
lebt
russische
##esa
ware
sogar
##voll
##eten
worden
Aufnahme
russischen
geben
mein
doch
zie
##mlich
##mse
seien
Ihr
langer
##iben
##bst
hatte
keinen
mehr
hatten
##lls
ultra
##tella
##web
##cach
chun
##tade
##oji
उ
##पन
##ि
##ष
##द
ṣ
eso
##teri
doctrine
##ktik
##nelli
##havn
##уб
##zve
norma
##tiv
kon
拱
Scottish
##tician
Transactions
accompanied
##gini
reviewed
Glee
##ún
hosted
childhood
rotation
歩
砖
懋
誥
馭
drama
Camera
Pred
##nuo
Photography
9th
##oca
beam
coincide
contrast
detection
screen
axis
cross
Nikon
party
軀
Tactical
Superior
##ctical
warfare
##figur
飴
菓
Marseille
avant
##σσα
##λία
##erte
柩
##łka
##zki
Bernardino
逞
逮
闘
萌
##ャラクター
Teacher
Alien
Month
##ょ
惣
桜
蔭
邯
stabil
Josh
Holdings
Netherlands
differ
Those
giving
Mariah
##otions
Merry
Without
Mimi
##piro
Mirage
Handel
Gardner
Cinderella
Kaufman
editorial
VH1
Forget
##laq
##lige
##break
Carrie
Underwood
Tonight
Bye
##usi
Hits
購
##pf
Wirtschaft
##prem
esto
beste
Unis
##klus
##week
Stift
Wettbewerb
Preis
##geld
##mitt
##eilung
erfolgreich
Januar
Unternehmens
keine
##ipe
##tip
##nbach
##ipendium
Chance
##ccanica
upgrade
buy
Derby
ranking
##ection
##werke
Werft
hull
simply
deck
竈
Евгений
Иванович
##мя
##тин
##мно
Михаил
##фан
##ась
Бул
##га
Андрей
##елы
Fever
##バー
##roat
Eyed
##jike
daha
##paro
##sili
##gis
Isto
Roche
##dahl
Score
##itative
Pool
##core
Geology
##eje
##vne
Purple
妓
滔
Yoon
##leno
##philus
aquatic
##aling
Primer
finger
5036
奔
##yny
##dry
##rax
terrain
##eering
##pose
##WR
##fens
homme
travers
##étique
pis
Infantry
Brass
Randolph
##rje
Lok
Sabha
Shankar
Sharma
Bihar
Rajasthan
rio
##rend
##ivar
##wad
Jag
責
##lard
Level
##mediate
Novi
Elmer
Drew
Rum
Herb
##arium
##oine
reti
##culata
sinensis
aura
##disi
Botanical
Regia
Societat
##iensis
賚
叟
棨
讐
恥
貂
裘
舅
搏
humanity
Ubuntu
sud
contest
competition
ibu
dock
extensions
extend
visible
applications
manage
keys
difficult
stick
1283
startu
disk
creator
prompted
versions
Porta
Hispan
##iola
Bones
Captain
##olle
##öv
kyrka
Kristian
##stad
##eko
##gton
Hollande
##rsk
Aisne
##mil
Nile
VQ
Confessions
specimen
lists
Velika
##yna
##sland
##zug
##weihe
ended
##cisive
##bly
allies
ultimately
destroyed
fifteen
fate
militari
losses
##tely
Generals
##zes
##czyk
##linien
##zialistischen
Planung
##nich
##spolitik
Sabine
##macher
Nazis
##cist
Weinberg
##ector
Caballero
Ramiro
Condor
Legion
##prey
Von
Shire
Tartu
Brigadier
Hesse
##lho
Baltic
Paus
##isited
battalions
Mga
Heer
Rot
##undo
##yum
##sai
river
##eln
##iko
entrant
##ovat
##zd
Sokol
##deutschland
##wall
##ogo
##por
##rigo
##chenko
##iye
##omir
Bystrica
##kla
Heiligen
##ivos
##onas
vek
##chnik
##uden
##ranti
nay
##pala
##acia
##ega
##cephala
enterprise
Jung
Poison
？
invitation
Prestige
basic
Move
Window
##owicz
Cavalry
##ło
Wola
Charleroi
##iec
##sław
Grupa
##cyjna
Piotr
##ków
Bello
##czyński
##cja
##owska
Polsce
##jach
##ampa
##śni
roku
##ób
bilan
Nada
Ludwik
##ówka
##own
漣
Pour
##suite
##heur
carte
territoire
gospel
Lamb
commentary
Perrin
##iano
##šo
闖
ビル
##ulan
##kool
Swan
memories
Dok
Slow
Tears
thema
ner
##tead
Taxi
Driver
##ened
Никола
##лов
Gros
Sears
錚
違
殃
遐
邇
##vira
tuberculosis
##cii
##bic
prevention
##nata
##lade
nef
##pr
either
##ίος
##γία
naturali
sive
tomu
##ologia
##züge
Lehre
##kraft
Biologie
lebenden
Mehmet
agriculture
##hdi
Mayr
Sunderland
measurement
##lated
##üche
Taxonomy
##quet
Mayo
Desse
##lberg
Idol
Superstar
Yard
肩
Blas
Blow
##や
notation
薯
謠
arcs
##ぞ
舎
しい
にする
##ント
いで
ワ
##ックス
瀨
##ッグ
##ミックス
##ッツ
hans
亏
Chen
##dur
##iyang
煩
儼
廚
翌
邀
嘗
Dubai
Everybody
簽
閱
##unga
Survival
Kinshasa
Stakes
##ricain
##sere
Eddy
憾
Tyrone
##nando
##ラン
Dubois
immigration
dabar
##īm
##ʿ
##dino
##tza
Monkey
□
deliver
hub
##nesi
Petroleum
Pater
Rockefeller
crop
##лар
Дон
##дук
濕
찮
papa
##beginn
##imme
taj
stali
bil
tad
без
##ция
Советского
##дж
##ики
##стана
##ик
ССР
##Т
##кой
Ла
##дь
##равы
Taj
##믿
variation
Busch
涵
楸
仝
泓
滯
畦
瘴
Yon
Petter
Matti
##mental
##ира
celebration
birthday
##еди
##нен
Совет
труд
кол
##лектив
##инской
##авы
Исто
##ческий
##cani
瀞
mic
##ücü
Jae
##alar
Hari
##ıt
##sı
Galatasaray
Ağustos
##ının
iyi
##yı
##ûn
##üm
##ây
Türkiye
Ligi
Kupası
Baba
Bom
tasa
Chiefs
##sla
GmbH
Leverkusen
Fußball
TSV
##verein
##vereinigung
##kus
CSKA
籬
##bena
sketch
##scription
Stratford
##싣
1e
Event
activation
##rino
謚
楨
芹
Polo
Béla
##ényi
Tatra
Volkswagen
Jeder
Wagen
Freud
었
##bereitung
##uvo
Erwin
##enda
##wim
##vios
better
Lima
Krupp
Huber
##äck
##äcker
Clemens
Holz
Istanbul
Avusturya
##öy
嘯
雛
Railways
##rell
##tve
Maud
Ана
##ова
##тки
quantum
tunnel
##cesso
##чка
##пар
##зан
##сточная
##ове
##щен
嬴
##mbe
mythology
religion
custom
Peu
##eert
Bildung
##anken
Bastia
##ザ
ナ
##sburg
孽
甄
泠
毓
黻
bong
##zok
Indy
##chisch
##iger
##ntal
##trem
##τ
##πους
##ύς
##πο
##typ
anatin
##nit
##hynchus
plat
revealed
##ør
##fia
mammals
##ologica
Masa
##kaz
Archer
##eding
##rore
loss
Advances
##ptat
舵
##child
Willem
shares
##boru
Syd
Forward
##ască
Ли
##ол
##дов
##ncu
Cuvier
##iidae
##кам
Сам
##сон
##или
Rainer
Reeder
Roca
Helge
Brien
insect
##sori
consul
Charts
Ο
稜
穂
楯
縫
櫻
blocks
developing
describe
molecules
acids
Exploration
##lyn
kernel
nucleus
##pania
spiral
##ktor
Republicans
Armas
Guerra
##erre
Gruppe
##gruppe
Ramos
Illes
##jon
Velasco
##visor
Pallas
##ament
Sevilla
##vised
##kampf
818
Aufbau
Sf
緒
##bero
乍
Minerva
##dock
Mira
mens
##νη
##ύν
##η
##ις
Aufl
CCW
Teams
teams
Imagine
jure
nat
procura
studium
generale
繩
Mighty
partner
shu
partnership
defender
##odidae
##ède
##ngi
Hist
Goodman
proteins
##nae
Prima
##reden
Norwich
lesser
seri
猩
##ξ
ane
industry
flores
##ropus
superior
repertoire
##ebe
licence
fee
Suffolk
Haus
閒
##psis
planeta
compare
##ologie
advocate
ownership
distribution
interests
achieved
establishment
##oci
##plain
necessarily
wealth
##force
fet
Calhoun
Concise
McLean
##stair
Stig
##litz
Oskar
Lange
##rner
Partito
Italiano
Nicolson
moderne
##mpet
##mom
Pada
Como
Maggiore
##ety
Dodd
##rland
Griffiths
plastic
##ché
Hess
##isit
##oxy
assim
Finn
responses
constituent
modified
Zheng
##rski
##plant
##valo
##nate
##yama
##ichten
##ulose
##ees
##oster
Herrmann
##iae
##cleic
##öll
##sance
1137
##gye
##iology
Sonne
Bold
##gradation
##urin
##curo
Foley
##vão
##deg
##rada
##bte
##laren
xe
compounds
stress
mechanisms
feed
entro
##ener
networks
processes
Knowles
Wand
Fell
requirement
##site
membrane
regulation
Slot
scientifica
Roach
Doherty
emerging
roles
intermedia
Conway
##ichi
##elé
##dell
##zzle
##bling
Caetano
Mitte
helping
##ecule
##aic
##fand
strategies
gde
##reen
worse
genom
##cell
parasit
##sity
models
##baut
##zé
cop
analyses
integrated
functions
Duarte
Vidal
##bá
Kay
##idit
Doyle
ties
connect
##eer
González
Mey
##gae
##rts
Rae
##kimi
Stephan
##μό
Lago
##vente
##öhle
##sele
##bildung
tissue
##bona
##ift
Basque
##zka
##kata
##skar
basque
eus
##kara
lengua
##kera
##κων
##ους
Tras
Nes
##cato
nes
gizon
Rodríguez
##pate
PSOE
Presidente
Colegio
##lca
Bilbao
##goa
Ipar
##ちゃん
##おり
##vité
territoriale
렴
orientation
Св
##лого
##hiko
##mita
Volunteer
Yen
ovu
competitions
Donetsk
覃
晁
畫
Reinhard
##ujo
##wice
##rja
features
loco
bois
pek
Solo
##sien
##bation
Eleven
delta
balls
Havel
##otis
##pulse
recognized
produces
indicated
worked
heard
##rooms
duty
##ndent
rooms
properly
##nsey
trauma
##yron
##mosi
##eski
phim
Lily
importance
folk
##ridor
boys
Rosie
Dancing
Myself
Gets
Darling
Nikki
##uso
Emily
Rory
螢
瑛
##анс
Николаевич
鶯
蕙
琅
驕
Judo
淞
Uruguay
Almeida
shot
Jawa
Hyde
Montevideo
surviving
final
aged
Bears
capability
##ddu
Gottlieb
疎
##md
##heben
Rousseau
Bentham
numbers
癌
normale
supérieure
Angers
grand
croix
internationale
coopération
##tuelle
durée
Essai
données
conscience
mobil
mét
##hys
analyse
Georgetown
anchor
狠
90°
##딥
いだ
たち
Pierce
Arrow
Hoffmann
Nilsson
FDP
##partei
##schuss
Friedman
##mobil
##クション
##ネス
昂
絢
鵲
floating
fraction
##oat
Société
##fiée
Sud
Hawker
configuration
ぺ
##ぺ
##さん
澁
磐
Liste
积
睨
畢
MacArthur
Hardy
veterans
Paige
decision
##ccupy
銖
ニュース
処
になり
への
##kke
##ンテ
での
##メント
##パ
gibi
##rns
##haw
##Ä
bor
obtained
bulk
Compounds
##mide
observed
##traf
##iede
Ange
ani
##mui
arrangement
atom
1318
##vision
punti
##cidas
Oder
ZDF
##gesetz
##eague
Aire
happen
Drago
773
Dutch
094
ƒ
differential
##ād
##grama
Kerala
mathematics
Barrow
Wallis
##metry
##culus
rivier
desert
Tigers
Slam
propaganda
SMK
Puente
Antilles
##arti
Antarctic
Luzon
Manitoba
Saskatchewan
kis
##gav
Frederic
Disneyland
border
##ärke
Ensimmäinen
osa
##vena
Lars
Finlands
##vens
bebyggelse
##namn
##tigkeit
Jahres
Mathematiker
Vereinigung
##itsch
Zeitschriften
Artikel
resolve
UCI
蕩
涕
釐
紗
dur
952
淄
涇
漳
郢
鞠
軻
翦
舆
寝
鄢
蕲
恬
##γει
halk
##ights
sculpteur
lighting
strategy
Strategy
Davidson
Chess
##sut
Warcraft
Ghost
##ovie
RAW
##udio
blot
keyboard
portrait
Greene
##pec
##pero
Blizzard
І
Ї
Serbian
##charts
035
鹵
##ulas
##luca
##idas
diet
##ctat
instead
##veni
貘
Jie
radical
animals
记
sends
offering
##uari
allowed
Ole
##has
Tomasz
##nowski
##rz
Schubert
anniversary
ena
鞍
Flynn
voting
Cristóbal
Habana
Maine
Martí
Lund
##aard
Hansen
ali
##galan
##cón
Navarro
Obras
completa
##alta
##klu
##hauer
Stuttgart
Kraus
Entwicklung
##mack
##griff
Jahrhunderts
Begriff
##sgeschichte
Genf
Schröder
Untersuchung
##eris
##istik
Neues
Handbuch
Literatur
Brandt
##ginal
Herkunft
Hidalgo
##öse
##rí
##hique
##hétique
baroque
Arles
frühen
arquitectura
##ética
ý
escritura
##ciana
Brie
##eister
Pointe
##isme
##éroe
Tübingen
##wig
##ratu
Jahrhundert
Künste
spanischen
##oond
Ай
##ну
##так
Ayn
Genetic
Honolulu
##ヌ
oka
oman
##kana
русские
рос
##сия
Basketball
Ramsay
Township
cricket
Cricket
Laws
runs
ways
striker
Meine
##kind
##аре
##лия
Karel
Viborg
##бор
##valla
##лан
Таз
##ава
##лла
黏
囊
Angoulême
Going
Coastal
Productions
Leslie
Riot
Manning
decline
Riverside
beating
deaths
789
Giulia
Puerto
Rica
Allan
##vins
##right
Prensa
NYC
park
##ɑ
##ək
coffee
toile
##wide
Cinco
Dias
##enario
Livingstone
MTA
##gst
##гай
Cymraeg
Gymraeg
##ˈ
##ɨ
##ɡ
##edd
ů
ú
ej
##áci
##zek
##ról
теле
Costa
Ouro
Cavendish
Peel
Certificate
civil
jazyk
##čina
##č
Ď
##ď
Ľ
##ľ
Ú
Ť
##ť
Ý
##ô
##уп
##roit
Пер
##слав
Рада
##лл
##ей
##бу
Blind
Singers
bester
Affaires
Ballet
lan
Noah
Goldstein
##ying
##toon
Rees
secretary
Horne
##땄
Honour
##enna
brought
numera
appropriate
conventions
Hirsch
Lyman
invented
Université
Abbas
Algérie
##utor
Hasan
##qli
Gand
Arabian
Dangerous
##lett
Chapel
farm
##laine
Peng
Qi
##dono
##nny
2546
蟬
碌
麒
隍
dance
俳
Urbano
Figures
##lein
Marriage
Documents
Louise
Johna
deed
##goda
Sainte
矮
SDSS
Artist
Hurt
grain
Infanterie
##lme
##minat
explained
further
##ering
Gazetteer
Catalogue
observation
Contra
##ues
##effer
Tucson
##ciation
Advance
Sébastien
Ryu
extended
Fantasia
artisti
big
Everett
塵
##γος
##για
literary
##ordinator
Alberta
錐
##hoda
##unds
jump
ä
Rudy
Linden
Albuquerque
Wednesday
ん
仮
##＋
Esta
##blished
Areas
##rators
categories
##ingly
##fjord
##jel
##fund
Roque
##acho
幺
surface
ago
came
shall
targets
listen
Град
grad
Anhalt
Gestapo
Meuse
Kiev
##enau
Rommel
##ppen
Normandy
Seine
##sler
Mitch
Einsatz
Hannover
Luise
Bila
Gerd
א
##בא
יש
##וע
בר
##άς
##ivt
##bban
Rabbi
Yes
##tev
##bbi
##rimage
hình
chữ
nổi
煞
driver
kit
י
##ֱ
##ה
##ֹ
##ו
##ִ
##vih
##ְ
##ָ
##ugi
##mund
Although
##bining
##wels
traditionally
pronounced
pronuncia
divine
Jeffrey
##nosti
##how
poetry
fifth
translations
##ogie
##graphie
Biblical
Marvin
seems
Kristin
amongst
##stiti
occurred
substitute
##ֲ
##ד
##נ
##י
placed
##הו
receives
##ύριο
preferred
##ndal
##lga
##haus
Iowa
Divine
Welsh
ini
armor
##grade
conventional
##pressed
黙
##rott
excellence
Details
##ension
冪
##dita
Pius
churches
##agh
##valle
##mene
##itos
amica
##Pherson
combination
##tys
Confederate
casualties
wounded
captured
Amazon
Lincoln
##gall
Till
Eisenhower
Hansa
election
result
extremely
impression
chances
##citing
extent
changes
accent
##ritt
thirty
seem
Also
##rave
mandate
correspond
accounts
Putnam
Address
cemetery
signature
remained
gouvernement
peuple
芽
絞
ד
##ּ
##ב
##ַ
##ר
ע
קו
##מר
##דו
##נאי
־
ח
##זו
##לו
##ם
##ס
##מ
נ
##ביא
##ח
ראה
το
##μή
##ukot
##κός
##gier
Mato
Cid
##fahrt
αν
##τι
##ζ
##beni
##chio
Justo
Gonzalez
religions
temporary
punishment
##ested
conception
situated
medieval
##gination
orthodoxe
Presses
##itari
##egan
McLaughlin
##bull
Notre
Dame
Gregorius
##redible
暫
Yves
Each
departed
clean
judgment
fault
remain
##given
refused
conclude
apply
built
precio
stones
hay
stub
separated
Would
kingdom
committed
materials
creature
quitte
cannot
till
sensu
Stark
##ismo
della
jr
question
enemies
Lutheran
Augsburg
XXIV
Garde
##hanna
sample
bias
estima
Nilo
Sahara
ქ
##არ
##თ
##ვე
##ლური
vicina
##apo
##tak
chung
Tema
Tong
##ール
##anak
Sion
Holiday
Hara
いと
かれた
##ース
strips
eigen
##vec
Landau
Bullock
companion
aspects
religiosa
##onen
##kui
##didae
##nnis
##folia
蛸
疱
爛
##iati
Orang
theater
Guam
ash
##ploy
delivery
##idat
diploma
##イル
##iding
seek
deployed
sensor
radar
surveillance
##tuto
Reilly
##bergia
continuous
keel
Remixes
Mujer
Floor
##course
##bita
1314
##gent
##pue
Società
##ruzioni
Forza
Calder
Plants
##hna
electrical
##nidae
##formes
Massimo
edib
nest
##viar
Sarawak
Sabah
Malaysian
Borneo
Biodiversity
strategic
technical
intelligence
##ability
RK
##tuna
dramatic
Corwin
唆
Ա
##զատ
ու
ա
##ն
##կա
##խ
##ր
##ց
##ախ
Ք
##ո
տուն
##մ
##րոցը
կ
##երտ
##եցին
##ք
Պ
##ատ
##մություն
##ը
մ
##եր
երկրի
Մ
ս
##ուր
##բ
##յա
##մբ
##ենք
։
Դ
##ու
բ
##դ
ե
##ս
##նա
##ռ
##իկ
Բ
##ար
##ձ
##ուն
##րբ
##ա
##զան
վ
##ե
##հ
##աս
##ստ
##ված
##ային
##զ
##ով
են
հ
##ավ
##ժ
##անում
լ
##ույս
հայ
##ենի
Ե
##րկ
##ի
##են
դ
##րո
##պ
##րի
մի
##շտ
խ
##աղ
հին
նոր
Ղ
##ջ
##երն
##զու
Թ
##թ
##առ
##անք
##երով
##եռ
՝
##թե
##լի
##շ
Mozart
Paula
kai
##arri
1251
Austria
##ählt
##mische
Rothschild
Oktober
##plom
Februar
##vero
##rdnung
Kongress
Belle
##kirche
##üll
Künstler
Österreichs
##üde
Werk
##stätte
##stil
Nouveau
Wagner
Kirche
Brahms
Schoenberg
garde
Zweite
ぁ
că
##şe
##vim
##ân
##ză
##ș
##liu
copyright
horse
##power
##ferd
##estä
##rke
Ethnologue
criteria
##pelt
##nnie
Zamora
Igor
##kasi
##zuli
##kle
##nek
##valier
##regar
Vallée
invisible
##eption
circles
Shan
Mack
Stacy
##dite
Bender
Slater
##oise
##enomena
##rgie
##ptica
##jama
##ddin
provide
##unted
##stria
##case
Curtis
##ades
Essex
##vino
Kirke
謬
孕
##sat
##ifier
##opes
Trial
Willard
##zas
Larson
Randy
##ナル
Burnett
##ölle
Caesar
ute
##elius
Marius
Italiae
##timate
populares
Sulla
Eutropius
##pito
##iny
Elder
Flame
##utar
Cassius
##toni
##mede
merely
Thorne
Cicero
##iline
##ticus
##raria
amic
romani
provincial
prose
##cute
illegal
##pense
Comment
brother
Quintus
Mori
##vern
Grecia
##rger
##brück
Krieg
##sku
Rahmen
politischen
coma
##νε
##φ
ale
vidi
annual
Mackay
##utus
vis
Rolf
##ελ
##θε
Woolf
καὶ
##νο
Pocket
##edes
Malone
Augustus
fil
Valerie
Ridley
##esse
Sick
##fers
Greeks
##rology
absence
sei
brain
Alexa
##iens
Girolamo
fever
##oin
Leigh
悶
rede
Isaac
Sherlock
Holmes
Babylon
迁
检
测
无
纯
1220
##mberg
##ulsion
뉜
##ело
##рус
##enia
Беларусь
Weiß
Rusland
##κο
##ωσία
назвали
##ным
жителей
республики
pianoforte
##piler
mall
##dow
##ława
Kazimierz
##łu
##zig
Friese
Xaver
Nikolaus
##ég
Pepe
##ads
Bland
##Ü
Leben
increased
controlled
varieties
##cultural
##plications
disorders
Geary
Albin
##inas
mutations
adaptation
Jain
Organisms
Outre
##smi
##ctors
##nology
##arma
idi
##ewski
Fue
##xon
telo
Sonata
##→
↑
渴
勁
謄
邕
努
俯
仰
##yes
musi
##lara
嚮
Violin
##urne
painting
##ysk
##dley
Chopin
##ało
Samson
##chó
Ludwika
##abel
Emilia
Michał
##ę
##zej
##ewicz
##monie
##étiques
##euses
##illes
punkt
##unct
punct
Engineer
##glas
##igde
tank
ore
Fruit
merchant
損
संघ
##ṇ
##ām
rata
commun
gana
Buda
Cổ
##buda
Magyar
Új
Kis
##Á
##ugati
Dél
Budapest
Nemzetközi
##ülő
##tér
Mihály
##sza
##szág
##ű
##lés
megye
megyei
város
Debrecen
##écs
##úl
##pron
Já
##óc
Zoltán
Kod
##ály
##árd
##ás
verb
##ól
##ók
##aust
ש
##ואה
##ösung
Juden
##werte
##länder
##huda
Eberhard
Bundestag
Auschwitz
##ł
##blin
Dachau
##weiler
Menge
Onkel
wäre
Reichstag
##kert
Kampf
reserva
##rista
Pomerania
##nien
##drich
##viv
Białystok
##mination
##slag
Widerstand
##pliance
Battalion
Sergei
##wnik
##änner
##bór
##zę
##chow
Lublin
Kraków
Aktion
##inet
hair
##minated
chamber
factories
##tings
Tadeusz
Armee
suffering
soli
##tude
Haar
##rät
Killing
Silesia
unmittelbar
getötet
Heft
##ný
kommen
##bliche
##linge
ums
denen
marche
frequent
inaugural
commenced
occupied
escort
Biała
winter
along
survived
journey
##dzi
##usen
scenes
camps
begun
finished
##oured
##chmann
Lui
Doris
Garrett
##javi
Yugoslavia
##jska
čo
##jub
Drugog
svet
Unter
Bosnia
##hagen
Sint
Blacks
##sund
##inden
##eak
convicted
nazi
courts
##tif
rivals
entirely
说
Krone
språk
##kring
##klo
##kens
##onne
Icelandic
Scandinavian
##øp
##bne
##ilas
Ð
Þ
##ktur
Balkan
southeast
boundary
Trieste
Ljubljana
Danube
##odan
Milo
Croatia
Amnesty
##lava
##kova
##čko
či
##šće
##arna
Teachers
Léopold
latine
moyen
âge
##roux
norr
##œ
##nir
menn
nord
ví
##jer
Esa
##gné
##jó
Karls
##dí
Leif
##vald
##vinne
45°
楔
囚
##στικό
ako
##ikos
Ako
##κού
Lindsay
##tham
ages
Woodrow
Roosevelt
##stide
##gian
Archaeological
##jin
Oasis
##kutan
farming
##nija
##jat
##lyi
##vni
Nauk
longa
Carter
Palo
στο
##τε
environmental
##relle
Ecology
##thus
Prefecture
##kset
##ijo
mot
##lmi
Hansson
casu
##ajan
##aren
餉
幟
ту
##ндар
##âr
dvi
Wait
2549
Carrier
##чен
##онов
##несе
Nathalie
##raut
pump
##қа
##па
##қ
##стан
Республикасы
τρόπο
##рь
##енко
almost
##anique
##stique
immediately
Infinite
##３
MiG
##inis
probable
##meran
Guiana
Guyana
Bolívar
749
##iata
Amazonas
Entstehung
Seite
Dorf
##üller
Hrsg
Thema
##hische
Rita
Veröffentlichungen
Hauses
Schriften
ク
##ワ
薬
Фрунзе
##kek
##ху
##зию
##жную
##ию
карта
РФ
вы
##ят
##гр
##ински
цвета
##jut
FIS
milk
##երեն
##əri
##cə
Azərbaycan
Dhabi
tala
oda
##mlar
##ň
##asy
##lock
Monica
Muslim
hardware
##rren
##zce
guardia
##chny
##pato
Brigitte
Boiss
حد
##يث
##بو
##ي
##reer
箴
isn
玟
##bok
켰
##ака
тілі
Stad
1103
壕
璠
昀
Duchy
bishop
VOC
Staten
##iteit
Raad
Dakar
Boulevard
##olen
Ted
Monet
##ott
Townsend
Sá
##ztu
Regio
JPL
Владимирович
##от
##зов
Ί
##δη
叡
幇
查
圜
另
橿
蛤
灝
柞
restaurant
suite
Rutgers
##aten
Боб
##рик
##ого
##чан
Игорь
##уль
##ко
Punk
##gge
Lenny
Kaye
Patti
Mick
Dolls
Scream
##rks
##cents
Madness
Tone
##seri
organization
terrorism
Publication
Gaza
Turkey
threat
raid
Attorney
Hamas
bombing
Tod
Daimler
Messe
##inkel
Luft
Ruhr
Kramer
##erra
Rocket
##улы
##sett
nowe
##viešu
val
rivière
fleuve
fiume
река
lait
##oko
arbre
дерево
Rotterdam
è
ì
ò
ù
hak
##oš
kata
##bna
##vn
ien
##ġ
sef
xem
saj
skola
##blik
teatru
differenza
kol
##twie
##ldu
ug
##wali
##itti
##jie
bir
##ibu
arte
Crist
##пад
##том
##лод
Če
##ovice
##če
Brent
##ssing
Československa
jedno
##ký
##ryk
##äki
1143
##fly
tools
Messier
variant
engines
south
orders
trend
lt
gallery
Jakarta
posts
##ongan
investigate
export
indo
trainer
##pectations
products
plans
ranging
moderni
expensive
costi
upgraded
retired
blogspot
##lita
##open
aviation
saab
##poon
##garo
Frances
Date
Along
Emery
Joey
Sings
Nashville
hos
##pice
##lts
##kog
Saab
##rici
rubber
skin
spotted
##eath
##бург
慎
Expressway
##lur
妒
麼
Woo
##epe
##anes
##nent
##ären
includes
shallow
continental
neighbouring
islands
##ivation
##vitas
##tinent
masses
proposed
Wegen
Tulsa
Córdoba
Cuenca
Guadalajara
Comunidad
autónoma
##liet
Eurasia
##ἰ
##ὴ
##λι
##στα
##ντι
##νού
##πολη
Η
Basel
covers
Luanda
Abruzzo
evi
##zio
forte
##zzo
##iare
Campania
##tuti
comuni
italiani
Velázquez
Goya
Ribera
Hieronymus
Bosch
Museo
Prado
##mosa
troisième
##èn
##ére
Ancien
Napoléon
Bonaparte
##isir
Agora
##archy
##ulco
Juárez
Playa
##rón
Santiago
##cah
Oficial
Morelos
##vó
Tres
Пол
chan
##phoe
อ
##ำ
##เ
##ภ
##อ
เ
##ข
##ต
mei
vall
##inam
ida
##yin
ப
ஃ
##ப
credit
Southwest
Barnard
##isan
##ʼ
##ydd
⅔
##alas
mots
##tré
Cymru
##ledd
Swydd
Gwlad
##iad
##wedd
gyfer
##dol
yng
stb
rescue
Monday
planes
desired
##rdy
Milano
Maxi
Ursula
##fordert
Weimarer
Baldwin
Canal
##トル
##ビー
##ーラ
Cage
Spartak
##necht
Clara
##tki
Mehr
maso
##zon
sister
bout
Ż
Ć
Ź
nad
##ubi
##pira
##vate
稍
mali
##uvat
##yki
##sholm
##αι
##δα
paid
á
##κα
##λείο
##νά
##σιο
Limburg
Reino
##garde
##eves
##onor
Preußen
Murat
Prussia
Voda
##fone
Flughafen
Hauptbahnhof
Bahn
Kaisers
##wert
dues
Mercer
Orleans
Cumberland
plateau
newly
rasa
Попов
##steen
Dixie
conquered
rulers
##cended
kus
identified
Kang
occurring
speakers
靡
膏
##zhen
tons
##ἶ
##γες
Shackleton
Dickinson
familiar
phrase
Cherry
Tala
archipel
Lions
埋
誹
韌
1357
轍
僭
Various
##три
##гов
兑
Jang
宥
該
怯
écrits
rêve
Claire
discours
directions
##ė
##tė
##zył
##rug
##син
##сени
andre
Manhattan
challenged
##aring
##tino
Bumi
visit
cardinal
Hierarchy
Archbishop
hata
Holloway
tactics
sailed
likely
meant
hills
Margarita
Reign
Rochester
##ored
arrived
settlement
##erance
Stereo
##belt
researchers
ninth
scattered
objects
##ached
distant
##bino
##tello
燐
##afft
Boyle
gradual
hung
Arkansas
##ogist
##rins
##hua
Dino
##ochia
Travis
Barlow
Marco
##ssia
Brock
臍
Minds
healthy
Carry
##tosa
Further
##uv
limits
##ladi
##ø
##ologo
Perspective
Crustacea
Richards
##rine
##ully
Commentary
Yorker
葡
萄
##pta
##lina
Martial
Velvet
mesos
##soma
##rta
egg
dro
female
##gregation
Camponotus
##latus
##china
haya
##avu
##mell
##rema
##toga
##ctum
drum
##ruit
##poner
mexicana
##hora
##phylla
gong
bicolor
##rdon
jumping
##lotes
sok
Aga
##cem
##culatus
##rte
##ophora
##lana
##oia
hir
##flora
##ctar
##inea
##arang
ela
drew
##gona
##voi
##ceps
fruit
##lona
ย
khai
##ไ
##่ม
##ด
##แ
##ดง
Muir
##pente
##stus
##pino
سليمان
farms
Shri
Zeppelin
袋
vita
##bea
usque
rum
Disney
Walt
##chant
credited
represented
ろ
##iken
Somme
Finlayson
##iling
##zde
Ibiza
##쏟
##ُ
ذ
##َ
##وار
##يون
##ган
##kut
##hì
opus
chorus
##verdi
Române
##lna
Už
##iau
##liai
1252
##izal
埕
##rát
hlavního
města
Prahy
městské
části
##rá
##vní
obvod
##átor
##str
##ální
území
zag
##auto
Josip
Nag
cita
Bent
Mosque
寓
Clay
##servation
##vno
Первая
Все
##щая
перепись
##ии
Таблица
##пределение
##ному
Петербург
##vės
##ėja
presidential
Marcos
##pica
Sofia
##вор
##шир
##овский
剣
Nadia
##langer
##later
Engagement
##ヅ
ある
##かった
##から
併
##ジン
##ウス
Focus
##singer
##ashi
檄
1306
Steam
##σο
##φος
Superman
D9
Knud
vapor
pressure
菖
Nationalpark
Schleswig
Holstein
##meer
Gesetz
##overe
education
##tendo
1381
##ministerium
Lune
##πει
Gianni
Enciclopedia
Filosofia
##fis
posterior
substances
modes
Limerick
matters
Selby
Statens
##ryl
##ghton
##alim
Directors
agenda
##olat
agar
##atore
##inus
꼈
Norm
gravi
Twitter
gener
ble
Kultury
##zew
Miasto
##łe
##czne
##wand
polis
pola
##skie
##blick
метро
Đ
##ơn
vị
hành
chính
Đất
đai
và
hậu
giám
thống
kê
Tổng
cụ
Việt
Chỉ
tiêu
tổng
hợp
giai
đoạn
ice
Expansion
Sài
Gòn
Giải
Phó
Hanoi
flights
Gia
Linh
##ến
miền
Tây
Tôn
Đức
##ắng
Đại
lộ
Lý
##êu
Hoàng
quán
##ệ
##gone
##nais
dân
棍
facilities
Nguyen
##xton
Hòa
Bình
Anh
Quan
Bogotá
Distrito
Especial
##bana
Salto
##dama
plaza
Calle
carrera
Este
Segura
##quia
D8
1311
2561
outer
except
Bono
gay
debate
liquid
Doha
##bah
Qatar
##lium
mois
Sachs
loi
##éen
##mov
bodies
commonly
reality
##zta
Parkinson
##cated
隕
##lub
Alexis
Streets
##pone
nog
Dixon
especial
##etin
tongue
Catalan
Judd
Twist
Dickens
Yorkshire
##inos
##νος
##aza
但
鎚
絡
讃
Luiz
Henrique
Waldemar
lua
wer
뀌
##historic
Hispanic
flood
##west
nyt
##fos
##nari
sicer
##want
elementary
霹
靂
Companies
permit
Abū
##mento
immer
interference
Veterans
reasons
suggested
Castle
##handlung
##sette
transportation
teen
##ager
inhabited
Having
cast
Shore
##ished
Account
strange
柘
釵
釧
Secondary
淝
##묶
ひ
##lji
Classe
safe
賃
##quita
relief
擦
##holz
##ously
Isla
Aves
疆
攬
棲
〇
maritime
cruise
##placement
feet
topics
ship
pays
##edio
mining
databases
Basket
##kko
6667
quit
Zimmermann
rotor
##tellung
moved
engage
normally
prevented
rota
allowing
stepped
depression
Similarly
introduced
determined
##justed
containing
engaged
pushed
##vancing
subsequent
moves
regular
wheels
Historically
messages
repeat
valuable
reflect
designed
implemented
##ücken
irregular
##pred
wir
Luftwaffe
Uhr
Marian
forts
##ffy
顆
##sino
##raft
##ships
Hindenburg
Films
##oons
Macdonald
Election
gets
vote
counted
Goebbels
Maiden
##lü
##pian
Postal
Affair
Universidad
Pacífico
##cciones
generales
##anik
##uu
##jing
##aju
Grünen
##ündnis
politik
vers
##hafte
##tionen
politische
Parteien
reden
Klima
Frieden
Menschen
##rechte
##furt
##mper
##raten
##getragen
##ners
##chaft
Kreuz
##wahl
##leiter
##wahlen
##nisse
Breisgau
荼
揉
凋
鮨
醯
##šā
##Α
##Σ
##Ι
##Λ
##Ε
##Γ
##Ο
##Υ
##eos
malik
Territorial
SIMBAD
Glück
Sonja
Armenia
Prunus
##uno
Cando
##tty
##enin
嵌
programma
mare
crowd
populated
##anse
Kati
Bassa
##tou
##bern
Denmark
##kker
Polis
##ckman
##lios
볍
Kraftwerk
Autobahn
Soundtrack
Maximum
â
Inga
Fredrik
##nture
##hten
##rude
##ater
溢
platform
antik
##nock
臭
Melbourne
##uð
Meadows
##vning
晷
coda
っ
んだ
稔
聡
ける
##tsen
穌
references
endangered
ص
##حر
##chuk
##pais
懲
狐
##NV
##◆
##eries
Parliamentary
##vās
##bson
慢
Adele
Colonel
##raid
16th
Deer
##beli
Machines
##trica
utility
prevent
origina
Timo
##nko
##rrell
accord
usage
Inde
Dahl
##tian
倚
Dizionario
##grafico
fils
Teresa
Renée
Françoise
##él
##ïde
Sénat
##ourg
Honoré
Ordre
Réunion
IAAF
Athletic
steep
##lech
legi
limita
##itate
Iulia
##젊
dono
##esc
##cosa
Senat
##īs
##citus
##olus
肤
Mound
Erie
##tati
##bald
Directorate
##â
##itaria
##ntang
Reginald
Twilight
斡
婉
繍
Welles
彪
acu
##juana
INE
barrier
##cept
cartoon
##isse
塗
满
鲜
锡
侗
畲
瑶
傣
颇
佬
仡
伦
china
佟
馮
称
manj
扑
戏
Buddhism
simplified
##onstruction
##teenth
喇
嘛
Shang
Tibetan
Buddhist
爷
灶
硕
郑
亲
Jørgen
Jared
##verk
Göteborgs
Lear
Parke
##eby
Christie
##irat
##sona
нив
##yak
Johanna
archaeological
##kot
##chat
##pende
⅓
Deborah
Mesopotamia
Με
##μία
##lil
##urat
硼
稀
##nburg
Wittgenstein
Hertfordshire
Søren
##atte
##gte
##skabet
##lser
##mand
##ify
existent
##ilt
Sartre
Lasse
Duncan
##ørre
##tò
##noma
Humor
Osten
Poet
Nietzsche
Dreyfus
Elise
soi
##pelo
Weston
Merle
##odor
Kyle
##dik
##butan
corpo
seu
##gido
primi
nostra
principi
hui
##dere
##sunt
beauty
Stade
Vida
燥
埃
翟
##mul
Bahamas
##ゆ
アメリカ
Reserva
unan
thirteen
##elser
##renz
Monarchy
Booth
treatment
Woodward
Sit
Thursday
Crash
Liza
##beth
Cuba
##pland
##hawks
##pera
Nuevo
霓
栱
##͡
otto
穰
蘊
##gny
Renoir
peintre
vie
œuvre
##jib
amo
##agna
##aq
##tym
revue
thousand
##llion
##drag
ー
##gasy
##retta
##skou
##jou
##affe
##rty
Ono
Vogel
Virgil
Hodgson
Eliza
cattle
Jaya
##deva
##isor
Volker
##riate
##tress
Egypt
Dominic
##long
##quity
Bingham
##obia
Eros
Má
Angle
##ría
##adas
Christians
Gonzalo
Oviedo
Valdés
Shen
##zhou
été
##istes
##session
##elle
Wolfe
##nden
Freundin
pink
arrest
obvious
picked
supporters
Pride
Parade
Lesbian
##gender
Croix
##nym
##essi
Oceania
ל
##חב
##די
##ל
מספר
##חי
##צו
##נים
daou
Mediterranean
##pso
mediu
##σό
##ος
##ikh
##ת
##יכו
Akdeniz
##taw
البحر
الأبيض
المتوسط
##ncourt
##anka
Tank
Sioux
Sundance
Buffalo
Cody
##rean
##⁄
弧
##Η
##Χ
##Μ
tun
##uns
##tun
saha
tournoi
larger
Martel
XVII
##armaceutical
Burt
Toscana
theta
##illy
Germans
Appeals
dissolution
##arus
Romane
constituency
##lami
Malden
##clusion
Vance
##making
portes
Flammarion
##bran
##idor
Ashley
Actors
##tland
##ikon
nem
##omia
lagu
##riam
##lya
Lexington
##mbi
##guo
Kappa
##έατρο
##φία
Kazakhstan
##ʰ
ɕ
ɾ
##fim
особенности
##кта
ат
от
то
mills
Norden
##mbat
##tista
Battista
熟
Regent
István
epic
Pico
##ndola
##pression
##cluded
tiers
¬
##tii
datu
construct
##uwe
∧
⇔
##oort
Reichenbach
Khalifa
recherche
vérité
Naga
prince
##haya
##diya
##eza
##laus
Pavel
Jozef
##ári
Chevrolet
##mii
Editura
RN
##®
opposed
youth
inside
Schmitt
##mpen
##basis
gall
Dates
Esse
Minute
##omen
##élie
Etter
##beek
##giene
##të
##ぁ
オリジナル
サ
##ウンド
##ート
##レクション
##ープ
##ニング
##テーマ
##アニメ
##ーション
##ディング
Digest
##èle
Piero
Sra
Gunnar
oma
sempre
communications
Follow
##ycling
forming
險
##regation
Oort
Tempel
Julio
Muller
Identification
CDP
தமிழ்
##dian
scheduled
##andia
##kā
##ēka
##ெண்
##டி
##ர
##ம்
##ர்
ē
ஏ
dental
##eena
##unda
கி
##ல்
ன
##்
த
##வ
##ாரம்
ந
##ால
##ா
##ய
##ி
தி
##வ்
பி
##ந்த
##யன்
##மா
##ர்கள்
##adar
இ
##றை
##னார்
அ
##க
##ொரு
##ள்
##ூ
Schiff
lent
support
Sanskrit
demands
particularly
##ḷ
##wes
raised
nations
colonial
Madras
ende
demonstrate
corpus
Groningen
Takahashi
comparative
Sheldon
##cultura
##ularis
Telugu
##oog
##kam
##amas
Nevertheless
##istica
speaking
bureau
##voda
resta
##oken
periodi
##baran
##kkal
炙
骼
桿
##closed
Curry
Tristan
Hava
##oire
episodes
Cyrus
##ods
Byron
Della
Married
couple
Delia
programmes
##lights
provider
nominal
##jl
finance
##iniu
Zimmer
citation
brevi
##ῶ
##τος
##ård
##ύει
Fulham
##iner
Davy
recognised
sizes
temperature
砍
驤
nächsten
Monaten
##ulär
Pio
kein
Papst
Schmid
##orar
##crito
Gregorio
Ugo
jur
##iani
cine
Movies
##ソン
Gothic
刈
Sebastián
##zca
Bautista
Benedict
Benedetto
Giacomo
##ngar
Miglior
Gegenwart
##fragen
##estad
Loyola
##olition
Pays
##gioni
##olla
Pace
##anza
##gora
##eve
Storia
Padova
##mins
##zell
multa
adulte
suis
Petru
primus
tenu
##etus
Αν
##γκ
Nice
Eva
##risto
##phorus
##foro
##gino
##uté
Levi
Fayard
##ceto
νίκη
##τή
##axe
##erum
firma
nulla
maxime
##ttore
Constantine
Bari
##nzia
Fabian
##twa
##ermann
regiones
notar
##rent
##stas
##ymi
##ece
Lucio
##yrian
Roma
##fes
##tib
Johansen
gamle
København
golden
Jacobus
Granger
Dion
##isio
Felice
##tuit
memoria
celebrar
basilica
Januari
##tych
##tich
##terra
##nea
domu
##lino
hier
##onym
sedes
titul
urbe
##cesis
##ntia
mult
##turas
Sylvester
racconti
popolari
terzo
framework
creation
酷
Eagles
Peggy
##짧
Drake
##ddy
performer
Teenage
Heads
parade
shop
##rose
阵
沉
应
韬
养
决
跛
##xes
騫
郴
匈
Clapton
Sheriff
Boyd
Domino
##ttes
Jesse
tras
Singing
downtown
Happiness
##aches
Lone
##oha
##ɾ
浄
Regular
Händel
##ref
wishes
##imit
Sometimes
useful
Uri
Hana
##gates
Alabama
federal
Elle
辖
发
莎
Historische
Kommission
##Κ
Ezra
Pablo
militant
Belgium
Hautes
##tka
##ador
##κος
υ
蠻
aga
赳
revision
##rcia
toe
Frozen
Eyes
Sigma
ê
Reus
Mao
Toby
Brookings
literacy
Ying
Xiao
义
Sunset
Bourg
Guards
1960s
##ç
Wiltshire
reduced
Internationalis
デジタル
##テレビ
##ジョン
Į
Leonhard
##wys
##zó
##ím
##ði
fairly
verse
poets
singers
mountains
##dise
mur
silence
##rior
enemy
##resse
alive
minst
honour
guards
Though
knows
retreat
choice
hill
regard
flows
hostile
array
lives
survive
##yal
proud
inspire
guard
shore
##ùi
##ouer
cantar
flower
¹
fought
stood
bare
##rly
cui
sinn
lao
bà
bile
##òi
##haidh
rua
##idh
dui
là
fear
cai
dù
dì
foc
dee
ham
Lies
Roses
MacDonald
暹
盼
鑫
鬆
耿
迟
Sabbath
##bado
##ρια
##κή
Nippon
Airways
##som
Polk
Osbourne
Suicide
Wicked
冉
closer
Cars
##dungen
##richten
##tne
لی
پهلوی
gear
nose
exclusive
considers
potentially
Ilha
##dores
ゐ
edo
sunt
Handlung
Lig
Potsdam
Verdun
Villers
Seul
Hause
Paderborn
Gap
##hrer
##singen
Rochefort
Augen
掩
Celle
Artur
##arrow
##gol
Megachilidae
##wny
János
mitte
##zän
##ská
Brno
Getting
Oceano
Verne
##rgo
Trevor
##ozen
##bain
اسم
##اعي
##ل
##ور
##eska
覚
Chiang
Regional
##ディア
##スク
Tuhan
##uku
牝
Stalna
込
##cussion
Freak
##ania
##unsel
##zky
##chidae
##zyk
Insects
Bugs
##nations
##dicate
introduce
吻
SSSR
Allier
Luz
##mise
##mont
##hofen
Platz
Boden
Constance
thai
paint
Brandenburg
Havre
##Leod
Ottawa
Webb
eighteen
conquest
Senegal
Immigration
mention
waste
wild
##ips
aftermath
Trees
diversity
patterns
dimensions
##sium
##ske
skrifter
##yat
鑼
Neuroptera
##φη
##μερα
##τερο
##raali
Everest
Maka
Kali
Yamaha
Jesu
Alexandru
Nicolau
Performance
##ョ
##ゾ
##コン
Homoptera
Nintendo
ס
##לה
choir
##matik
##äis
##ιά
##ψ
##μα
Omer
##tà
##person
affect
##otas
suri
##wards
1295
纏
flexible
##dges
interchange
Turbo
Madsen
橐
##clamation
♀
##ucha
Berge
兖
牢
Oldham
characteristics
##usso
Cesar
Franck
Parte
##nkirchen
叫
##צ
##ק
♂
Stelle
Ping
Sono
##σκο
##πος
debt
##elin
##zdu
銜
遽
遭
竊
懇
逾
醇
聊
既
蚤
憑
bog
迭
funding
##luat
Herzog
develops
valla
##hto
##eht
hallituksen
##stö
##ssä
WSOY
Борис
##лер
##чик
##гра
##мир
##ован
##ное
поражение
Глава
##Х
##Ф
##ИК
гг
##anja
##fana
##istant
КП
Runt
Orgel
##bewegung
Mio
##rgan
grades
##lades
##denza
Grazie
Luna
Yeni
##ヤ
アニメ
瘦
侈
Piece
##eker
Juha
externa
Studia
Rua
##tü
İstanbul
Türkçe
##ılı
Aralık
##ês
mata
lima
##gines
Sanchez
##matica
##nesian
controversial
##chid
closely
##xicos
believes
Puy
Malcolm
##wley
Tibet
Burma
Nepal
distinction
mora
puta
##taba
Recent
##ruf
Blues
Sessions
Chancellor
殉
Annotated
Saxon
Shepherd
স
##ত
##্য
##জি
##ৎ
র
##ায়
##tya
##indo
##sih
##luas
Pela
##yanan
Aan
##gku
##inja
Dari
Teknologi
Bandung
Instrumental
Olimpia
Samurai
Nottingham
academic
##ubt
apparently
Austin
Metacritic
Interactive
Rotten
##toe
McGregor
Mathilde
Chrysler
Cruise
recta
訥
琨
駙
璉
escape
Yuan
diameter
Notice
IRAS
Ares
VY
##uang
##uak
##nji
##ير
##ض
##بر
##دب
##ران
Hôtel
##uny
Étoile
薔
Daisy
Requiem
##δία
##chert
##nili
Sobre
dini
sul
늄
##turing
##cott
petrol
bang
##odia
##reep
email
##uwa
##zid
饑
absent
failure
鶉
##lal
廓
鉀
leiden
switch
##ニック
准
奄
##taining
##atie
##riff
##rü
##jina
坎
##eño
Terrace
Teddy
3º
avenue
shopping
permanent
Senate
##mò
##īz
##lì
highway
##gnon
Jerez
midfielder
絳
Davenport
Gavin
##muth
Günther
hours
outcome
Tora
ト
Blackmore
Ronnie
Grube
Mickey
elven
##jós
##ál
##druck
##önig
##män
##cie
##lore
##iade
Slayer
Lombardo
Mercy
Judas
ḥ
alá
iba
Kira
##tih
itt
majd
##ahi
##aad
أحمد
##ظ
##يف
##iler
##kill
Resurrection
judge
50th
Jagger
Watts
Stones
Banque
Exil
##rden
Dirty
Bridges
##ntures
Performing
##ctra
Boone
##ÿ
##rar
Wendy
Rough
##boro
Guru
Angry
ม
##า
##ตร
๑
##๑
##๒
ผ
##ู
##้
##ใ
##ห
##ม
##ิ
##่น
##ป
##ร
##ะ
##มา
##ท
ด
หรือ
##ส
##ค
##ว
##าม
##ฆ
##้า
##ย
##พ
##าก
##ษ
##ั
##ย์
พ
##ราช
##ิน
##ี
ร
##ช
##าย
##าท
##ผ
##็
##จ
##การ
##น
##อง
##ค์
ต
##้อง
##าง
##โ
##ุ
##ก
##ั้ง
##่
##ปี
##ถ
##ึ
##ง
##บ
Clear
Galego
Galicia
Santander
##alia
PIB
Autónoma
鵜
榎
##mig
##fiti
Kashmir
Павло
summit
Rabat
representative
Palestinian
Geld
Isola
Cobb
##isten
##schiff
##nça
##orie
Lévy
Berliner
savanna
##vang
氐
Fam
##icom
NES
##lace
addition
tap
distrito
região
freguesia
##ião
província
Província
estado
estimates
spend
trends
##itur
Stockholm
deutsch
Länder
1138
Ente
##teran
##äter
##ublik
Günter
Bevölkerung
Zweiten
Weltkrieg
Bundesland
Zensus
portal
Tages
Lech
##azu
mineral
ens
mica
##yni
horn
##aks
Fayette
Metallica
##nés
##lido
##cio
déli
##quant
##rito
Runner
Hilda
Duck
Dove
Inspector
Berna
##dotte
Morten
##lesiastical
Lạc
Quân
雒
Bao
韦
Nusa
##hian
coastal
##cological
nich
##pfer
##dej
characterized
Welle
##colo
##graphical
Hồng
Bà
Âu
Cơ
Triệu
##ạc
Expedition
##lani
bola
##guas
contacto
Ediciones
ediciones
##rière
##ović
##£
Lilly
dub
##programm
Fidel
##issima
Győr
Hungarian
vei
##harge
separately
けて
##なった
##ゲーム
martial
banner
protect
crew
deem
##avor
waves
##riek
##fty
ending
sons
Tā
##çu
##ņ
##llah
##şa
duo
##ttin
##çar
##alu
ç
##āla
##ât
##xana
##xar
##ätta
dör
dâ
şi
##şar
##jä
ġ
##adu
Dalla
Бу
##ьне
##чу
дев
##йра
##нна
ло
##ера
тех
##кина
##ила
илл
##ийн
ба
##шкахь
да
##хий
##рха
##ехь
##зо
##ами
##йна
##къан
##кана
##ллин
##шин
##шна
##чо
##хь
май
##ит
##тина
##мана
##чий
##шо
##ало
##ме
##дий
##лина
##ок
ла
##илла
##алу
##рж
лат
##хана
##хара
##хе
##шан
си
лаьтта
##хьа
##нне
##цу
##жал
ши
##кху
##жар
##аша
##вна
##ца
ер
##йо
##ьо
##мс
##рга
##ьна
##до
##ац
##дах
орам
##гал
##зда
##хин
Мы
##ились
ночь
когда
ще
##нила
##сь
##тром
под
##ьва
дали
имена
Существует
нет
Бога
кроме
##лах
##лины
матери
учи
##кала
га
##рце
##вать
для
народа
их
##ову
##бр
##става
гор
##рла
##ободно
##рос
##дно
##ствия
##оле
##вали
##кор
##ее
##тные
##ятся
##ща
##стави
##кло
##нить
земля
##лам
##ени
пред
мог
##иле
##дав
свою
честь
##да
ни
##кому
##мер
или
##обода
одного
из
##стры
своими
песня
##чив
##ают
##лю
рат
##ные
##виг
##нимают
Если
##ави
голо
##ыз
жа
##жда
##ить
Бог
только
им
служи
##lusi
##ston
##ıldı
##rım
nin
controle
##teral
##oden
Associate
##̃
##セン
搖
Lt
##빚
Meets
Wilder
##yers
Erasmus
Tanner
dros
##ophila
Justus
##tient
Beatrice
##rmen
intellectual
Martinez
expressions
##unun
##asco
fresh
CDs
Chairman
##pensa
##erst
filled
##saw
poster
Voss
noise
##philidae
##gaster
##ntz
scala
isa
restoration
Size
Mineral
##dito
##ared
##ingo
Solaris
纖
##orna
##vait
##anta
Nirvana
##sala
##utama
とした
プロ
hence
understood
operates
instruments
Sicilia
Syracuse
electricity
offered
##rona
##utica
疲
threatened
##borgs
technologies
lever
dom
initiated
expansion
##tut
inventor
Salem
##vyn
##valli
Irene
excessive
Punch
plc
##εία
##mies
philosophical
whether
Coleman
Vernon
Bartlett
##siv
viewed
##bours
Ewing
Bester
##rul
##rgia
##backs
Richardson
##erald
presenter
Sagan
Worlds
perse
YouTube
Asimov
cave
Shelley
Agatha
Mimo
Hayward
##zari
##uing
Walking
##sses
Maas
Brad
Yvonne
##zeniu
Melissa
Alternate
Toni
Check
Enterprises
Category
Lynch
##oses
Genre
slightly
Editorial
dare
speak
##encia
junior
Qin
nove
cylinder
محمد
يا
##سر
عبد
الرحمن
##ؤ
##وف
ع
##رف
##قد
##وة
##حسين
徊
Hunger
Allied
Dean
Levine
resort
##paa
Ego
libre
contribution
Nagar
##잃
¾
##¾
##Ë
##À
forms
influential
seeks
vital
Ignacio
##ále
Autor
##idade
##ério
##iá
##stico
##ítulo
##arte
terras
##ág
poder
temporal
absoluto
##ições
Embora
profunda
Mais
uma
vez
isso
##entes
político
sucesso
pág
também
positivo
Não
podemos
##ções
gênero
evitar
guerra
História
##ões
prática
religiosas
século
aos
##sos
Editora
##πας
##oren
customs
provinces
retain
Pasquale
Corso
scuole
medie
superiori
pastoral
Geral
único
##Ç
##Ã
Boyer
##ilig
Sancti
Heilige
Vater
##imus
Maximus
Pons
Paulus
##voru
Occident
Fink
##orial
Rosemary
celebrated
츰
##mmel
Kita
Khi
Китай
##ята
چ
##ين
##ستان
ط
##غا
Ṭ
Riding
probability
Suprema
##urrection
vain
##aching
piste
Barrett
##njo
Evangelische
##racia
Sites
Nebraska
Himalaya
##terna
Bryant
flora
##akas
##emen
Dani
##posito
##nista
UNAM
##cote
##urst
Bergamo
ACB
獐
##festival
豎
佚
氈
##τω
Winkler
##kers
##ilio
##ication
links
##diko
saga
Adolph
##bak
##caster
holl
Players
##lensis
mana
ITIS
Magnoliopsida
##icos
齧
arco
Officers
Aarhus
##mani
princ
sacra
donat
Annales
##uet
##menti
testa
Favorite
Cleopatra
Cummings
Orchidaceae
##lege
##phones
zin
鳶
訣
晨
##hrte
##sende
Reise
##ebirge
杼
涓
鄲
袈
##벚
Nazareth
בן
יוסף
bello
ي
##وس
##ع
Swami
##mah
##ansa
Yoga
Katharine
india
develop
Inventory
Photos
Euphorbia
##ols
viridis
Théodore
Saussure
Cornelis
Emerson
##yse
Gabrielle
mula
exhibits
jen
##utom
fort
##ERO
sometimes
##gaard
醍
醐
##amus
痰
cargo
Salmon
lade
##stem
##hese
feudal
娜
隈
とし
戯
##ysoká
škola
ekonomi
##cká
##ladá
Český
spisovatel
Jiří
Orten
##čná
##ých
Čechách
##pura
tid
##पुर
##upe
##ίας
nebula
universe
##xies
barre
fila
sheet
##ыл
dome
latter
encounter
剋
Butch
Cassidy
सं
क
##ृत
雇
Teen
Titans
Lifetime
cuisine
न
##ान
च
##पा
##ती
र
##ोटी
द
##ही
घ
##ी
##ार
##िय
##ल
का
##स
##़
##ील
##ों
ते
vind
xa
nim
Ñ
##ヒ
##イヤ
adopt
Jill
裳
裙
Cambodia
vest
Faces
辮
expose
designers
Stille
Herrera
Silla
soo
Beauty
簪
Megan
##rala
Rojo
Tierra
Pole
Antarctica
faces
éd
##ĩ
Enough
erat
Wanted
laps
Helsinki
##opio
Norway
cotton
Imperium
Imperio
kana
runners
##enden
Heights
Ridge
Marvel
labor
##lotte
##ège
Wedding
Karma
Ringo
Cats
liner
Walls
##night
Nigel
##writing
Coupe
##τερ
##σα
##ttel
brach
##pata
##ropa
##dactylus
##zerk
canal
Campos
Cabinet
Bavière
##atina
##bien
##uera
##toi
wadi
determina
##rna
Currie
Dyke
Darren
##usa
##lord
##vania
neck
##reste
unusual
##ffet
Всероссийская
км²
Василий
##тен
sì
##ǐ
Inglis
Falkland
##Ó
Ministerio
Relaciones
Exteriores
OEA
##có
resolver
conflicto
##kland
1154
##kap
remaining
Tracy
##ément
##éologie
##βα
##ροι
##λά
arrival
eighth
entered
crise
##ρό
##ρά
##ῦ
##ργος
##χων
Ἀ
##πα
##isis
##trato
Lydia
nous
दे
##वन
##ाग
##री
nagara
नगर
##व
##mers
stereo
##tene
3e
##dly
##llia
formation
delo
##cali
exhibited
##stituted
opposite
##mmin
meridional
##maya
predecessor
Seminar
Kalle
##ラの
悦
##icy
##らの
##hän
♯
managed
define
Rider
neste
Nebulae
Clusters
fai
coa
##eide
##bour
assumed
intelligent
Rekord
Erde
Windsor
automatic
喃
Mandat
##fuge
refugees
refuge
Taste
##bbit
IMDb
Joaquín
Ferrer
corona
Witte
Albatros
aerial
##space
Sens
##theon
##èr
##vereign
2560
繕
笞
##dorff
suppression
##үл
##үү
prof
Quebec
##tains
vieille
capitale
personnel
retrait
glace
enabled
Lino
##hana
##sius
Marek
Ethel
hosting
Vogt
##coil
Suche
##xte
taba
##ерн
Алматы
Алма
Ата
дека
името
Украина
##ѓа
##сло
##вен
##скиот
значи
##чна
област
крај
Goddard
ː
Homepage
瑗
Hussein
Irina
諒
Ruggiero
Fiat
薈
勛
珩
璟
濡
##クター
Obama
##moor
Natalie
##rosse
herb
##gica
musik
##unen
##пор
##рий
##ень
##lsko
publicus
provincia
##sters
##marie
Brittany
Poitou
Stamford
##vassa
##seda
tail
##minence
Vide
##nskap
##skapet
Christiania
simplex
mapping
閭
##тал
##ке
daba
##сар
Guadalupe
Madeira
Porto
île
##éu
##nion
arrondissement
venti
##bine
##puter
worker
##ndro
tys
##erated
##wyr
##ppy
苻
釗
皝
Marquis
##rales
##āt
Té
##lú
Mariana
عمان
##arto
##άλη
##εν
##ίκη
##κά
σε
##λο
##μών
##ēr
##vue
##rgi
sut
##арс
Село
##тско
##еле
##нин
cutting
##dma
Peder
Viola
disputed
##zmi
mouse
##dire
##udd
##ével
##opp
##ement
fans
Emmanuel
scores
##manu
manche
Tottenham
Newcastle
Bolton
Hotspur
Stoke
##ganza
currency
##ghet
championship
##relli
价
Freie
exhibition
behalf
Veranstaltung
##sgesellschaft
##ischer
Osnabrück
servant
##kee
##patrick
灼
糸
飲
俾
##εί
τη
##ιο
##κη
##τική
##ια
##ρεση
##borough
riches
Αθήνα
Έ
ALT
##pies
揖
Flavius
##isari
礬
nav
##ipper
aile
艇
魃
Epic
ata
##psa
hang
##tanti
Reinhold
##sas
##ώ
laten
倩
厭
羿
Cassini
##τός
##tə
Spitze
Phoebe
##aux
Voyager
透
##сту
вопрос
характер
##лений
##сел
##ких
##лем
середины
века
##чении
термин
techniques
settlements
Nana
琿
靳
圣
谕
训
颁
##ֶ
##פ
membre
##σος
Herren
##sday
eleven
##erea
Claudius
##cini
##viu
##soni
conspiracy
domi
deus
沾
##angan
##tof
Stirling
##won
Fraser
##ield
訖
Telephone
Albany
##ologue
codes
##bung
##ία
##ες
##roja
##tructed
##passing
kings
##uru
##banda
箏
汙
Rasmus
ligne
##qiy
##sdale
Blake
Edited
##kull
Variety
##sional
##gbo
oba
Oy
Levant
##gawa
##sina
##wahili
slave
##eral
##just
Migration
##itze
##σία
asa
##hme
aki
academia
##lasi
##ред
##няя
Азия
Центр
##альная
Ismail
identify
northeast
Khorasan
lying
##tted
##dun
deniz
reaches
homes
##fte
##arsi
Ferrand
géographique
arabes
persa
relatif
18e
siècles
##мос
##коп
##ложение
Справочник
стати
##ческих
##телей
переписи
национальный
возраст
семей
образ
##тельный
состав
##mbia
adapted
룹
PSA
##fit
Venezuela
Geografia
##ciu
##uai
Taman
##aná
Granada
##aner
Asamblea
Tribunal
Supremo
Justicia
Consejo
Tiempo
Acción
Democrática
estados
Petr
marginal
Cuatro
América
vat
##meria
dello
Stato
Citizens
##ʁ
##ɔ
Volley
Volleyball
tennis
##hru
Brighton
ITF
Goldman
WTA
##uas
##ckets
makers
sue
1980s
factory
wall
Geoff
Joyce
Margot
Janet
McKay
golf
hole
tee
putting
廈
Cara
Severus
AFL
reach
Saturn
##dong
##oju
Won
Jej
Tourism
##ntan
##kula
##phère
dob
ná
Minsk
##neva
defines
данные
##dati
schema
Luka
##ede
plage
légende
droite
##graphia
lumière
Neuilly
autonome
transports
réseau
régional
##roia
##alen
groupe
perceived
##moto
##tila
##raphy
Reeve
蹈
##lied
Aron
hormone
##νω
##κό
##μενα
Kathryn
##nto
挾
Crimes
offer
tres
Silber
##ου
##ית
miz
##sell
kino
neve
ק
##הל
arme
##קד
מ
##קל
##hez
protest
##garten
takes
associations
Reyes
Tournament
preliminary
lion
شیر
rear
##self
revolt
##dlo
volumes
Gloucester
Sutton
##fully
Tarn
Arbeiter
##skan
Koninkrijk
##lande
##ijn
Delft
##kku
provincie
casting
rolling
##plantation
##lgo
Oda
##ried
##chlag
jeugd
familie
Mille
##vice
##lado
##ää
佞
Mendelssohn
Fanny
Lucie
Nursing
somewhat
##mien
Magna
planete
##umen
Valentin
steam
Veliki
##uable
Rookie
##ensive
Coach
basketball
debut
visa
denied
Panel
standards
tables
interpolation
station
##mina
##omina
##ressed
##ęcia
##łów
Landkreis
##arten
Germania
Nordland
##lny
Toulon
Toulouse
Caen
garage
Mint
##viles
Süleyman
##əd
##ğun
##eyn
##zey
Hacı
##bə
Neve
alumni
##ogs
##iance
##seller
##eel
indicates
holding
Danielle
Romantic
##watch
拝
摂
嶋
##ふ
Masjid
implica
Petri
Ott
Larsen
Branca
##fern
##öli
##тю
##бинск
##ое
##бе
##hert
屏
鉗
份
忻
炘
庇
Compagnie
æ
Монгол
улсын
##өрийн
摘
RPM
##uise
occupation
payments
parents
divorced
thereafter
sanat
##orium
nicknamed
joined
arriving
briefly
Sheridan
hired
##tiary
personality
parks
##ports
賡
峪
##zano
霰
Josep
##grada
Família
Loreto
##ñes
Quintana
Puig
Lluís
Bone
Jordi
pelle
Guillem
滾
Ｍ
##ыг
##ды
##ес
Ernesto
##monte
Cárdenas
Eminem
Lose
Revival
Dogg
##cedent
Funeral
Ille
sia
Detroit
##íd
Kimberly
bag
ł
##coli
Dundee
Blaise
Gear
Gare
##괌
Στο
##χε
##ῖ
horizontal
Dôme
Vázquez
Álvarez
Pob
Norte
Vietnamese
Maja
##ひ
guns
##vän
Danzig
##yant
##kich
##umos
##hida
Materialien
苔
##laan
##dila
##есь
##зеро
专
冲
鸟
悖
网
没
领
权
nautical
##itude
employé
cartes
marines
##uaire
marin
##iné
##raire
Snyder
##таро
##бал
##чев
Аз
##лык
蟄
暇
劾
嗜
愉
陋
聾
霽
盞
豺
巒
愿
徘
迂
櫓
駭
閨
痘
瘡
澂
##ريم
姉
嬢
ツ
traveling
Singles
Eternal
Sanctuary
Flesh
##ャー
##ciano
foods
暦
靱
ANC
Banda
Tonga
Río
##bón
2°
Aden
français
##ngan
calendar
numbered
Mehmed
##elj
Grab
##ež
##ril
##byn
##ěk
##korps
##čilo
naj
##mla
##đi
vojni
Prvo
novos
Malik
Americana
##chützen
##ützen
Praga
##rdini
Journalist
Soldier
Blitz
redes
feel
##chino
shops
café
Darius
##bras
moi
Pola
Negri
瓮
喙
븐
jih
##iq
assassination
##uze
喘
immune
##psia
##itors
##uses
Bombay
Dominik
Horst
##ieme
##ody
##iven
##sty
##yja
痔
infantil
mening
##ecta
礙
躁
candidate
Ethernet
Castrum
dangerous
affairs
provisional
purposes
Wise
collective
Hammond
##вори
българската
##novi
##tov
Macedonian
Adriano
Balkans
##ovina
Todo
Бил
##ски
##вани
документи
дейност
Тодор
кн
Valentina
Georgi
Sasha
##nec
Bulgaria
deporte
##stir
criticized
partisan
brigade
Serbia
transferred
slogan
spelling
politically
separate
declared
Варна
##ство
општини
opštini
општина
opština
регион
regioni
##africa
Malaya
##tuan
Besar
Nasional
##atan
Raya
Johor
Padang
##jil
##jaran
Hui
Bahasa
kantor
aku
##kah
yang
pergi
untuk
mencari
rosa
rusa
anu
makan
talking
lah
Darul
Kada
Dusun
Kalimantan
##alang
Burung
##dang
mee
Haji
Gong
Thai
Tomo
Toto
##naca
##aste
##jot
runner
Casino
Jardin
المغرب
المملكة
المغربية
[...]
