[PAD]
[unused1]
[unused2]
[unused3]
[unused4]
[unused5]
[unused6]
[unused7]
[unused8]
[unused9]
[unused10]
[unused11]
[unused12]
[unused13]
[unused14]
[unused15]
[unused16]
[unused17]
[unused18]
[unused19]
[unused20]
[unused21]
[unused22]
[unused23]
[unused24]
[unused25]
[unused26]
[unused27]
[unused28]
[unused29]
[unused30]
[unused31]
[unused32]
[unused33]
[unused34]
[unused35]
[unused36]
[unused37]
[unused38]
[unused39]
[unused40]
[unused41]
[unused42]
[unused43]
[unused44]
[unused45]
[unused46]
[unused47]
[unused48]
[unused49]
[unused50]
[unused51]
[unused52]
[unused53]
[unused54]
[unused55]
[unused56]
[unused57]
[unused58]
[unused59]
[unused60]
[unused61]
[unused62]
[unused63]
[unused64]
[unused65]
[unused66]
[unused67]
[unused68]
[unused69]
[unused70]
[unused71]
[unused72]
[unused73]
[unused74]
[unused75]
[unused76]
[unused77]
[unused78]
[unused79]
[unused80]
[unused81]
[unused82]
[unused83]
[unused84]
[unused85]
[unused86]
[unused87]
[unused88]
[unused89]
[unused90]
[unused91]
[unused92]
[unused93]
[unused94]
[unused95]
[unused96]
[unused97]
[unused98]
[unused99]
[UNK]
[CLS]
[SEP]
[MASK]
<S>
<T>
Asa
(
;
)
,
Ye
##huda
Kral
##lığı
'
nın
üçüncü
Da
##vud
Han
##eda
##nl
##ığı
beş
##inci
kr
##alı
y
##dı
.
Süleyman
oğlu
Re
##ho
##boa
##m
ın
to
##run
##u
Abi
##jam
##du
Tanah
a
göre
41
yıl
h
##ük
##üm
##dar
##lık
yaptı
2
Ta
##rih
##ler
16
:
13
Salta
##nat
##ı
MÖ
913
-
910
il
##a
873
869
tar
##ih
##leri
arası
s
##ür
##dü
Ar
##lı
olarak
yerine
Jeho
##şa
##fat
geçti
17
1
Thiele
nin
##ono
##loji
##sine
##E
##dw
##in
"
The
My
##sterio
##us
Numbers
of
the
Hebrew
Kings
1st
ed
New
York
Macmillan
1951
##d
Grand
Rapids
E
##erd
##mans
1965
3rd
Zo
##nder
##van
/
Kr
##ege
##l
1983
ISBN
0
825
##4
382
##5
X
978
##0
##82
##43
##57
hasta
##landı
ve
##all
##nı
##la
pay
##ştı
ortak
##dür
##ülen
##n
ikinci
yılında
öld
##ü
Tan
##rı
##ya
g
##ön
##ül
##den
bağlı
olan
puta
##ta
##pan
t
##ören
##lerinde
fu
##hu
##ş
yapan
##ları
ülke
ko
##vd
Ata
##larının
yapmış
olduğu
bütün
put
yok
etti
##lar
15
8
14
H
##lığının
ilk
ot
##uz
sen
##esi
bar
##ış
içinde
O
##tu
##z
altı
##nc
##nde
ise
İsrail
l
Ba
ya
karşı
sal
##dır
ha
##zır
##larına
başladı
Ara
Ş
##am
I
Ben
Had
##ad
la
itt
##ifa
##k
kuru
##p
##le
ti
##caret
##i
kes
##mesini
onlara
##masını
iste
##di
6
ta
aya
##ğında
ra
##hat
##sız
##lanan
Hasta
##lığında
RA
##B
be
##öne
##lec
##e
##ğin
he
##kim
##lere
baş
##vu
##rdu
##ğu
an
##lat
##ılır
Halk
tarafından
se
##vile
doğru
##cu
bir
##al
##nın
var
yapılan
##ka
bor
##ç
##lu
d
##üş
##ünü
##lü
##r
pe
##yga
##mber
Az
##aria
##h
ul
##usal
alan
##da
sık
Yahudi
##li
##ğe
ka
##nması
##vs
##iye
ku
##lak
verdi
7
##lik
##ışı
iba
##det
kaldı
##rdı
halk
##larını
##öster
12
Ana
##çe
Mika
da
kom
##şu
##ların
tan
tap
##tı
##ğı
için
ayrıca
eli
##nden
al
##ındı
Ayrıca
##sak
##lay
##ıp
bu
su
##çu
iş
##ley
##en
cez
##alan
Put
##pere
##st
##ten
ge
##çi
süre
##ci
on
S
##üre
##cin
son
Ku
##s
te
ki
##pı
##na
kur
##ban
##iler
##ek
##tland
10
11
Bu
zamanda
ger
Ya
##rova
ö
##lüm
##ünden
sonra
de
##ht
##v
##gala
##üz
##eks
ça
##ğını
yaş
##amas
sebe
##biy
##fra
##im
Men
##şe
kabi
##lele
##ri
olmak
üzere
birçok
##zey
li
göç
yıllık
f
##ır
##sat
##ından
##rar
büyük
##bab
##ası
inşa
edilen
kale
##üç
##lendi
##rdi
Mısır
deste
##kli
Et
##iyo
##pya
Ze
##rah
bin
##ce
ask
##er
üç
savaş
arab
##yla
Mare
ile
##rle
iki
ordu
yakın
##larında
Se
Va
##disi
nde
##üze
##ni
aldı
ona
dur
##mak
580
000
askeri
##yle
yol
çıktı
ordusu
onları
Gera
kadar
##vala
kazandı
9
fir
##avu
mu
sa
generali
mi
olduğunu
açık
##lama
Savaşı
##lılar
##ca
##zan
##ılması
birkaç
as
Jos
##iah
dönem
##ine
daha
##mad
##ılar
Sede
Ola
ardından
gelen
yo
##rum
##cular
yılı
yılından
zi
##de
Birinci
b
##ölü
##nü
##ünün
savu
##nur
##T
##hie
84
e
kilometre
mesa
##fe
Rama
isti
##kra
##rs
##ız
##kenti
bas
##kı
altında
##nak
##ümüş
kendi
##sini
kor
##uma
##sı
##derd
Buna
İ
##yon
Dan
Na
##fta
##lesi
##nin
ön
##em
şehir
##lerine
geri
ç
##eki
##lme
zo
##runda
yapımı
##nda
##lland
##şlar
ker
##este
##öt
bun
##larla
G
##eva
Mis
##pa
kent
##lerini
Bil
##ici
Hana
##ven
##diği
sö
##yin
buna
k
##ini
yi
##pse
att
dok
##uncu
##lan
##ın
doktor
##lardan
mede
##t
um
##jis
ı
tahta
##rip
birlikte
##ık
Ç
##ift
##len
ata
yanı
me
##zara
##ö
##üldü
Ark
So
##kak
3
sezon
dizi
##sinin
oyuncu
liste
##si
Eylül
2008
29
Haziran
2009
87
Bölüm
125
Ka
##mp
Do
##ğan
##ng
Camp
Afganistan
IS
##AF
Türk
Si
##lah
##vvetleri
kullanılan
üst
##bil
Hava
Phoenix
nok
##tada
kurulmuştur
Ü
##ste
Azerbaycan
##tlu
Cum
##huri
##yy
##etin
##likle
konu
##lanmıştır
Yer
##şk
##enin
ama
##cı
Af
##gan
##ına
##çlı
insan
yardım
opera
##syon
##eme
sila
eğitim
ver
##mek
tir
Türkiye
bulunan
1755
660
kamp
bulunur
en
kala
##bal
##ücü
burada
dır
2015
düzenlenen
içerisinde
eki
milyon
do
tech
##izat
##qan
devlet
##slim
edilmişdir
http
www
hur
##riy
##et
##dai
##lyn
##ews
com
tur
##kis
army
bid
fare
##well
camp
dog
##an
in
af
##gha
##nista
after
years
784
##3
##7
Renault
Toro
ye
Oy
##ak
##bir
##liği
1971
1980
Fransa
ü
##reti
##mi
##dur
##ulan
modeli
gel
##iş
##tir
##ili
o
##lları
modern
##ştir
##ilmiş
##omo
mode
1989
tasa
##rla
##nmış
aynı
yarı
##sında
piyasaya
##müştür
yerli
ara
pi
##yasa
firma
##sına
rak
##ip
##retti
##kleri
##lara
Türkçe
is
##lması
diğer
re
##kabet
etmek
adına
ih
##ti
daya
##kl
##ılı
yüksek
##nün
sim
##gesi
##ğ
adını
yeni
model
##meyi
uygun
##lmuş
##tur
Aynı
modell
##erin
m
##teri
kit
##ne
kan
##ıt
##lamış
sağ
##lam
duy
##gus
##unu
çıkan
##llan
##arak
pek
##ilm
##sının
##rün
##lpa
##zes
##inden
R
##9
21
25
sat
alma
hed
##ef
##lenmiştir
1994
4
motor
1998
350
özel
##lmiştir
1990
##kla
filmin
##rve
helikopter
adet
##arı
##lmış
zaman
ş
##art
den
##eb
##ile
##cek
mali
##yet
filmi
paz
##ar
##lerde
90
film
arasında
##şma
##eken
Yo
A
##jans
Jüri
Ö
##zel
Ödülü
n
hak
##mıştır
Paris
Public
##is
Saat
##chi
and
Lin
##tas
gibi
ünlü
ajan
##slar
yer
almıştır
İlk
vite
SW
18
##anz
##ım
##anlar
##ıyla
NG
##1
06
##2
##tula
##ği
ayrı
sun
5
versi
fazla
tale
olması
##ndan
dolayı
##yonu
89
91
##ul
##muştur
2000
Ocak
ay
##ının
çok
un
##ını
om
##lamıştır
yana
u
##fa
ak
##ses
##uar
##şim
pla
##stik
kali
##tesi
iyi
##me
dışında
sadece
1999
yıllarında
ren
cam
kon
Onun
##öz
gör
##ilen
herhangi
söz
##su
değildir
##ride
yu
##muş
##enek
##ün
##tü
##ye
sahip
gr
##rp
##idos
yine
iç
##sam
günü
##çları
##çilik
şu
durum
##hi
##ilir
der
##ece
olmasına
rağmen
üzerinde
##bas
gir
##mem
tek
##nol
##oji
##sun
basi
elektronik
##lun
##maya
insanların
##lmıştır
##jant
##12
##G
##L
##nek
##lerinin
sıra
at
##eş
##leme
klima
fa
##brik
##asyon
##g
##kan
##ması
##mesine
yılları
hiçbir
şekilde
##meye
gi
##medi
##ğini
neden
dir
pre
##sti
##j
bak
##ımı
##etti
##ma
tu
veya
ati
değil
bo
##zu
##larda
##mesi
##şı
##ıl
mah
##û
edilmiştir
Her
##kes
bil
uzun
Em
Polis
Te
##ila
Ask
##eri
##yed
çeşitli
kol
resmi
##ılmıştır
##dan
z
##cut
Z
##erde
standar
##çı
##lma
##dığı
##ere
##ro
##of
extra
dahil
edildi
station
wagon
metal
##ik
parla
siya
karo
##ser
##gi
##yen
##ekti
ton
##mele
kap
##lanmış
bag
##aj
##fı
##üs
port
dair
##eler
##hs
kısmı
1991
yılına
T
##x
##vite
##w
Yin
yıllarda
cun
gün
##ey
##do
ill
sor
##gula
##nma
##ınan
köy
##lerin
çoğu
##nun
##ken
edilmiş
ces
nedeniyle
K
##ürt
top
##lum
##unda
Beyaz
adıyla
ün
##üzde
adı
siyasi
mit
##ing
politik
##ılmaktadır
Vi
##tes
belli
olmayan
##18
##vt
el
##ba
063
üzerine
tak
##ılmış
olup
amor
##tis
##ör
Monroe
mark
gaz
##lerle
##dilmiştir
Avrupa
Birliği
Euro
##isyon
Norm
##ym
##adı
ili
i
##asında
Mart
1949
tarihinde
##duk
ler
##dir
Abad
pg
Devlet
ni
##ıya
##uğu
M
ol
##duğu
oldu
İki
##î
str
##ate
##jik
diplomatik
önce
##laşma
ülkenin
Orta
Doğu
bölge
##sel
##ızlı
##ktan
kay
end
Times
rap
##oru
politika
pot
##ans
Ti
turi
##zm
hava
##ınır
##ında
man
##ev
##ra
##zers
##iz
##nis
##çak
moderni
##ze
##mı
plan
vardı
Qua
##ke
Relief
Shows
Israel
Feel
Deep
##ly
For
Turkey
Rec
##ep
Er
##doğan
Baş
##bakan
##iyle
darbo
##ğa
##za
girdi
2005
##yar
et
her
##liğini
##üt
##miş
Fakat
sert
##mler
##tala
##rının
##inin
##aret
09
Ga
##zze
2010
Fi
##los
##dah
##ales
fakat
2013
filo
öz
normal
##leşme
yolu
ABD
##ulu
##rama
##üzel
##til
Ekim
İran
if
edi
##lmesi
rol
ska
##ndal
##rat
dar
##be
kurulan
le
##rak
parçası
##rse
tarihi
##üzyıl
mümkün
1491
200
Eng
##izi
İspanya
dan
##ğinde
Osmanlı
insanlar
##vet
eden
olmuş
oynadı
##zell
yüzyılda
##ray
bank
diplomat
görev
etki
az
##ald
##ys
boyunca
sana
##yi
##ac
dalla
##rın
Cumhuriyeti
dos
devam
Bazı
##rel
lai
test
##ge
##mektedir
misy
##onu
temsil
##cili
##kti
##lang
1950
gerçek
##şti
##on
##yf
##ulla
Es
it
##ima
##tna
##hur
##anı
Cha
Wei
##zmann
Kasım
1956
##vey
##viy
mas
##at
##lığa
ind
##ir
##gend
1958
David
##urion
Ad
##nan
##dere
##zli
##şar
##rese
masa
##urd
An
##anya
##bara
Time
##line
Turkish
Israeli
Relations
2006
1967
Arap
sonrasında
##maları
katıldı
##gal
ettiği
##sını
##af
##tan
va
İslam
Fa
Rabat
şehrin
##lant
##ısında
##eris
Arad
po
##zit
##if
Tel
Aviv
tekrar
Temmuz
1963
El
sons
##kent
ilan
##zer
]
30
İkinci
Kati
lar
başına
dek
itibarıyla
##listi
Oslo
##laşması
bunun
yeniden
Büyük
##el
##selt
Ek
##rem
##dire
##ktu
##bun
Hai
Herzog
23
1992
In
##bar
Ten
##sions
Beyond
Journal
Foreign
Affairs
Vol
No
28
dönemde
itibaren
temel
##inde
etmiş
##sal
##vesi
##y
##ilmiştir
başında
Ankara
##kon
##sol
##os
##luğu
şehri
İstanbul
##çisi
##bby
Levi
##osu
Mord
##echa
Ami
##hai
##luk
Mar
##mara
Tra
##ky
Karadeniz
bat
##umlu
##cari
ba
##lük
sayıda
adam
get
Zi
##eti
es
##nas
Ariel
##aron
Mo
Kat
##sa
Vas
##hem
deki
Ho
##lok
##ost
##elen
##akt
leader
visits
offers
help
with
peace
process
##ur
Leader
Vis
##its
Rest
##ori
Friend
Tie
Ada
##let
##lk
Partisi
Anti
semi
##zmi
##ğü
##tti
##lee
program
hakkında
dünya
teh
##like
##il
bel
##irt
##dog
travels
D
Bakanı
##mel
ad
sayesinde
giri
bulunduğu
##üst
park
##imon
Pere
Başkanı
Mahmud
Abbas
Mille
Me
##cl
##isi
Amerika
Suriye
bizi
Jerusalem
Post
yayınlanan
##ora
Bakanlığı
nda
##cü
kanal
##yordu
2007
##zis
Abdullah
TB
##MM
##yu
Gil
##ali
Gold
##wa
##asse
##dad
Reg
konusunda
ede
##ldi
Storm
debate
##vos
over
Gaza
Al
Ja
##zeera
English
January
Clash
##es
With
Out
Panel
Update
Bloomberg
Aralık
1987
tay
##rine
##lare
2004
Ahmed
##ssin
sui
##kast
ter
##izm
##ladı
##lli
pl
##ight
BBC
News
by
Sarah
Rain
##sford
Istanbul
Friday
drift
away
from
West
Retrieved
February
ilgili
yeri
protest
##ola
Hundred
thousands
against
offensive
Thousand
attacks
Strip
##ete
Ha
are
##tz
##ede
uz
##ldı
##zd
Liv
FM
hold
secret
##con
##ciliation
talks
Haar
##etz
March
##zı
for
##wi
##ft
diplomatic
crisis
report
Hu
##rri
Daily
[
today
##sza
##man
web
det
##ay
?
load
=
&
link
1688
##60
quiet
Today
Zaman
İtalya
Ama
Anadolu
Kar
##tal
tat
##bik
##atı
men
##min
Net
ola
##maz
##şen
Dünya
Ekonomi
Forum
##tum
şi
##ddet
ele
Din
##laması
##nsan
##dik
##yor
##um
ben
oldukça
Washington
yazar
##gna
##tius
##erek
##şması
tam
PM
storm
off
row
daki
kendisine
veri
##ây
sah
##ney
out
session
sl
##ams
##rator
Thursday
TR
prime
time
Ay
##nele
çocuk
##vra
##ndı
Lay
Iran
nuk
says
J
##TA
October
Av
##igd
##or
Liebe
##rmann
med
##ünde
##dit
dil
##edi
Şubat
##vr
##nay
##meni
kat
##lett
##md
şey
##ıb
diye
##şan
Kara
Kom
##utan
Mirza
nota
##D
nden
CNN
Mi
##f
nit
##eli
##yer
iza
##miştir
Genel
##kur
##may
ağır
yayın
##laya
yet
##ki
milli
za
vere
##arsi
tr
go
##ster
haber
aspx
id
1100
##42
##25
02
Levy
na
Hamas
lider
Hal
##id
Ma
##gin
##şmaya
Kurt
##tını
casu
##slu
yaptığı
##bek
res
##met
##o
Di
##zi
MO
##SS
##AD
ailes
esi
##cısı
Danny
Aya
##lon
Ahmet
##elik
##kol
##örü
##uru
##ddi
##alar
##üp
ala
mese
biz
ondan
##te
Masa
bay
##sem
##ruz
##hav
##ally
future
Yn
##news
St
##rate
##pm
Bet
karar
##â
##tip
##lil
Shin
operating
China
31
Mayıs
aktiv
##ist
##kiz
biri
vat
##anda
Amerikan
kişi
##rala
##unun
##vi
##misi
##lod
37
mille
##tten
663
Akdeniz
uluslararası
sul
##arda
##alen
##mile
##rden
##ale
##yı
##mez
ze
##dele
##bile
2011
Bir
##şmiş
##tler
##nu
##isin
üm
##it
##meti
##pler
ret
ce
##vab
down
##grade
ties
ora
##nt
##ısı
##ıldı
##se
ab
##luka
##ldu
Bunun
##kil
##rma
vu
##rgu
refuses
apo
##logi
or
compensation
regarding
fl
##oti
##lla
raid
Mu
##hale
##fet
Kemal
##oğlu
##cağı
küçük
risk
iddia
##huriyet
başka
vek
Far
##uk
Lo
partis
##cak
##şi
kabul
##lemez
##rek
eski
Lie
##arın
##kte
ihr
##aç
eng
sp
yalnız
##aka
possibly
target
more
san
##ctions
##lca
##cao
##gl
Aron
Heller
Huffington
September
Sa
##vun
Bara
##zul
##manı
This
wave
will
pass
Kur
##ulun
Barack
Obama
bulundu
##hor
Yi
##hak
ur
##ges
resolve
##lığın
##no
1292
##34
##8
Ra
##uf
##bie
Ash
##kna
Deniz
Eli
##ezer
Alfred
##om
Amos
##dli
##isha
##name
Ce
##kem
ne
##der
##smi
geçen
Can
##ava
##rca
his
ez
##rere
##bb
##metti
##rme
##hla
ke
##mik
##ellen
Ez
mala
toplam
578
##kalan
##kları
##pis
##tır
##ld
##names
Ak
Palmer
Rap
unu
##lanması
##emi
onu
##ıdır
##rut
##gale
Bi
bunu
demi
aktif
##haber
er
palm
##rumu
491
##55
htm
##rım
almış
##yini
##to
##ğlu
ma
##dde
22
telefon
##yan
##mede
##cel
##un
hata
##yanın
##rü
aile
##dene
geldiği
##ılan
##öp
##ediye
verdiği
Ağustos
##zetes
AK
##P
##nları
Muhammed
Mur
##vire
##beni
ark
kim
Kan
özellikle
##pi
Fransız
Bernard
Henri
asl
##yd
##sü
##aya
##nti
##yıl
geniş
doğal
alanı
##ath
Alan
##dil
enerji
##rke
Del
##rub
hali
hazırda
##fi
##yası
ait
sis
##ştırma
saha
üzerinden
##çmiş
##va
jet
taki
bundan
##rt
2012
Ordu
##uta
merkezi
pro
##jes
çalışan
##sl
##ıları
ada
20
##iği
deniz
im
##zala
Marko
Ky
##pri
##ano
Alt
Uz
Landau
Le
##ko
##tak
mineral
ho
##nut
Ala
##rab
Online
December
unha
##ppy
Cyprus
deal
April
##ütt
##ekli
ini
##siya
##tif
19
masu
##sinde
zamanı
##kle
sonunda
Milli
Y
##önetim
##iya
Malik
##evi
sonucu
##tla
##yana
art
##rk
##ama
##anın
kez
##cılık
##obi
##rul
edition
cn
03
01
world
##ast
##key
##rae
index
html
ir
all
##sea
##rch
nyt
##imes
middle
##eas
##ks
##marks
criticized
_
r
##ort
ca
##hil
nef
##vo
Dani
##marka
##ette
##luna
##leriyle
##imin
##una
bili
dem
anti
##madığı
times
pm
zion
##ism
comments
misi
##nter
##pret
##ed
1996
serbe
1997
potential
fresh
start
59
mil
26
%
dolara
Oda
##aca
39
950
Mil
Dol
##ara
05
trade
worth
$
##b
first
half
dura
Kim
##llar
dam
petrol
##lıca
That
Still
Bin
##ds
Trade
##kta
bot
##malar
##lamak
Business
usual
between
beri
etmiştir
##ıda
Of
##q
##ular
Arrow
bal
##istik
sistemi
Böylece
sistem
F
Fan
##tom
kara
##lem
##cile
##rin
bilgi
Middle
East
Role
Between
Arab
U
Army
War
College
Carlisle
Barra
##cks
Pennsylvania
sus
##pend
military
agreements
##ğer
##trat
don
Mer
Mk
tank
##ydı
##kal
viz
##eye
bordo
pasa
##port
##şıyan
##lıdır
otorite
560
Tur
##as
##ezh
##nikov
boy
##kot
Ned
##eni
sayısı
300
110
oca
ağ
##usto
sayı
62
##ültür
ten
tüm
912
başarılı
Antalya
##nlar
düşük
tür
hafta
##şları
50
ci
##var
##yo
##alt
alternatif
##prem
##tar
takım
##arma
persone
sağlık
##rra
##tici
Tak
can
##etten
çalıştı
Stephen
Ki
##nze
August
##A
##rie
Sullivan
rescue
team
aid
qua
victims
##week
yang
##deren
##nd
saat
Help
Fight
Fire
Van
##fabrik
ev
##lif
request
foreign
ami
lack
##ts
##ada
Der
2003
mira
La
##dino
##ren
amacıyla
##mund
4000
üyesi
40
şubesi
genel
başkanı
##yal
##lerinden
##pten
haya
bölümü
nas
sil
##ind
iz
bug
##ok
ac
sini
##I
##sr
##ael
Turks
watch
relations
c
##ble
their
lands
Jean
Nou
##vel
1945
Lot
Garonne
##mar
Pri
##ker
lay
bölgesinde
Fu
dünyaya
geldi
Bordeaux
École
des
Beaux
Arts
##larından
başa
Daha
nationale
supérieure
okulu
birinci
1970
Claude
Par
##ent
Paul
Vir
##ilio
yanında
1968
apart
kompleks
##asi
yani
François
Seigneur
##eden
##ane
ser
##ısa
ente
##lekt
##üe
fi
1976
hareket
##zat
1977
Syn
##dicat
Architecture
Les
Halle
organi
1981
En
##jede
gelenek
##mari
yaygın
##hra
denen
stil
##phe
##bin
has
##sas
di
##fram
vas
1972
198
farklı
##şmaları
Gilbert
##zen
Guy
##ot
Pierre
Soria
1985
Emmanuel
B
##ont
Marc
##bos
Mir
Vita
anda
bile
Atelier
Michel
P
##él
##iss
##ié
yaklaşık
140
merk
##ez
Londra
Ko
##pen
##ha
Roma
Madrid
Bar
##ona
##rl
Minneapolis
eyaletinde
Mississippi
Ne
##hri
Guthrie
Tiyatrosu
Mercer
Street
Apart
100
11th
Avenue
##jele
##rinin
gelir
##jl
##ller
Peter
Zum
##th
Nisan
1943
Basel
##re
mobil
marang
##oz
Kunst
##wer
##bes
##chule
1960
Pratt
Grau
kanton
resto
##ras
##rinde
##c
teknik
mal
##zem
##tele
##ça
Modern
##zda
##ns
hem
Mini
##mali
Avusturya
Br
##egen
##haus
Val
Ter
##mal
Ban
Carl
##sberg
mis
##ğretim
##lisi
Los
Angeles
Kali
##for
##niya
Teknik
Üniversitesi
Università
della
Svizzera
Italiana
Harvard
##sler
Almanya
Berlin
Akademie
Künste
Bund
Deutscher
Architekten
olmuştur
van
##oh
günümüzde
##dens
##tein
1979
etmektedir
Cam
Johnson
İngilizce
Glass
House
Amerikalı
Philip
Connecticut
ese
##je
Richard
Foster
minimal
##ome
##tri
##mları
##resi
alır
kapal
du
##rili
##zid
##öl
karşısında
##şmaktadır
Tu
##ladan
oluşan
cm
##ted
tamamen
##lap
##lmaktadır
##vana
ban
##tura
ilha
1920
Alman
ortaya
Glas
##arch
##ite
##ktur
fik
##lev
##worth
##rılır
190
metre
##kare
##mış
ek
Pa
##vy
1962
Res
Gale
##risi
Hey
##kel
Hay
1982
##rst
##ein
Mons
1995
altına
gal
Aga
##non
##zar
##lığını
##sata
hal
panel
##gile
##nmektedir
evi
ah
tel
monte
bitki
Pope
##rain
##ger
Call
##lerdir
Torres
##té
##lite
Meksika
##uca
Ciudad
Luis
##án
##yk
##eller
grubu
##jeni
1957
Jesús
Reyes
Ferreira
##elt
Mathias
Go
##erit
Or
##iji
##nal
##leden
Ancak
problem
52
##leb
##ildi
turun
##gini
##yse
##rini
ana
##kler
##ırmızı
beyaz
##masına
verildi
Yeni
ar
##anan
##men
1948
Meksiko
st
##dyo
UNESCO
Mira
alınmış
Moskva
##lava
##uva
Rus
Москва
Rusya
Fed
##eras
##ml
Projekt
116
At
hizmet
Moskova
114
Nikola
##yev
Ukrayna
##kola
##iv
61
Kommun
##san
Plant
445
no
lu
sind
##ata
suya
##iri
1986
Yunanistan
Pi
lima
2002
Admiral
Gol
##ov
##zny
58
nun
Global
##S
##ecu
##rity
org
Project
Indra
Hindistan
Güney
Os
##ety
sırasında
ri
ru
rus
##sia
##11
115
##50
##6
news
xin
##hua
##net
engl
##ish
08
content
##86
##04
Ab
##zy
##ğımsız
Su
##hum
press
detail
683
##80
section
351
##30
Ol
##piya
##tları
halt
##kek
108
kg
Atlanta
##aba
##kas
erkek
Top
##kada
v
kilo
##gram
kop
##km
##ter
dal
onların
final
##dal
##led
+
spor
##cun
##eci
##cini
finals
##ala
yerini
126
166
Ken
27
Buda
##pe
Mac
##aris
sinema
##önetmen
Sin
##ema
genç
bilinen
mes
##lek
Baba
Uzun
Yu
Son
##şik
babası
kana
##M
##ill
##go
Mehmet
1200
başlayan
##hter
genellikle
us
hale
form
hala
Form
sahibi
soy
##adın
Sultan
III
Osman
Ave
##dis
##lci
##smin
##cede
anlamına
Trabzon
IV
Murat
izin
alarak
##jian
1623
Sama
##tya
başlamıştır
1680
defa
beste
orkest
##raya
sok
1780
bando
Haydn
Mozart
##rler
1851
II
Ker
##ope
Bug
seri
veren
1868
Abd
##üla
1909
Ai
##lede
##bada
Mikael
orada
##lir
Made
##gas
##ıcı
Beatles
Pink
Floyd
Purple
Cream
Rolling
Stones
Jimi
Hendrix
Guns
N
Roses
ef
##nce
##üll
beraber
gitt
##nne
ancak
yaşında
Tam
Tom
##rir
ista
##bul
##hme
#
work
tez
başlar
eder
##lır
##cym
about
history
dünyada
Bos
##phorus
Pasha
Am
##edia
Master
##work
Dir
##aları
##ret
am
1929
##mini
Bob
##bian
artisti
pat
Kad
kadın
kategori
##şmalar
kısa
Pacific
Coliseum
78
150
228
56
pu
##U
##uan
Sistem
##kor
Altın
far
Mao
axe
Bron
Joan
##nie
Roche
##tte
ann
##lp
##bet
İzmir
futbol
döneminde
##zia
##nte
##ps
##por
PA
##F
takımı
Fenerbahçe
nak
##kii
##yna
##maktadır
profesyonel
sezonu
‚
kad
##rol
maç
oynanan
Galatasaray
Süper
Ligi
maçta
oyun
Rot
Weiss
Essen
lig
##spor
kira
49
millî
##rılan
formas
46
forma
##ymi
##kala
##rda
gol
##ff
Def
##ault
page
##ID
kis
616
##ham
##eker
Sivas
Eski
##mle
##ket
Burada
Cel
Sam
transfer
##mn
##müş
##turm
Bank
##asy
lige
asya
mac
##gut
##cas
##yes
eks
##iki
sol
Futbol
2014
Bel
##lübü
##hm
##ut
1978
Lig
##sken
Demi
##ço
##mli
32
Kay
##seri
##vre
Fe
##thi
##yme
##so
##selen
##gat
##lmiş
Per
##int
##hos
Π
##έρι
##ν
##θος
antik
600
Samo
koloni
İmparatorluğu
Bizans
Hera
##ia
##rigo
Sem
##hay
##lov
1890
1946
Japonya
##nen
Bay
##zak
1918
1922
Bol
##vik
sivil
Dev
##rimi
ik
##tida
##vikle
çalışır
Man
##rya
##çar
##eko
##ova
bazı
##gem
kura
##gede
##gun
##lia
##eyer
##öhr
##şmış
##N
##orto
Henry
Kit
##tre
##dge
1923
Eastern
Republic
Siberia
London
George
Allen
Un
##win
Ltd
69
Amir
Aleksandr
##meyer
olsa
Chi
##rni
##zon
1919
##tila
Devletleri
##hine
##üden
Japon
##lin
kontrol
##tma
##yg
kun
##dak
##ula
##şır
Gong
##ota
Ant
##ksi
parti
Gen
##rich
Ei
##che
##utas
Sovyet
##ızıl
##ord
##usu
##nere
##tun
1921
##caktır
Nagasaki
sef
mens
##up
öt
##nca
Çin
##gün
##hab
##arat
##ku
Sava
para
##şık
SM
##ER
##SH
##nır
Yüksek
ida
edilir
##J
##ami
Bis
##her
White
Terror
Co
##ssa
##ck
##lord
Trans
##rmi
Dua
##ved
##öre
Irak
orta
##ran
##öv
##kten
##lana
internet
##ızı
dini
##ünn
Mus
##üler
propaganda
hi
ide
##oloji
grup
##lene
Iraq
Amnesty
International
app
##alle
sto
##ning
death
girl
subsequent
killing
May
Diğer
Honour
Killing
teen
##age
condemned
##rent
uk
##ika
##şir
##undu
##ğun
yerel
##tica
##lip
Öl
##ümü
##yel
##ektedir
Video
meydana
1000
##hmi
##lmektedir
##oning
Nina
##hik
kas
##ded
footage
Iraqi
released
Internet
Brunei
verilen
##yda
##fine
ina
##nç
##ydi
##fas
beton
##rken
ses
!
##oy
##saba
bed
De
##siz
nu
par
Sparks
Fear
Conflict
Institute
Peace
Report
##ire
idi
##ops
##uri
##ard
##dish
Teenage
Stone
To
Death
Near
##sul
Robert
Lindsay
##mland
Government
Protection
retrieved
int
Uluslararası
##rg
##ylar
State
##ment
##R
conde
##mns
murder
##hali
As
##wad
Yet
Kuzey
##gisi
##tuk
##hta
Ci
800
bomba
Survivor
bombs
left
die
##bble
Omar
##gust
nam
##ark
widespread
##mna
##tion
Gustavo
Endre
1975
Passo
Fund
##ezi
##lya
vol
##bol
EA
##C
##NS
Ulusal
World
Champions
Cup
2001
Şampiyonası
Kupası
##ina
##ampiyon
Pe
##kin
blok
##sley
Treviso
Halen
Pin
##heiros
SK
##Y
kar
##ilo
##abe
04
Primera
Divisió
Andorra
ligi
FC
Santa
Colo
onun
UE
Sant
Juli
##à
Pan
##gai
##gae
Make
##don
ilinin
##sunda
dağ
bilinir
##ry
##mon
956
##kar
mer
##mer
aşağı
##leti
bol
ova
##sıyla
##rilir
Ova
bi
##çim
pa
##muk
##yti
dor
Dion
##hane
##kos
##inis
##sis
Mana
##zma
MS
Zoo
##dok
Pig
##lise
##àng
07
##ari
due
##lii
##lg
##gil
##caceae
family
##nsi
ende
Adana
##uku
Delta
##han
Bit
##akan
Ziel
##inski
Prof
Dr
##bay
##hafen
##rnek
Herb
##ary
##umu
##dos
Aby
##anak
##kale
Bo
Nara
Burn
Ses
##tos
Kent
Hero
Leandro
##rb
mono
##kari
karbon
ket
Mol
C
##H
##O
##bo
vitamin
kullanılır
L
şeklinde
##vez
##rbus
°C
lik
98
alfa
##pira
##zdu
Wi
##eer
##blo
##say
##abi
##cret
si
peer
pak
avant
##zlar
eri
##rmed
direkt
olur
##hang
USB
##ân
##madan
wi
##irli
dona
##rey
##zil
##mda
sin
##rli
Bela
1969
Nur
##tli
bird
##ağı
24
bulan
##mlar
diz
##dita
##rod
Trail
parku
##rlar
##bild
Tag
##ato
tag
92
38
##lor
FAO
WHO
Agency
Response
Letter
GR
##AS
Notice
GRN
0000
meta
ins
##kt
##dro
##liz
gala
##oza
Gala
##kali
##ls
##iy
##lab
##ista
##llen
Levin
##park
sola
sırada
fr
##ukt
elde
alam
##asa
FDA
MD
Foods
##sans
Sp
##ix
vara
Sweet
##redi
##ents
Nord
##cker
AG
Bell
##cisi
##uld
##UT
##RI
##LA
##V
##gre
##dien
tali
Nu
##lato
tesis
##ktadır
alt
Om
##onia
##celle
AP
##EL
##din
Ano
##rth
##osis
He
##med
Fars
هم
##دان
isimli
Şehrin
ismi
##meta
Yunan
##batan
Ham
dünyanın
##bn
Sina
##pek
##rga
##mu
dai
##uya
357
##ebe
1850
550
nüfus
360
km
##bat
raka
nüfusu
677
957
iken
563
444
etnik
##bilir
60
Lur
3000
##yler
Med
##yeti
Pers
yapmıştır
##para
##tor
Şehir
633
Ni
##haven
ndan
hakim
##tine
##klu
Timur
Safe
diren
##nama
Za
##gro
##ms
iklim
##gar
havas
##atar
so
##ülür
sanat
bunda
şair
##hir
Maka
##mat
Bad
Nobel
av
##ukat
##irin
##bad
Cultural
Heritage
Organization
207
deri
sera
guru
ok
##sele
##iver
##site
Hat
##kimi
Bou
##adan
##ffe
zen
##urm
##aktadır
Apollon
##mes
IC
##00
##99
kod
##lanır
Diseases
##rc
##ulator
system
listed
Mehmed
Paşa
1824
1876
Hari
vik
rasi
1875
##lığına
Dar
##cesi
##erk
Hasan
Mit
##he
cross
##res
##cent
Russia
countries
adjacent
Linus
Pier
##pont
Brock
##ett
1877
Johannes
Stein
##hoff
1913
pilot
Federal
NATO
1939
##tta
Luftwaffe
##undan
176
##üren
Messe
##ch
##mitt
262
Adolf
Gall
##and
##rmen
han
##ingi
doğdu
Bernd
Wolf
adında
##deşi
Jena
suba
Hermann
Göring
1935
Pilot
Jagd
Batı
##ener
1966
##ites
197
em
##unan
kita
sulu
##boy
Dor
##nier
199
ayında
##pli
Bonn
##nede
80
God
##berg
ایل
##ام
şehirdir
155
289
549
##fus
1319
iklimi
##leni
Sol
##unum
resp
##irat
##ory
##udi
##istan
##hre
##yn
##rd
Kata
Birleşik
Emir
Umm
Avustralya
##olis
pop
##ök
deve
##zas
##çısı
kata
##cih
65
Jo
##oc
jo
robot
##çılar
mini
##rf
##mla
olabilir
##lken
##âr
##rley
pedal
Fran
##elle
##daki
##layan
##urg
dire
din
onlar
70
113
##iny
##ura
97
##üsü
##tim
Sağlık
##zete
591
Mad
##desi
Konya
##ntu
univers
524
##21
ilin
2016
OH
##AL
Kap
Ted
##rna
##ga
gov
##23
pdf
nt
##ati
##itel
C2
##gn
##X
##US
##NL
##Q
##qe
##OW
##ZA
667
Say
##ltu
tespit
##üne
##ET
##Ö
PD
##tib
##lenen
aldığı
##çesi
Liste
Fakültesi
##cm
VIII
Fl
##ie
##korps
Nazi
kolo
##sk
##har
##ebes
654
##führer
V
##nko
##mman
Schlesien
##ndi
Luft
##gau
Kommando
Smith
##isyen
James
1959
İngiliz
gitarist
vokal
got
rock
müzik
##lul
Cure
soli
şarkı
gitar
tro
##mpet
##tr
ale
##dine
faz
new
disk
##ografi
##gor
##ias
ell
AE
##ph
##geni
Mor
##ou
##gia
##rom
##itos
##kip
##pos
##yl
##ofa
##gou
##mis
##pou
Ön
##OP
##ny
##yia
##side
Wikipedia
Long
Island
Grup
Victory
Records
albüm
rit
Anthony
##neri
Jack
Shea
Nick
##bari
Chris
Guglielmo
Ambrose
##une
##usi
Coast
Ava
Bridge
Tunnel
@
NYC
##mus
##ico
coast
aval
##anche
bridge
tunnel
ny
101
Queens
MI
##tch
##ell
Jim
Personal
interview
Michael
Montes
come
up
lot
song
writing
Fans
such
Don
call
##anut
that
songs
was
written
##acho
Martinez
who
had
small
band
##lando
##ida
##gui
entertainment
music
bands
demo
Dying
Wish
Stories
Short
EP
Name
Take
split
albümü
Sir
##ens
Con
##dole
##nces
John
Beat
##loh
##bett
Boulder
Colorado
##bah
Cheyenne
Wyoming
kam
ciddi
##tul
Acoustic
aku
##eren
Winter
##nmıştır
Walking
Wo
##unde
bonus
DVD
video
belge
##seller
##erm
##ekte
dördüncü
Shu
##dder
konser
Live
Social
Club
punk
site
single
One
Under
##stand
##space
say
hay
Think
ll
Be
OK
videos
Giant
Stadium
##mbo
Festival
perform
Day
Rutherford
sona
Official
##less
Punk
Goes
Pop
Sean
Kingston
Beautiful
Girls
cover
##ped
Tour
nere
##pu
Alternative
Press
Magazine
mera
front
blog
##wit
hesab
solo
Ballad
Bill
Saint
my
##uy
Demo
Babylon
Sessions
Rudolf
##ß
##oe
1897
Merkezi
Lucy
Ca
##sus
1933
Novi
##ült
met
polis
Hacı
##nus
##zade
1871
##mene
##mba
##set
mezun
yı
##kuk
##ars
##tve
##kill
##mm
Album
##lt
Matthew
sos
##kir
sosyal
kapital
##zana
##log
##ton
##cil
aki
##beli
bilim
##sla
benzer
##iba
Effect
Science
PDF
159
381
63
1988
##ulat
##ive
advantage
symbol
intellectual
property
##IS
79
606
623
Örneğin
hep
verilir
olduğundan
Keith
Stan
##ovich
##ers
psi
##og
##imi
##rene
##cer
##uc
##yü
##diri
##rend
Adams
pp
Marilyn
Beginning
Read
Thinking
Learning
Print
Cambridge
MA
MIT
Seele
##hanes
Krallık
Road
Sid
##wick
Sites
##plar
Kong
Sad
00
##arte
##sil
Paz
1807
Sy
##monds
kalan
1884
Oscar
Browning
Fel
##sef
Kita
##plı
King
##runa
Stirling
95
##ğın
Bern
Alp
Jung
##frau
Berne
Ober
##land
975
kaya
Grandes
208
Walker
but
##tress
Matter
##horn
478
rota
Nil
Н
##ило
С
##то
##ло
##бен
##ская
п
##ус
##тын
##ь
Nilo
##olo
##bens
pus
##tyn
##ust
##lime
##ben
##eth
##anes
##ва
Tv
Oblast
Ost
Ok
##rug
##lige
##bni
##smen
Sve
##tt
##adas
mana
Veliki
Novgorod
##ikt
##sko
##ipe
##tsu
К
##рып
##ецк
##ий
монастырь
1515
##ipes
##jev
##ski
Ser
ken
##bed
Tek
pala
har
Riva
iko
##tsa
kör
##lva
1528
##ap
duas
ima
1555
1594
Pat
##ob
##cus
Ke
German
1927
Stalin
NKVD
Polonya
##mur
Vancouver
British
Columbia
216
dis
##lini
86
Demon
Johnny
##illa
Todd
##ick
Brett
Came
##rota
##üra
##polo
Oh
Bonnie
Blair
5000
bronz
1500
Katherine
##utt
Shan
Davis
Artist
Evan
Lys
##ace
Brian
##itano
olim
##tlar
dans
187
mücadele
##cou
##ver
##2010
##pic
athletes
cf
cat
433
##32
q
Key
##word
Ale
##kse
Moro
##zov
Shen
Xu
Zhao
Hong
CH
76
66
ori
##jinal
##lac
ant
sean
hang
##SU
Tango
Romantic
1974
Lu
##mila
Pak
##hom
Alexander
##kov
Dom
##nina
Sha
##bali
lead
Ice
Dance
Tallinn
##SM
##lika
##oli
##fil
termo
modi
##fik
sente
##fo
organo
nm
##ruda
##zle
##ikal
Beta
34
tipi
##lit
organik
##lerden
suyu
mol
sud
##bon
##aksi
##oma
##tik
Oil
##tin
##oid
asi
##tra
##hed
##vede
net
##tadır
##ene
##tlik
##riz
ks
p
##idi
##izma
Normal
kola
##sland
##liti
##ices
##ponent
Akademi
oluşur
A2
Bununla
Ajax
Barcelona
##fera
##nsa
sezonunda
##rm
##ıştır
U19
##17
##16
##15
##14
##FF
U21
##ffet
aka
##demi
maçında
pasi
##lus
##fer
kupa
Hut
##13
##zku
turn
Children
League
almaktadır
Met
##10
bölüm
##bele
Bey
##bey
Spor
500
75
Stad
##yum
Flor
##tay
stad
Volkswagen
Fox
##obil
lit
##zin
bulunmaktadır
VW
##hal
##ças
Р
##аб
##о
##чая
о
##п
##по
##зиция
mon
##latt
##vna
##rko
send
##erden
Metal
Sen
Aleksandra
##llon
feminist
Sergey
Medvedev
Mihail
Vladimir
Tol
##okon
##tse
##rik
Bruno
Sana
Che
##lys
Parti
Tekst
##rill
##nsey
1905
Pot
##hlı
Yuri
##tov
##ino
Seni
bazen
##naca
ekonomi
##ril
organ
ekonomik
##sey
##lard
##rj
##etlen
##ol
##jim
##adle
##sama
##endi
##rici
##ahan
##hen
##lle
##iene
Kongres
##rile
tas
platform
250
##av
NE
##inte
##rn
##hl
1930
Александр
Г
##ав
##рило
##вич
Ш
##ля
##ников
1885
1937
1903
1908
##rim
1916
1917
##slav
##otov
Petr
##lut
Sankt
##burg
Pr
##lund
Lenin
##novi
Kamen
Petro
##grad
##lei
maa
##iser
##mde
##yid
kamu
pen
##son
Kafka
##sya
##örer
##pte
##par
Hare
vei
##lse
##pac
1926
yazdığı
akt
##nir
Tem
##ira
##19
iad
152
##cken
Cu
##rling
Andrea
Sc
bob
##sle
##igh
Andre
Lange
€
Twin
##char
hac
##üket
fel
TS
Golf
170
HP
GT
##öyle
güçlü
sağlayan
##jek
FS
turbo
##pres
Motor
DS
122
##FS
ga
##masının
##rad
##yat
##hin
##lera
oda
epi
##era
teori
##erir
pers
##pekt
##rop
teda
fakt
gene
##nara
##sin
plana
##sik
##iyat
##sikan
##api
motiv
Sara
##bala
##sala
##irs
##eyin
Karen
Horne
##ime
Erik
Manhattan
Cornell
Mid
##town
##ibi
Leigh
##lling
##she
##lich
Chicago
##zo
##fre
##kop
Maxwell
Jones
Main
##lmer
##politik
##krat
beni
##mse
##elde
##tara
##kul
##pist
##dem
##elli
##hda
Premier
Christopher
Edward
Martin
DJ
##ktör
Guru
Gang
Starr
Houston
Teksas
Prairie
View
W
##ax
##master
Inner
Circle
Pos
MC
Control
hip
hop
plak
Wild
Pit
45
More
Mr
Nice
##dett
On
Chr
##alis
Step
Arena
Operation
hari
Lord
Fine
##sse
Funk
Tech
##nici
1993
##RS
Return
Boom
Nas
Ill
##mati
##lüğü
Not
##orio
Ready
Die
Foundation
##mun
Je
##ru
Dama
##ja
Sun
Rise
Bucks
##hot
##que
##ford
Mars
Hard
Ea
Group
Home
Pro
##rath
Math
##hama
##dia
Jay
Reason
##able
##ubt
Life
After
Moment
Truth
numa
Fat
Joe
Freddie
Royce
Angelo
Grammy
Vo
##odo
Devil
Pie
Own
##erz
Year
Round
##tini
Back
Basic
Christina
Aguilera
Ain
Other
NY
Welcome
beat
Beats
Collected
Dust
ens
##anta
##laq
Poet
Tha
##print
mixtape
##aran
Presents
Get
Used
Us
AZ
Big
Game
##cris
##mano
##logy
Tora
##ion
Sera
Pla
Lady
Rage
Kore
Dynamic
Duo
PR
##hy
Adrian
Young
sample
Compton
Dre
Anderson
Animals
Must
NBA
##K
Break
##ört
Alter
##nati
TT
Tor
##ii
Flow
2017
Miguel
##vin
##ike
Şarkı
##heart
Dam
##ned
indie
Cher
##ub
Space
Baby
##hic
Way
Iz
Blue
##amp
AS
##AP
Our
Streets
Pay
##day
2018
Wonder
Source
About
sites
İyi
Hip
Hop
seçildi
sound
funk
soul
lama
Show
##bi
Douglas
Gram
Head
##ourt
##kap
Kenneth
radyo
Kaufman
Astor
##ladığı
Delhi
Pal
##ance
TV
City
##lick
Yard
made
##azzo
gali
bok
##lur
##ksta
1947
Stanford
Ed
drama
##versi
gar
##lili
foto
##raf
modelli
kariyerine
önemli
Elia
Kazan
Panic
##dmark
##rolle
1953
53
Film
##lim
haline
ihm
##rku
##tic
Stevens
Shane
Drama
Western
1952
Sud
##eman
Crawford
Bridget
##dot
1955
##drich
##hte
Anita
Inside
kimi
##sından
Hyde
##kud
Dracula
##aku
Boy
93
People
seks
hat
hafi
hatt
##enes
##kit
Virginia
Baker
##zaj
sever
Forest
Love
kitabı
fizik
dina
del
##ikan
Tim
Burton
Batman
Joker
##ron
ender
Chuck
Bass
Charles
Barth
##ssi
Girl
##gu
karakter
Cecil
von
Zie
tv
##lm
Bart
##fal
Anne
Evelyn
##tür
Humphrey
It
Wonderful
Lillian
Woods
Eric
Serena
Scott
Jude
Nate
Archibald
##zano
tip
Victor
Vic
##tro
Wald
##orf
seven
stat
profil
##izer
bass
bl
##air
seni
umur
woman
triple
mua
##zza
chu
red
Ona
##celi
finali
gas
Eva
##kort
##skan
Prag
##oku
Russell
Thorpe
##cey
lo
##uis
##vec
You
##OX
##eis
Rep
mor
##dna
Q
pound
57
mm
tanks
1942
Afrika
Gun
M1
Hi
##ize
1938
Woo
##wich
Arsenal
##bre
Dona
##kina
1940
##dağ
1941
biti
##feri
##gali
nes
##mine
sure
servi
aksi
##vens
##nel
Seri
43
Onlar
##az
uzunluğu
48
##ansa
##pta
##ngi
42
sq
##ue
##eze
bore
apa
hiç
Kanada
Combined
##dina
Factor
##ies
CO
##FA
##dana
M3
Len
Lea
pond
İngiltere
T1
##ptor
242
##rde
br
##ined
tab
AA
AT
##gani
Commonwealth
##him
Arm
##our
##cing
Cap
Ball
##istica
##lly
##BC
##lada
Og
239
Tank
Battery
Royal
Artillery
Alam
##post
Tiger
Panther
ee
dele
##bili
Churchill
situation
somewhat
improved
development
##phis
ammunition
Com
##posite
##igi
shot
Disc
##ardi
##bot
##DS
which
available
regiments
were
joined
starting
infantry
units
gun
remained
sole
service
until
when
finally
declared
ob
##sole
sonucunda
##atin
TO
donat
Dodge
WC
194
Ani
Norman
##diya
1944
82
Airborne
Division
lease
653
SS
400
type
##boat
##ase
##ins
##tyi
##gay
dag
157
Hollanda
eller
Pakistan
##iller
Kun
##rusade
##valier
Cent
##aur
Cromwell
Valentine
Ram
Light
Deacon
Alec
##fly
##rer
Carr
##48
SU
Boa
##hou
##49
Ford
Buenos
Aires
bit
##delen
Río
Plata
hektar
33
malo
moto
Moto
##cross
##mobil
pis
96
##sek
vir
Wilhelm
Wien
186
1928
1886
doktoru
Helm
##holt
##stan
1896
Aachen
1900
Würzburg
prof
1925
1911
##zik
op
##anka
##vak
sem
##dden
cum
Mey
Atatürk
maksimum
Sidney
dig
##esti
##ve
pr
##forma
sk
Center
Larry
Silver
##stein
bez
Salomon
Brothers
##anin
##kaz
katta
##rildi
Pavel
##ram
Serge
Павел
Сергеевич
А
##бра
##мов
##yak
MG
sm
##str
##zę
##bs
##ęg
##iel
Brit
##lom
94
##Pa
iPad
Apple
iOS
table
Air
multi
touch
kl
##avy
##cre
##rog
##ows
w
##wd
live
much
##les
key
##note
posta
##ild
sad
##utu
Face
VG
MP
kamera
dört
A5
##tina
Mega
##pik
1080
##TE
Nes
A6
pin
##tö
light
A7
Siri
inç
Newton
Message
##corn
ARM
Pen
proto
Power
##ook
based
2100
CEO
Steve
Jobs
##zada
Medi
##kka
San
Francisco
Buena
##late
##nci
Ödülleri
Colbert
iPhone
per
##aken
fon
Fuji
##PA
yılda
zat
Mag
##sci
##rus
hij
pad
##tile
Wire
lan
##sman
hemen
Twitter
##htar
Mill
KM
##TH
Faz
##etes
##kret
342
maha
##ll
KA
280
109
Kabul
##afat
##uba
##oel
Bible
Dictionary
604
William
##bri
##ght
849
872
871
870
848
Edwin
217
salt
##anat
över
Kitab
##pet
Ah
##ab
tapa
##deti
##azi
##ah
##ever
35
371
##bl
##ünkü
##zie
##zde
##kley
size
##mayı
##ferd
Ras
##hora
Pre
842
853
852
847
841
840
99
Edo
##kland
##list
##mala
##rsa
Diego
gram
##my
Marcos
Curie
Noah
Wu
Bernardo
Esch
##atos
Metallica
Slayer
tras
heavy
Sonny
Sandoval
##rır
Due
Port
##illo
Daniels
Sr
Rescue
mena
##jer
Brown
Cook
Where
##ville
Oklahoma
cü
##dum
##jeri
Sony
Essential
Atlantic
##ube
Sunset
##oxy
MTV
South
Rock
Party
Off
Hook
Little
Nicky
Rick
Rubin
School
##nock
##rada
plat
Satellite
Alive
basa
hit
Youth
Nation
Santana
High
Col
##bine
Gran
Hills
Carlos
America
##itari
Living
##cri
##fice
Jason
Matrix
##loaded
Sleeping
##wak
520
##ikas
Will
Change
Test
##ify
Katy
Perry
Goodbye
Now
Billboard
televizyon
##latan
Jimmy
When
Angels
##pent
Sui
##cida
##cies
##isti
Mike
Muir
Page
Hamilton
Gospel
Choir
Marley
Sisters
##dic
IN
Yourself
Murder
##amental
Elements
Howard
Benson
Eye
Hate
Jam
##sta
free
##press
Hill
Dog
Psycho
Real
Sick
yapılmıştır
Lost
Forever
Scream
fan
Pl
fina
##nse
konsep
unsur
Maria
##ink
All
Lou
skin
sub
##ous
tissue
##scu
##eta
connect
##ito
##iner
geni
##tour
##inar
Eden
##zard
##vier
##sp
##any
##cum
Lille
Nancy
##lgi
Metz
Soc
##hau
PS
Auxerre
Étienne
##ily
Coupe
France
Geneviève
Dunkerque
Ligue
Montpellier
Mans
Lens
Valencia
Genoa
Liverpool
Rennes
finale
trick
UEFA
CSKA
Trophée
champions
Chelsea
Wigan
Newcastle
Juventus
Sparta
EF
Wolverhampton
Manchester
United
Leeds
FA
Southampton
FIFA
Monterrey
Atlético
nı
Benfica
saka
##tl
Community
Shield
Corinthians
Bayern
Kupa
Manuel
Neue
120
penal
Bosna
##zaki
##EB
Holding
##sing
Mali
##NP
##nim
Web
##aha
172
##mci
##zım
##hv
##eh
##ree
Meg
##idd
##eo
##ita
##ō
##yah
##nalı
632
36
esa
##rete
609
Bab
Via
Mari
292
Har
##bid
182
185
##ball
##erine
##reme
##önen
tala
##po
Archaeological
Companion
Westminster
Knox
##rte
##au
Cham
##béry
Savoie
##vit
##ikat
##kana
Lyon
Grenoble
klasik
##oner
Christus
Joseph
Sur
Sorbonne
doktora
##del
pra
##ji
Cor
##iti
Foot
Curitiba
Série
Estádio
##uto
Pereira
196
Bursa
85
seo
##yas
##lament
ord
sam
##ros
##ssen
Willem
##chmann
Université
Poitiers
degli
Studi
Universidad
##sen
Notre
Dame
Indiana
Ph
master
##iza
##selle
##ums
What
happens
we
look
immigration
##lue
what
con
##stra
possibility
Historical
##graphy
shows
European
societies
have
incorporated
immigrant
groups
often
taken
than
few
generations
them
into
community
experience
solid
##arity
##lbe
##rry
Baxter
Mot
##şağı
##aly
dias
##pora
yerleşim
##naro
Festivali
traf
sonradan
Park
dut
##alo
ref
##nst
reti
korte
##porus
##rige
##mina
##mada
fall
Moi
##sei
Uri
##tski
Solomon
##ovi
М
##ои
##сей
Сол
##омо
##нов
##ич
У
##ри
##цкий
1873
##cca
Kiev
##sad
mat
RS
##İ
##vus
1914
Enter
##zh
##rai
##sy
##ât
##eka
Brest
Li
ederek
SR
halde
##per
ist
kao
Karl
Rad
##mov
sempat
Kaplan
##lata
یا
##سی
##چ
##uye
Buy
786
##fim
##ovna
Ф
##ан
##ни
Е
##фи
##на
##ап
##лан
1906
##ator
##org
Mal
##atu
##veri
##bach
verir
Ora
##emlin
##hel
Doktor
##arta
##masa
##ems
yönünde
Branca
##leo
komedi
armata
##tek
Comme
İtalyan
Mario
Mon
##ice
Age
##nore
Inc
##roc
##rio
##pel
Ren
Carlo
Palma
##tiche
##ug
Mas
##ian
Marcello
Filmin
roller
Vittorio
Gas
Gian
##é
##olc
Graz
##cce
Catherine
Spa
Barbara
Steele
militari
##psi
sap
serve
##haf
##eral
arma
##rec
asal
##cay
Armata
##iksi
alle
##iate
Cannes
Palm
üçün
##ake
1895
Shi
##kok
##gawa
iline
Zen
##ū
Harry
##get
studio
salon
1932
Asahi
##mbu
Archie
Min
lens
rica
##tud
##kine
Ans
Tokyo
##lles
##fu
##mpo
Monterey
##uran
Two
Toy
Stadio
##cover
##kke
Gabriel
Valley
Pasadena
Studio
##atak
استان
تهران
909
##zend
##eran
##bru
##lke
GSM
1358
1778
sci
567
Dem
##aven
Var
oval
790
330
##ec
##jr
##ud
nem
°
##zet
Rey
Claire
Pic
##het
Yann
Tier
##yano
##ınmış
Ela
##bak
Bing
karasal
meri
tarım
Rob
##pierre
179
kong
##аби
##об
##ес
##ьер
р
##ево
##лю
##ционного
Петро
##града
рус
От
##ече
##ственная
история
Журнал
№
##satt
Korn
##rdan
##zler
##maks
##fs
hen
##zve
ifade
##ral
##bov
##ons
##tadt
Fabrik
Conquest
##pes
Orlando
History
812
686
##obert
Reflections
##vage
Century
393
048
##rland
Tragedy
Russian
Revolution
1891
1924
Penguin
Books
670
859
630
##jene
ideal
##ele
ira
##krasi
333
666
023
963
##limi
856
639
sami
Organ
##rti
##msa
192
Einstein
##kun
formula
momentum
sabit
##rens
##zama
skal
##ensi
matematik
Ele
##yir
aux
##roi
##sade
Aldo
Ton
Adolfo
Stefan
Sand
##relli
##bini
nai
Nor
##cia
##vari
##ksu
##öva
ano
##rmal
##tard
Sebastián
##uh
Sicily
Mel
Ing
Bergman
##odi
##ürde
##culu
##lda
Thor
Paolo
Villa
##ggio
Latin
##llos
##emon
grote
##bur
Pel
##loc
Avignon
Berta
rast
Papa
VII
Gregory
Clement
yaşayan
meczu
##ehr
##yek
##ûn
##nada
baron
##iple
##llo
fed
akar
##gare
##nk
Emanuele
Luz
##zati
Giulio
Old
jener
anima
##mas
##rand
filme
##ioa
##chino
Rossini
Saksa
##dra
##cine
1973
Il
Rum
Steaua
Roman
Liga
##vres
##cae
##lis
##gres
Energie
##bus
##yama
Dinamo
București
Sezon
##veni
Debrecen
VS
Rapid
##tai
Kari
Qing
##dao
鉄
拳
##ruk
Nam
##co
##nali
Arcade
PlayStation
##wan
Advance
PSP
Network
Xbox
Android
##hima
patron
Jin
##pach
##achi
zinc
##urs
Gene
Finale
Ve
Turn
Jun
##eder
volk
Bütün
##ahi
karate
Naruto
Is
##tist
##lima
##stati
900
##more
Pasifik
##zed
ABC
Jeff
Studios
Description
Lead
Release
Media
##kter
Dale
hall
Connolly
Lee
Penelope
Daniel
##aday
Jeremy
Davies
##ovu
Desmond
Hume
Ian
##sic
flash
##back
##agon
Sérgio
Du
Santos
Dia
##mante
Norte
Brasil
##ei
Clube
Cop
Piacenza
Teams
libero
##ôle
##gel
##ände
Charlotte
##nburg
##sdorf
Westen
##oga
160
m²
Final
Johan
##ulle
Taylor
##edd
Penal
Nees
##kens
Golden
##lasa
Franz
Becken
##bauer
##bei
Jansen
##Ü
##NY
##UP
TA
##ss
##eit
##ner
Jong
##gst
Grab
##owski
Mai
Bon
##hof
Gerd
Müller
pas
##cud
##pra
kart
##rali
Kerk
santi
##metre
Sep
##ule
Goal
gold
Ronaldo
klas
##mand
Paweł
##gum
##ło
MK
Warszawa
##ikos
Utah
Juni
##perus
os
##ress
##aceae
Pinus
##phylla
##reten
Juniors
Junior
Worlds
##rasi
##ligi
##yde
halen
##kro
1892
##ngen
fede
Ott
##avio
Cinq
##uant
В
##ас
##ко
По
##па
##bena
##ence
##ţ
##vodi
Lise
Belgrad
##jan
##čke
##nji
##že
##vne
novi
##rba
1954
edit
kole
##čin
polje
nebo
##prav
##mlja
Vu
##čja
Od
ja
##buk
Poems
Hughes
Sanat
Branko
##iče
##vić
##vano
AVN
##kende
##leno
##ša
def
##real
##čilo
##tasi
##jevi
##ć
##bund
Yugoslav
##neb
##ilt
Ese
##nça
##py
##Ş
##syen
Lisa
Bal
Aydın
amat
##RF
Adam
##ekt
##illas
##mir
##ovas
##imo
Ali
Dur
hoc
Bed
##timi
##htis
Dok
Dal
Tun
Sous
basket
judo
adının
Sport
Étoile
CAF
##oi
¹
Dil
Benz
vs
islam
dela
##elem
teki
tik
som
##sme
Som
##hn
##tru
##bit
Po
##gatif
Dum
Bila
##önt
Maya
Yayınları
Ž
##ūnas
##čem
##arska
##yt
##tva
Kale
Hen
Bere
##sky
##dek
##aft
Jose
##uce
##iro
##nya
bons
##vis
CL
Championnat
##ession
##nelle
ال
##راب
##طة
##م
##حت
##رفة
الأولى
لكرة
القدم
Fédération
Tunisie
Football
الجامعة
##تون
##سية
##TF
Ann
##ées
Tunisia
Years
##²
##hus
geb
##klar
##gnan
##cy
child
##peri
##xa
Kato
arasındaki
Cercle
Brugge
KS
Koninklijke
##veren
##iging
Jan
##zn
België
Multi
##ling
##ual
##insel
##eng
pista
dama
##aza
##liya
##inata
##rmin
perin
Certain
conditions
origina
##ting
period
##raz
Katedra
Cat
##hé
Strasbourg
katolik
##edra
Romane
1439
Erwin
1277
1318
1647
142
Hamburg
Aziz
Nikolai
Hugo
nar
bet
##njen
##ital
##zom
##70
##90
##tions
##mation
ch
##romos
##normal
##ities
Kirche
##üter
1846
1874
Harvest
##ude
##kirche
##bel
1984
##lgar
72
Sports
reference
##grafi
Turki
##ae
##kwondo
##LE
Bild
Lillehammer
##veç
67
##lette
Tina
Morgan
sports
##ber
Tae
##data
Sus
Africa
Mile
Jedi
Championship
Aston
##own
futbola
Sydney
NK
Central
Marine
##pla
Thomas
Doll
Kosova
Crystal
Palace
Singapur
##roda
Natalie
##aco
Selim
tae
##udur
##tae
##won
Zagreb
Helsinki
Balkan
47
##üb
Yang
Sima
##şehir
##üdür
kurs
##beri
##aki
##nta
55
Vigo
##mit
83
Semi
1532
1584
1577
bera
hil
Adi
##lga
emir
1579
und
##zir
##ade
fer
##mend
min
##rtos
Bach
Bas
BWV
104
##erto
Johann
Sebastian
Leopold
##rto
1717
1723
partit
1730
##yalar
##olog
Leipzig
Collegium
Music
##arar
Allegro
##üde
rito
##rne
##itor
##nell
teman
tema
motif
And
##ante
assai
##are
tempo
efekt
solos
kada
##cra
Solo
105
##emann
##emes
##lav
1720
1732
##bina
arm
##onik
vary
##lmi
1772
filozof
Baron
##lba
papa
##sli
Sens
ou
##dée
naturelles
opp
##osé
idées
sur
##ure
##vdet
##hib
##kk
https
archive
details
##vas
Archive
not
Mustafa
##zal
1912
##ûr
mun
Yan
##yyat
##âne
##âm
##udu
146
##hip
1789
Syst
##ème
Nature
##hibe
Akt
##ehan
Mater
Den
##mil
Sena
##lo
##lope
Vor
##lander
ğ
Allah
##not
51
Black
Ob
##elis
Chor
##tol
##nov
Vokal
##fos
##vul
##itar
Alex
ep
Apocalypse
Flowers
Evil
##nova
Postal
Boris
##enko
Mikhail
maj
Maj
Tema
Rond
Dans
tutti
rond
temas
ere
1054
Anton
Владимир
Александрович
Антон
##ов
О
##в
##се
##енко
1883
##nig
1910
milliy
##nec
##vski
193
Leon
##unk
##kaa
##jat
Fin
Eurovision
Ty
##ää
jü
Zeit
1769
Riga
##itische
##älder
oder
##racht
##ungen
Wissenschaft
##hön
##reffen
nach
##gabe
neuer
Schriften
Gottfried
Herder
Christian
Adolph
##lot
1760
Altenburg
sec
##uli
pole
Finland
Timo
##iski
klip
Erde
Seda
##eski
Müzik
##nil
Facebook
FK
##ə
##bə
##lə
##şə
Klub
Göy
gab
komanda
##tn
##sma
maga
dili
ham
hy
##pert
##ex
linee
##erte
##kst
Dina
Stati
##tant
##cet
Nelson
taba
dij
##film
##kau
##kauden
lento
IATA
VR
ICAO
Ver
Suba
##visi
149
fe
Profil
##ires
##uns
##sh
##ant
##ces
##ED
##lej
bra
koor
##sih
bilen
î
him
##aye
Şah
##cati
1512
â
##nev
nazi
##irne
div
Bahari
##ides
177
Asya
Clayton
Stanley
Ion
Honolulu
##bola
Tat
##ore
Ural
##sque
##rija
Banca
##erata
CE
##bista
Latina
Volley
##oon
Austin
Texas
Britt
Eno
Harvey
##dus
##hro
KDE
x
ex
CD
##OM
##AR
Program
##belle
Milk
set
vars
Art
faren
##cere
SC
Weiß
##hausen
Vest
1904
SV
##gg
##yr
Cartoon
Porte
Slovak
Moldova
##love
##sar
logo
formata
Europe
Volk
##anik
ons
##rce
##elin
pan
湯
ゆ
##boll
add
fiber
##glas
mam
Tas
Auto
##CA
temi
##dili
##viu
architect
Puglia
##zzo
##giorno
co
##rafi
##atik
Fort
##one
Otra
Taranto
347
km²
Bari
sehr
##rgan
##penn
pet
##rok
Got
Lombard
1860
metro
##pol
##raat
Firma
Marshall
tra
mont
imala
Saba
Siemens
Mem
54
##aras
102
##eus
mito
Τ
##η
##ρ
##ε
##ύς
Ares
Proc
Ity
Phil
ibi
cı
##vid
##ius
Meta
##mor
cild
Nazareth
AC
DC
Queen
Genesis
Yes
Jet
jim
##nast
lab
##iren
##ense
##oran
##rks
##hut
##vici
ekonomisi
##EM
##dol
paras
Â
bis
##iko
##part
##fend
##çesinde
##ide
##zok
Heinrich
##är
Oskar
Heinz
220
1934
Reich
##wehr
gay
Barbarossa
##kat
##ave
##lanta
##lden
Sommer
##feld
Aero
Braunschweig
Poza
##zio
Championships
123
SE
##VE
sultan
##zig
##aze
Mauro
##ris
##mani
ved
##mbe
Dins
Secret
Saturday
Stephan
Cry
##pti
##dler
##zoo
Argos
Hanna
Barber
Quest
##pt
##ool
##eto
##zioni
Köln
##rrow
Hudson
Staten
borough
Brooklyn
1298
Hum
Parlament
##tvekili
##ise
ilçesine
yil
##ndra
1813
##66
default
Siya
UN
##DP
##PM
##gnon
parlamento
rev
64
##mette
develop
owa
done
sic
AD
São
Caetano
Associação
Des
##portiva
Copa
Libertadores
Paulo
erkend
João
Havel
##ange
Fluminense
Palmeiras
Grêmio
Vasco
Gama
Para
##nae
Paraguay
Olimpia
Heights
Jersey
Bergen
County
Amman
1931
River
Lima
##dare
Authority
##ier
Cathedral
Ira
##ty
Marcus
National
Basketball
Association
Jazz
Boston
Celtics
Star
Suns
Hawks
Duke
##lifi
Arkansas
riba
##und
##ttu
playoff
Randy
Palacio
Rodney
Rogers
Tony
taka
Play
##off
mask
Antonio
Spurs
double
##cats
Warriors
Milwaukee
Jordan
Farm
Morrow
Williams
##haw
Stevenson
Rockets
Miami
Heat
FIBA
Basket
Thunder
107
Marvin
10000
nuna
Lower
##iff
##hna
Berg
NTV
##zs
##final
Dominik
##ijo
Hy
Javier
##Z
##EG
##Ğ
##AN
##ee
##gli
Andra
İsveç
##qi
##ptar
Kategori
Superiore
Shqipërisë
Partizan
Tiranë
Super
##kup
Tirana
77
Samara
Sedan
HB
coupe
Porsche
PBS
##teli
bro
focus
BA
##öy
##neg
##28
181
##vence
sig
##olu
hu
##zur
##rata
##ppe
##ranta
LP
Trek
Next
Generation
UP
series
Legend
Shawn
Dead
Zone
Family
##fire
Gan
1471
1482
Elmi
bon
rom
Mat
##vei
Konstantin
Pol
##tava
##bt
1907
##ymas
Ultima
parlament
1915
##ana
Lev
atac
##ader
##lves
##vada
Turk
Josef
Büro
Tre
##leta
##kreta
##ndu
##lmes
mar
##xis
1849
Ramon
1902
##rets
Naga
elle
##jde
1861
1867
##kha
##ska
1880
##vine
##zine
##mell
Fr
Exposition
Universe
Prix
1894
##gene
##tih
Athletic
Running
Bruxelles
##shed
Sophie
reform
Tala
##gom
##hli
1820
1878
Sar
Padre
Patria
Alberto
Torino
Novara
Camillo
Giuseppe
Garibaldi
##oro
Umberto
Leo
750
Ravenna
816
Katolik
795
Frank
##lman
##mpa
##rmes
799
papal
Lewis
Valois
maison
cap
##ét
##ienne
val
##ua
Cape
1284
1589
1363
Burg
##ony
Fellow
Warner
Bros
Adobe
Flash
##onda
2019
YouTube
2020
Bakı
##vil
Nickelodeon
CK
Restaurant
Jr
Cool
Kids
too
##nzo
articles
339
##35
kids
##als
car
jr
hard
##ees
##bee
##ryl
blogspot
toy
##lea
your
##gination
NC
##cle
Entertainment
##och
Extreme
Jar
Creek
Ji
##arm
iTunes
iPod
Touch
¢
roman
Comics
digital
comics
vi
rights
XII
Ioannes
##oan
##nes
937
964
955
962
Otto
##avia
maka
Catholic
Encyclopedia
Appleton
Company
##ptis
Reform
Hr
##test
Ohio
Nations
Statistics
Standard
Country
Area
Code
Classification
M4
Esto
Cour
##landa
Let
##ates
esas
hub
##car
##made
od
##elek
ura
##inko
Atlantik
tun
Beer
##sch
VA
Anvers
1899
Antwerp
##kama
##FC
##inal
AFC
##éu
##inn
ASV
Oosten
##hle
##tische
Maa
##tschappij
Osten
##andre
KV
71
##rike
We
##aal
Brabant
##cot
1510
1578
Louvre
##ssu
##rina
Franc
Bora
Ur
##bain
##eu
##ux
##lve
##dera
Water
##geu
##ksen
1572
Brie
Vila
##dula
Band
sea
pirates
reader
Penn
Note
naval
1815
guide
literature
Eugene
247
Oranje
Nassau
atas
##olla
Elizabeth
##aban
##yri
Gregorius
Gregorio
Grégoire
Benevento
1187
Pisa
edu
~
##ndas
bio
##tori
Urban
Hit
Audi
tre
##mendi
Sint
##klas
##kring
Excel
##sior
Lok
Oost
Vlaanderen
##ass
221
Rodrigo
##uder
##ic
Rode
##ric
##rick
712
710
711
Toledo
##rsus
##dman
Beşiktaş
##elio
Lanka
##kh
Donetsk
Malta
Easter
Lara
##nje
##iras
Porta
Rio
Janeiro
Zona
Sul
led
##cov
##ado
Carioca
Vale
als
Palácio
##uana
##uin
##lho
Lucio
Costa
##fon
Eduardo
Reid
Leão
Jorge
Machado
Moreira
Nie
sta
1936
pedagog
##jed
##ão
##inya
##ien
Gal
Pod
##ivne
##pil
##emen
##ets
##ody
##oko
##stia
##nty
##lny
##roch
##bro
Muse
##ych
##nez
981
1340
1352
1366
1569
##hista
##hler
Ort
##odoks
1795
eren
vo
##voda
##cir
##ib
##bent
##adel
Mendes
mo
##zai
1588
158
ika
##sara
Volga
padi
berat
##od
##nist
##row
Tata
۲
##سع
##اد
##ت
ك
##را
##ى
1587
Astra
##rome
hati
minder
TU
##AM
##Ç
Yusuf
Almería
##edo
Lukas
Tarn
##eck
Justin
Lester
Hyun
##ln
Ruiz
Alain
Has
##sio
##adi
##gis
##vili
##aks
##kini
##sell
##taka
##avi
radi
##zona
dun
1289
##65
soleil
Santiago
Cal
##atra
##vle
##kind
##izes
Roberto
Marx
annen
Dahl
Bot
Gregor
##cha
##vchi
365
##uara
492
##ush
Meadows
Corona
##loga
Dawn
Wiener
Josep
Lluís
Bog
Theory
Design
First
Machine
Model
Four
Eco
##logie
##fur
##bia
##hill
Plains
##pia
Court
Blu
Siegfried
##ied
Nikolaus
##eyn
Guide
Hakim
Masters
Este
Smiths
Scene
Desert
##onar
Atlantis
End
Industrial
Building
Cruz
Knights
Columbus
Tower
Haven
Kevin
##oo
Kaya
##reko
Stil
Aki
##mana
##IL
twee
bela
##pul
##nad
wrestler
suspended
six
months
##cist
238
nid
523
##20
##kci
1145
wrestling
authority
stands
athlete
banned
Mind
Pescara
##DE
##UN
##RE
ALT
##IN
##DA
##nye
word
big
hol
##igan
130
Ole
##ksa
##ndr
##yada
gur
##esc
##rup
401
Museum
Georgia
##acht
Wood
##ruf
Alliance
##yatro
##foni
##tras
Afro
106
##his
jest
Rod
Meier
Renzo
Piano
##IF
403
203
##nem
Abtei
Mönchengladbach
Cl
##ders
garde
Hans
post
Marcel
Duc
Andy
Warhol
Roy
Licht
##enstein
1901
##cher
##straße
American
Medical
AM
1847
JA
##MA
tren
##lc
##has
Fritz
Platte
##omi
##rman
Stockholm
##dha
##gen
Fredrik
##röm
Zimmer
##wald
##vir
##eke
##II
General
##hing
Gott
##ingen
##stas
Planet
##gon
trend
##nitz
Victoria
Malmö
##file
##tira
Edgar
##sson
##pat
Evening
Ferdinand
##send
##skim
Won
##ŏ
Kang
Cho
Tong
331
##yong
##yang
##gang
jin
##hwa
1800
Ch
##toku
##dō
Seul
Kei
##jō
##ong
##song
##ij
##igen
dong
##eba
joins
map
view
asp
##imento
##zoru
##nni
TC
510
may
268
##ingham
tesi
270
271
272
##vane
375
##mide
8000
sik
##SA
##ybos
Kanton
##tand
analog
##udan
##uda
Rady
Salon
Juan
##nch
Luc
##ille
##gide
##diko
##jaan
##KI
merkezine
bakar
olunur
Pete
Kid
Simpson
##rats
Cohen
Samuel
But
##the
Matt
##roen
##ä
##än
##tup
Dai
265
##tans
Gent
Gant
##oise
##kab
Buffalo
Frédéric
*
##uvad
Simpsons
##oa
##sting
Open
Christmas
Special
Esa
Broadcasting
Homer
Noel
##rami
##fes
Mimi
Pond
Chen
##uts
Song
Emmy
##yre
Springfield
Marge
midi
ani
sant
Burns
Barney
##bla
Downs
Brooks
##bis
##pon
Hell
##ünk
##tab
Some
##chant
##anne
Jing
Bells
Rich
Moore
Flanders
##hne
Gwen
Seymour
Skinner
##house
Houten
She
Moe
Patty
Selma
Snow
Dewey
Largo
Nielsen
rey
Fast
Lane
Awards
official
##mys
IGN
##zah
Berkeley
mater
Sein
##joki
SJ
##SI
##joen
terminal
##oes
##elar
##oos
Verenigde
##rien
Dos
Red
Union
##oul
##dola
286
##efa
##pass
##ā
##āli
##ś
वि
##प
##श्य
##ना
Sanskrit
Bud
##pas
##utama
Buddha
##itas
##dini
##rava
Maha
##mata
##hya
Reginald
Ray
##act
##ition
Quarterly
Summer
sama
##tha
ś
##amat
##pun
##sant
##ñ
j
##āna
##vā
ā
##nā
Kimi
##uhan
##ī
##nsel
##ād
##bea
Sri
Myanmar
Laos
Goldstein
Tara
##ach
Sharon
Sal
##field
##olle
Insight
##tation
States
Liberty
##uit
Happiness
Tanaka
Faces
Buddhism
Chapter
Musa
Nusa
640
716
##life
##lid
emrin
##fr
698
##raft
fet
##rber
##heder
708
##ife
Ayn
##rita
Th
##kio
##enen
##oth
tim
##sah
kela
bere
عبد
الرحمن
##دا
##خل
731
788
##kr
756
929
##fel
Yahya
köyde
##ekin
1888
Bundan
Habib
##vete
755
##plo
reis
Atlas
740
Yemen
vezi
##ium
742
##rib
Kennedy
Spain
Portugal
political
##alus
##llah
##nnas
##kara
##aman
Mala
##mune
##bu
##akat
Kai
##eten
Zaragoza
ju
736
Sevilla
##ffa
Pamplona
akan
##uada
##qui
morali
##aker
bind
toku
##eben
Maker
##rede
zin
779
sada
hita
##ulus
##zka
##rdes
Bagdad
Ibn
##git
##tiva
##cik
Car
##mona
Cara
700
kini
moral
##lmen
kelle
##dat
Mens
Suku
##rki
##kutu
ibn
Muhammad
Mohammed
Dynastie
81
Montgomery
Watt
Islamic
Survey
Edinburgh
University
##raba
##tub
Zara
##gos
##onom
##ume
Gli
Early
Ages
Princeton
778
##lb
Paderborn
Girona
Huesca
##ladi
yard
##pne
Moran
Islam
Medieval
##ception
Editor
##lank
Fra
##tto
sank
##bii
##liga
Neu
Pio
Aust
Pam
68
Ron
##valle
##masi
gu
agir
##lari
one
##bka
dus
##cite
##pila
Roland
Chan
Frans
Hus
771
783
José
##ente
Historia
Ayuntamiento
gran
Hukum
766
vari
tol
##rima
##das
Bull
##iet
log
##iks
Marianne
Barr
##nor
Moor
##chen
785
##quita
103
His
##vah
Marek
1893
Histoire
##mo
##had
Merr
##giers
##hid
##neau
##oni
##uth
Asia
5th
1856
456
Mary
Atom
Nato
IA
##EA
Brook
Labor
labor
##rche
##âle
##jk
##upe
Gemeen
Parks
##tad
play
##maat
##dla
Stade
Leuven
##vani
Zwar
Oud
Darin
614
Stand
##aard
Wet
##teren
547
##hoek
Holm
CBE
##bbit
Bilbo
##ggins
##riot
Element
Vito
Cornelius
andro
Shakespeare
Wars
Nicholas
Alexandra
Scots
Winston
##coming
Lenny
Jesus
Barn
##aby
##wel
Boys
BAFTA
Grey
##sto
Tarzan
Terry
Gill
##iam
Brazil
Dream
##child
rolle
Here
From
Gull
Screen
Actors
Guild
88
##zee
Vlaams
##bond
363
أبو
الله
محمد
الثاني
عشر
1460
1533
##nata
1492
Granada
1484
##stil
1487
Luce
Aragon
Fernando
Isabel
##eza
Málaga
1489
##éc
##ña
Hobbs
Nottingham
Lincoln
##unt
Leicester
Hull
Jane
Sentinel
Security
Assessment
Force
Radar
radar
##cista
##afa
Azerbaijan
joint
installations
SA
##vina
##chor
Military
Balance
via
##rafo
##orum
##roy
Mani
Eu
##tels
Kanal
Zelanda
Op
##tus
D2
UB
Intel
Americas
Ari
##rang
188
##TV
CC
sans
gets
anno
##ying
outside
views
Filip
STAR
##UI
June
Issue
Cheryl
Fernandez
Vers
Twee
##dy
Cole
ITV
##oud
£
BR
##IT
Promise
Gaga
Eyed
Words
Vogue
Elle
##alse
Ashley
Direction
Liam
Payne
mart
Bear
Sally
プ
##リン
##セス
ー
##サ
##リー
・
エ
##イ
##コ
##ーン
##urin
Ricky
リ
##ッキー
##ikk
Sonic
##hog
##oto
##hver
##cap
Kinos
##hita
Spin
Nicole
Miles
Tail
##nnie
Ivo
Egg
Robot
##nik
Eis
Maas
##chel
Limburg
Roda
JC
sportif
Desse
##werp
Lor
Raj
Lakers
Draft
Parker
offs
Airlines
guard
Bulls
Derrick
Rose
Brand
Wright
Jae
Crow
draft
Dallas
Sacramento
star
defensive
##bant
Borg
##hout
Anderlecht
fra
##RC
1557
1596
İbrahim
##ffer
zu
##lars
##hon
##bury
Xavier
Minnesota
##wo
##nick
##xi
##hong
Brave
Dragons
Foto
##zili
##odu
##ünen
##tle
SO
##MI
##tez
##OL
Edit
NHK
Smart
##yra
<
44
777
Morrison
NCAA
Gonzaga
##kane
Milan
Tip
中
国
央
电
视
台
文
际
频
道
##nggu
##ó
##ān
##àn
##ì
##tá
##wé
##ój
##ín
##dà
##izo
Wizards
NHL
Capital
173
277
AB
TNT
NT
Quatre
CG
##tili
Sky
Digital
Robinson
OM
Chester
Grammar
##lne
Oxford
##lete
Magda
Close
##fini
Saudi
nama
Meteor
##gada
KK
##TC
1961
Cina
nel
Era
Minden
Weser
798
Archer
Porter
Bedford
Dunn
##trition
Laboratory
Industries
Research
Institution
Boots
Pure
Drug
Council
B2
##tog
Amin
##sit
See
##ituary
Aug
Alzheimer
##cup
##nfo
Kappa
FR
enzim
stereo
Rita
##raden
Hilda
##pper
1887
Chemistry
##llin
Medal
Society
Sussex
##rett
Australian
Expo
##hão
Liz
Parque
das
Nações
##varo
Metropolitan
Gymnasium
東
京
体
育
館
Tai
##iku
##hiko
##dag
##ogi
##jo
##ple
##bbe
biridir
033
û
îl
##open
##EN
ISO
′
##rica
Battle
##star
##ctica
Yoko
##zeg
##fy
SP
##AC
Universal
Channel
Francis
Maryland
Brenda
##ean
##nesi
Mabel
Tako
Langley
##bold
Florida
Jacinto
885
##tede
##verso
Elton
bara
Magic
Memphis
Destiny
Child
Stevie
##ë
Kosovë
Косово
##ље
Kosovo
1389
##plan
##rov
##iça
Aves
Leningrad
##licht
##top
Hitler
260
Isa
##W
132
Haupt
North
Wehrmacht
Stalingrad
##hov
299
302
##kam
erat
PP
135
301
##nende
##telen
##reden
Mask
##vka
sahiptir
307
308
139
266
##dura
##iden
Panzer
##kampf
##wagen
VI
Aus
acht
##ung
Uma
##did
##pha
223
267
##rece
inch
how
##itze
##suna
##dest
Matilda
Lindsey
Von
##ldo
Ski
Team
slalom
super
##von
asfalt
alpine
ski
SL
GS
Slalom
##tit
##lui
##tda
Inter
##tot
hasa
##tec
Slavia
Praha
##jera
Wesley
Ż
##wski
Blanco
##duc
##occo
Turun
##zlik
Municipal
922
##iter
##nio
##nion
Laut
##iosa
Budget
##andia
Woodrow
Wilson
Köy
##vol
##tet
cell
##zca
yaşadığı
##lage
diploma
Liège
##DB
##ode
GPS
CBS
Modelle
##toni
##oki
Base
Waters
##een
being
##rony
Tot
##stel
Onze
Rechte
recover
our
533
sora
Winters
##lag
Germain
Aberdeen
Morning
Robbie
Reality
Kill
Jackson
lakin
##dies
Vaughan
Arne
Sabah
##tron
##otu
##mos
NASA
olunan
##ringen
Kleine
Heide
1964
##ovanie
##RO
309
charter
##taa
Ou
FIS
320
UTC
Know
Françoise
Hardy
Electric
Radio
Bruce
Spy
sh
Francois
##raca
bala
masas
##yku
Kamera
fant
##asti
##kus
este
Metro
Goldwyn
Mayer
Diamond
Dogs
Double
Trouble
show
runner
Montana
Ratings
Simon
##las
Fischer
Gerhard
Schröder
Bundestag
##fis
Beni
Detay
##MS
##NB
##llis
DNA
oli
##tid
##tagen
protein
poli
##mera
PCR
metod
##cat
##schi
CA
Philipp
Edge
MH
Jahn
##esis
##fic
Position
##quence
Biol
Chem
253
655
656
##yote
##can
grafik
kati
##KA
Marvel
##ekom
dala
Olympic
##mpi
Centre
format
round
ro
third
rocks
second
teams
Olga
##kova
Anna
names
##26
Number
points
width
175
|
##br
total
Een
##cht
Aa
##lst
Telefon
##lder
##jn
##lz
##old
inde
Kort
##rijk
Ju
##piler
Yellow
##limen
Marie
Wilde
##eert
##lie
##mmen
Tristan
Peer
Wilfried
##cal
##aes
##aa
Pays
##ijs
Internazionale
Milano
##uil
##lou
##EC
Mimo
##djan
Gilles
Arthur
##ffi
##dri
##bou
##night
##lal
Investigation
Igor
Maxim
##ilien
##idor
1758
1794
Arras
Louis
1781
1788
États
généraux
Artois
État
Rousseau
sold
Jakob
##rupt
##ible
##ronde
Just
Mara
1793
dikt
##yot
##abat
1461
##markt
koko
1437
Erzurum
##siv
##koli
1098
Ernest
##nite
Human
Unit
Mito
##kond
##rial
##chon
##drial
Biology
MR
Halifax
Yorkshire
Els
Law
Abraham
Wisconsin
Madison
Protein
anal
##mbra
Boyer
Jens
##kou
##cott
Microsoft
Office
##nette
online
Works
##pace
Small
##pola
##light
##lent
Word
##oint
##red
Windows
XP
Server
Vista
OS
Dei
Hart
##mut
Huber
fotos
Max
Planck
Southwest
##ern
ray
atom
CONCACAF
##io
283
Til
##IM
Too
##lki
F1
GNU
Kathryn
Norris
Mount
Department
Woman
Nixon
Demokratik
Senat
##iste
sine
KB
##BS
Belgische
Royale
Bau
##dou
1840
##uel
168
##urar
BF
Minsk
belle
RSS
##smo
BSD
Amiga
Commodore
Vision
Merit
Person
Melvin
merito
##rac
mani
##festo
##ged
##cons
282
Bali
Wall
##erste
##pot
Ir
##deo
jazz
saksa
##bra
Brad
Gary
##mero
Billy
Pierce
##rzone
##ecker
##ead
Evans
##runt
Concert
Danilo
Perez
Schneider
Santi
##rian
Colle
Kenny
##etni
Save
Bosne
Hercegovine
NS
Premi
liga
837
836
835
##iada
##çenin
##nul
Katz
Who
Were
Exploration
Win
Free
editors
Doubleday
511
512
refer
Racine
1691
Felix
Mendelssohn
1845
1773
Handel
Mod
##tung
Jonas
Nije
Benin
player
##tory
1450
##97
##ping
handed
drugs
testi
##cuda
Than
Zu
Pariser
Platz
Brandenburg
Unter
Linden
##zam
Liber
national
football
Regional
Diploma
Guillaume
1870
##viers
##vat
1879
1889
Introduction
##rave
Wagner
##sif
Nürnberg
Meister
##singer
##nberg
César
Franck
##pua
trio
Hamlet
##tku
Vincent
Indy
##gio
Rome
##dé
Eugène
##ÿ
Ludwig
Beethoven
Bei
Nadir
Rare
Book
Manu
##sc
##ript
Library
##BL
Yale
nad
Gordon
##haft
Hewitt
##dran
##gle
##meri
bod
Gutenberg
katalog
Dwight
Sterling
Memorial
Louise
Osborn
1601
##teni
1751
1821
1801
Ass
Ε
##θνικό
##ς
Α
##σ
##σια
Monica
Place
uzaklıktadır
##erated
Sono
##rue
Associates
Ridge
##mont
Pretty
Beverly
902
##ea
##hit
ME
##sou
Μ
##Ε
##Α
##Π
##έρα
Χ
##ω
##ριο
##ύ
Ν
##ή
##σου
##ith
##rou
##tera
Oni
Neon
Wang
##uo
Quant
坤
輿
萬
國
全
圖
舆
万
图
pinyin
##ú
Qu
##ánt
Carta
Geo
Mondo
1602
Matteo
Ricci
Madeleine
Historic
coming
minne
##sot
public
##radi
display
tuli
Japan
mutual
representation
era
Wat
##aru
Ming
Wan
Taip
##oq
##ao
##hiza
李
之
藻
##çada
eni
##rani
##tika
USS
BB
Massachusetts
Quincy
Ship
Engine
Franklin
Murphy
##itan
Alba
##pea
##kede
Mitchell
Karolina
Sister
Kis
##terna
Theo
##dosi
428
443
##zdo
Ny
##eum
##uksi
##ppo
532
Ward
Perkins
935
##×
##bird
tabela
1565
Constantin
restore
Negro
în
013
vad
1782
Basil
Villar
209
malik
##ayan
Viktor
##ucus
##ani
arti
1480
##andi
cal
##isan
##larini
##tama
##GE
##41
HD
##kg
##27
Cordillera
facto
421
##eisen
Pont
##jung
##gren
Luigi
Bolivia
tin
##ization
Economic
Geology
1348
1351
Niño
Hua
Potosí
asa
##vator
Observatorio
Física
Có
rasa
gama
##KP
##cco
720
gara
##ntis
818
Referans
Parlamento
##UF
ITU
##UL
Jürgen
##att
##ag
Meat
##rix
Range
##dahan
Km
##iat
festival
##и
##́
##ктор
Па
##лов
Но
##ги
##́н
1898
kans
##onal
##wal
tekst
Leonid
##eil
Raymond
Robin
313
##odor
adres
Petersburg
Novo
Nama
hadi
seva
##cade
villa
##usa
##KS
Agatha
Christie
Simeon
Hall
kin
##ömer
Lydia
##ury
Tres
##sili
Walter
##klad
##lta
yon
##cule
##gden
sieben
DVB
love
enter
##tain
you
Cruise
##perate
##ves
slogan
3A
##opio
##nj
##ärvi
Wii
Nintendo
Virtual
Tennis
Remote
tennis
bowling
golf
fitness
mod
##lde
796
##bec
Beth
212
Ces
Always
Want
Wolfe
Gore
Vidal
Jonathan
##scher
##efer
Sutherland
Lynn
##sku
McGraw
Elvis
##oj
Jon
Betty
##dle
Mix
##dh
##eim
Ryan
Dick
Bogdan
Patterson
680
##NR
060
only
##clu
>
##zmu
##rone
Chun
Father
Holy
Guest
##ming
Never
Story
##lsey
Italian
##ully
##rean
Cary
##tone
Graham
Carolyn
##wart
##weld
Meyer
Mark
Kirk
Lance
Kramer
##use
Lauren
Steven
Dean
##cino
##ardo
Castella
##neta
Julie
##tw
##right
Ralph
##ntz
##dley
Hank
Chief
Principal
Marcia
Wallace
Edna
##ppel
Pamela
Hayden
##eille
Agnes
Russ
Prince
Wie
##gott
##ND
##HS
Hub
##hire
1839
##fia
Rica
Marne
bbc
##war
battle
Helmut
##tke
AL
##lora
##Σ
##κ
##ί
##τας
##λ
##ώρα
##κας
##sias
##tzia
797
768
767
##nn
##kum
##eros
##θ
##λη
##τικό
##ο
##λι
##τι
##στικό
Σ
##ωμα
##τεί
##τ
##ρό
##μη
##τος
Γ
##ερ
##κή
##που
Ο
##μό
##νο
##ια
##ρα
##δ
##π
##shi
##diu
amb
Zeppelin
258
##venil
##nded
bine
##mban
fora
eta
##dali
##α
##κά
##ρας
Ι
##δα
##λίου
EPA
Alpha
Bayan
##gami
##ternal
##zog
初
心
##shin
Suzuki
祥
岳
俊
隆
##uka
##agawa
##tō
Pale
pale
cila
por
##mol
Navy
Portsmouth
Norfolk
Charleston
ship
Naval
Ves
Register
Tang
Sound
Jerry
Springer
Regis
Baldwin
Basin
Rupert
Murdoch
Hawk
Hartman
Mother
Maggie
Ros
Helen
##joy
Maud
Dominic
Neil
##lfa
jur
##graf
part
Kamil
Anas
fotograf
aa
kultur
dr
Reis
Richmond
Prime
##time
##ow
##bud
Annie
148
Wedding
Salzburg
Bamberg
1832
##pò
Gdańsk
##dans
Gdy
##nia
##ró
##miast
metropolitan
515
Als
##anc
##lova
kt
Loma
Lua
##erson
946
Gouden
##hoe
Soul
Het
##ats
Nieuw
sponsor
Philippe
Albert
##sso
Him
##kamp
RW
##beek
##tter
Cinderella
##ndri
Georges
##ès
Mahallede
Bulu
##hard
zom
1882
tad
##BB
imam
Mahallenin
ST
##rci
Bez
Dietrich
##geschichte
Grass
Wer
noch
NSDAP
war
Welt
Walther
Wen
Politik
Jeanne
Lucie
##èle
Stephanie
Adrien
##ës
##ujo
Seine
Denis
##oir
dia
Arc
Voyage
lune
Versailles
Yvelines
##hamn
Fly
##plats
Maar
##inan
Å
aktris
##ew
##nnu
##veen
Andrews
Nestor
Carbon
Emilie
Ravi
Emerson
Garcia
Grace
Josh
Holloway
Malcolm
Kelley
Yun
##jin
Lilly
Rebecca
Mona
Quinn
Harold
Perrin
##eau
Michelle
Rodriguez
Kiel
Sanchez
Santo
Cynthia
include
col
style
background
color
##blu
Leslie
Arzt
Cindy
Chandler
##ogu
Henderson
Aaron
Nad
##ert
Baku
Juliet
Burke
Elo
Jacob
##lug
Lennon
Benjamin
Pick
##yce
Ethan
Rom
Goodwin
##hop
Naomi
##rit
##ult
##pid
##kowski
Regina
##raum
Amy
Chang
Horace
Good
##eed
Roger
Stuart
Caesar
Cooper
Danielle
Zoe
Diane
Janssen
Nadia
Carole
##wood
Pace
Pai
Mrs
Cassidy
Phillips
Carmen
Penny
ب
##جن
##ورد
Hora
772
701
##pus
##ianus
##lv
##iidae
##pidae
lore
##nzi
Himalaya
coll
##bita
##ai
2600
Sim
س
##من
##ان
124
999
298
1138
##yba
step
##nala
Oak
Wein
210
211
##vä
##lä
##län
Mahal
##kull
Saturn
##ý
Tomáš
Bohemia
##ác
Boleslav
kapta
##leh
397
988
Week
Monts
##erra
##timo
Primeira
LA
ans
EN
Finn
##com
##kei
mahallede
Sala
##yne
##sina
Gay
##rime
##nku
##vata
cena
##isar
Cena
Kate
Does
Did
045
side
##way
Austen
Lawrence
XVII
Jen
##long
Map
##uki
Sawyer
Soo
elektrik
yuta
Dharma
Sophia
Lüneburg
Ibu
##laz
Ernst
1701
bill
Leibniz
1705
Hurt
Locke
##elo
Bomb
##mh
##OD
Mack
Vene
Toronto
Summit
##tem
Mesa
talk
##cell
1268
Melo
##festivalen
SVT
anak
##metri
Pearson
##ote
Siegel
Boyle
2x
Orne
oz
##des
##lers
##inda
sina
ici
Fisher
##fir
geldig
½
‡
394
395
##stir
##erg
buy
dort
##zini
χ
##lco
##xon
Mann
Whitney
##lier
Nos
Cameron
Avatar
Dante
##arti
Bryan
##oya
Aan
##etik
Azul
Roku
ej
318
Ring
Nicola
Rat
##bone
App
Patel
Shaun
destes
##xin
liter
##ntra
Hearts
Roi
##eurs
Femme
bene
##aps
Tri
dör
##ibe
usu
teka
dizer
##tere
##ziya
##iyah
Oz
##hol
##ws
##cans
php
##38
##44
792
791
751
##tham
739
##kah
809
759
##col
November
##vent
1137
altar
Flavius
##ties
IX
##bran
Table
Frost
Earth
##qua
Extra
Seis
##mic
Event
Review
657
671
je
siten
##rette
Org
##ttin
Alta
##hsil
##üste
##rgen
##oper
OR
##KO
Tale
tels
##zare
##TO
Treaty
##tam
735
732
2nd
128
129
##alla
Landkreis
Franken
Regierungsbezirk
Kassel
Hessen
protesta
##EP
##fair
##τική
##δο
##φ
##αι
##ρική
Ένωση
##ι
##σι
##λιά
##pero
##unta
##riske
##hod
##oks
##ister
sonda
PE
«
##eak
»
μετά
μ
##έ
ο
##ός
sistema
Development
Unesco
##loss
ID
231
Palazzo
Duca
β
beta
gli
vis
##zite
sel
maya
fun
##vam
##tue
α
##stada
##üller
lift
##ndak
LDL
mide
aktivite
Food
Administration
Safety
محسن
نام
##جو
abil
##pur
moh
##nam
##lasi
Rotterdam
Hot
Teheran
Silence
underground
##jir
atti
1591
##uve
##uv
##ness
##lna
Gaon
Rachel
1809
evil
vej
##etar
Mei
##eria
Bennett
sand
##Net
terrorist
terror
##kalle
##tsi
wish
fate
similar
Bala
##iten
##resse
liberal
bana
utan
care
##ayo
dua
##liyi
Lai
Jacobs
dins
Hala
380
yoktur
presidential
plural
politics
Judaism
Jewish
##dani
##град
##ский
Совет
рабочих
и
солдат
##ских
депутатов
Центр
##альная
Група
##vim
Proto
##pop
Tau
##rid
##kom
##heid
##sere
##osta
Gazeta
greve
##rtes
Marii
##nski
Julius
tira
##sett
##enn
Rev
##nyi
##itet
##zim
##vois
##ited
##HF
Helsingfors
fly
##tow
Lag
Laguna
Venezia
Veneto
lag
laguna
lac
lago
Brent
##oggia
##cq
won
wo
##blast
374
##omotiv
##pard
##ép
##hino
Visconti
Tomas
Lam
Burt
Lancaster
Claudia
Cardinale
Terence
Giuliano
##emma
perde
##unn
Nino
Rota
##zce
##isor
##gimento
ari
Fabrizio
Donatello
Palermo
Liberal
Peder
##rro
Vall
Donna
##gata
##oge
Stop
Angelica
##dim
205
195
##rite
##rion
Collection
20th
dub
161
box
desta
Ebert
##oda
leo
##kalla
##aram
##nar
Adler
Dell
##brück
Bayer
Leverkusen
sezona
Ricardo
Blackburn
Rovers
##ridge
Bundesliga
VfB
Oldenburg
DFB
Pokal
Borussia
Dortmund
meni
euro
Slave
##pakt
brug
##eno
Haft
dk
##stin
Frei
Gomez
74
fenomen
Tore
##rei
##ref
premier
Platform
Bourne
##mouth
Michail
role
EU
##uus
##ddin
##vati
Score
AIDS
##kson
##wind
Town
Wiltshire
728
Ground
Wembley
##seh
##icis
Leary
kome
Mach
##chu
Peru
73
##sille
sir
saw
##gam
##gari
Sex
##dio
##rap
Lucky
Forster
##teg
Motors
Evolution
Computer
Best
Plays
Platinum
elementi
road
modu
elemente
Split
dez
##avan
ATV
Monster
Truck
##gy
Rally
Racing
truck
##plu
##gger
##ig
screen
monster
Last
##nok
Cela
Dylan
element
dy
tela
kant
iri
Panorama
1453
m2
650
##gment
##tman
##stant
##polis
##liv
##rika
Ба
##ня
##yos
sau
##cada
içme
pod
oka
##öller
Poe
Allan
##örp
407
1842
##sper
##ceni
Price
##fen
oma
Gothic
tradition
Hayes
521
##opp
Patrick
Meaning
Critical
Essays
Regan
Engl
##ood
Cliff
NJ
Prentice
137
##atta
did
134
##bson
Biography
Baltimore
Johns
Hopkins
801
573
141
Lab
Laurent
Sabrina
Symbol
##heme
Literature
Sub
##version
##uman
construct
##iven
##ess
Fall
Usher
Rein
##tern
Philosophical
##über
##urn
##ful
ending
Harper
Perennial
##31
180
Eliza
Leonard
Frances
1831
Meyers
Jeffrey
Legacy
Square
815
1038
133
Cummings
Study
viral
nek
##rot
fasi
Molecules
Imperial
Gentleman
Fantasy
Literary
##wards
Myth
Broadway
##raren
##giz
Check
##mark
416
Για
##νά
##κης
##ιά
##νης
##ré
Olympia
Coro
##inam
district
Cornelis
Friendship
Jenny
##erie
##pali
480
##hild
hindi
plantas
Resort
Virus
websites
url
Google
PC
Products
Sistema
Björk
Þ
##ór
##hall
##sd
##ót
##kja
sai
quoi
Por
##sg
Heart
Your
127
Front
##inus
Toby
1420
##artu
Like
##ée
ever
##green
Mahalleye
ค
##ร
##ิ
##ส
##ติ
##นา
ช
##านี
##chan
Birch
Wong
ร
##ั
##ช
##นี
เ
##บ
##ร์
ว
##ง
##ศ์
##กุล
Bradford
Christians
Aarhus
##sov
##ica
##ос
##ска
Кам
##ени
##ца
jure
##zerk
##mora
Misy
District
##lane
##ngo
Kongo
US
Boulogne
##posa
Alban
Ле
##са
##вић
##skom
##čki
BM
dâ
568
RE
##2011
Sprint
Turku
TK
##far
Turin
Mont
Berlusconi
Int
##izar
Marian
##hr
ج
Bandar
بر
##از
##جان
Gazetteer
183
##gol
##doro
##holz
##ль
##га
##ё
##дор
##овна
Б
##ер
##г
##го
##ц
Georgi
##kog
##onen
Shift
Soviet
way
Night
Journalist
##glich
Irina
poem
memory
defender
Stars
Liter
##ators
##kie
Most
astronom
Tamara
Sm
##irn
Minor
Names
255
Ivan
Fuller
Bender
بند
##ر
دی
##لم
Hangul
환
##구
##단
圜
丘
壇
gud
##gong
제
##천
祭
天
##nnet
Site
##jong
##wang
황
##궁
##우
皇
穹
宇
Hotel
Korea
##emu
대
##문
大
門
Seo
석
##고
石
鼓
##stri
Об
##или
##ћ
##stina
Murad
Miloš
##naden
##mağa
1448
Hun
Đ
##đ
548
TD
##рах
##ова
##kovic
seda
sest
276
##jevo
##vard
##šić
Hara
Addis
1529
Ahmad
XVI
Pax
Ottoman
Studies
Memoria
Haarlem
Somali
##peler
##peli
##pare
Mono
gây
##sim
##nice
Gamma
Oval
Tell
##dor
##aso
Luka
Λ
##σος
##ου
##OK
##άριο
Η
##λία
##pida
##χ
##άλη
##φής
##рем
##енное
правительство
России
fera
Lynch
##action
Murray
Dumas
##noval
##sari
##fere
##mete
yera
##orn
##ikin
##dret
##isited
Montreal
Quebec
##iasa
sixth
duo
oni
1312
B1
579
483
343
##01
##pern
Vorarlberg
##aw
köydür
Köyün
##ait
##tel
Niko
##lina
##ина
Константин
До
##бр
##ева
Mia
Vampire
Diaries
Elena
imdb
name
##24
##000
##45
##nana
Ontario
##borough
##rrell
Collegiate
##yers
Armstrong
Acting
##est
##ics
Senior
Plzeň
dobre
person
473
tri
##via
Modell
Pieces
Away
##wolf
CT
Mall
CW
Damon
Salvatore
Petrov
Pictures
Classics
Ego
Chloe
title
##52
Loop
Being
##flower
Logan
Emma
Watson
##udd
Ezra
Miller
Braun
beats
##58
Puma
sugar
##sca
pink
647
##46
cut
project
1608
1607
Schwerin
Det
Graf
general
Konrad
Aden
##auer
Γεώργιος
##μ
Rangers
Dundee
loan
Dee
website
Livingston
##zita
Pedro
going
any
##where
Andreu
##ά
##πη
Αν
##αρά
##λα
##πος
##zima
314
##jang
Talk
Hollywood
Listen
Maxi
Colin
Hunt
Ronald
Weston
Lionel
Trevor
##eeka
Dennis
Wilkinson
Ugo
##gne
##lf
Byrne
Led
##brook
##rea
Till
##yard
##xta
Geoffrey
Kaiser
Wakefield
##ogh
Lloyd
Neville
Berry
Clark
Richards
Clive
Hartley
##pson
Amber
##isis
##iso
##υ
##σο
##στο
##μος
##ύση
##χα
##ήλ
##cos
##phus
##lch
##nge
##tane
##sumi
##μής
##μή
Thessaloniki
##ske
##κε
##άς
Andreas
##έας
##δης
Nico
##iros
##chn
Fam
##agu
##ούκα
##ζ
##λο
Все
##рос
##сий
##ское
##ч
##реди
##тельное
Со
##брание
##ump
communis
##face
raz
##ese
veto
Bryant
Six
Month
390
649
##lardır
Questions
##asan
Progress
Publishers
##ncy
##clo
##pedia
Thomson
865
##69
##sm
Sv
Assembly
Elections
##ctat
##ors
##riat
275
Congress
##put
Speech
##gra
Question
321
332
Fate
Democracy
894
Dec
##rest
Civil
Against
##lans
Meeting
Committee
377
##lai
Arnold
##33
##vor
##dono
153
##bye
##matta
Rada
##erse
##ils
otok
Socialist
##aries
Bro
##mble
##uch
##tie
##zino
Performing
Justice
##ation
Trial
425
##rsi
Contributions
ISSN
##85
915
Greenwood
295
111
ei
##dl
Karma
Hang
Sylvester
Brigade
Waffen
Schutz
##ffel
Junkers
##ufen
Augsburg
##tette
Holmes
Christ
Sibiu
##nog
Nach
Rocco
##ffre
Brandon
Iron
Ferrara
Princess
Ferris
ing
Émile
Senato
veka
##leten
##pé
Henriette
##gler
Schumann
Gaulle
Sien
Ik
verlief
Carter
Craig
How
Harris
##sby
Lily
Playing
Megan
##feldt
enjoy
adventure
Ventura
##vara
##eret
##lter
Stella
##venir
Lim
Lemon
Jaime
Why
##lean
Single
##vention
Monday
problemi
metros
Ever
Mets
Mandarin
##ştuğu
##book
Lorenzo
Bird
mara
##tonu
Right
917
555
019
##down
Barker
Wayne
Brady
Up
Legenda
##ddy
Shannon
French
Among
Gori
##llas
tenis
##race
##ppi
bayan
pull
sela
##ured
##HD
Bowl
##aren
Pub
krav
Suit
##cla
Flight
suit
##guen
ig
McLaren
Challenge
accepted
##tau
##gh
Eve
ED
##fan
Land
rep
##rist
nominee
Telegraph
##posito
things
learned
Tribune
1409
##yli
##meno
Hale
1063
sala
1071
##gir
##jen
Ars
##ousse
Bai
Niki
##foro
1073
Irma
1074
gaf
##aat
##rud
##hru
##gah
verse
##tima
##nini
gan
##imet
##fahan
1085
1086
##ega
##glia
Mantova
Bio
##industrie
Grande
Bologna
Lugo
Romagna
Enn
Nuova
Fontana
##dda
Ima
##onn
Im
##pian
Motte
##ggia
SI
Monte
##bello
Vice
##ntino
Breda
ETA
iştirak
metall
##rost
hadde
Energy
##sico
##big
##ego
Padova
##jil
Green
##tiga
Ex
treni
Side
##lating
Giorgio
##garo
Udine
##ampa
##iga
Alessandria
Morte
##cio
anni
##fig
Lodi
##enza
Ponte
##ggi
##uso
Belle
Campo
Pesaro
BV
##esa
If
##ilu
Italia
Turismo
Property
Solutions
Are
##volta
##dun
Margherita
Forte
Village
##ssar
##inti
##nare
Bolt
##iere
Cast
##enu
##ovo
Castel
Maddalena
Sten
president
##ceg
##aglia
passa
presidente
ai
vert
##fin
##zett
mercat
##fidata
figlio
Düsseldorf
Deutschland
##ain
Steel
Dudley
Midlands
UK
##phia
Bishop
Damascus
Bright
Birmingham
Pittsburgh
##nha
USA
Alabama
##hea
Illinois
Mills
Usa
Ireland
Austria
Bremen
mine
Lei
Tee
kang
sac
##bor
Doha
Gulf
##anga
##zhou
##gic
##hina
##vest
Shanghai
Cluj
Romania
1096
Bourg
##enay
##ztu
112
1095
mai
1101
Toulouse
1110
##sung
##suki
Khi
Salerno
Bao
Pons
1119
Gibb
Chronicle
##cted
Translated
arra
##ail
Warfare
1097
119
Barnes
Noble
566
769
Dân
##cuma
Silva
##uko
118
202
Islanders
Look
Better
Spring
1192
##urt
##raa
Salt
##pted
1143
##gt
##imu
Qui
##llia
hr
##oun
##chem
Warren
Crescent
Faith
Lagos
##uke
##thal
##ugh
Terrace
Appeal
Guardian
##ists
moderate
think
extrem
ян
##ець
Под
##іль
##ська
ф
##орт
##ец
##я
Stary
Kami
##eń
##ols
1672
1699
1648
1654
1204
##hede
1261
##pir
Mora
1299
1380
1400
##op
##lani
1396
1402
Ferenc
##ltan
Nagy
Las
Ist
##osi
Emil
Tibor
##nyo
Coach
Kira
Baja
Gyula
Nem
##hidi
##cz
Antal
##uti
Nada
##sir
Attila
##sz
Novak
##inger
##gyi
Boga
Papp
##aro
##egd
##mai
Dall
##cze
##ely
##sze
##pad
##latz
##klos
##eny
##vac
##czka
##jd
##cs
##vay
##nky
##rany
Fekete
Imre
##itra
##ffy
##zek
Roll
Sit
Oro
Lajos
##orem
dayalıdır
patent
mall
##andu
##kette
##bati
##gul
##cro
mogu
spin
hot
##ging
Idaho
IOC
Velika
##ča
Велика
Хоча
##anja
Everybody
Automatic
Haiti
Disaster
Emergency
##jit
##pari
Kahn
Swing
Have
Miss
Wilkes
Sinatra
Everett
They
##upi
high
definition
rok
fail
##hul
remix
Cleveland
##sede
Crazy
Eight
satt
Superman
Monique
Coleman
Gets
Bang
530
##by
##num
##bers
ratings
awards
dro
##wn
competition
406
Nova
##oš
Нова
##аро
##ш
ي
##ك
وار
##وش
##ŋ
Š
##dija
##lati
XX
758
982
Seth
FOX
Roberta
Choice
peoples
##cho
vote
##now
Ako
Bij
Би
##је
آ
##ق
او
##وه
Sf
562
592
808
985
334
136
Kristen
Wings
##ront
book
partner
##zá
mos
##sà
م
##ست
##عر
##ب
latin
Late
Romance
Carol
##ingia
156
##cano
##enda
Tibet
Lama
sang
Anand
Sang
##sang
Trip
sut
Elm
Lotus
##dhi
##sed
tant
izd
##but
Dalai
##elu
Buta
Nepal
##kki
Bury
##aty
##yki
##zong
Opera
Assassin
##nting
Armenian
Genocide
##blished
Carolina
Chapel
##rkin
##rona
Վ
##եր
##յի
##շում
##ներ
Cairo
##aper
Independent
Also
posted
Horizon
Weekly
Tal
##enberg
##osia
Past
##aan
Natal
Weimar
Theodor
Sanders
##iky
##nka
Fresno
selv
##ign
##hani
Raja
##oka
##haya
##pita
Gand
##hara
Hindu
Male
450
Bhutan
##many
Vietnam
Fellowship
Buddhist
##hun
Games
MM
##OR
##PG
Mass
##player
LE
##nga
DP
##lkan
DE
diri
##lte
pag
isa
PV
Player
versus
BE
kritik
##efe
Elf
elf
##gara
##rgo
##ώ
##ργος
##αν
##γή
1556
##gri
##cola
Georg
Bauer
Herbert
Hoover
Homo
mayo
##oso
Genet
homo
##tista
gen
genom
##chia
coli
trans
ATP
hel
GC
##pro
fila
##erbe
Holiday
##fit
junction
##lice
patch
branch
migration
→
3i
strand
binding
##mente
##klik
##eksi
##strat
##lide
##isma
rady
rear
##ement
Mayo
ass
non
NH
##UB
G1
tomu
##sada
fos
SB
heter
##gs
##lica
RP
afin
##51
##placement
loop
nic
##king
rest
##riks
Saw
deles
##taje
break
induced
replica
telo
##atan
##onta
Bloom
Werner
Roth
BL
WR
##igo
##mbina
341
amino
HR
230
##logen
DM
Gia
##rdia
##jini
topo
proti
##stal
##cchi
Oliver
ras
##ssel
statistical
coup
analysis
iso
##pre
##noi
##erad
##omb
##inas
sito
BC
mate
##nom
##gono
ζ
etc
integral
Dutch
clean
Engel
TOP
##ulas
mathematical
laboratory
matrix
Mexico
##view
Gaston
creator
Maple
Analysis
Computing
Sage
##wl
Packard
Instruments
ACT
PL
class
Board
##ject
Tests
##culus
Physics
Petrus
##azione
Pietro
##ello
Sanz
Romano
1514
##tikan
##posto
Rafael
##pulsion
##lio
Temple
##grip
dra
Hannah
Oldham
Bow
##skop
Ghost
Advanced
Clancy
##oft
shoot
##36
PS2
წ
##ყ
##ა
##ლს
##ი
##მე
##რი
Umum
ز
##ي
##غال
##سم
##ალი
##kia
##lts
Ц
##кал
##ци
##мер
Köyde
okrug
##tok
793
##zata
##dze
##vali
##enti
##olt
827
Ğ
XIX
Batu
cet
##veli
274
nahi
965
189
ilköğretim
ocağı
şebekesi
##eln
##éd
##rao
Dio
Burkina
Faso
Twente
Eerste
##nei
##jder
Utrecht
##wijk
ido
Abbott
Costello
Benny
Leave
Beaver
Eddie
##kell
##bility
Gap
Reverend
Timothy
##bber
##cast
Gábor
Duck
sitcom
Films
Broadcast
Maguire
株
式
会
社
ソ
##ニー
ミ
##ュージック
##エ
##ン
##タ
##テインメント
gai
##sha
Ent
##mento
BMG
merger
Bert
##els
##mann
anime
Anime
##lex
Capcom
Fighter
Wes
Kopp
##rts
graf
Sander
Sahara
Epic
Simone
Simons
soprano
brutal
Beauty
Beast
Quarter
##sette
##plain
Politics
Culture
Political
Behavior
Routledge
143
Disney
Television
Playhouse
ESPN
Alexis
##vall
1872
Seit
vel
##tä
##järvi
1859
Vilhelm
1863
##qvist
1865
Numm
##isu
##utar
##rlo
ly
Ein
##oju
##vaar
Halo
##ämä
##sent
Boden
##see
##ried
Konstanz
Raven
##sburg
##garten
ud
Musik
##nser
##fte
##hida
##اه
605
071
Que
Sciences
##uche
Vasile
Николай
Васильевич
##ар
##поль
##uja
##zni
##żnica
##jni
##ntre
Orte
##lius
1527
1598
atlas
Orbis
Terra
1570
1550
Gerard
##cato
1560
1575
Arabia
Networks
AR
Serie
SD
ekstra
Nile
hai
dana
lady
##icum
##shire
##poli
Sheffield
##stat
Anglo
##bau
Fuck
Inn
##viertel
##dorf
1070
##ock
##für
##cama
##iem
##czu
Karim
Lublin
##tat
##cah
Mama
Pola
##liko
##mah
417
1580
##lley
km2
907
konte
##nja
##uks
147
##ckt
Cain
visual
##jing
Moon
##esu
##nett
una
Okinawa
Ryu
Chopin
Heaven
##osa
##ften
Cie
Resurrection
##zé
##rable
extended
RI
Osaka
Shock
Wave
Illusion
Sora
Kot
Requiem
##sce
Another
arena
Diplomat
Hands
Moving
Together
Taiwan
Philadelphia
##keta
Kingdom
Ono
Sai
Saga
Kōh
Ut
Sixth
Seventh
##ute
album
alternative
Mobile
Zeta
Gundam
##oze
Todo
Osa
##rez
Dome
Korean
##ncing
Rede
##mption
##tako
Beach
California
##edik
##club
Oricon
ls
Store
Greatest
##ography
Exchange
Beijing
##igata
Dear
raised
donated
Connor
Chronicles
Seoul
global
##away
Flower
Rider
Journey
Through
Stay
Ride
##sne
Thank
eo
Samurai
theme
Nippon
Crown
##hiro
Chicken
Bochum
240
##iac
tsunami
##voy
##okan
participated
fourth
Theatre
6th
Asian
Major
Baseball
Madagascar
Sei
Corporation
modellen
##pso
lord
nn
Perl
Brain
Revenge
Dragon
Nest
##natural
Animation
##fiti
##pest
also
voice
actor
animated
Basa
manga
Moonlight
##aga
Aku
Takashi
##meo
##dae
##inada
Grönland
Mate
##matik
harm
##ntal
formal
Frankfurt
##hes
Dy
##dahl
Python
GPL
dx
##grama
##rose
Cox
##eter
##nkin
##irse
##aille
Qin
Yuan
##kai
1311
##bris
##rkan
Madonna
tend
Raphael
seg
Amor
Dual
Stargate
Sci
##gende
Johansen
sed
Rush
##ende
##reer
##kut
##pin
Ones
Janet
EMI
Enough
Dark
Rhythm
##ME
best
Member
Fame
vila
Mond
##tual
System
Lone
Ranger
##kins
Michaela
Alla
Levine
Jefferson
##över
Ester
##alde
Bord
##ettu
##atti
418
##hti
Amb
mert
##lha
Bumi
##hmen
Mansfield
##erre
##tuna
##bria
aras
city
1835
Ida
##tteri
Glasgow
##mist
##iu
kn
Rufus
Tudor
1541
Border
dea
Dent
##wg
##app
Ferguson
##prime
Holdings
Box
Sheldon
Gray
Northern
Eddy
##oba
yta
##tade
##moor
mars
##liner
Heavy
DB
Rail
Direct
Services
operations
##pai
DA
DO
##UM
493
##tives
Problem
##ihin
Sami
Nota
##buri
Bat
##ertu
##phi
musik
##fond
##aile
1300
Kada
Fay
tok
alfabet
cu
##cul
##latus
##taria
##fürst
ali
Zool
Theater
Europa
1542
Berliner
Stadt
##schloss
Joachim
ulaşımı
1685
„
Plan
##éo
##mét
environs
Friedrich
Chu
##sten
Damm
Bismarck
##romo
Café
luna
##ogische
Garten
Mitte
Potsdam
##platz
Buddy
Bears
Hanau
##bne
Amar
Donau
##esch
Weber
Schoenberg
Hochschule
für
viola
Maler
##äng
Propaganda
Goebbels
ato
##kre
organize
##versa
Musical
Composition
##eru
Lexikon
ä
##ötter
##bezeichnung
LG
Oriental
##vanie
##lony
Inschrift
##hz
##witz
Wiesbaden
##tani
miz
Peng
##uen
Um
Pass
##chend
objekt
##erti
##velle
Aisne
Somme
##mura
##سام
##ري
##ّ
##ون
##رة
جبال
ن
##اب
##لس
##kad
Krieg
##verdi
##enstkreuz
Bundeswehr
##ckel
##bula
##tia
Lau
Aude
Haute
Normandie
Rivera
Bogotá
Nei
Mateo
Escuela
Inst
##ctores
##gue
Venezuela
Cunha
Amazon
vor
##ági
Tierra
##loni
##agi
##clin
Hospital
Merlin
##nium
Marks
Julia
Sparrow
##hawk
##lton
Bailey
sight
Travel
guardia
Provincial
Eliot
1869
Lew
Thornton
1830
##YP
##CI
##TD
##dam
Abs
##éru
Maurice
025
Ellen
André
Nouvelle
Athènes
##hala
Blake
Crane
absent
Consumer
Walt
##zing
intera
##gios
##lín
##سوق
##ذهب
##قي
##سار
##ية
454
##iin
Market
Lonely
##plane
Amsterdam
##usta
##iman
##rans
zemi
##sula
##hei
grau
ns
##phere
term
505
121
398
planet
chapter
water
cycle
ps
##mb
##53
Dave
##ST
##water
science
nasa
earth
ocean
physical
##wr
info
hyd
##rology
cgi
##atur
525
##dose
eva
##vek
fosil
##geo
fundamental
epic
aw
1635
##200
##dros
##poda
386
338
##cycle
##sum
ft
165
IP
##CC
##zeti
##02
##64
##cc
documents
##bank
cura
362
##83
climate
change
understanding
risks
making
smart
investment
decisions
study
hin
greater
threat
extreme
weather
±
library
675
mission
pages
aq
##uari
data
year
centers
nor
retreat
##iers
center
objects
°F
nl
Current
Pages
##wijd
##kken
##vang
##rond
##dt
##iegel
##cate
##rtu
air
##chemical
cycles
ph
##71
ohi
##oline
ae
fact
046
hun
##22
##droj
##zos
##enden
##91
##otes
solar
books
google
lb
##NA
##rody
##nami
wind
atmosphere
Vai
Bath
wikipedia
wiki
##lala
##xima
570
##eos
philosophy
people
faculty
jam
les
xe
##ptic
iu
##azo
##mena
##gora
460
##genes
Plato
Aristoteles
##ogie
actes
dell
1799
1858
Laura
1812
Giulia
Giovanna
Napoli
Flora
##anse
1857
Hilaire
##mita
huy
Sutton
Baum
##ann
past
##tice
Velázquez
Goya
Gustave
Honor
##umi
658
##cam
1881
Jacques
Durand
Rue
1818
##uer
##rton
Piet
primit
Jade
Lorraine
Font
Romana
Coppola
Non
Bella
türk
Renée
##wege
Avery
##vene
Augustin
##stria
##stino
anar
##lib
##ledd
##maa
##rif
1866
mag
metri
##fold
3D
portal
##GS
##YS
##ptive
##culum
sebi
Hood
east
Oregon
426
429
MTA
##suke
Without
##zena
Bom
##amt
##tsch
Mittel
##stelle
acentesi
Allgemeine
Lebens
##gruppen
Lorenz
Darwin
##oco
Deutschen
Kolonia
##lver
##deutschen
Verband
Flotte
##verein
Raum
Haus
Kant
problema
termin
Herren
Landes
Hess
Zeitschrift
favor
##vind
Mein
Kampf
media
mein
Lands
##reda
Süd
Danzig
##ridor
##gall
##missar
Ukraine
Groß
##deutsche
##iton
Ved
##gama
gamma
##erst
Krone
delta
Riemann
Viking
Raleigh
##rtar
##lation
Kirsten
Maps
804
496
Sea
##mentar
Materials
Micro
##ect
Reuters
##stor
##ror
akademik
##nelli
##ash
##burn
Proceedings
Conference
IL
970
Newfoundland
1497
Cabo
##lios
305
304
225
226
Frederic
Auguste
##ater
rod
##lao
1862
##lgare
##NI
##DO
##Ä
##RT
Genetics
Geography
##stica
Reviews
441
##CH
Character
##istics
##vement
Rene
##wed
Interest
233
##OS
LAN
##TS
##OT
##UE
##HL
##BA
##ISE
##quen
Consortium
##hold
##cient
Access
Genome
Physiology
##HA
##RA
Diversity
ssp
Koch
##ions
Genetic
Resources
##UR
##IR
##DI
KO
##UD
##porta
Perspective
Annals
Botany
Intro
##bani
##AT
dio
##stre
FOR
EL
##ERO
##HI
Application
Molecular
Marke
##otic
##erance
Experimental
721
774
297
##ON
##RD
FL
##AV
Isola
##ility
Novel
##ature
##verte
##eat
Genomics
285
neo
DR
Handbook
##tary
CRC
601
##pala
436
trop
##ölle
##LL
##IV
##IA
##NO
##IG
##NE
Integration
Based
Link
184
##EF
##CO
Approach
##ologist
CAS
##TI
##GL
##ION
##VA
GE
CR
##hyl
##omosom
##arra
##ments
##tructed
232
215
222
##Á
##Š
##omos
Labrador
Leif
Mail
##uses
##anas
Helge
##stad
Canada
Kris
##tof
##finden
##imen
Dorset
##æ
saga
Brunswick
##nou
##nari
marks
##hari
##krit
Luna
Boyko
afl
##bern
Verdi
##liano
Kark
##wari
##vice
##nike
##yawa
##hada
api
##uwa
730
Was
##bart
stel
##wana
Tuhan
##was
##mme
Ruta
729
##manu
##manes
726
722
681
##ria
705
Ia
##ial
##inu
718
Matti
717
715
##wand
713
##zina
##qa
##rta
709
695
##wat
Karate
##wice
702
703
##inen
##rua
Nag
##lende
##isia
##iale
696
Phase
##rzi
689
669
679
##utti
674
676
ua
Part
##thy
ap
##pal
668
627
651
585
ψ
##moni
γ
Euler
##owi
##egu
tele
Δ
operator
Gauss
algo
565
##geri
hus
paral
##eld
A1
C1
Alma
##boj
##TB
##EE
##lyos
STS
##kce
##inat
##antas
cd
Tucson
Arizona
Stig
##τί
##γμα
Sigma
##στ
##μια
Asti
##nomi
Detroit
Michigan
Harrison
##poon
Tonight
Carson
Alf
PJ
##riti
ice
##box
brother
##xar
Monsters
UCLA
Judith
Alfons
##rias
Rosario
##vern
##zici
Henrik
Ibsen
Benito
Pérez
##dós
loc
casa
Sánchez
muertos
Mundo
Rosa
##rino
Argentino
##cide
Alejandro
##etud
rosa
market
Care
Enrique
##rvo
Ingen
##iero
Uruguay
Montevideo
Juana
##bour
Horacio
##roga
Lang
##uid
##guas
Viva
fem
siete
Nación
Ramírez
Félix
Mercedes
Libertad
Nana
##usko
##ced
##ades
Andrés
##amar
Aquino
##fah
BK
Yen
##enal
youtube
##ngin
鲁
迅
Wade
Giles
##ǔ
##ùn
##cian
Zhou
Zhang
Feng
Chinese
Fiction
Moll
1571
1641
1597
##hd
##tea
##zari
Find
##urre
Tin
uns
Singer
Practical
Ethics
##dige
dî
##ûs
Damien
vin
Olson
Different
Path
##dd
Neo
##nine
##dong
##dea
##heng
legal
##risti
##bih
##chis
##ju
1426
Renato
Anjou
1382
##vann
1435
Alfonso
##yman
1481
XI
1559
1423
1436
1442
Fernand
Alfa
1458
Giovanni
1493
1494
1495
Ferdinando
1496
Frederico
1501
Tours
1503
##rig
1504
Vera
Bourbon
Habsburg
1734
Parma
1738
1816
##licher
Stab
Staff
Himmler
Wolff
##wels
##ity
Aqua
##sier
Loves
Lopez
Luck
Nel
##eek
Savage
Holland
##ards
Funny
Pirate
##servation
##val
HBO
Bristol
##inkin
Showtime
Movie
Magno
1505
##rr
S2
BRT
##opus
##Ӏ
Salvia
##escens
ball
##iaceae
cand
##ssima
##lez
erg
##pite
Yoon
##ella
Piedmont
##ters
Lil
Moody
Nathan
Larson
metra
##sana
##ucha
##rsk
##noma
##guo
##ider
eman
Natasha
Nat
##galan
zava
##ked
ym
bahan
Tall
##nai
Door
##nac
Hainaut
##held
##nten
##ther
##vera
إ
##مارة
شرق
الأردن
1834
Martha
Sykes
Swan
Trump
##ington
Church
Premio
Formula
Brescia
Coca
Cola
Pioneer
Voda
##fone
Santander
Heine
##nit
During
week
special
revealed
this
movie
serves
even
though
aired
before
last
eight
episodes
season
exclusively
stores
However
neither
alternate
versions
disc
merely
original
contains
four
plus
version
##logical
takes
place
##gative
effect
##nys
##muth
Inca
she
dum
finding
onto
another
ultimately
successful
##elling
attack
killed
conflict
while
protecting
they
mountain
fortress
attacked
group
species
capture
##eal
##pressed
##ames
himself
##cta
##ntly
proceeds
towards
lair
empat
reveal
origins
working
cost
whole
everyone
Track
seal
secondary
asks
shut
anything
around
Cannon
##aster
however
sees
both
because
technical
##illing
its
intention
attract
trouble
simply
existence
returns
leaving
##board
replace
destroyed
during
hope
having
day
##lash
##bies
attacking
leading
XL
actually
4th
features
##erts
##erted
Gervais
Merchant
Marsh
Reading
Berkshire
stand
##mals
##ngton
Comedy
Cafe
##bli
Focus
Adventures
##sses
Leone
Joey
Cali
Lato
##inos
CJ
Toni
Tiny
##mania
##uck
Boo
Mae
Queste
Daisy
Chip
Weird
Set
Dublin
GB
Limit
Virgin
Australia
Celtic
Grave
Train
##otti
Less
Andrew
MacDonald
Kerry
Ewa
McGregor
##pati
zal
##noy
Days
Later
Sunshine
Quentin
Blood
Simple
##jden
Iowa
Fourth
Griffin
##hart
Caro
##thers
##ched
227
Castle
##llion
Beckett
Alberta
Edmonton
##eky
Yahoo
Movies
Trinity
Concordia
Juba
##aq
comic
##glar
Neve
Baru
##°C
144
191
##vant
alba
723
725
##nition
Support
Squadron
##SL
##gist
##apon
Stora
##veld
aktive
##abu
Quick
Lockheed
Aerospace
presidenta
republiky
##named
Pitt
##tian
Sebastiano
##sori
school
Method
Service
جامع
الولايات
1432
Palestinian
Territories
Rough
Guides
455
1344
mina
Mosque
Eesti
##gee
teolog
Luther
##lium
##õ
##pp
##lisen
Tartu
Ville
##nth
Andres
##dent
eines
seiner
##bewegung
Deutsches
Orient
Institut
Hassan
Language
##anti
Goran
##epe
##rz
##dab
##aine
##visa
##juma
##gik
##llu
Rei
##lja
Hendrik
Driver
Wheel
Interactive
Info
Color
Macintosh
Tanner
##aldi
##jda
FBI
Mackenzie
remake
##fish
cuts
##cene
##iria
Ил
##ири
##ја
##ssus
335
Derek
Shepherd
Anatomy
Indianapolis
Walters
Dis
##xia
Pitkin
NGC
##yıldızı
Herschel
1785
Palomar
inden
##ason
##erno
##ellan
SN
محافظة
بغداد
ii
integra
Catalan
Mouse
Mickey
Glen
##dale
Deeds
##abad
##low
##bire
Babe
Cid
##rella
##ame
Balkans
379
Order
315
Ace
Pet
Detective
##idir
##nières
##itt
Seu
##ich
##ös
052
Une
Gallery
Percy
Lund
##ries
Blanc
##vale
Fry
##aid
Monet
##voie
##cala
##quet
dimanche
après
à
Île
Société
##ants
##én
##éon
Tate
310
kW
motora
Cessna
##lowe
##hig
Pirates
Hollow
Aurora
Goodman
488
Caldwell
Coma
487
##teen
Points
Oral
043
Maximilian
Encyclopædia
Britannica
Edition
Isle
##play
##qu
##out
##sid
Francesco
##valli
##rema
1676
Brun
1616
Marco
1639
1668
nozze
1660
1662
Aman
Seven
XIV
jan
Claudio
basso
continuo
Nazionale
##koro
##fica
##rlari
liber
##etto
lk
##acy
Grove
608
##ove
Tommy
##alin
Chess
Florence
Critics
##bert
##aton
Clinton
Barry
Barre
Unlimited
Orchestra
Orange
##etre
Teodor
##isit
Vlad
Musique
##langer
grand
##ond
avec
une
cha
##uss
noire
aventures
Rabbi
Ту
##ла
145
Mohamed
##vitas
016
508
007
178
003
fil
##rena
tool
##eca
temp
Pepsi
##bok
420
sayımına
851
ἐ
##άν
##εια
##eia
limit
1735
Leonhard
##ioni
##onic
observation
Index
notas
1790
##eide
##äm
##mula
1024
2e
577
##dow
Ψ
intra
Witch
##unds
Bobby
Academy
Dramatic
##vive
Marriage
Field
casting
Susan
Blues
Hilary
Vries
Midnight
Pocket
Kod
kontroll
Rights
Watch
##ela
##ior
##gie
WORLD
helicopter
##tais
##е
##ани
##ма
##ции
Су
##ху
##мской
к
##лини
##ческой
бол
##ницы
скончался
гражданин
Грузии
Валерий
Ч
##хе
##тиан
со
##дер
##жав
##шийся
в
И
##ВС
МВД
##б
##ха
##зии
##sian
Cantor
Parke
Famous
Come
##dian
moc
##enta
NBC
Scorsese
Mister
Hoffmann
Für
##posta
poster
Hofmann
Reichstag
Bald
Garfield
##öll
folk
Markus
gitara
Hund
##puu
##iek
##unud
1021
Need
##õja
lau
투
##피
##엠
##eon
Junho
2A
stille
Again
count
Survival
Seattle
Doo
Only
Countdown
young
##veno
하
##트
##비
노래
마
##케
##팅
재
##범
##박
##공
##식
##beat
남
##성
그
##룹
##이
박
##재
없이
##인
##조
##로
극
##리에
최
##근
뮤
##직
##디오
tracks
두
##두
공
##개
##후
실
##시간
##차
##위
기
##염
Performance
KBS
MBC
Core
SBS
##상
올
##해
##의
가수
눈
##물
##펑
##과
영
##광
함께
##할
##터
spot
위한
특
##별
퍼
##포
##먼
##스
뜬
##다
Chart
##없
##는
##뱅
방송
첫
정
등
##극
Triple
##echu
##kje
어
##겐
##앤
##어
시
##청
##자
뽑
##은
최고
##가
##요
Waiting
한국
##하
##보다
더
심
##각
##한
문
##제로
계
##약
##지
소속
##연
##예
적
##합
##치
않
Choi
##촬
##영
완
##료
짐
##승
출
##격
##동
컴
##백
앞
음
##원
##킬
##LS
TOUR
kick
Profile
Line
Anno
##unce
Celebration
releases
cup
Flag
Bus
chart
list
List
kb
Charts
Albums
ranks
charts
reaches
Jang
Award
Contact
JAPAN
heart
jap
##anese
fans
Sapporo
##zira
Give
kill
Ultra
Lover
離
れて
##いて
##も
Even
990
USD
##gma
Hear
##rode
Classic
GO
Recording
Industry
Stat
Idol
아
##돌
##군
##단의
##녀
Bunny
Married
##ui
Liu
Three
##stop
Kick
Jungle
Fish
7th
Grade
##namite
덕
##수
##리
##형
##제
##gje
Hee
tvN
Cold
Eyes
Memories
Sword
Twenty
Something
Host
##sur
Half
EX
Thailand
Soft
Kind
Body
Shop
##bum
pasta
Samsung
Any
##ssant
Coco
##jun
Cass
motors
Calvin
Klein
Skin
Caribbean
##SD
CF
release
소
##시대
유
머
##카
##락
넘
##기는
모
##습
##도
섹
##시
##chal
캐
##서
라
##프
##드
변
##신
NO
Canon
코
##콜
##라
##주
##년
창
##립
##념
##행
##사
참
##석
listen
##rpa
##sens
Rancho
##onga
Kalifornia
Shining
Superstar
내
귀
##에
캔
##디
Candy
##going
##siste
KBS2
Yoo
Ils
##에게
##eun
正
FN
Five
Magnum
##gana
##jö
##vini
Kimberly
traje
Franjo
##lingar
Thu
##rá
##eling
##cock
##gines
Series
388
Kader
Bale
faktor
##ielle
##uza
##lzer
##iker
##SP
Cine
##evo
Kew
##ê
Deng
Mezi
##luca
##jle
##xu
##landi
##êr
Nasir
##rva
bakal
Search
Rothman
##ulos
##lā
kila
vok
##atina
##jeli
Benedetto
Because
Sings
Left
benne
che
Alle
##ghe
county
Lena
Stewart
Account
Houghton
Mifflin
352
Jenkins
visit
Lac
1752
Β
##ζα
##ζαν
By
##nah
Zeus
Hermes
##ylus
Prometheus
Bound
733
##eid
vasi
Poco
##lings
##uben
Herman
Adventure
##gues
Sgt
Soldiers
Act
Coalition
AI
##tend
##later
##organ
Collins
Encyclopaedia
Scotland
HarperCollins
Magnus
Alison
Kristin
Natural
Voice
##yatı
ane
##öta
pH
##cid
Odessa
##oss
Pablo
##grat
##cit
##östen
##ige
##sted
##lob
##rateur
##cias
##frika
##fero
राम
न
##ारा
##य
##ण
##ām
##ār
##ṇ
India
Mumbai
##dma
##bh
##usha
##rana
##ând
##pili
##gret
bus
inici
##ais
boca
Letters
##jiny
Brahms
vous
elv
Carroll
Sagan
Ingrid
Yves
Aur
##orat
Paula
##teris
##mot
Ferran
##icher
soundtrack
B0
Schulz
Hannover
TSV
Werder
##mé
VfL
Duisburg
Workshop
Sherman
##apo
Friends
##head
Carnegie
Well
Transformers
##sfield
Joaquin
Kern
719
296
843
##kate
Dynamics
Boat
##urus
पुरुष
##ो
##त
##्तम
ल
##क्ष
##्मण
देश
##पा
##ंड
##े
प
##ु
Bombay
##bai
Pune
##rgus
Willi
##vision
Wiki
Cunningham
##istor
discuss
Shuttle
Use
Wales
##heimer
Express
Rice
##ń
Stal
##yni
##iva
Bulan
Dit
Kerr
##bere
Gianni
##χη
των
##νι
##ών
Swift
country
RIAA
Belo
CM
Miley
Cyrus
Fairy
##tale
##hian
Kanye
Beyoncé
Ladies
##how
head
Gloria
Bieber
Cavendish
pili
##ektrum
Representative
Newark
Flesh
finalist
Pulitzer
Prize
Poetry
Singing
Ruth
Memory
RD
Gregg
Dad
Nikki
##eg
other
Paper
WP
Writers
Publishing
##ative
July
930
these
These
974
Burlington
Vermont
Local
reviews
still
England
##nima
CS
Opus
Vivaldi
1678
1741
pasti
##ccio
seria
##mma
musica
##ezen
Vegas
Magazin
##quel
##NG
##iq
production
##gur
IMDB
1704
Dresden
1779
Hof
1733
1739
Gross
vollständig
Lexicon
Günther
Ludovic
Alice
Cullen
Jasper
tipli
##ox
Agent
Conrad
Greenwich
vit
##lets
##chea
pal
parada
1658
Fruit
##ring
##ucht
##bringen
Gesellschaft
Spielen
##gni
##äfer
##phon
kind
volta
volt
##erare
##amen
Tesla
Warcraft
Blizzard
##erot
Kessler
Nuevo
597
316
369
169
##burger
##vde
Discovery
##takt
##vuk
faj
file
Sears
##lti
Della
Rover
1631
1397
1456
1768
Duomo
Filippo
##elles
Battista
Alberti
Kardinal
Nicolaus
Nicolas
Gavin
Martins
Maluku
##dr
Casa
Índia
##tino
##arian
Jacopo
detto
circa
Leonardo
Vinci
Eugen
1431
1447
##rust
1700
229
Carla
446
Niccolò
Conti
1421
PTT
Kärnten
Karin
ORF
Communications
Lan
##stone
communications
##uni
##fication
Partit
Dimitri
##isto
Management
MY
##bridge
635
##tki
432
727
545
lez
##ank
##celli
##á
##vě
##řich
##etan
Karel
Sabina
##vere
##çat
polk
##lemen
ary
##mill
##cata
Tobias
fur
##iant
flor
##aad
alene
##šek
##meralda
##čná
##mere
##ích
Há
##zot
##řen
Bend
##ík
ballad
##kles
notes
Anthology
561
Io
Curry
Cinema
##tography
VM
Gail
Sammy
##ifer
Singles
##rau
Been
Barrow
Ruben
Martina
##avo
##portant
##пера
##ция
##ут
##узов
##poly
##iono
##trin
Putnam
##dell
Salisbury
317
319
##strom
868
737
##phen
##olen
mare
##reat
Iki
Over
Bellamy
556
Rostov
Erich
motori
##bst
Das
Toten
##kopf
154
966
##ström
409
472
##front
kama
167
hende
893
##demann
##inkel
Toto
##pf
430
##guna
##som
##ole
##sund
##nimi
850
337
593
Stari
heb
##vette
Gud
Kemp
##cev
##sut
##tana
##tanak
Dominique
##lger
Corpus
Christi
##ricio
1519
Alonso
Álvarez
Pine
##rrak
##ivi
1848
Zach
1852
Keys
Celia
Ike
pars
Corp
Canyon
Tex
desa
Bluff
##allen
Mustang
Lake
Garden
Portland
Agua
##lce
765
442
516
Âge
##ñu
Salvador
Dalí
Dada
##ailles
##cte
##ète
##vins
Freud
lod
Rayon
##bard
Polk
fondu
##ndaki
##nza
Ella
##eague
ACB
Supercopa
España
##érien
##ël
RC
Olympique
##nais
##laden
##jić
München
Armin
Bielefeld
##omir
##lins
Togo
##zus
782
906
618
844
θ
##hammer
Fuel
moll
anna
ER
##UC
##pter
925
##kant
##stane
##buda
Hilton
mesi
##kula
Arti
##gian
kanalizasyon
deres
Yankee
##ceae
##νος
##éra
##nos
##ós
##cti
##rys
hele
dre
##vert
Class
##ique
effekt
Dominion
Songs
Sua
serem
Hampshire
##mpe
##uet
##oak
##buru
##ilus
1385
1469
Polo
Asiatic
Renaissance
Bulletin
1419
Zheng
1433
Xi
Decca
Vijay
Chennai
Sumatra
Malaya
Bengal
Burma
Java
Champ
1440
Their
1457
Ludovico
##etta
Cristo
1502
Fram
##pton
Superior
Taste
Quality
Romero
##vaja
serra
Anh
##euse
Busch
Bee
Cult
##uring
Brewer
##tka
Polska
Uni
##lever
Dot
##WC
Germany
Elite
Ecke
##nica
##lé
##leg
##boro
Zola
##dko
Montero
Federazione
Académie
##ques
Internationale
metodo
contes
Offenbach
opere
Opéra
Website
1819
Conte
##fasi
libretto
verloren
Spiegel
Jules
##bier
##ibes
Hoffman
##uir
##aud
##itati
##uden
Christophe
Kaye
Tales
##drag
576
##47
hanc
##laus
prima
donna
rand
##zach
##zani
oiseaux
char
##ındaki
Antonia
Miracle
##cen
##lten
##iul
##utto
##mie
##tuto
##heim
##ndola
##yta
##ichi
##ndo
nuit
amour
fé
Rhin
1864
Rhein
##xen
##msky
Webster
##Millan
##egg
##iata
vene
sopra
Earl
Turner
Gates
Blog
414
Dalam
##vole
##fers
الجزيرة
##باشر
##xt
1007
1207
##mea
##VI
π
lemn
##iska
Jacobi
##cim
##mua
Diva
umum
Neustadt
BS
Neumann
Eberhard
Vogel
Uwe
##mps
##iede
##lad
Schalke
Boer
Rijk
fat
##uras
Tenerife
Stuttgart
##beck
Lehmann
Teresa
sport
international
1518
##bc
##WD
蛯
原
友
里
chan
etdi
英
автомобиль
##ный
завод
##mski
##vod
##rista
##Э
##нци
##кло
##педия
города
На
##бер
##еж
##ные
##ел
##ны
Л
##уз
##нецов
##би
##шев
##А
##М
##АЗ
сегодня
Основные
сведения
##oll
##roa
##vig
konst
##keleti
1111
Sovet
ОАО
1600
##öst
Daimler
BD
##obu
##arin
Díaz
López
Hélène
opéra
bou
Théâtre
##tés
Oper
##rten
##puis
##amos
Jupiter
Juno
Minerva
Venus
homme
Fatal
hod
époux
reine
pou
gong
suis
voix
mène
Au
pays
fatal
##upa
##yth
##cend
1320
##nisk
##scheid
portes
##we
##chten
##tag
romane
##lsen
Egon
##ermann
kulle
Peterborough
##ipo
Lennart
Johansson
AIK
Blatt
##holm
deb
xx
register
Pärnu
Worldwide
CB
Broad
##band
Mine
Waterloo
##steries
##jali
Apollo
##ender
##sua
##lty
temat
##style
Knowledge
Rocca
##vista
##yasının
Raquel
Welch
Bond
Selle
蘇
好
同
盟
互
助
條
約
##говор
др
##у
##ж
##бе
союз
##за
##им
##ной
помощи
##show
##alim
NA
##atia
##lico
Airbus
A3
##zón
Palo
Frontera
Martín
Vicente
##ñez
1441
##quista
##hini
1499
##sola
##ción
María
Porto
1508
Ponce
León
Amer
##cci
Diaz
1523
1498
Día
##nalis
##rice
##bem
##öse
243
257
pati
Ballard
Wichita
Kansas
Rhode
sua
RMS
Titanic
DK
CV
Deportivo
Jerez
Estadio
##pí
statt
Intercontinental
dates
confirmed
##kultur
til
programa
gezin
navi
##gasy
Linux
Angel
Angela
Linz
##gade
##shaw
##tral
##friedhof
duda
Isla
kus
Row
NWA
body
Knight
Snoop
Dogg
Pound
Cube
##eline
##ammen
Cover
##nic
##uff
Daddy
##law
RB
##father
##rook
##LC
Reale
Spider
Eastwood
##awa
##ero
Neill
Drew
Youtube
##oot
alb
Believe
Guinness
##friend
Mina
Mean
Sorry
Stratford
Patti
Nowhere
IMDb
Sau
##vé
##itti
Timberlake
##vour
Richie
##preme
Smile
Hartford
Canadian
##jse
just
##eber
celebrity
status
Fair
Selena
Makes
lane
Guerra
Trend
business
854
decade
social
##dre
##ery
gola
Programming
Meets
stati
Unix
Pike
Thompson
declaration
codice
package
main
import
##mt
{
Creative
Commons
Maribor
Catania
##rmon
aja
##dari
IM
kiri
Himmel
über
Desire
VC
Wim
Wende
Hand
Rainer
Falk
##lege
Marion
trap
sette
##faut
weiter
nah
Robb
##ête
Chapman
Romeo
ARIA
Speak
Mode
##rato
B4
##tav
Fraser
Nathaniel
##orne
Scarlet
take
some
alone
waiting
there
run
##vori
Carrie
Underwood
Feeling
Teen
Arch
##rush
Incorporated
##ppa
Cross
##roads
Clear
##ose
Women
Dancing
Pac
##eles
Productions
Distribution
Conan
Brien
Highway
Health
##inne
Else
Butte
##lls
Doctor
##lante
Fútbol
##ún
##cens
MX
Quintana
Fernández
##abo
Queensland
board
JK
##ftar
BY
tendo
segment
##aniya
iii
Brod
primer
##ept
##mitter
##lko
anterior
intern
Horse
Dakota
##kota
2030
2050
##ół
Nevada
AN
Ά
##κι
##ία
##Ο
##Κ
##riva
eno
Winners
##card
##onis
Idee
##fix
Rang
Eun
moda
##dn
##valet
##stem
##tona
Sergio
Bone
Giancarlo
western
##owa
Sherwood
##kner
spiral
nom
##metres
##iral
##jent
≥
Darius
agent
Und
söl
Č
Great
Perm
Lotto
##matica
##ratas
Sarthe
##come
wa
##ši
Дар
Вашингтон
Forward
##ndada
1547
1853
Economist
Pino
##tne
##úc
##quer
##aner
estancia
chim
possible
##ymo
##chua
hau
##isa
toca
##pher
Magister
Nikolaj
Κ
##ων
##στα
##ντ
##ίνος
thema
##ronik
##arios
##mbol
##itis
##assen
ley
lor
keep
ward
hl
##wear
##sige
Dana
Diary
through
Hammer
##smith
##aming
##ppen
Private
Since
AFI
Duna
##rson
Eileen
MGM
##40
Satan
Rodgers
Jessica
Gomes
Perth
Illustrated
##wim
##uas
Emily
Playboy
Tea
Soccer
Tournament
Dubai
Durban
Castello
Tahiti
##vador
##cach
rum
oriente
##ering
##oca
##ching
Ulm
##group
satellite
nav
nan
micro
##ntas
mail
sile
Presley
Clifton
Laurie
##piro
Taxi
sit
why
might
alive
138
Episode
##ecta
Perfect
Crime
Patrol
Portrait
##arde
Blitz
Student
Schmidt
775
##lski
foar
Fryske
##nisse
Frysk
Rooms
亞
病
夫
东
亚
方
LC
Lunar
##rater
##nino
Vladislav
##times
Attack
##zii
Motiv
Enemy
251
federal
##jou
ت
Ang
titre
ako
telle
flat
##ajan
profile
Flat
Bassi
FAQ
strings
Notes
string
types
ground
wound
pressure
banjo
open
guitar
nay
many
Augustine
Strings
Gut
##rants
##iben
Policy
Allende
Sheridan
Poker
Nothing
onda
Telephone
Remix
Born
Judas
Glory
Joanne
Million
Moselle
FF
Schwartz
Gustav
Nabi
Keski
hace
##zew
##eux
Mines
Pas
Calais
Angers
Champagne
Reims
##fano
##±
##uskas
Stefano
##opa
Fontaine
Legion
Hon
##neur
##nies
Sole
Technology
snow
ethnic
##nics
##éni
##uture
fri
Vanessa
##grave
Joel
Richardson
Franco
Nero
##rsti
Alley
Howe
##javi
##рии
##л
##ома
##ович
Де
##рж
##а
##вин
1743
##uga
1784
##onet
1791
1802
1803
odd
##js
##zuma
Alien
Nan
Dub
Publications
Outre
Aube
tête
##oche
##cière
##ég
##rale
éd
Outer
real
##ott
##yck
##toma
går
accept
Amanda
Brandt
Elisabeth
Bacon
Wells
##fekt
1822
Middlesex
Rugby
##ield
noin
wild
card
Fukuoka
Crowley
Maine
Kentucky
illegal
Kumar
##taca
457
687
Axel
Wit
Martinique
Brussels
Marcin
##bbi
752
476
fit
##°
Armas
##zz
Djibouti
##mio
Photos
Joshua
forward
1430
##leu
Laurence
Olivier
Mystery
Hitchcock
##enz
##λιο
##walk
Jacqueline
##ssis
Thriller
Campbell
sy
McDowell
writes
story
Fred
##taire
Tucker
father
isn
easy
rin
##lasti
Motown
##rdy
los
##jas
lav
Geographic
Monika
Klaus
Erika
##lion
Monaco
Scandinavian
SAS
Greenland
##jef
Thai
Airways
airline
Estonian
##leet
flotte
##cie
planes
Lufthansa
Mário
김
##정
##일
##장
##군의
##chau
ŭ
Nora
##baru
##iol
##nymous
13th
rein
##viat
liver
improve
blood
##lucose
mic
tika
##dici
Parc
Senegal
peli
unes
1279
Midway
Mortal
Zero
Shang
Ultimate
##orp
Reptile
ninja
##borg
Prison
Figure
zero
option
##iad
##lami
535
頡
跌
利
施
可
汗
颉
阿
史
那
骨
篤
祿
笃
禄
##ǐ
##ù
shi
693
682
riva
Θ
##΄
##ον
##μά
##χος
##elj
##lj
Wolfgang
Amadeus
##piel
1838
Luciano
Kritik
holde
Leben
##lade
##resta
##zea
obu
##got
timp
##mul
forme
##zyka
##ware
Greg
Within
Britney
Spears
Mystic
1315
1190
##pasa
##sos
##zawa
##ips
Terminal
##ário
##cza
Dansk
##vn
##sor
##bogen
##jä
##ål
##ån
ف
##رخ
##شهر
شهر
کیا
##ن
Michal
AJ
##rance
Passion
Birds
Feet
Into
Kitty
Belles
Chemical
Claus
Minute
##entia
Thing
Bones
Secretaria
##vio
##pende
olar
Hunter
##rish
##ckle
Maastricht
Economics
##CS
standard
Juliana
Universiteit
Rand
##wy
Bachelor
tuto
discussion
Sino
Empire
##sion
Boyd
Mason
##ummer
Ferrer
##telli
##zzi
131
##ston
##elius
##wce
Frederick
Muller
##leder
meg
##lka
nominal
##cana
##tism
##aar
##esh
Forrest
Loch
Meer
1451
1452
##taba
og
##øm
##år
Harald
Madsen
##vog
Lauri
##tzen
senior
tomb
##onte
text
align
right
none
##auf
Piece
尾
田
栄
一
郎
##rō
##moto
Vicky
##kuma
Panda
##koi
Akira
Jump
Wanted
##zuka
Suiza
Police
Tomo
##dach
##uro
Gift
Future
Its
Boogie
sum
##ishi
Yuki
Kors
OVA
Fiesta
cos
Ina
Hair
Strong
Lakin
##diti
##some
UFO
Ulrich
Loved
##rive
Action
Matthews
##ffin
Julian
Morton
Verne
manuscript
multiple
klar
##eve
##lena
##ods
##eres
Wheeler
ensi
##öld
##tlen
Italya
405
##iot
Arno
##ären
Card
Amon
##ndor
##nost
Ett
##ena
##vlak
##dala
mab
domu
Nirvana
chemistry
plants
##bolic
processes
Haas
##kojen
JG
Biochemistry
##lance
Second
Malden
Blackwell
##→
##ewing
Academic
306
##stair
pol
applications
824
Augustus
uses
deriva
Applied
691
diet
health
benefits
compare
dieta
enzima
##klo
Fonseca
Mata
##gua
##gual
Fausto
Nacional
Acción
Popular
Partido
Socialista
##cara
Segovia
Guardia
Fidel
Castro
Honduras
Volta
##rise
Paraíba
707
259
811
Companhia
##rgi
Cidade
##í
##gge
Sao
Campos
##rú
Presidente
Vargas
##works
Futebol
Raul
Oliveira
Mechanics
##lanılmaktadır
ag
coi
Panama
Habita
Guyana
##ã
##reste
ago
##nosa
##holl
##curo
##nowski
añu
Vert
##iente
##zco
Hacienda
##dena
##uno
Valle
Pacheco
##mí
Perú
mines
##mire
mexicana
punct
##oat
rua
##ód
##ő
##vás
##ár
##hely
##ék
##és
##ád
##duz
6000
##ény
##dom
##usz
János
##ás
Á
##ány
##itatus
1552
1566
##ák
##óc
1703
1711
Miklós
##sé
Sándor
Károly
##má
1722
Kossuth
475
JB
##ough
Brief
audio
©
Electronics
Professional
mama
vet
##hurst
Philosophy
Supplement
##eding
##vores
THE
SH
OF
##NT
Volume
ette
##tery
dena
Rai
Cats
Biological
##riate
Raw
Homem
##raus
Whole
omega
Understanding
Omega
##sins
Trends
##tinen
Wise
Tradition
##aling
Denise
009
##mone
Veterinary
##nary
assessment
Salmon
infection
dogs
raw
chi
PMC
PMID
1205
food
##zko
Katharine
879
Convention
partners
practice
JAV
Burr
Overview
##omme
Designer
Београд
опера
##ција
encyclopedia
3500
present
Suva
Vid
##lici
Tito
Prinz
##uje
Bulgarian
Yugoslavia
Severin
##rter
##pista
Plana
Oder
Offensive
Operations
##alni
##IE
amo
MW
##wai
scientifica
article
deep
temperatures
power
energy
plant
##mang
Rhododendron
pont
funda
Erica
dall
##ühl
##ings
##wach
##ffens
suy
Catalogue
##ije
Bratislava
Astro
##sna
##bacher
Amazing
##teka
##GM
LGBT
vela
tem
Cork
Galway
Limerick
##lig
GA
Dillon
Reese
##bors
Erin
##chat
##uria
Down
##kian
Auschwitz
Horst
##mers
##pini
##100
##pland
637
376
324
1714
1664
1659
1693
1681
Agostino
##ów
Marin
##ński
1694
1695
1696
Michelangelo
Rathaus
##brücke
Brücke
Neri
##aus
##mişdir
1716
1702
Freien
##walde
Eo
1713
##hardt
##plant
Führer
Artur
##hrte
Battlefield
Rt
Croce
Edwards
Wind
Bunker
Guitar
arabes
Kiba
nos
Rainbow
turned
Meine
Rosenthal
Buch
##caster
##رام
خ
##مین
##ی
##etu
##στος
##γκ
##πα
##σίου
##hah
Gibraltar
1356
1473
Córdoba
Herrera
Medina
1476
1727
1729
1749
Isaac
Nieto
Abu
##lila
Jews
##ving
Krieger
feature
mix
ultra
Orthodox
1753
575
1777
863
1787
776
##gd
1724
Kane
1675
Sharma
##ctural
Aceh
Helena
Alicia
Watts
Guangzhou
##oor
Dias
##mig
##rant
##fuge
Around
162
##gard
Eds
##ang
Tian
163
2500
Carmel
Ezek
##iru
Entre
##ís
Jesu
##uction
##polita
1706
Universidade
Campus
Armando
Salle
770
Lorena
##unga
Ribeirão
Preto
Ranking
Higher
Education
##tric
Universities
151
##tou
##β
##έρ
προς
##Λ
##πο
##κα
##ψ
##ουν
τ
##ζουν
στους
κ
Οι
στα
##ρο
##μηση
όλων
υ
##ψη
##ίων
στις
ε
##γές
##ρού
##τικές
##τήσει
##ταν
##ό
##τη
γλώσσα
Έ
την
##Μ
##Τ
να
με
λ
##έν
και
τον
##Η
##Υ
##λου
##γο
##τή
Dialog
2300
##agh
NM
##yja
##jalla
##ýr
##kó
1666
920
1612
1823
Iceland
ticket
tourism
eru
##pts
##cua
areas
near
immediate
reports
damage
injuries
2021
2025
##venture
Mandy
see
called
##die
needs
safe
dock
streams
dangerous
##vente
##rous
life
There
trees
good
Mountain
##tock
yos
##aja
mand
Doyle
##apa
ena
##odie
vant
Willy
##eja
Rijeka
##šal
##nska
##šni
##ška
Wikimedia
##drom
Michele
Every
Fever
##read
Shopping
technology
##eco
1275
1650
Namur
##ogo
Sale
##rnu
Campania
##hola
1025
1360
##guda
##گو
##در
##ز
690
Taman
ش
##ند
##آباد
##tali
SF
##sheva
سر
659
##banda
0°
##ubi
Torpedo
##culo
tribute
Bring
##break
##onstruction
Kiss
Dollar
Jovi
Theft
Pack
pack
Audio
forum
##zora
kontrolu
Goa
1524
Kerala
##gold
Schreiber
Parade
##rail
Lt
Punjab
##dig
9000
ort
Telugu
Andhra
##rkt
##lies
4x100
IAAF
Blok
##ojen
##ugi
##iales
##gales
Entry
##antum
elektron
−
taun
proton
##nges
ner
Dirty
nada
Weapons
Sturm
##tige
Rok
Horton
Harley
Davidson
##blin
T2
koma
##itz
Hurley
Dawson
##bres
Metacritic
Season
Honey
Dyke
##loos
Loan
##gent
1817
Harriet
1826
##kere
Cai
##rnes
leva
1829
1833
##erea
1836
Southern
Messenger
Josephine
##verse
##biter
##eland
##ssy
Bonaparte
Bonnet
Editions
Newsletter
Rex
tatt
tongue
Whitman
Margaret
##mmi
1844
Cesare
##tah
Willis
Happy
##âld
Mirror
pel
Louisa
Herald
##GI
##GA
Stephens
Morris
ela
##ations
##kole
Lowell
Providence
##vers
Eleonora
##enger
would
gent
disease
##icia
tempos
dense
Melanie
fair
prince
used
##blatt
Brittany
##rico
Allmusic
ega
325
Adult
Contemporary
Mainstream
blu
honor
share
stage
Fleetwood
##oman
fonda
Leafs
Patriots
Molly
Trust
##عا
##غل
Said
##isal
kai
Gone
Clements
Treasure
##ruit
Sheila
Kelly
##rge
آباد
##ه
042
ا
##قل
##ید
497
Matthias
agresif
##gno
##gers
Animal
##gens
##inta
delen
##də
##lən
stone
##æk
кам
##не
##лом
##ка
##ено
##ngere
tabla
fin
Disk
Camera
dei
##putati
##gant
##rza
Canton
Lecce
Riccardo
##seks
Alessandro
Fantastic
Carmine
IB
ish
##enter
distans
##tuva
##tros
##istent
##omina
##nee
##veg
##uilla
née
Clifford
Paddy
##gging
Ubuntu
Shine
##jara
Sofia
Hann
Corpo
Castell
171
##sidir
Rebellion
Mais
##BSD
stabil
2400
emerge
make
porta
binary
Sugar
Auckland
##rka
Jerome
Banner
Cyril
##GP
##jima
ان
##زل
پهلوی
geographical
entity
##Ī
town
inhabitants
mainly
##zali
Yr
##vila
Paige
Tampa
strip
Aber
##mbi
##utica
##bban
Eagle
Townsend
Trap
Jenna
Dewan
Mau
Hawaii
Kriegsmarine
tona
Gemini
846
U18
U20
U23
U2
##bata
Prema
##ture
##paper
zif
Gerald
Writing
burial
19th
century
Prevention
Folk
##lore
##ieu
961
Einsatz
##gruppe
Nr
256
Nuremberg
##gonia
##zami
reda
Kino
##rej
Qara
##mert
##fels
##sker
##lıq
num
Ин
##тер
##К
##мос
Latvijas
##īz
##ija
Rádio
##são
RT
Rui
África
Açores
Madeira
##ória
Antena
Lithuanian
Carlyle
ang
##vinen
Run
flora
Icarus
Brody
Jennifer
Domenico
matrimonio
segreto
1792
##ló
Teatro
##oren
conte
##dau
##stro
1774
italiana
##icio
##vito
pietra
##erina
amante
piece
##ahe
Arte
##ktas
eye
XVIII
##ehn
##graphic
##abel
Ə
##rəb
##lər
və
117
fac
##city
1465
1531
##ksud
Cele
252
XV
Groove
Ryder
Smoke
Families
must
##ification
Technologies
KC
293
##59
##ô
Lucas
##guer
Americana
##heiro
##Ô
DOS
Botafogo
Paraná
Hyundai
##nita
##pore
Flamengo
Portuguesa
1721
269
Dane
##örte
1710
1740
Rule
Britannia
Beste
Cove
Fest
Susanna
##mond
1776
muzik
##quela
1808
yangi
1737
Cecilia
Chance
##axe
##xes
##sai
Fulton
Benedict
Мир
##зак
##ари
##м
Сан
##аку
##рбе
##ков
##lines
##smas
##hrys
tenth
sale
Orchidaceae
##redo
##nidae
Hymenoptera
Tyne
upon
##ciel
##lagi
Fabaceae
Acacia
Vos
##kui
Polizei
263
Prins
##tive
##vende
Beatrix
##gies
JPL
Database
Ehren
Systems
kiti
Build
Data
EE
##laze
Mozilla
Eclipse
##ML
XML
EC
##cript
##lge
HTML
JavaScript
##quest
##xie
Suite
inte
COM
Гл
##ное
##аз
##ве
##ды
##ват
##ельно
Управление
##lavno
##vate
Fact
intelligence
##lenie
##udo
##teko
##ilis
brown
snake
##reng
##hren
##gine
affinis
gut
##tata
modesta
factsheet
systematic
review
##pente
##inae
Zoological
Linnean
Heft
##tract
taip
Doug
Donnell
Hutchinson
##xy
central
Zootaxa
1422
habitat
mg
environment
au
publications
fauna
aust
pub
volume
2a
pt
inland
##taker
Chambers
Vivian
assumed
mother
maiden
1920s
Alger
Sioux
kandidat
polo
Putin
Ethel
Roosevelt
Dix
Tennessee
Clyde
Dayton
CIA
##tins
Rossi
##ysk
Size
Rosenberg
Fuchs
Sung
API
Stanislav
Lune
Станислав
##уне
Joint
Arms
Command
Former
reaction
arrest
##ector
Large
populasyon
UNICEF
street
children
enfants
rues
niños
Calle
utca
##gye
copii
##ă
Straßen
##jor
##nches
##ája
##uter
б
##пр
##из
##ор
##ники
Batang
##ụ
##ời
Ruanda
Kamerun
##iques
##ntyre
sense
home
little
citation
##tio
Dickens
1855
##iis
##nz
Milne
##ened
##ando
Work
##lavo
Papers
##pling
##vro
Twist
##nke
Sherlock
##reg
HIV
##mii
doctors
minister
##tors
Hanoi
1507
Minh
507
794
Cause
##rowing
Economy
Greater
commitment
Vietnamese
needed
aur
sob
aver
992
minor
defined
younger
Philippines
Initiative
Them
generated
Philippine
squad
extend
reach
Somalia
states
rat
##ified
Broken
##barra
##ssed
parents
neighboring
##amed
##raging
streets
bear
attractive
services
provide
governments
implement
programs
generally
involve
placing
##nage
juvenil
homes
correct
##ional
institute
fled
institutions
most
cases
participate
##itum
##cula
##oit
##lidir
orientale
×
##hael
##anum
nap
##ellus
Republike
##chin
##dyn
##dov
Sec
Cycle
##halt
Compact
##dels
Growth
Moscow
URSS
484
005
urban
dynamics
Mathematics
Complex
##ieties
Edited
010
##éroe
República
Cuba
Balázs
Arabian
Itt
##ír
##oci
##éta
Eredivisie
PSV
Feyenoord
VV
Philips
Haag
Königsberg
Kaliningrad
Lagu
Heiligen
##lni
Duffy
##tense
##deki
Full
Reinhardt
Jäger
Elba
##heer
204
Frauen
archives
##deutschland
Hastings
##isch
##zor
206
##äcker
448
##meran
Sonne
##wende
##ąd
Szczecin
##enburg
Stettin
##lberg
Pomerania
Bose
##vona
Capo
##naceae
##roia
Mussolini
Alphonse
Extended
Sega
Gear
##ES
GameSpot
Producer
##quity
minimum
Chorus
Gods
##ening
Gardens
Horror
Sunday
Wife
Coastal
Altar
Boyz
Naked
Lotte
Pradesh
##tare
entry
##natha
Insecta
abdomen
poste
##elmi
Johnston
##ghi
Electronic
NFL
arcade
Kota
ante
##anu
##dei
##gidae
4500
Surat
##nkan
Weil
rich
now
settled
18th
never
known
nim
##brique
Nationale
polen
##heden
383
##enis
Indonesia
Batavia
Surabaya
Semarang
numbers
##TP
##duduk
254
Tanz
Tanzania
Visa
Parliament
Beim
Clemente
Alfredo
syn
##ths
Menschen
Freund
##baan
##mmel
Total
##lau
##kommen
iron
kamen
##ffle
rs
Religious
Freedom
Embassy
Astana
Kazakhstan
virtual
tour
##ache
Kazin
##form
Others
menor
Aux
##brate
Rasmus
Goldman
Orden
Playa
##ón
##út
í
Jurij
##č
TM
326
space
##cts
##bano
##naldo
Méndez
dosta
##olat
##emia
forming
certain
disorders
involving
immune
mechanism
D8
Minas
Gerais
Prato
quei
##jos
##bras
Kuba
rayonu
Monty
Deal
probleme
vos
Bertrand
Selv
##stici
Gardner
Scientific
Mathematical
##beau
Kraus
Whitaker
##rins
##tead
Logic
Massimo
Pia
##ttel
According
distinction
condition
##dition
situations
here
seems
others
inter
statement
asking
probability
winning
given
door
opened
host
opposed
overall
different
questions
answer
depending
choose
initial
choice
example
opens
then
switch
players
initially
cho
##osing
does
behavior
clear
whether
required
wins
equally
vague
Many
commonly
presented
solutions
address
chosen
false
conclude
consider
matter
analyses
looking
contestant
effectively
getting
behind
doors
win
either
##chos
makes
##evan
always
998
−1
##wara
Rao
quantum
##dox
##rates
relation
classical
information
##coded
mechanical
systems
loose
Quantum
game
theory
three
replaced
allowing
alternatives
opening
translated
particular
measurement
rules
stated
language
once
again
stick
latter
strategy
turns
chances
case
random
##ized
position
prize
fully
better
sometimes
Aria
##babil
##ités
coin
decide
prisoner
##done
question
knowing
changes
equivalent
chance
fast
trading
boxes
selection
very
appeared
later
published
Perspectives
Phillip
issue
magazine
titled
calls
treat
relate
concepts
resta
column
Though
gave
two
estimates
received
letters
including
close
signed
PhD
letter
mathematics
departments
solution
wrong
response
##cedent
columns
result
earned
##ious
took
Straight
##corre
##ct
remaining
each
wrote
agreed
been
said
critical
##ints
##tated
without
those
necessarily
readers
claim
considerable
attention
interviewed
understand
giving
reporter
demonstration
keys
explain
actual
differ
##zzle
papers
academic
journals
popular
survey
##taining
closely
related
problems
continues
academia
##dicated
NP
featured
weekly
quite
clearly
explained
account
Hungarian
math
##tician
##dő
encounter
found
like
discussed
perspective
syndrome
##rious
##ident
novel
addressed
lecture
character
Charlie
##ppes
episode
Jill
Theme
Hour
radio
appears
Bloch
identified
hundreds
experiments
cognitive
disso
##nance
use
issues
involved
##stol
##ochia
kust
##ît
Corazón
##ovan
##batas
##osan
##hips
817
748
557
ezen
hand
##dista
Patton
M6
##argo
760
1825
Hamm
1843
##vih
Hits
Slow
Keep
phone
Mariano
1837
##pron
##lía
Figaro
pobre
##cito
habla
Iris
##rilla
##orí
Una
##oja
а
##вт
##стра
##ю
##лин
Organisation
##ρια
##κός
##γα
##σμός
##τισμού
EK
##dati
Kenya
Chamberlain
Uganda
Nairobi
Uppsala
Pizza
##dance
##web
##lung
烏
倫
古
河
river
dictionary
##ngar
m³
##trale
avo
##ull
Poll
Production
Wir
Pascal
Turing
ET
##ical
Potok
Lights
Clay
##wis
##rary
jsou
south
Yong
jer
##umm
##vous
##βο
##σα
1645
1669
Tomb
1828
Document
Software
##ief
Aktion
Dachau
##chter
932
Helene
Schloss
Fisch
##غ
477
Flensburg
Regierung
##mando
Marshal
##sni
Lübeck
Holstein
Lutz
Wegen
##tora
hain
Eisenhower
Heer
##mare
Ritter
Gast
Hannibal
Case
Breslau
Schleswig
##lop
Karls
##horst
Zhu
##sig
##atz
Oberst
Befehl
##rtier
Berna
##dotte
RAF
##stis
Serbia
Montenegro
1455
##chreibung
##lje
##jet
##lagen
##druck
Vie
439
Holocaust
##odan
##ević
Če
##če
vand
Fuerzas
Armada
##cionar
##ncio
Batista
Angola
##choa
بخش
لا
##ل
##جی
724
506
##itu
Hoy
komun
##biidae
Coleoptera
##biu
##atum
##esto
Pt
##nico
##rnis
##bius
Larva
Scarabaeidae
larva
##orax
Ante
Prost
##omen
##nili
deler
tos
toe
Ebene
##dron
860
##yik
##kua
Giro
##ύρο
Από
Ό
##νει
Greece
##risk
Logo
Ipar
Iso
##lass
##ios
##rso
##sika
Greek
##oha
Kathleen
Preston
Tourist
Wilder
Inde
##dern
##puri
noir
##duction
Lowe
##nstein
Edmund
Kraft
Saunders
Teddy
##utta
Shot
Riot
Coventry
Indie
Rocket
Oleg
Олег
Владимирович
П
##ень
##ковский
KGB
340
485
cited
479
##ynt
Omaha
Nebraska
Barnard
Immigration
Commission
E3
##hten
987
Liechtenstein
##pone
blues
Publisher
R2
alpha
teste
##nect
torre
Outlook
Explorer
Firefox
Chrome
Safari
Start
Witt
IEC
##ument
Format
postala
##place
Visual
Applications
batas
##riak
##ριά
##κος
##νου
biography
sprint
##ulli
##ρκ
##spartei
Nový
##ů
##éri
Saxe
##burgh
1761
Christoph
##bald
1763
1764
##ward
Václav
##rven
##hota
Martini
Emanuel
Federation
Associations
Zealand
FIA
##rón
Very
##give
##iou
Wait
##pect
##ously
##zato
Italo
Einaudi
stem
leaf
plot
##plot
245
Dalla
•
236
652
alta
ש
##אול
מ
##ופ
##ז
##ا
##ئول
##وف
##jul
Cerambycidae
th
ov
Madagaskar
##ngu
##vot
##sels
Northeast
Mitch
Khalid
Sheikh
Kamal
Abdul
Wellington
ett
##date
Armenia
##abteilung
##stu
חיים
הר
##צו
##ג
Belfast
Herz
SAM
291
789
468
2022
##unti
Allison
##kelen
##ught
Bean
##vad
Morgen
##runk
##enheit
##chie
##heit
##indo
Guadalajara
##juana
Puebla
Abū
ʿ
##āh
ع
##بي
##د
عبدالله
بن
العزيز
##كر
Huelva
##mā
##raq
Margit
##wasser
Nagano
##kä
Esti
Odd
Bjørn
##jel
Sonja
Norway
Liberec
Nordic
Zurich
##egi
370
sedan
Premium
Kuala
Lumpur
Malay
Jalan
1805
538
Kung
Dios
kaki
Staphylinidae
##onidae
beetles
should
become
sensu
lati
##ssimo
capo
elitra
##oty
checklist
additional
records
Accessed
##ħ
doi
islands
1090
##tola
1285
1290
1479
Levant
noter
1530
1798
Esther
##assa
##malt
travel
vivo
355
##rco
search
cache
##ptur
C4
273
1428
usa
doc
document
##nomen
##jon
NASCAR
##balt
Chevrolet
Motorsport
Associated
Rocks
Information
depicting
molecular
structure
Flint
quart
##page
##ntic
##ctors
lava
##alta
##bod
DIN
404
Prat
##deg
Ø
##fors
##roje
prose
##sida
##iatt
eut
ölçülü
##trie
saya
##ural
Manga
farm
##ako
Klinik
##erta
Alps
##sino
Clin
1271
##kset
tiro
241
Clinical
##cology
vera
Psychiatry
##stes
##HP
##eik
Cuneo
Dynamo
##door
Adelaide
CDU
SPD
FDP
##wch
len
check
##hee
Bilder
slik
kot
Mehr
مهر
##بان
##owska
ملک
989
اس
##کو
ق
##ره
##آ
##غا
##ج
##dru
##ود
##ās
903
doma
Jalisco
Veracruz
##cán
Cortes
Origins
Spanish
##quis
Selected
Annual
Planning
##ué
Sinai
judíos
árabes
Comité
comunidad
##día
México
##sche
Schule
Centro
##avor
##goga
traditions
dominant
Grupo
##tide
Susana
Pau
Quito
##atorio
##anen
milita
##hdi
##bben
##alia
##dust
1632
Blast
destroy
golden
dome
bombing
##tarian
repris
breaking
io
ie
##plosion
Bomber
strike
mau
Shri
##ranti
code
visitors
1649
Fortaleza
Mujer
##zelt
Álvaro
Fiorentina
Lazio
##doria
##gina
##dice
##llus
antena
##rdo
flag
Drosophila
##ndar
Svetlana
Ley
Scala
Dato
Bukit
Johor
##deka
Suffolk
Lodge
##crat
spoke
mind
Lembaga
Forgotten
wars
Southeast
ment
besar
Negara
##ад
##з
##чы
Ради
##ми
##чи
##чі
##več
##chy
Vince
1767
##nato
1766
Bergamo
##ramide
##ear
1770
rede
Prague
##aver
koncert
Kraków
##örner
##sitz
##rner
##rieg
Silesia
Katowice
##dier
##crit
pani
##rott
##ibo
Opole
Opel
Upper
Wight
Belt
##uze
Nashville
Buck
Baptist
Tulsa
Curse
Rabbit
##main
##klat
Motion
Carsten
Dijon
CSU
Veronica
Freiherr
Württemberg
Göttingen
Rheinland
Pfalz
Baden
##anza
بی
##له
##سو
##ار
##əs
027
Gaetano
گرم
348
Shelby
##redible
##lona
##grou
Missouri
stop
##zt
Schuster
Same
Julien
Sporting
CP
##dane
##ande
Tottenham
Hotspur
Ralf
Osnabrück
Karlsruhe
##reut
##sikt
Transfer
Umar
Forma
x86
Mint
##quo
##nome
Friese
##usen
Aid
Fulda
Fries
1563
##inou
Harri
Race
Record
Hacia
##ndre
Antoni
Él
##isée
frequent
##jekt
kitab
refere
scholar
user
##AA
cita
##citation
research
##gate
publication
##eira
Recife
Tolkien
Nike
##rnet
Neal
Dirk
##lih
Atas
יצחק
בן
צבי
tal
Havana
Raúl
Luanda
##curio
##bate
Deborah
Nils
##cinta
##mosa
Ա
##րա
##մ
Ս
##արգ
##սյան
##ա
##զ
##գ
##են
##rds
formen
##SC
##pah
##vora
##gann
Mio
##asta
##pils
##erze
Martino
fusion
mainstream
##CD
Reader
##enia
##át
##ení
TJ
Asylum
Ана
##евич
##ша
447
Bello
##uat
1291
holding
sektor
402
##SF
##kade
##vereignty
Respublikası
}
É
Cesar
##zame
muy
fuerte
Federico
##dras
Mariana
Orientale
colonial
heads
Rodolfo
##iani
African
Campaign
Libya
##tent
conquest
Background
dé
##amo
Province
Territory
Gesetz
Dorothy
Gerry
##anto
##eje
##clic
##pressa
Léon
##gnac
##arten
ح
##رم
الإمام
علي
977
Saddam
##bela
Globe
Arthropoda
Arachnida
##grada
##orus
##tomi
1628
##cosa
##mail
##cem
##etter
Pico
Mick
389
822
##skas
Feld
##herr
Minds
##zent
Third
Axis
201
503
##lno
##ús
##öhle
##háza
Florian
##ká
##lló
875
\
##aje
##rná
##čka
1211
Competition
Marseille
##ulations
savo
##ieti
rekord
event
jump
bei
ə
##pion
##zə
##ами
##ули
##ев
завоевал
##тор
##ую
з
##оло
##тую
медаль
для
Азербайджана
на
##нив
##ерс
##иа
##де
##shu
##ître
sets
100m
record
Champs
Mirko
Athletics
named
Rising
Hatch
method
##ology
##oney
905
Everton
Middlesbrough
Shackleton
Sunderland
Jackie
Collier
##mmar
Townshend
##gris
2700
481
1310
##trem
Sabbath
Priest
Venom
##sie
##omu
hardcore
##harge
Wicked
##cious
Behind
##piece
##dria
Nun
Besar
##abia
##ches
392
Edouard
Rothschild
UCI
##ρι
##νός
civili
529
542
Allianz
Beck
Luís
Clarence
Seed
##hole
Thierry
Mori
##entes
##oar
Strand
mastering
cast
antal
Dat
sider
##stic
Roberts
Manitoba
Oracle
Eaton
Takes
##max
Teachers
Lawson
Archives
Atari
Archiv
##vci
Birthday
True
##itch
Rules
Reservoir
Freeman
Silent
cameo
Standing
Charlemagne
Latvian
##ütz
Andrzej
##ła
1490
Lamb
grandi
##idaceae
afro
gie
dương
##ắc
##gr
jusqu
C3
##pak
1526
##há
##csi
1353
1521
Pavia
049
##rv
##nano
Arles
070
Marguerite
tram
##hmann
##ärt
Elder
##roll
RPG
##guard
##born
##mum
Willie
Abe
Label
Ashes
Wake
##prise
Picture
Oscars
##itarian
##orter
##fii
vie
rose
Kui
##veden
ent
Clermont
Ferrand
Cyr
Révolution
Général
Grèce
Temps
Moderne
##quité
##kolla
Dmitri
DL
fons
##njo
##nkt
##diat
asta
esti
Qafqaz
aut
##оро
Се
##сто
##поля
Lucia
##messe
Jamie
Ms
baza
Phylogeny
APG
##lema
##zaren
##quist
Magnoliopsida
basal
##iar
##рт
##ём
GSC
##chuk
Shadow
##byl
Phys
Descartes
René
##métrie
##−
roots
Ching
Sacra
##olver
delu
##xe
Roller
##case
##aux
##dico
ros
##ids
462
Heroes
##gasi
Pegasus
Viktoria
Erfurt
Preußen
Münster
Arctic
Monkey
Stock
Roots
##marine
##river
Waltz
Held
NME
##ptation
##oles
Johanna
Alexa
Chung
##take
##cedo
Gina
509
Anastasia
960
354
##dete
##эн
##эл
legend
regions
##gii
aim
##yte
437
##anha
##fried
##vien
Sylvia
Rosen
Forbes
Nash
##uzi
##rno
##hasa
Köye
hayvancılığa
Money
##pekte
ond
Ingolstadt
##eur
Sent
##iment
##ἱ
##κο
##ντα
Rhodes
Classical
323
##enic
Loi
Oberliga
##ohn
##lach
Regionalliga
Mainz
##büttel
oru
Eintracht
Fortuna
Mg
Yon
Ursula
##lano
##amerika
##gender
Remember
Bayreuth
vitro
##toe
^
Biographical
Memoirs
002
Birth
##bry
312
366
1016
S0
673
tube
baby
born
birth
announced
shortly
mid
Medicine
##konda
##dne
##ztek
##paka
##iban
##gnar
##vem
##bella
##rington
Lancashire
grupu
serial
##borne
Chase
Punch
Judy
Purcell
Louisville
##wem
Messi
##aen
Britten
Randall
##nabis
Corps
##hrax
Once
##core
##oration
None
Dixie
Working
Melissa
Graves
Luke
Plantae
eu
##lida
Hansa
Rostock
LR
##esie
##wert
##mira
Saarbrücken
Wuppertal
##gebirge
Wolfsburg
##nheim
##zeko
lei
vom
aus
kommt
zurück
##chse
##raj
Pauli
Trier
##hrt
Hause
##pade
abgerufen
Januar
Jakub
adel
Vasa
##chs
geht
Ungarn
Új
MT
Budapest
Magyar
##város
##äl
##ische
Erfolg
dieser
Saison
auch
##getragen
Vertrag
Spieler
endet
allerdings
zum
vermeld
##sunt
##ichnung
Bugs
Zeitung
##gaste
1301
ut
source
medium
campaign
date
##bahan
Sudan
##üha
Alexandre
Théodore
Élisabeth
##gée
##brun
Père
Hôtel
Condé
574
D1
Ferrari
##berger
##nto
##atas
fars
donne
##rios
quatro
WEB
##рно
бел
##cor
##zione
1642
Libre
##citus
metres
Oct
Seneca
Luca
##trato
mezzo
##omis
Austro
Gunn
##osoma
##tales
##ashi
Woody
Butler
Rashid
Harbor
Orders
Cable
##jar
##éré
Hernández
cele
##brities
famosos
bell
pareja
enam
##orado
concierto
##900
032
casar
Conservatoire
##tique
Blanche
Weaver
Wand
Pius
Bola
Ng
##bene
##klasse
Zürich
Brisbane
##aika
Moral
deportivo
cor
434
Botanical
Linn
##anea
413
linear
sequence
families
Monti
##hylla
Guam
##laceae
##rdin
##odon
##daceae
Thom
##ander
##cina
##pod
##psis
##oden
##tanan
Christen
Clarkson
Morales
Barrios
distant
relationship
164
wil
833
abstract
classification
synonym
bibliography
Lycophytes
†
§
fino
prezident
##hlen
1683
1682
Győr
Passau
##diger
##stadt
##bling
Gers
seng
empresa
##presa
Sicilia
##rier
1282
rebel
Religion
Reign
1296
1337
1252
grande
##ilia
030
posse
nous
Dieu
##laire
Montfort
toi
Manfred
Nell
ombra
##nzio
ombre
silence
##bori
##gion
sein
puissance
mortal
amic
pian
jour
peine
core
padre
##cé
jeunes
amie
brez
sou
loin
##pers
fie
Concerto
Echo
##cto
read
1811
Riding
##nton
##theater
Kinder
##fn
Feria
##ög
##bericht
mari
wei
leit
##rila
Abend
##ahl
##unge
bem
Sieg
##nh
Walk
##lied
1191
1006
##ucci
Rim
Conservatorio
Fountain
Elsa
Brazilian
##pression
Enrico
Fermi
hinter
Nya
##ech
1590
##dende
1581
1582
1583
1585
##dz
##dela
kullar
##vce
1775
##ysta
Hugh
Block
##bust
bada
##IP
Chat
##berry
NFC
McCoy
##sville
##holder
Sexy
##owe
Bowman
Nolan
Ross
Hampton
equation
PKK
obstacles
democracy
oba
Oba
Dušan
##ić
Havilland
Aircraft
Bombardier
DH
##GC
##ento
Trento
##vatori
##coli
ritorno
##isse
sogno
femme
##cita
Giacomo
Puccini
##quin
Francesca
Rimini
Gabriele
Tirol
Rico
secondo
##bbia
##samt
##kunst
##werk
##akademie
Elias
##öte
##uu
Pusat
##ysis
cinci
##hnen
Falcons
ISS
##vni
1001
1002
black
Sue
Millennium
Domain
regi
DNS
banner
senator
7000
Wednesday
##reck
dot
Move
##voi
CBC
Monde
Limited
hours
##wiki
legislation
Dodd
Cost
##oms
Lamar
Frontier
Rubio
##otte
##rell
##bic
old
##áv
1463
Sanremo
##ismo
Miranda
Fonte
##olie
Berger
Золотой
##ету
##шо
##к
##akov
Irving
##upu
##rati
yeren
Natalia
Dado
asas
Sims
##itte
Talent
##zoni
##mid
EM
##و
##رط
##ة
##مر
##uing
##talo
Verona
Comune
Arturo
##ures
Regio
##llio
Debussy
##cante
##simo
Principe
##ntana
482
athletics
Jana
Bangkok
Glenn
Luiz
Eugenia
Heath
McMahon
Oceania
Parkinson
soft
swimming
Ovo
Ово
ovo
dual
##inck
Theodore
Marathon
ster
##bler
##enze
Gallen
##TER
##veda
Ostrava
Poland
Reed
##ск
##ра
612
##dja
##ghton
Buckingham
##kend
##market
Midland
Bethlehem
Maiden
Cornwall
##roud
##mortal
Transport
Translation
transport
TCP
UDP
Avant
Chef
Wide
##girl
##table
font
Tada
三
酸
嘗
醋
翁
tada
尝
Tao
Lao
##Л
##чар
##ован
стран
##ник
Глава
дев
##ята
##ient
##trici
##colo
supra
Primer
##gla
##omy
##zne
##zeug
##umente
Lieder
compositions
Petru
Faro
deze
##tati
neu
##ritis
##pital
##sona
##pl
zona
##rones
##roma
Marka
##lser
added
Geld
Scottish
pero
Then
##nyt
Anthem
Platon
1640
Hawkins
Cherokee
##mta
Bureau
Indian
Ulysses
Grant
553
Native
Moreno
##erna
##vaca
##uela
##poser
Biographie
artist
pasado
##bles
##nalla
##pana
##deu
##nella
##tröm
Newell
kota
gabe
computers
beer
steam
gaben
Doom
##mack
software
support
valve
Harrington
Steam
Portal
lists
know
##nea
Burroughs
643
Bradley
Cavalry
Fighting
Vehicle
Defense
guest
journal
##CE
Schlacht
1593
1606
Stamford
##xte
Walton
##male
Surrey
##rots
##isted
##tig
McCarthy
##rmo
Marino
Hanson
Colombia
gul
##timus
ene
Fowler
Orion
##chet
##sect
Cyber
##wing
##reen
##etro
Laser
##wave
Pred
##acon
##lats
##bing
Trio
laba
ezer
CN
Meet
Moses
polar
##dara
Blois
commercial
licence
Weir
Canterbury
Bride
Shadows
Jess
##spiele
Fortune
##bahn
##fields
##bica
Cardiff
Springs
##onali
##cke
Horizons
Lies
Sulawesi
Tengah
Ernesto
Guevara
##guera
##stek
ML
bits
Sons
Salim
##tín
##viar
Khan
hotel
restaurant
Niger
Český
##ě
##ší
##վ
##ետի
##ք
Ի
##ս
##հ
##ակ
##յան
##вет
##ик
Са
##аков
##ак
##ян
##ndro
SSR
##even
##elte
##spiel
Ragnar
Hagen
Hier
ich
zur
##raut
##chung
Sohn
##bric
hie
ein
##riche
hole
laut
mir
Linda
Guillermo
Hallan
alte
##daj
##oß
##nito
##position
limitée
gamla
1410
##tret
##vic
##esten
1413
Brill
699
##uler
Muslim
Donald
centuries
Byzantium
327
BRILL
MP3
Dubois
Vaud
##λή
Symphony
Edith
Ulf
Lex
uri
0001
014
##omas
##oten
##jina
##enas
esan
##bergen
Zee
##ijn
quality
essential
healthy
Suppl
Seiten
Kuhn
##ohr
Jahre
acid
containing
foods
Bd
1281
##gny
##tail
##pue
##ère
Moulin
Lock
##umont
Cristian
##bé
acids
industrial
produced
sources
natural
same
factors
subjects
Results
Acid
Coll
##aboration
558
##roix
Random
controlled
naturally
women
tono
1656
Fondation
père
Hansen
##øve
tigre
neve
Kurdistan
Workers
revolutionary
movement
memorial
Region
founder
##onge
##isms
##baki
##pole
nature
resource
field
resistance
##mant
391
##edy
Should
Known
olunmuş
Salinas
Sans
merci
Voltaire
1759
411
##istrat
453
##ntia
##éal
##fitte
Madame
Williamson
##iger
##iles
vest
##tge
##gda
##čar
Dino
Maja
##ызы
##аж
##алы
Dov
##iling
##ры
##PO
##rical
Graphics
Sandy
##rence
##ians
editor
##ables
Brits
Revue
max
##cone
Bliss
##presi
##ktet
Britain
Norwich
Holden
Walsh
sinistra
lives
##cience
reveals
rare
##ttes
dinner
egy
##tree
struggle
##stiti
##dua
##lais
ned
culture
traveling
##hand
##roman
##odia
ω
faza
##tkan
diel
rad
skala
Toyota
Fino
astronomi
Epstein
##idae
##fari
##nks
##sero
##угу
##р
Ак
##сы
Hrvatski
nogometni
save
Chocolate
##uddin
Prieto
##ding
##пак
Spartak
Вы
##пел
##ом
##му
##ника
Бил
##айн
##оби
##льные
Те
##ле
##ист
##ем
##ы
##ТС
##ега
##Ф
##он
##иби
##рь
##isella
dorsal
gang
laten
Vida
##glo
##vide
##menta
József
Alexandru
##escu
##dul
Józef
##łu
##ża
##bjørn
Сам
##ага
##лта
##́й
Х
##ая
##dud
teve
Хан
##даг
##айт
Ө
##үр
ко
##жу
##ун
Milo
##zag
##ccia
##eita
önceki
##yden
theta
momenti
images
sphere
leads
directly
function
where
coordinate
image
radius
origin
Φ
Aleksandar
##nić
Herr
Gus
Sandro
Karol
quit
match
matches
managed
committee
##zei
Livingstone
Genève
Zamora
Windsor
2200
##laar
##atul
download
IT
Toma
##guan
##vira
##®
simple
##sella
oral
Dong
##욱
adlı
Actress
hae
Camille
Guérin
##été
Edmond
Pasteur
##cter
Défense
contre
Canal
Д
Ё
Ж
З
Й
Т
Ү
Щ
Ъ
Ы
Ь
Э
Ю
Я
г
д
е
ё
ж
й
л
м
н
ң
ө
с
т
у
ү
х
ц
ч
ш
щ
ъ
ы
ь
э
ю
я
ng
##aik
##γ
δ
periodi
##sätze
Lars
Period
##ischen
##landes
##psa
Chin
Ņ
ņ
##ņ
##еме
##ров
область
##vska
oblast
Volvo
##imate
##ktat
##vai
Syria
##nding
Sada
581
248
##AG
##ndom
Fauna
##tago
1317
1326
1399
1395
1331
##tuta
Ancient
Present
1328
##znik
1075
1147
1302
303
322
##IB
738
1050
1259
1323
1537
1522
##kso
1538
##veze
##dade
1543
ers
1540
##zás
##vár
##árd
Má
##écs
1525
##pani
##kao
##ross
Merle
##áp
328
329
##bull
Jag
Zsigmond
Sokol
Salamanca
Vier
Regensburg
Zygmunt
##acia
##aci
##iformes
Udo
##eiden
##acher
Knut
##wet
Tatort
##umen
Norden
Alles
auf
Doria
Cello
##aut
##rock
##xo
ander
Stern
Waldemar
Ulla
Königs
##bergs
roll
Symphonie
Zeiten
Constantine
##sches
chanson
Winkel
##tano
##zug
##kow
DDR
Sie
##uchen
keinen
##ugat
##iwa
Brecht
Deutsche
##orchester
Babel
##rire
##oris
atoma
##ration
##sco
Hole
Sign
Cabrera
##arf
##ður
754
##eron
Courtney
Ipswich
forman
Bolton
399
##ða
##ær
Алекс
##др
##т
##ман
torna
XIII
##ivat
Scout
kell
Task
##gune
##PR
Defence
Contra
Clara
##wes
##ship
##ști
literal
Εθνική
##σταση
##ξ
##το
##στή
##asis
##chio
Napoleon
##iona
normale
##dits
##reven
##kkal
Hubert
##ρη
##lens
Gestapo
OST
Arbeiter
##τροπή
Εθνικής
##πε
##λε
##ωσης
##deros
Engineering
Corey
##ency
Leroy
Jake
##wir
##wen
Grange
Yates
Kantor
specia
within
tuberculosis
complex
##reo
##ania
##lose
##ceu
Interscience
sent
##mpas
gira
kino
923
face
490
photos
1221
theater
disco
Berge
SAR
##icus
leis
##hman
RNA
489
##bio
Pest
##itors
##thesis
Methods
##zymology
261
##hibition
Comparative
##kasi
mRNA
##inosa
Serra
marc
##ncia
##tii
##koba
Cincinnati
tea
##xel
under
colleges
rankings
university
##ð
##vík
971
bí
##æri
##iled
##üge
##elma
vil
##jubav
##lagd
meu
##ação
não
##phone
Samba
¡
qué
deseo
Constantino
Antes
##ghet
##kee
##éritage
##wani
##basan
Barat
hiyo
Harta
CNRS
##nish
##jee
Brick
##ын
##чик
##ру
##кс
##кий
binh
gks
bg
koju
чел
##öö
Booker
##uny
lub
tell
##vesti
gull
1653
Sibelius
##äen
1558
##vasi
349
1152
1354
##žić
finished
among
##čić
##ći
##rag
Primo
##ško
##š
Ibrahim
##čina
##kva
Azur
##jeva
##ača
##vač
##zić
##jano
Terre
##lija
##ović
##dano
##oje
##ković
Prin
##šo
Fourier
Hilbert
NR
Rowe
osi
##over
Polar
##feste
##gab
dich
≤
Brewster
819
586
pris
Krista
pri
Roc
Nom
##gonal
tako
Etienne
well
Stereo
##yant
##tics
Lectures
Addison
##mpt
Clerk
telde
##tims
S1
ρ
φ
##isson
∇
grad
##leigh
866
##llet
##rre
subtropikal
Called
##fect
90°
##ining
Cloud
##tivi
Geographical
grid
siste
radiation
thought
appear
Cities
##ution
mora
Messina
Mirage
gerekend
Bare
##nts
Gerrit
Tübingen
Physik
474
beautiful
experiment
##cky
Scientist
##cles
##scription
full
quoted
particle
molecules
Experiment
##ference
Greene
PRL
##ndt
interference
large
##400
##type
determina
##inge
phi
##glie
revolution
physics
quant
Greenberg
knowledge
##meter
principles
independent
##ages
##rms
Huy
μm
Frau
##nho
##amentals
Physical
##metric
916
035
##öd
685
##ård
469
倉
庫
番
MAN
Cobra
876
Åbo
061
Nokia
Glee
Oakland
Raiders
Hillary
Fresh
##watch
exclusive
chat
Heather
##nna
itu
medias
##tende
tom
##hja
931
##өө
##н
##зу
921
361
##үүн
²
918
##kko
##uvo
883
Tampere
288
##äki
829
Olav
Financial
068
##kera
corpo
lokal
##pit
##nau
1627
939
1621
Marketing
award
Frey
Plaza
ES
Ente
Casablanca
jota
Articles
kup
554
353
##äi
839
##mbar
##öli
##gere
Trois
##kea
372
##онг
Та
##йг
Hindi
##ktig
Ä
940
##sä
823
055
551
##kaupunki
##motive
##enä
##eborg
Ellis
##vart
814
##uha
678
522
892
projekt
results
##uris
284
422
067
##kaan
##pää
Länsi
##äst
##å
890
953
536
##ikka
743
294
Lëtzebuerger
Dubrovnik
##ovina
##hany
##jelo
##ulin
##ž
Osijek
594
##vatsko
Köppen
##rski
##ovac
##še
##okk
##ču
##unek
##wu
Oko
Oru
##ías
Ayala
Basse
Boss
Hernán
Marcelo
Delgado
Ortega
Héctor
Conceição
Sá
##inho
Paulista
##uia
Fou
##riana
##jie
Ying
##mei
##rong
Hui
##lian
##øn
##gnet
##ø
##ugen
Andersen
Petter
##aun
##øre
Svensson
Plate
″
Sarmiento
Capitán
451
IF
Gare
##ondo
Fonda
926
991
588
##rily
Muda
##λια
##lanti
##fina
1330
281
1321
##hana
##sios
##tero
##ssio
Marina
##rido
##eket
##pido
##oros
##WN
##ekto
968
1376
##mphe
##rly
bad
Кызыл
##lsk
##gest
Turbo
Gabon
##ines
##tany
Como
Hemingway
Sandra
Bullock
Margot
##jub
##aea
##lyi
Paso
##pr
boli
Moraes
IUCN
Threatened
Species
Version
##ctos
##lensis
Ezen
Sato
مهدی
و
##اع
##ظ
اصفهان
##ecer
##ол
##ба
##але
Кара
##бан
##лу
##ivos
АО
##З
##Т
##ард
patria
db
1609
slo
##nny
##niki
Type
〇
##〇
機
関
短
銃
##gea
Portuguese
Nicolás
Melville
Sergei
Сергей
Николаевич
##рака
Pole
store
##jak
##ери
##жи
##кови
##орж
Anatolia
Potter
Stark
Observations
computing
##titi
age
##moin
##itation
##posing
Absolute
##lative
##osen
adaptation
along
Taurus
ν
constant
·
##ngs
root
boot
##here
Marius
##ziano
Zbigniew
Biała
Nikita
Returns
런
##닝
##맨
##ә
##чек
##әй
##әсе
##ек
SMS
八
歩
兵
hohe
action
##rior
posterior
cause
race
sex
Centers
Disease
Published
##cales
##fter
Durch
SIMBAD
MSN
214
Astronomical
Observatory
Sirius
Astronom
##PS
Hertfordshire
Mikko
Tuo
lahan
##bora
##rui
368
Burger
vida
Wimbledon
##jeng
Ignacio
##eds
##udio
##brice
##lban
##ič
##minen
Verdun
##leutnant
Caen
##alu
seed
below
champion
eliminated
##män
##nche
Signal
##technik
Heidelberg
Becker
Fürsten
Easy
Kraj
##رید
هو
##malla
compilation
vsi
1643
544
##lauf
Garmisch
Parte
##nkirchen
Donovan
Fiona
Gabrielle
Anwar
Jesse
Peterson
Fils
##novo
##mte
Troya
095
356
336
Fun
Nights
crossover
platinum
##hde
ITF
Slam
##sław
##nów
Wola
##zero
AU
medikal
##theon
jen
fuel
cells
sens
##kinen
motive
DD
HTTP
flood
SQL
##bana
stress
##iness
##oom
##IC
mevcuttur
IR
##wid
flooding
##gradation
##zsa
##plos
Text
Ping
##MP
##bios
vse
flow
control
##olin
Cisco
Level
Arbor
Spirit
Vengeance
romana
Cage
##unis
Moreau
Idris
##lift
##nds
nomina
##lita
zoo
Nomenclature
##ranno
##saurus
rex
Cope
sino
nomen
renamed
Bolzano
Supreme
##rove
marriage
performed
abroad
##gregation
Lesbian
adopted
visited
Standards
approved
majority
##lasse
Dorf
affairs
##end
begins
##arni
Sexual
##bba
##tza
الحسن
با
##ش
1756
##رش
##يد
1712
##مو
##دة
1814
broadcast
##gati
Cerro
IEEE
Protocol
own
defend
##self
##TM
##ption
##cure
ACM
359
revised
Inf
##cture
##SE
Geoff
precise
Weg
secure
NET
route
Files
##igao
disappeared
Solid
##ago
##teral
Asteraceae
Asteroid
##eae
Karnataka
Bangalore
Falling
458
Gabriela
Martínez
##tná
Ivanov
##hia
Petra
##vá
Samantha
least
singles
Derby
Derbyshire
Duff
Trent
##nnar
##nap
Brighton
Albion
Wanderers
##Leod
Images
Gaur
Blume
##rase
note
earthquake
Gigi
Fletcher
Championnats
##nation
##bila
##mburg
pseudo
##kaman
pelle
##erer
balik
SG
Zombie
##ktor
##jects
Halloween
File
thu
##agg
Prayer
Clean
veg
straight
edge
Students
##abb
##rack
##tono
##OC
HC
##bang
Sweden
Denmark
Hungary
Loud
##udes
##usse
Deux
empereur
Allemagne
Jeunesse
##ènement
depuis
origines
Française
Assam
Andrei
##vsky
WrestleMania
##leman
WWE
Allsvenskan
taas
1677
1679
##nant
Macau
385
##urne
373
1686
Finch
Sharp
Carpenter
1687
Farmer
##unen
liet
##enan
##fort
Modena
##ferma
##estan
Nantes
1665
##velt
Hoa
jp
##yst
Shrewsbury
Talbot
Devon
Osborne
##bourg
Bent
nime
##maler
Marlborough
1698
Jardin
dt
1286
Theology
##varu
nur
##ُ
##فس
##رون
dira
665
644
692
714
##cani
Superliga
Vilnius
##bell
##petto
Friuli
Trieste
Istat
Complete
Ocean
##MC
##ares
Ito
##erling
Garros
kort
WTA
Suzanne
##glen
##sport
##añ
Rubén
Hidalgo
yr
Fabio
##kori
##veta
##eš
##ová
Jelena
Shah
##chenko
##anie
Sands
Parra
##kker
##cis
##tě
##pán
Davy
##sare
##cki
Caroline
##acki
Date
Agnieszka
##ńska
Mayr
Nadal
Éric
Món
Arnaud
##jana
Larsson
##ková
García
##ăn
##či
Federer
Maxime
Teixeira
##nete
Ruf
Simona
Sabine
Spania
played
##isela
Daniela
##chov
##rrer
Lina
Casey
Katarina
##roe
Hradec
##čko
tie
##jorn
Puig
##tang
Mónica
##mach
##ffers
##lein
##laan
Olsson
##raven
Jis
##riff
Forget
Lec
Gómez
Davenport
Below
entering
draws
345
Hooker
trim
Continental
##طاء
أبي
ر
##با
##ح
Piper
888
piste
995
##mino
986
Title
##naut
altitude
##roni
feet
weight
shift
GmbH
amiral
##hera
Elbe
Normandy
Wessex
Anglia
##ría
futbolcudur
Millionen
Blick
Kreuz
Mühle
##raße
##reu
Jörg
##zki
unter
##maga
Noir
Ingeborg
Hervé
artists
Welle
sue
copyright
controversy
Øst
fylke
Fredrikstad
Moss
Counties
Akershus
Västra
##fjorden
##hair
##ggen
Airport
Garde
E1
Göteborg
1806
Nijmegen
Lutheran
##litz
##hnte
##né
fille
##шта
##д
Македонија
Sculpture
Tree
unveiled
Skopje
square
Macedonia
Macedonian
monuments
erected
Dne
##vnik
##ža
##DH
Lahore
Exil
linked
539
540
Strategy
Byzantine
##лата
##рски
Из
##вести
##ето
Михаил
##йски
за
пре
##сел
##ение
българи
##те
Том
##брани
произведения
София
559
##ack
MySpace
##iesen
Funeral
Flames
Burning
Blas
AllMusic
Massacre
##patrick
shirt
##load
Download
##festival
Photography
Chad
Painting
##ustration
##ppet
##ulse
Original
Soundtrack
Fallen
##hisky
##rty
##OCK
ring
Rebel
broken
nose
Alexandria
Osbourne
Nigerian
##tė
##čia
##ė
Kreis
heat
1511
##nė
##lė
Verde
1725
##hio
##nisch
##joni
##ški
##tės
##byn
##ės
Nigeria
goal
Darmstadt
##sno
oa
assets
Stockton
##quire
1797
HMS
Cumberland
1804
Calcutta
Wallis
Melbourne
teks
Walls
Richter
Ding
Bullet
Kaspar
##belli
##gka
bald
##cavations
Archaeology
449
Volker
##erry
Univ
Unis
ATM
##link
Communication
408
Excellence
##cius
384
##uario
##ificio
Vatican
Maximus
1377
armas
Duran
Calgary
Lois
Chine
##ugu
Lyn
##zhen
Dickson
##bero
minute
Braga
##icu
##ché
bow
leaves
Adele
want
Telemark
Hordaland
Rogaland
Agder
Fylke
##åpen
##ǫ
þ
Finnmark
brat
##lef
##jell
##øy
Mountains
##jerne
##odd
410
##rvik
##dang
##eite
1783
##jukan
Banda
##jø
godt
å
##ager
461
engineering
090
Poole
Robson
Manual
Navigation
Shore
density
##кса
##ака
1754
rape
victim
ukr
corruption
lose
fight
##hyllum
Ende
1020
Article
bos
1309
e5
##CT
Julio
Ramón
Castillo
Orleans
##úd
##mó
Gerardo
Agustín
Compostela
##jov
##ém
Zapata
Asociación
##rados
##olucionario
Cuban
Красный
ин
##цио
##нал
проф
##со
##зов
Про
##нте
##рн
Autónoma
Artemis
##amento
Internacional
##remo
Stavanger
##fontein
Please
##shing
Wilton
Frankenstein
Tracks
527
Dancer
editorial
##ctic
806
horse
racing
stake
winner
northern
dancer
##turi
Stakes
Belmont
Municipality
Hutton
Swansea
Point
Cave
Blacks
Unicode
534
thousand
dollars
Labs
lang
license
##wiec
##niczy
Warsaw
WM
##ząd
##nictwa
##yw
##nego
Nowy
##wór
Ministry
1349
Pain
Before
##pokal
Reiter
##erum
Hardcore
##posed
Job
Cowboy
##wag
##gga
##spel
##eso
Subway
Mouth
##code
##ssie
Drop
Crisis
Thought
##duct
Quartet
Speed
Rotten
Blow
##rung
##wall
Jericho
FX
Noise
Nuclear
Assault
Destruction
Wahl
Mercy
##quito
##flow
##iline
##obe
Nickel
514
Chaos
bli
games
company
##craft
reign
chaos
##rospective
##reep
Jain
##mou
##rius
##rande
##idan
pes
##jal
Frozen
##āja
Kurz
##ņš
1625
1253
1263
##ovia
##ačka
županija
Peak
##avad
##state
Constitution
Gao
militaires
495
Norske
Kommune
##weg
Civic
Amt
##ðir
ǫ
##edes
##gør
1736
##anger
Railway
Kristiansand
##Wh
##verk
Industri
##ør
befolkning
##rices
##sons
##ulant
becomes
delegation
raise
Holt
##ὐ
##ιος
##ῆ
##ρεία
té
Kaisar
##philus
##ppu
Shell
Illa
Tien
440
selle
##taw
##aff
##iston
##ș
##fing
##llaria
imperial
PK
server
1667
1561
Magdeburg
nationality
Да
##уга
##пи
##лс
##еф
##ерен
##дум
граждан
русский
язык
##acea
lost
HM
##avour
##inder
##maid
##meid
aga
Paradise
Towers
Ș
Danger
##angan
Heads
Reserve
##kking
1218
Population
Statistical
ABS
##coa
##aching
Thin
##lub
976
513
taşımalı
Öns
Sartre
Cicero
Erasmus
##lân
##uros
##NC
##mier
569
##āt
##sts
1314
##ttle
Tobago
##rono
##mija
Astronomy
949
##vald
ESO
936
613
##tät
pesar
š
##āda
hab
čo
gain
beauty
László
##ér
Pál
Schmitt
pace
##maker
##roka
פ
##רו
ו
##רב
##ו
Talmud
Kode
act
purpose
##course
wife
whatever
reason
able
pregnant
quo
Torah
##sure
נשים
ה
##מס
##ול
##לות
זו
ב
##זו
Wenzel
1626
1633
##jord
Sogn
Fjordane
Voss
Troms
Nordland
##ðar
##uð
##óz
Norge
##akon
heritage
Norwegian
##nger
##fjord
##vangen
fisk
##ås
industri
energi
Folge
##øya
Deus
Ми
##лени
##ум
##ски
##рст
1040
##dno
Cuatro
Camino
Avenida
América
Ó
##pera
Príncipe
Pío
1445
Mendoza
##gando
González
Compañía
Metropolitana
Bosch
Comunidad
Alto
832
##aldo
##еро
##дром
##х
##рид
##OH
##ruga
Kobe
Kyoto
ky
##VO
Dhabi
Slavic
##лав
##ица
Ђ
##уки
##јан
##овић
Brass
carica
##sht
stream
seem
prevent
fires
spread
created
causes
strong
surface
winds
direction
##cally
capable
producing
tornado
dust
circulation
fire
houses
buildings
quickly
area
##yclone
true
oxygen
significantly
increases
##bustion
thereby
substantial
increasing
intense
##fest
largely
##ated
##amma
material
distance
ahead
itself
expand
intensity
animals
caught
##iated
glass
liquid
runs
Besides
##rmous
ash
cloud
grow
produce
further
forest
volcanic
##valence
##ptus
oil
noted
extremely
tall
Sometimes
##ission
combustible
gases
##wamp
instance
explosion
##forced
underlying
apply
structures
cities
disaster
resulting
##bom
raids
technique
designed
caused
##iary
devices
rather
Such
##ploy
##plosive
roof
easier
ability
dous
Although
since
##wder
warfare
strategic
enemy
extensively
almost
Japanese
officer
commanding
pointed
although
attempts
create
succeed
234
Eindhoven
##chool
##teit
Rees
##point
ș
Sleep
Kitchen
Shake
##akas
218
219
278
Dwa
Strike
Paramount
Snake
Nichols
Scarlett
##icki
Nigel
Louisiana
fai
Merah
Zuid
Noord
artikel
drie
provincies
denken
nr
nieuw
##zoek
holl
741
##ueel
##uw
components
februar
binnen
willen
Groningen
##nthe
##loch
626
nua
1854
1827
fell
1841
Bitte
##љи
Banja
Grad
##čino
##će
##trica
1446
##tvo
Petar
##đe
1276
1316
Voz
##vica
monastery
##radu
Bosnia
short
Herzegovina
census
##pske
pos
##ikh
##ussa
##udou
##mane
##lvestre
Mathieu
Faye
##upan
Carvalho
Omer
##iane
Pape
Fool
سپاه
Møre
Romsdal
Før
Første
på
1689
Hist
##ungan
##ryn
##ologi
land
##former
Lust
##voll
nær
Dag
##bane
sung
235
soo
##ossa
ص
006
##PC
Lulu
iam
ubi
1586
##dij
##meer
##waar
starts
disse
application
law
1516
1517
1520
Niagara
1534
1535
Corte
##osz
leven
Colonna
##lave
##ifu
roi
chambre
Cartagena
1574
Felipe
Peoples
Session
Municipium
##dania
##yrian
631
municipium
mining
connected
local
##nnon
##anica
##iana
Zeeland
1140
##ctor
impact
geld
##pec
##halen
##dering
1477
##andra
##werken
OBE
noi
Joyce
Malawi
##mia
SAO
Gibson
Saar
##base
Charlton
move
Patrice
##zinger
testo
viri
Bartolomeo
##tari
Chiara
1454
Drum
flight
level
##NH
Transit
##itude
##rout
##ktop
##sagt
werden
muss
Günter
Repubblica
palavra
Sør
Trøndelag
Molde
Kristian
carrière
Barros
Afonso
583
policial
Antônio
##ncourt
##edit
467
Sales
##thon
249
Rodrigues
Alves
Zadar
##halle
Ć
##bona
Besançon
##lić
MVP
Gino
Guard
##erland
Ruhr
##viti
##gde
Meuse
1673
##agna
capitaine
##aires
histoire
héros
Lévy
1568
##lako
1567
##oer
Sitt
aan
##eul
Pleasant
Perak
##unter
##sive
Falls
Hirsch
dee
white
lap
RAM
##DM
MB
504
##vian
ms
creating
windows
Reds
developer
design
return
requested
soon
Wizard
Icon
##ctory
##resa
##ncià
##NV
Mayor
Republican
Catalunya
Roussillon
cool
##rons
867
Gallagher
Marty
Antony
allowed
emergency
forced
Cameroon
##tiny
Cherry
Velvet
Underground
Håkon
Slot
##eberg
Historie
Norges
eldste
mulig
##heten
Sébastien
reality
Villiers
Beauvais
Prije
При
##anska
##ING
AND
AF
543
997
raport
client
pw
rapport
spell
1236
Partner
##è
##ored
plaça
Dove
V8
##coma
point
bagi
##finity
HS
Zoom
Fifth
##iving
##sega
810
##DC
##ijen
##deling
Nieuwe
##heur
Voor
Raad
##uwe
Ponta
bulk
Stahl
largest
dry
carrier
window
advice
Norma
599
acu
Diablo
344
Trophy
##asco
##udra
Auvergne
##ours
##ibert
Beau
##necht
1488
Angoulême
Orléans
##lì
Bretagne
Savoy
Cambrai
Rocky
Capitol
##mmer
Kelvin
Address
Resolution
RFC
826
MAC
GMA
Graduate
##mission
##tical
##WA
##tage
##vond
Wolfram
Nederlands
Instituut
voor
het
saman
##pice
Tomasz
Białystok
##zych
ry
##wali
Czech
1387
Bye
innbyggere
##dres
##brand
##sdale
246
##mpen
##åg
Horn
fjell
vai
revista
Revista
Andrade
Guimarães
##deira
Killer
Antonín
##ř
Jaroslav
Erbe
##žena
##sí
##čku
##oké
##qué
##dnik
##inet
MJ
641
Environment
historie
##ætte
Schönberg
tree
Quercus
navn
Stream
Venne
##ernes
##ctive
municipalities
Boulevard
Downtown
Wrestling
Albany
Interstate
##mons
Lions
Fender
##tex
Bono
Mediterraneo
Mediterranean
Storia
Mondadori
Perugia
Krim
Romain
##éa
##ueil
Atomic
##ntures
Partners
##lic
walk
##through
GHz
##GB
topic
Doc
1757
Chandra
Swami
##haja
##wati
Gandhi
##aji
##eath
Tigers
Lifetime
Achievement
starp
##ndet
ave
##cision
Challenger
loser
##të
Twilight
Mandela
dame
Duty
##poru
µm
##usion
Té
##BU
Delft
1620
Plymouth
Oude
##mske
Ascher
##dingen
Walden
##buch
Maximum
landing
##wie
Boeing
##weight
Landing
Zwischen
##fall
##hrlich
engine
FAA
##kata
Irene
##quette
Jagger
Liza
##érico
kalas
brak
##kene
akit
AV
Wyatt
##ũ
##stru
unde
Humboldt
##biti
Wrocław
Filem
Mercury
611
##fert
##ntes
Craven
Plus
IQ
##owo
Dolby
Ethernet
multimedia
MAX
B3
Galaxy
Mazda
PSA
##enar
Powers
plu
hybrid
Hybrid
Escape
kilometres
Abigail
Abby
##vise
mezi
##ccus
##chine
##ophora
performance
emissions
Yamaha
Barrett
barre
Macht
Taliban
2800
290
3200
Variety
##vyn
USAF
##roit
##tles
##voor
ON
stations
Бу
##ди
##мск
ви
Carrier
Wendy
long
Turquie
description
physique
##éologique
##vial
##orme
Pieter
1731
##ozen
Beaufort
صالح
##يل
684
##mbok
##tly
ordinary
##tena
Hij
##че
##ост
##уша
##це
##слом
##еј
##trum
##ison
##gé
Diana
suku
##estes
Grands
dieu
seco
noirs
presse
##lades
dalar
##mne
Elektra
magnitude
hits
indo
##nesia
1226
##curi
banda
massive
Kultur
Palais
##imene
Worth
##fora
##motor
##kod
Bronze
Evidence
Tipo
Comte
Stick
feat
##ivated
Monk
Instagram
Nathalie
vrai
otto
Frederik
Electrical
780
1066
##peda
dB
prop
mathrm
frac
1099
Sloan
MBA
Croton
Merrill
Gara
OECD
Finance
##tional
Nomination
584
sid
##HC
Category
adina
##elas
fraction
order
transform
mechanics
continuous
functional
transformation
Acad
##omial
Almeida
frequency
Processing
Qi
rate
conversion
limited
signals
domain
Transactions
reconstruction
##arse
refers
variant
1270
URL
spring
cose
080
##ktik
kernel
Loser
Rowling
Hollande
cruise
ml
##vore
ام
##يري
ferme
pur
##ritz
##ppt
##wein
##tosa
Beaumont
Dow
Wally
Connell
##sher
##baum
##wyn
Schaus
Caspar
meist
soll
leben
soa
##wei
niemand
Kuno
avut
Weise
prova
sie
gleich
wohl
Eure
##nade
##lons
node
1536
##ál
##lain
Tyler
Clock
Auditorium
##lock
Sarajevo
Obra
Benton
Hunger
Objekt
nen
Falkland
Mauricio
##rosse
Espanyol
back
rapper
Nelly
motion
Amateur
amateur
UHF
HF
MHz
##FL
Agora
##émica
Coimbra
Lisboa
##vie
##pina
Emiliano
Wojciech
##ęs
##sena
ruled
thi
injury
Stoke
définitivement
Naples
Rodríguez
##sica
##ggs
Self
Trujillo
##last
Clan
346
636
001
Bastia
PG
RTS
1136
hill
author
##ruption
813
hockey
script
network
Shaw
##haa
fifth
estate
##world
investigate
soccer
##game
##hockey
##graph
competitions
league
Match
dark
##lights
ideas
Catalog
##loads
current
KNVB
1697
##media
events
annual
conference
mention
winners
king
Lexington
##llum
##mits
receiver
Denver
Broncos
Urdu
فی
##ض
علی
##srat
##nove
Abel
MMA
UFC
Heavyweight
TP
Undertaker
WWF
Rumble
feu
Michaels
Rollins
cash
RAW
##ground
Author
##plex
push
lock
gate
Cell
Vela
Observer
Genom
Census
stark
459
279
rayon
##cona
Tarragona
shock
##ène
Coruña
great
sign
Sabadell
espera
alguna
contra
##tación
marcha
##pects
departure
област
993
753
##damas
45°
5°
2°
Astrophysical
reprinted
##hlon
##ction
hori
805
Mee
943
Morse
##putation
Angle
##enne
DOI
payment
Telescope
##dama
seeing
Reial
Tercera
División
Ciutat
Crist
Español
##jón
Segunda
Mallorca
##ues
scored
goals
MLS
ufficiali
acquis
Italie
##esso
##sano
Monza
##ò
##gnano
213
##chta
##eady
1786
Centrale
Antoine
Medicinal
1810
Recherche
##miques
origine
ole
##chnique
##çons
chimie
##quée
loi
contraste
couleurs
objets
colores
laws
colors
Agriculture
Benedikt
036
##lott
Banco
Dover
Vecchio
Lombardo
Strada
##zzano
Elliot
SNP
Jolly
Howell
Fabian
Maggiore
Lago
Lugano
Garda
##issa
Alpi
Ticino
sulla
##iance
##ało
Palestine
Liberation
Declaration
Independence
capital
passed
designa
Chairman
Making
##vided
armi
##stice
regime
Twentieth
##endix
##pio
Amendment
delivered
Secretary
measures
integration
administrative
municipal
basis
protection
Places
##urance
commentary
updated
Blum
missing
##ione
Status
Remo
##four
Legal
accessed
Movement
access
restrictions
##ficie
economy
##eger
cultural
aktuelle
erreicht
vierte
##inale
junior
neste
##ouse
##imus
Kreta
##auri
Zur
ნ
##კო
##ლო
##ზ
##კა
გ
##ილ
##ური
Telecom
Mga
Мария
##шки
##рце
Academie
##გო
##ლ
მ
##გა
##ბ
##ლი
##შვილი
##antung
BMW
Albrecht
cc
Hamid
üle
##ütze
##reifen
##kers
Tod
##wil
Sancti
Historische
Schweiz
Bundes
teme
##schen
##stellen
##uten
Alpen
##ict
1336
1308
1345
Annette
##wska
##chers
##szt
Polonia
może
być
piłkarz
duże
##ł
Troyes
##liard
##rage
sort
réaction
##ρων
##etos
##چه
در
##zaba
##می
خان
##یق
##tich
1247
##urile
badminton
Aurelio
Somerset
Norton
##rran
Riley
##dido
sna
##inska
Ал
##ық
##сан
##тин
Ан
##қ
##ско
##ква
##gap
escape
dead
##auta
mans
##рг
##еи
##ам
Вадим
##ыр
##цев
##nsk
Nauru
##jad
##deia
Donato
Urbino
1444
Piero
1467
Sforza
1478
presso
delle
Grazie
Isabella
##pie
gra
##amente
Piazza
1506
Schott
technischen
Verlag
##itive
calculation
models
##vity
principle
widely
conduct
##ivity
Properties
Boca
662
##ression
##torial
industry
##uent
##zation
Origin
TX
kuasa
##stial
Objects
Cars
twin
quasi
##stellar
gravi
VL
Doppel
Smithsonian
Rudy
##rende
alien
Content
##onas
Siena
Albin
##tris
√
##√
wol
##âu
1771
##zyce
Munich
Fribourg
Immanuel
Reagan
##welfth
Wine
Newman
Lesser
Martel
computer
##video
2547
3G
goalkeeper
##béu
Emirates
##amer
628
##zhi
ung
統
葉
護
统
叶
护
##hán
##ads
historical
carried
whose
territory
felt
threatened
proposed
coins
tud
620
##chid
625
##bide
##ière
Foix
ère
signe
deux
##igny
##äß
##ester
Dalton
##laine
Darren
##riss
Abrams
amigo
McKinley
##cket
901
Peters
Reynolds
antar
##olio
Kirke
##ower
237
##lace
##tner
Borges
##istra
031
confused
beginning
##logist
Grote
##hert
Further
Dialogue
##euvre
Butch
##initive
Clarke
Avalon
glace
fiction
##brane
##erne
098
Strange
Madness
##roux
graphic
genre
Units
Classe
plate
Rogue
Chant
range
##bow
arabe
classes
illa
np
companion
##rchy
Rings
Rune
playing
tiba
Galaxies
Phan
Station
2D
browser
Unity
##gmente
Siegen
##egas
##rgia
Principles
bombe
Grimaldi
##merk
periodu
##dada
378
##یب
اور
##انی
イ
##eville
lès
Maccabi
Haifa
obra
##unces
friendly
Hildesheim
##É
Château
##INE
Jérôme
##ndros
##ulis
Athena
DI
Interview
##iati
##rint
##vela
Kosmos
Altri
seguir
##anno
documenti
carcere
Grecia
##€
Miki
Devi
##menti
##care
Eine
eine
##واجه
دو
کو
##ہ
مرد
##یان
د
##رق
##ین
تپه
شب
##رغ
##وال
##erede
که
پنجاب
سي
##غان
##tres
laser
##رس
ISTAT
ONU
996
montes
awarded
professional
##shment
efforts
Otro
Más
##rando
Tú
##pier
##estro
Segundo
Shakira
holds
longest
number
Iglesias
Definition
explanation
forms
diagram
##aque
shield
≈
##pine
equations
identification
##zte
Karte
##HT
Fell
Laurel
freedom
##writer
Lear
Adama
Cleopatra
##étique
##bajo
Borgo
Adriano
Gallia
572
##ües
##sese
287
537
atau
##DK
primi
prim
Lindl
##eel
Drummond
##یلی
##usan
##nius
maxi
Profesional
##volo
##مار
اند
##خ
##وی
parola
##raaf
##schap
4e
##úp
1390
Pour
Brennan
Cory
##orie
Hubbard
Freak
##ievi
hade
Rihanna
##ecký
##rný
1474
club
1551
ligt
1056
euros
toto
1475
##igues
Stéphane
Trainer
Clubs
##دی
Maji
Delia
##rano
Salem
Spielberg
##Works
##arius
Unknown
Jaume
Didier
##lae
Aida
Kruger
HK
##jski
Murcia
Henley
Cristina
Kirchner
UC
ime
415
expelled
Welles
Constantinople
##sius
##olas
##tico
##ená
←
Edda
Esso
##nister
Ramsay
##elor
Sept
##prano
##gly
##strate
Golfo
wanted
##wah
appointed
Qaeda
Egyptian
doctor
latest
Bilbao
Henrique
##ře
##lů
##stka
##minas
lib
##LD
##utes
Assad
mei
Cada
##unte
##anna
Therapy
##cuum
Watkins
Senna
##bore
##tsen
##kajima
pit
Brabham
Warwick
##кат
##зи
sari
davlat
##mper
##rador
Stacy
##azen
È
Punta
##ceno
##yx
831
##enos
##pory
ia
874
##ти
##ще
##рга
##с
##isht
1177
Druck
Enterprises
McDonald
Depot
LLC
Hathaway
##әр
##ім
Қ
##ым
##қан
##ұ
##лы
##сім
##lino
Thorne
Reina
##wig
Material
887
941
##pura
Garland
Empress
Experience
##jeti
1010
Govern
1030
Sources
Compilation
##ē
1060
Georgian
Emperor
দ
##ি
##ছ
##প
##ু
##ৰ
##ssem
wel
wis
zweite
tune
component
Sia
Chico
Valenciennes
##cout
Dieter
##ärk
##full
##endorf
Reine
498
formada
Clint
Bien
Chevalier
Ordre
Christy
TNA
##nco
##outs
Mechelen
##foot
urbain
toujours
pour
##WR
##ivas
##ranger
est
nouveau
directeur
Ini
basin
##aste
Champion
deis
Triangle
Simmons
debut
Angelina
zang
435
##èri
##into
Chiesa
##nuo
427
##gola
Verder
##stag
Valverde
##reuil
Roux
##êche
essai
دولت
Afghan
##ziva
##zzare
##uelle
##xan
##mian
##vino
##iano
##ول
چار
باغ
Lola
Squad
##ido
Russo
Patricia
##endo
##ratie
می
Wagen
##tesse
NEC
teken
donde
jaar
bij
Blaise
##dore
Severus
##dero
Voldemort
Drive
##grid
Dolores
##eves
vidas
##mione
##rinus
Granger
##för
tenta
Cassandra
Firenze
##isk
Helga
Salazar
پشت
##ٹ
##صار
شیر
##گا
##chev
##есе
Petri
747
##LM
##piti
Palmas
##bue
##quilla
Lorient
Sylvain
##auto
Christchurch
Ao
agn
##osti
Brooke
Bischof
##macher
ECW
WCW
##inea
Joy
Becky
Impact
knockout
##дра
Ла
##зар
##anski
##FK
segi
##meisterschaft
spielt
Juárez
##eche
##lán
Cinco
##pico
##lipas
Achille
Baza
Chihuahua
Gaspar
Zacatecas
##ulco
Durango
Oaxaca
##ám
Sonora
##taro
##món
Tomás
##jí
las
##jada
Those
asam
abandoned
missile
Cambodia
Witness
LM
##juan
Atene
Manila
Keane
##team
Nguyễn
##ết
Văn
Tấn
##ũng
Nguyen
regional
nord
sv
##west
west
1130
Gießen
Freiburg
##furt
frei
519
##vou
##umos
Daytona
Petit
Infine
##nbach
Mitsubishi
Course
Twelve
Hours
##bring
419
423
424
Conde
ת
##פו
##צות
##wicz
dying
essays
Presses
##venti
exile
exist
negli
serious
discussions
human
Salman
Lucius
Gaius
ss
##elia
##hanan
Zion
744
Dreyfus
founding
Dash
Ile
Dara
##орна
##ря
##хов
##GO
Charter
Idea
##वरण
या
##द
##व
590
Singh
Eiffel
1°
théorie
mouvement
périhélie
cette
planète
##ptes
rendu
sé
##ances
sciences
followed
previously
##tecte
object
##nasse
Monsieur
##klis
499
##ță
Dacia
##rescu
riches
##că
Combat
édition
1405
501
518
झ
##लन
##ा
##थ
ख
##ल
##ej
Мари
##лади
##мир
##mner
Kirby
Coburg
Gotha
##nyme
264
Marlene
##ит
##авы
Дом
Роман
##овых
##там
##бул
908
Kamer
vocal
̥
faith
Style
ê
Lê
broad
##ài
Breton
##utus
ī
Jul
eius
eus
deus
Ł
edat
breaks
edats
ł
Ричард
го
##дин
министр
ба
##бо
ма
##мо
ле
сестра
се
##стр
Nová
##łac
sia
informal
przy
##ę
##nię
##bą
moja
##yras
sve
svet
##oster
ė
##ėjas
##ėja
##liu
##ūt
Ilona
##šte
##ūnus
##ūna
avis
##enie
Бо
##же
Бог
##ой
##дь
##ис
наш
##чу
##лися
сам
##rach
##isy
врач
##лады
##lady
где
ты
gde
positif
Ол
па
папа
야
미
##진
집
가
##겠
##아
동
##배
뭐
해
##야
さん
##は
部
長
を
訪
問
して
##く
##だ
##さ
##る
、
##い
は
marker
が
##sday
Olive
1576
istoric
1595
Nikon
##ranie
leto
Akademii
nauk
SSSR
##rillo
Jacksonville
##iisi
Speedway
Carrera
Rolf
##ensa
according
databases
##ecule
Jennings
Egypt
Cash
##idat
Insurance
Credit
##ihan
Strauss
أ
##يدي
voetbal
##zone
Fiat
fia
money
Стара
За
##гора
Stara
Пловдив
##PD
##umo
dari
452
let
##seda
##tuar
Bulgaria
##ък
##лев
Arcadia
pastoral
idir
##cier
Vitória
Français
Hubble
##kob
##tech
Virgil
Oort
Sierra
Ortiz
CSI
IAU
asteroide
##chner
Sigismund
##tni
##cka
##fio
##fant
Doña
Pilar
Pascual
##rane
Sveti
Dynasty
##iran
bila
Anak
Lamborghini
##ciela
Victorian
Parsons
##puls
paint
Bernadette
Factory
##esca
factory
Né
alatt
Forces
Calcio
Fulham
stal
1273
Fighters
##ndus
pk
##clusa
प्रति
##भा
देवी
##स
##िं
##ह
##ाट
##ील
Maharashtra
Sabha
Rajasthan
Tamil
அ
##வு
##ல்
ப
##க
##ீர்
ஜ
##ை
##ன
##ு
##லா
##ப்
##த
##ீன்
##து
க
##லாம்
##دو
سی
ی
##وس
##ف
رضا
گ
##یلان
##hry
##èvre
Wonderland
RCA
Carlton
##mics
Saul
Yorker
##nicu
##ărat
##cnic
Sterne
بالا
بل
##وک
گل
##ستان
خاک
سفید
1670
Calderón
##ración
Tiempo
Esteban
Flags
Landmark
Eagles
Eminem
##əni
həyat
##ən
track
Drugs
duet
də
##mət
composition
##cə
##ənc
studi
freestyle
##əl
##sə
##fə
##çıq
Selo
Animated
Pretoria
##gru
Johannesburg
Above
Troy
Finger
Eleven
Breaking
Doors
Roach
##noli
Finding
Brendan
Bottom
Chain
Nine
##tones
WB
Figueroa
جو
پر
رود
ANC
張
衡
Pinyin
##ndes
##ctra
electronic
synthesizer
##valiers
drop
career
##bron
##£
Jerzy
appearances
missed
regulations
terms
arrangement
preventing
parent
outstanding
joining
summer
avoid
thanks
displays
##ít
##elig
facts
cars
895
Belarus
Barton
##koms
Elaine
##cente
##boken
Shooting
Divine
sized
recent
##šili
ricostruzione
638
عاد
سفر
##kritik
معروف
##يت
AGS
##erang
Mats
Models
Borough
civil
parish
##ögel
Collège
Bresse
sweet
##minent
Hussein
Aix
Provence
Musée
##لعہ
کا
آب
##جر
028
ده
یک
##III
Rams
1230
Ninh
1215
Léo
Lagrange
Ange
Casanova
Winnipeg
Jets
job
roles
##ил
##та
##фа
Ismail
##omotive
advocate
##istir
quer
##onor
que
Debbie
Ω
##ánd
##omba
Péter
##áz
##mány
Szeged
Shoes
BP
Sunny
Coming
##liff
##rstwo
Briggs
Oman
##ckett
Marquis
Medici
Belgio
##uds
##ecen
Swiss
Bands
##bieta
grups
##unto
lectura
##vía
224
##ivet
##rdini
Schumacher
chica
##dite
Netflix
##jib
##ssé
Calder
1241
1251
1294
##chester
1250
1796
##alari
Railways
022
##oop
Prestige
Michelin
plc
##ditions
Mead
Gate
##esia
Spencer
##kkan
##ithe
##tens
Blackpool
presto
##mord
curve
Quinta
##nilla
##pfalz
##bare
Amiens
##quality
##mès
Lager
##oste
smooth
Numéro
##icie
Target
##èr
Valentino
##ueen
##tega
Céline
Chanel
Emilio
##franco
Given
Loew
##itto
Sonia
McCartney
Yamamoto
Pekka
Lietuvos
##ytas
Fuente
puro
premiu
##cale
##icion
##ĺ
##sivo
##није
Љ
##уб
##ој
Hamburger
##stanie
Fields
Hérault
Rudi
Essonne
ligue
rud
revient
lille
1208
Lion
Videos
##agan
Eisen
##zno
##ticus
Bridges
##níci
##aros
##oen
Mineiro
Aalborg
Mancini
1125
quarter
parliament
1118
1120
და
##ვით
ა
##ღ
##მა
##შე
##ნე
##ბელი
მეფე
582
##uj
1391
526
brands
Fiji
##ziger
Puy
Odin
1a
Ariane
Bush
Erie
Blau
##höhe
zieht
Türkei
N°
juin
assemblée
générale
précise
féminine
sont
##cié
équipe
inscrit
championnat
comptait
quelques
saison
comme
publié
septembre
mais
avait
Innsbruck
##inka
Deutsch
##mest
##vinu
##szentrum
Estudios
##quia
##plin
##witsch
Palgrave
Eduard
März
Towards
Libraries
Outstanding
##wright
Björn
##lju
##yka
Russland
##mühle
Europäische
##reihe
Studien
##gleich
##zial
##ädagogik
internationale
##arbeit
Syed
Huntington
Value
##iglia
Holz
Österreichischen
Militär
##dny
##dischen
Ideas
preliminary
Darío
Sari
##año
##ador
stories
publica
##rián
Óscar
##bá
âm
inkişaf
makt
##gida
asr
bost
##mmet
1545
1103
942
947
umumiy
hasi
fiskal
Homme
qui
##idt
##ghing
1237
1223
1245
1243
1246
modules
عباس
##فا
##سي
Mouvement
##ulaire
RN
1370
1375
Saskatchewan
Canadiens
Hockey
Sasha
Knowles
Leona
##once
##reis
##cion
Both
Rin
fim
zwei
Asimov
anh
Renaud
Guggenheim
##rière
##villon
##bbed
Sarkozy
Brigitte
Pato
genes
##ogen
##nkar
##affe
##ipa
##osos
Mental
##order
DSM
##ą
##chó
##zów
Puchar
Polski
##ђе
##лков
##ић
Souza
Brasileiro
Cruzeiro
Bahia
VHS
vid
niz
##dega
savas
##vnica
Prva
Areas
Odyssey
##plugged
Dry
اسم
##یل
##قای
##gave
##rze
khas
XXI
##ät
vers
Casino
Thief
##jah
##dato
franc
Aubrey
britannica
##cked
##harf
Nouveau
shu
Malo
##äus
gris
2557
##тка
при
##ьо
##й
ilmiy
##uleur
Nadine
Hiroshima
Jour
##née
dit
été
mort
##öping
IK
##arna
##ело
##wde
mile
Bowling
formats
listing
major
Coldplay
##chute
hear
##κη
##ρος
Γ΄
##ει
##της
##ēs
Curt
##ikon
Thema
##nios
##issen
##ksia
##äs
Digest
Commerce
Laws
Harding
Gould
Hope
##didae
##onna
##nstvo
##éro
431
Napoca
Samson
##valent
Cotton
##organic
Wiley
##oke
##nard
##sita
##reta
Marconi
wat
mata
004
gross
Cherbourg
##mony
##quiry
Found
Banks
Fleet
torn
gros
Triumph
Byl
466
eds
##cole
881
##ntado
biology
survival
environments
Titan
Autumn
Henrietta
##leen
##esco
RK
Pearl
##inha
##dka
cai
##issima
Ginger
LCD
GM
Universität
Much
AOL
rhythm
gospel
siti
Feat
Hold
Blonde
Mt
Impossible
Arenas
##eș
##quera
##cesa
خراسان
Stranger
Rockefeller
Tracy
Charlene
Brotherhood
Waves
Dock
##lands
##resu
Roskilde
##borgs
##ätter
tenha
##ästä
094
تو
##س
ط
Tous
##ūs
##ού
##inius
ها
830
1220
Lori
##rë
##lë
Est
##më
explore
Tbilisi
Higgins
Ling
sky
enda
##ôi
##urst
Ogni
##zika
2n
##uchy
##dlich
##blad
##czyński
Niels
##plication
séries
##ári
Maia
KP
RPM
##ána
##së
##citi
##ability
787
Rowan
Atkinson
Bingham
Ethnic
Elva
dekat
♦
##eption
BT
Mission
Lili
Anders
Drake
Mello
##bulo
Haley
##kban
Parlement
##pée
Jeune
Fontainebleau
Lycée
Oxfordshire
Schwarz
1325
##dise
Algebra
焉
耆
Annotated
Regions
Section
锡
格
沁
地
面
寺
院
錫
dì
sì
漢
書
Hàn
博
斯
騰
湖
##³
南
820
##ális
usan
Toscana
1175
##kong
bd
DEM
ESA
Chili
Peppers
##έμα
##έματα
1350
apan
seventh
limita
magister
##sides
Ivana
1180
Programm
滕
##īt
##ۆ
##لى
##kungen
##لد
##كو
040
嘉
慶
##šen
##pense
##erii
##ulatus
##hynchus
##ceps
马
兰
公
安
管
区
1150
1194
1186
##ztor
Daly
FIDE
Linares
##زاده
شاه
tegi
##gid
Commando
Hulk
Hogan
##ndos
dad
Tampereen
##linen
prins
Warrior
Gard
ჭ
##ან
##ეთი
ლ
##ზე
##თი
##ική
##ziki
##zica
##pona
batu
##dila
arme
##köping
Audrey
Hepburn
falso
1035
Oktober
##atte
##ufs
Sven
Copper
##ازی
عن
##يون
##yū
dynasty
##dku
1037
edited
vols
ل
بزرگ
1424
##ruh
1745
Elise
roads
informe
painting
##rique
##iako
autre
Ronnie
##oin
Latino
Frankie
##mbia
Dreams
Bees
Petty
##haga
Krishna
##dhan
Ghose
Goethe
##ndia
Majlis
Yoga
Bande
task
3e
Varela
Grosso
Castilla
##ño
Vázquez
##dez
##entino
##nsen
Jørgensen
##ination
##nod
Här
##ösa
Mitt
##tete
Noël
Dass
Renoir
hommes
moi
##sters
##skolan
##enska
##råde
##ära
##bildning
##nä
##rns
Kraftwerk
##bij
Gravity
liv
##illes
Hawaiian
##rude
412
642
##ady
##istant
Khu
mimo
Kohl
##lone
SPÖ
##lido
##ït
rode
veste
CDC
1624
Eurasia
Owen
Benoit
Browser
##ecko
##nque
NN
##eet
##creen
CSS
border
ICC
1718
powered
UNIX
Phone
486
##ыл
Violet
usato
nominations
Chávez
Blind
##tria
Could
Cassini
کوچک
##ček
1155
##rew
parallel
Dunia
1548
Kazimierz
Augusta
Andere
##ners
21st
greatest
films
##mpf
##ieme
749
Drago
vele
##στά
##ύρος
Евгений
Он
##еги
##tike
Esperanto
ordem
progress
Browne
##sfeld
##tenberg
##chow
1288
Biller
1684
897
tabel
##łę
indication
green
Silla
bong
##kry
##idia
##nii
Hokkaido
##veo
Hohenzollern
Eit
بخشی
Menge
Languages
##saka
kinne
seme
dom
##تار
қ
##обы
تا
##باب
र
##बा
##ब
Italy
##اشی
##շ
##ու
##ղ
##შ
##უ
rama
Patent
##ilan
derde
drog
##cok
##gav
usare
##hone
Abdel
##seen
abuse
warning
message
Advances
##bolism
Miriam
Bianchi
Ríos
bien
Biennale
Oliva
##perto
##ndent
Clair
Sense
Lozano
För
##rnas
沙
粉
蛋
卷
##nensis
##ocha
##tium
aquatic
北
烤
鴨
菜
系
Jiang
Fujian
Zhejiang
Volleyball
##reia
##érica
Rouen
Reilly
Rubens
Rembrandt
##diyi
Christine
Crossing
Gros
dug
nat
PHP
hijo
##onos
Prado
vardır
##orden
1636
##ones
halve
étude
phénomène
##okus
Chatham
1160
Iulia
Mihai
sân
Lynx
spider
Reza
##ρά
##χνη
Petersen
Vance
Mueller
Hancock
##guin
##itsi
##réa
##eig
Roads
Portable
Napoléon
Tolosa
##orce
Pentium
GPU
CAD
##asia
##icidae
##leve
auto
##arz
Bluetooth
AMD
##iation
Leopard
Panthera
hardware
619
Spot
Photo
Booth
RAI
CPU
##ntos
Active
Directory
chip
1224
##öfen
Ел
##аве
Иванов
##ище
##нко
##uster
Tomorrow
Byron
baru
##إ
##ِ
يا
Image
early
days
acting
Stage
##parte
Elephant
##½
##tings
USC
frame
layout
Leta
Sidi
XXV
##DNA
Travis
Nicholson
##ymus
Cancer
Robbins
##ologic
Basis
9th
Elsevier
Estero
##fante
##uary
Catch
Kaufmann
Irwin
##ët
valid
maar
##hoz
##rida
lah
##skar
σ
##öss
Technische
##isches
##chnik
Polytechnic
ranking
##2013
sorti
value
region
stars
Magallanes
##árt
Chile
##agle
karne
hp
Operator
##lude
maal
metodi
ends
617
ERA
神
kami
Palau
rai
1219
##ві
##ац
##ійний
науково
тех
##нічний
комплекс
імені
АН
ім
Pardo
##qlar
##شید
##الدین
##ضل
##الله
##riba
Isto
##riko
Literatura
isto
Respublikasi
##ара
##қа
##стан
Республикасы
##حن
##فية
##في
##tym
##غی
##vidas
##awn
Intelligence
Constance
Captain
Sailor
Scooby
Enzo
Alone
Invasion
##igue
Patriot
Problems
##ogy
Reference
言
##ois
parle
语
Dixon
##heritance
spoken
languages
##ttua
intel
speaker
dialect
Quan
speaks
several
distinguished
dialects
nei
字
官
话
話
吴
吳
語
闽
閩
粤
粵
Guangdong
##uang
Ethnologue
Primary
##fast
##bhar
Citizens
Abbey
Players
Closer
##Pherson
##fare
##cali
##two
Webber
comedy
secrets
relationships
##anus
danger
##euses
Antonius
##patra
##serie
##dote
Sion
departement
乌
帕
尔
爾
##pà
##ěr
Kuna
疏
附
县
##ونا
##ھ
اب
##tante
Tax
##WS
##vitch
Engels
Riverside
Northwestern
Curtis
Atkins
##usel
##birds
Rote
Vieira
Rojas
##kern
australiano
Jie
china
938
晏
紫
pun
southern
##nki
Peugeot
##yton
Citroën
Slovakia
Hz
##tett
electrical
length
##quam
##uine
define
1611
Stift
stile
1638
Alte
Paulus
chiaro
User
##phile
##utier
Luisa
assisted
learning
Lingua
Enterprise
valida
##вр
##ео
##иев
Виктор
Андреевич
##pens
prix
##phine
Arco
inspecteur
revue
##gast
Bataille
Clarendon
##ores
##cera
##pping
Malone
1412
##iken
##trus
berg
##rouse
Rae
##spect
##pado
Agosto
##rophe
Powell
Godfrey
##presso
##ratu
470
##quina
marina
eriti
Maestro
Libro
arte
##nese
pipe
hon
##esta
##tate
valet
##lito
1549
##posizioni
Giang
Tutte
Tutti
##tua
##inario
Cremona
##erate
Vincenzo
Corrado
##tese
##mido
moderno
Felice
Nuovo
alla
##canti
scienza
mang
##iare
Emilia
grana
Parmi
##giano
rico
penn
##zany
primo
menu
consisting
moment
ji
Wadi
##ivo
fonction
prend
##ité
##nelles
entier
##pair
Nauk
progressive
Ravel
Additional
Going
Try
Lives
Invisible
##xos
##ussion
Violin
##ën
##cios
##usso
saa
Asunción
##utz
##ncu
tj
Brunner
津
市
总
规
划
获
务
批
复
定
位
为
经
济
，
人
民
网
查
阅
##room
Marisa
Tome
##arri
##phin
##weisen
bron
Boiss
Henryk
Édouard
##raphic
Gert
Acta
##logica
##etem
##cars
shore
Benoît
Brookings
Terrestrial
Planets
746
Planetary
asteroid
Solar
##blem
Effects
Structure
954
##zards
Comets
Asteroids
464
Cinta
Sikh
##ision
Beatty
koe
maximum
elas
Mineral
Vanderbilt
sait
sura
438
Innovation
Silber
##zeit
Fußball
Emden
Fuß
Административно
те
##рри
##тори
##альное
деле
##ние
Азербайджан
##ской
Республики
Президент
##бл
##иот
##ека
Баку
##рд
##стана
Давид
##ур
административно
Союза
ССР
января
года
Издательство
##авного
##правлен
##ия
##муна
##льного
##оз
##ства
НКВД
rayonunun
1135
##hez
哲
宗
1126
externa
bello
files
hearing
kHz
吉
備
真
Fujiwara
##nate
幕
府
Select
Documents
1185
1333
1573
Tokugawa
1603
##aggio
##ío
##smu
##tavu
Circuit
##quent
façade
procès
onze
membres
pré
jeunesse
Chaplin
Garrison
سن
##جا
1361
##sima
округ
uma
Bronx
##ntial
##lux
Klan
Heidi
##ences
Avon
##wain
Afrikan
Sharpe
##grund
##berley
彭
帅
Côte
Jura
##éral
Valentin
Emperador
akik
##ôme
##session
craft
fini
Côtes
perda
##sible
Practice
Process
spirit
##eries
##irect
##lazi
по
асфалт
##иш
##но
##щие
Има
ша
##нс
няма
##ят
##елите
вина
остава
##tavat
мен
##чите
##лк
цел
##ува
ти
##ъка
Най
добра
ду
dobra
нар
##очно
ва
Не
##що
не
##вер
##оят
##tno
##ив
##ей
ми
mig
Св
##лим
##ент
животни
любов
##най
##от
##ото
##aio
##hanna
Bellini
1470
##ican
holy
mise
pau
Magna
980
983
Goch
984
994
##ridae
Sharif
Beatrice
##quez
##ronica
##uncia
##ario
Montréal
teatral
##tela
##soni
LED
Vitoria
##eiz
Elevation
##titled
##nimo
##coe
##force
self
ने
बना
दी
जो
##डी
##rits
##uska
Kapoor
##usk
Phi
Taani
بو
##ūst
Tras
##biology
tida
044
Shirley
##sart
Nemzeti
##jnokság
Bp
##ást
##véd
##városi
Dari
eles
##marque
Associazione
Lega
Mircea
parties
Isso
##zou
Executive
Disco
occasion
meeting
anniversaire
##parti
rise
opposition
party
koha
##ection
législatives
comment
##aire
Afrique
Rapport
Président
##égi
octobre
novembre
##cratie
franco
department
government
Hegel
Preis
poverty
Puerto
##psilon
shop
##pito
Bartlett
##gione
मा
##ई
##म
इ
##ज़
खान
##dira
Altos
##asu
##kih
vez
##cât
ġ
##ġ
hoy
hory
tons
ŋ
Horizonte
Башҡортостан
Республикаһы
Respublika
Республика
Башкортостан
##рия
##ьно
государств
устройство
Башкортостана
гг
##щее
вв
##едение
##ал
##тов
##лд
##аш
##баев
Китап
##Х
##рест
##тия
истории
##ку
##менты
материалы
##ней
##ших
време
до
##уме
##уль
##кар
##нае
##пов
##рат
##кая
энциклопедия
Уфа
##рская
603
672
##erat
##С
год
стр
Ен
##ике
##раво
##вой
статус
составе
##иле
##лас
##рк
регион
вы
##бира
##ют
между
##сией
Тур
##цией
050
sodan
sunt
##vita
transit
Чăваш
MSK
regnum
노
##무
##현
盧
武
鉉
##clave
Creation
##lingen
969
##sling
A8
Sing
##schule
Grundschule
Werk
folgenden
Personen
##bürger
##recht
verliehen
645
prezent
Seal
Dunlop
##ssia
##weiler
821
##țe
##ernity
works
musical
settings
Hulu
Messier
Ellington
Manny
Durham
Colt
Lovers
Fitzgerald
##yron
Winchester
Jared
Pada
Ruby
##iron
Motorola
880
##ése
1750
universelle
##ologo
januar
anniversary
##scope
##otis
Galerie
Nuit
##gente
kann
än
Bahnhof
mehr
##fern
Jugend
Gewalt
Bundesrepublik
##länder
Jeder
##sische
Panthers
##forschung
Pluto
Ich
habe
studier
tage
##szeit
##läufer
Drei
gewesen
Massa
##hung
##slag
bond
Fleming
546
seek
IPA
sick
##ɪ
spelling
spelled
copy
conserve
included
context
##tko
Во
##йна
про
##до
##лж
Gustaf
Canis
Concept
Pampa
Copeland
##icato
artis
Yvonne
Guatemala
வ
##ே
##ல
##பி
##ள்ள
பி
##ர
##பா
##ரன்
Nebulae
Clusters
Szabó
radial
rule
membership
planeta
nebula
cluster
Rua
Kristina
Marca
Guilherme
Liang
Huang
##huis
##udet
OL
collection
5500
244
PGC
Sicherheit
##sdienst
##brunn
Plain
Tribe
Ordnung
Reinhard
më
##jë
##ër
të
Dora
##ënë
##zë
Garry
Wilkins
Nightmare
##кон
##оми
##ческие
##ай
##skie
principal
uncertain
kuni
##pelt
396
Ware
Kawas
Ramsey
Toulon
Myers
mechanisms
paret
Ames
Carleton
McLean
2535
crew
unions
Machines
2552
##dzi
Midi
##lusi
Karya
Pela
Parallel
##vader
Masse
cite
##inni
Carey
Mariah
Presidential
Deluxe
VIP
Игорь
##ита
##lity
2548
Krasnodar
Galileo
Descriptions
610
##pais
slow
Reus
Adel
##zetten
##руг
##оном
okrugu
criteria
decision
methods
comparative
Dordrecht
Netherlands
Environmental
complexity
##fying
themes
358
evolution
OCLC
ratio
manager
Updated
researchers
prac
management
Foley
Archived
##tty
reduce
accuracy
confidence
Teaching
##cents
course
ado
maker
psychological
2542
Guo
effective
managers
Manager
Career
coach
building
college
1088
communication
Personality
Psychology
##luence
aria
##charts
##лого
##аст
##annen
Gertrude
Dies
Radcliffe
rue
Picasso
Vichy
strange
Phantom
Oise
##emble
Armand
##ières
Stafford
Rooney
Duncan
bicolor
##âtre
##lique
Kwa
Selon
lat
##šu
##ļa
##īs
jis
##iej
tuo
##ļ
pret
##rā
##šās
##cei
##zej
gols
nagu
juo
##ibu
##žo
ļ
jau
##vku
##īn
##žu
##ņu
tai
jie
Balzac
Milton
Cervantes
Sancho
Blanchard
Rudolph
Rowland
##rimage
##nnes
##rivé
train
gare
chez
##tidae
##là
##lá
Valparaíso
##nosti
RF
##treden
Transformation
##ên
བ
##ོ
##ད
་
ཆ
##ེ
##ན
མ
dà
西
藏
学
鬼
婆
folklore
364
ovu
Terminator
##vation
Anaheim
##finder
Goldberg
fear
reported
circuit
disparu
zone
locali
##sée
express
disparition
avion
heure
sous
marin
recherches
Cedric
Trinidad
Shiva
Ottawa
##hood
##kami
Fargo
##cedir
##rí
Olaf
Í
##jó
Jacobus
Fonds
##acker
Antwerpen
##őr
VT
Egy
##eté
##ály
##dás
Ú
Corner
Downey
Sigmund
Expedition
Wing
sends
animation
##aring
Pride
##umba
##idas
avea
311
##lnu
3166
##áh
RJ
##ufe
Hicks
##PER
##jave
SED
1254
##aten
1240
Bogor
##arki
Stefana
##kár
##RN
Noire
posti
1338
Negra
Matilde
President
elect
Ávila
wing
poll
presidency
Flores
##americana
##ñas
Velasco
ա
##յ
##բ
Բ
բ
elever
##bera
Griffith
##рои
1408
1425
1427
1411
Գ
գ
##ի
Դ
դա
Ե
չ
ե
##ջ
União
Sichuan
宋
锦
云
Nanjing
蜀
ESP
Júlio
Soares
valley
gone
マ
##キ
奇
襲
L1
layer
base
VF
repeat
relay
Valentina
Զ
զ
Է
է
##ï
Hodges
NED
Infinite
Slim
##unia
starb
##mki
zon
Gotland
##rgie
boom
feeling
##ulent
##lado
küla
palazzo
maso
##pune
##essi
Documentary
1401
##graphs
noe
Built
Urbana
Honoré
Democratic
##ginal
##rés
Helsingin
yli
##llinen
keskus
##raal
universitet
##juk
##äti
##rvi
##ijas
##tán
Martí
hosted
Թ
թ
##օ
##ո
##iology
##sser
mening
##eji
depi
Scale
sept
Encore
sello
##wia
ff
##imme
cine
##ndër
AAA
IUPAC
##plete
##fied
##cleic
##quences
deo
##sers
frames
mutation
Griffiths
8th
##aden
##aves
ven
ute
##zane
kontre
##fung
##SQL
Holanda
financial
india
##dington
flores
Chantal
##azu
VH1
launched
Umeå
1652
kommun
1622
Barclay
##äste
##otten
704
Sveriges
##bruk
Ericsson
Alianza
##cna
##IH
1562
1592
Leiden
1637
##yau
acide
##éi
travers
individus
espèces
animales
##niques
premiers
résultats
elements
faire
amico
##rdon
Emile
##ckman
Mahler
Alsace
partir
Иван
Великий
1462
1485
Rusi
1483
##rtus
Newport
Monmouth
1280
Isabelle
Lucien
##hain
UGC
694
##gico
canto
Ashton
##mondo
dolce
suono
sei
##bato
pie
suo
favore
giunse
Quando
estas
Egli
Sulla
tomba
sposa
sull
poco
verrà
trad
Ebben
tua
##eranza
qual
vittima
##mens
è
momento
allo
questa
notte
quel
cielo
sorge
fantasma
amar
altro
##vero
##china
##iega
Lines
Burnett
Lose
Ժ
ժ
##ե
Depression
counter
Friedman
Gideon
norma
give
Katharina
Deer
##itia
##scus
##etus
##banks
PGA
Boxing
Truppen
Tiffany
Truman
Breakfast
Holly
Bonus
Genius
Harlem
Comes
Glover
kirja
belas
castle
##felt
##ölt
##hoven
Strategic
##nach
##richten
##dienst
##fficial
clar
##вай
1278
王
维
林
##huld
hero
revived
courage
##drome
flota
##otas
proses
attached
Infinity
Details
Surface
Alexei
force
gula
Pepper
prestige
jail
god
trailer
maps
##muşdur
##pment
Tone
Tigre
Dario
Ellie
##keeper
hely
hostile
pair
Low
Hazel
Would
المنطقة
mint
##طق
##ات
##qiy
##éry
viewers
Bentham
078
Jukka
Jussi
##iable
037
Follow
abu
##ramm
rete
##ministerium
##lotte
##niem
scores
premiere
Manor
Dominican
##utati
##väg
##hden
##station
##iä
##cote
Majesty
Lafayette
poets
poet
##books
##try
Rosberg
Heikki
Vettel
GP
Button
##شر
##onne
##efficient
Analyse
##rker
##atories
Hanover
Armee
Führung
##küste
Dänemark
##öhm
Silk
XXIII
lalat
Syndrome
3a
Quiet
Launch
##dba
Tallinna
##essa
##brio
Auge
##ʊ
##ʒ
##unki
secondaires
produits
##ocke
novels
##gical
1614
##сход
##Ц
##arre
##rax
tail
##eaux
Roubaix
517
mouth
##katu
##jön
##eningen
##fund
Diesel
Լ
լ
##ւ
##ն
##յուն
Baird
Bianca
##igne
##tach
ক
##মার
শ
##ান
Bollywood
##none
Ukrainian
##dess
Gender
Satz
twentieth
concept
##så
Itä
##keskus
Östra
centrum
##mä
##tien
##kott
##tton
367
##losa
595
TSR
reas
director
##isten
##kanie
928
monitor
##itter
Juha
##iai
Ardenne
aviation
civile
Quo
##inii
Gora
##putat
Ծ
ծ
Ձ
ձ
##esse
Bates
Apr
Estudiantes
##uban
##epen
sinensis
##kich
arter
documentary
Пер
tracking
Brother
GDP
##tief
Venice
MCG
Macbeth
Jessie
Educational
##woman
brit
Slater
##ffs
Americans
comeback
medal
Марина
##сов
sg
Veronika
Akbar
remove
Named
night
mot
Huston
##itur
##gné
writers
761
904
Cody
##voir
Orson
Citizen
##flexion
juive
878
meaning
1619
kanan
Existen
##tial
formation
masculin
Berghahn
571
existent
##èn
##uchi
Censo
##rship
theatre
stali
802
##stitute
##stitution
cinema
##lnie
##teur
cent
##yai
Molière
Rivière
##laas
15th
Jameson
Louie
Room
optimal
lt
viva
1234
Kidd
agrees
DF
##rchen
##nih
Kaiserslautern
##dakı
##odas
##onan
ran
Vive
every
Titre
bilik
Banu
Fantasia
##loma
##dalis
Denny
Concise
##bly
folle
duen
peu
Կ
կ
##urio
##τα
Ordine
kde
primus
lega
legi
tribu
##ctus
##arii
##āta
##īti
Militar
volley
LIVE
##™
console
gh
Members
Dort
##úe
##bros
##otta
Ridley
AMC
##mington
Հ
հ
Ճ
ճ
##է
Մ
մ
##yên
جبل
##ين
next
Following
ghost
terrorism
accuse
chief
bomb
Count
Sector
Linkin
Hercules
Reporter
Reykjavík
Fashion
Exhibition
Lux
Visions
##ção
##bral
pelos
dois
Reprise
musicians
Papua
##reich
##baud
##valy
##timas
Oggi
Shepard
##cope
Hopper
##2000
##NK
advances
exhibition
Indigenous
Havre
##ffen
##havet
quantity
Geiger
##ilas
##utat
duty
Gosse
Meter
##cutor
##sien
##Ω
##åland
015
Drs
##pios
teatro
##pei
##cora
##llius
##šće
Михайлович
##жный
##feln
Rohan
##owy
##iado
Swimming
##aler
Traffic
Estonia
Darling
esprit
typ
Common
humor
Eternal
Flame
Calling
Reno
911
Uncle
Winner
Stille
puts
seat
Hector
Nissan
direkte
Livorno
Uno
Thames
entro
##gbo
##lake
096
ט
##די
קול
##ק
##leitung
##krieg
##itung
615
fine
bars
##tell
sing
##fronta
failed
mental
processing
thinking
Serial
architecture
developing
##¬
structural
uni
theories
Everest
##hando
##elet
##hers
##erici
##venu
Keynes
Maynard
monet
Partnership
1707
Tempo
##itaire
liberté
##dica
Yearbook
##riés
##dische
##tliche
Recht
##ölker
899
1443
##schaften
Symposium
Swedish
condizioni
sociali
Turchia
Seminar
rapporti
Unionis
Situation
Arbeit
##nehmer
Dokumentation
Instituts
Zusammenarbeit
Demokratischen
Dezember
Apache
database
Northampton
yoki
Clare
##инов
##što
##itten
##äck
Cantabria
Duval
##ási
##cò
Vuelta
##ław
##ewski
##ków
##oia
##lates
##ycling
stan
Farnese
Sotto
PB
Michał
##gner
Welsh
ناصر
منظور
Kao
##nique
جمال
##بار
الدين
حسن
الحزب
الوطني
##دي
##قر
##اط
Begin
##ggy
Lilla
周
杰
伦
Taipei
mando
Hornet
838
##graphie
mitte
##tinis
##rako
corpus
qu
##ionar
##рв
##fand
Израиль
##ель
##фан
politische
##unden
Ausgabe
europea
Erinnerung
##wissenschaft
##ух
##щин
операция
OP
operation
1293
Spike
Ghosts
compound
stella
kuat
Andromeda
Billie
Dangerous
Commentary
##žan
Srbija
##rissa
Levante
Ioan
##gador
alter
bold
##élie
##روز
##یبا
Tā
Things
##ری
تر
##بت
##dbe
electric
vehicles
pollution
factor
plans
electricity
Leaf
Honda
EV
starter
Mess
##misch
Moritz
ancestry
print
automobile
mild
Edison
pick
blue
miles
gallo
##vings
Marta
Scientists
wheel
foot
##tish
mph
646
matar
includes
sounds
ICE
PT
##asto
lea
VP
621
recommendations
charge
##eem
Hiroshi
fordelt
må
vehicle
sales
ont
brand
monthly
nov
graph
##vikling
Figures
registered
ventes
voitures
électrique
modèle
541
##autor
verk
naar
##tration
figures
mixed
bench
##risch
rijden
detailed
Vaux
categoria
##ulte
##tations
1157
##به
جام
دل
##یج
##ندا
كم
##يج
##jā
محل
##او
##ازن
##فر
914
##أم
##ونی
Ecology
打
っ
掛
け
surat
##kku
##مه
934
Sinh
##bna
efektif
919
Crew
Hooper
Mackay
veteran
##egan
##ischer
Konstantinopel
Vergangenheit
Gegenwart
Mohr
##rekin
cui
##ulation
Ambassador
Barbados
14th
held
annually
went
##osse
Scouts
Bravo
recording
academy
Gamble
approached
backing
driving
arranged
singer
Prior
collecting
presentation
Upon
reaching
podium
##marked
nominated
proof
lifestyle
alcohol
drug
respect
follow
drinking
words
returned
recognized
ambassador
recognition
disa
Ranch
##tainer
receive
certification
mest
Methodist
Jensen
Exodus
##leto
Bloody
Celebrity
Bosco
Almost
Vega
selon
##Ψ
pilota
Poison
pois
module
item
Athens
##itori
1342
##шал
##ук
پا
##شا
##لو
##tene
Ime
workshop
##dence
tenor
502
Factbook
Branco
Commander
##μαν
##ρία
##kamen
Strukturen
##ösen
##lyse
##ologie
certificate
##graphique
plaque
mémoire
culturel
éducation
populaire
duca
avril
fotografi
photographie
Luxembourg
mathématiques
collaboration
##inaire
##ématique
médecine
centre
universitaire
##ographie
écrits
comprenant
Maschinen
kartu
personal
defense
weapon
static
##vingen
Groupe
révolutionnaire
##istes
Conseil
patrona
français
Regular
defines
##eritus
Domingo
##ência
##ério
Gonçalves
Când
具
；
Tadeusz
از
##نا
706
##ruce
##وج
##رد
##ruje
نور
##دور
پل
##خت
##active
Vieux
Colombie
rois
##bito
##tingen
##stico
##lidae
prin
Campeonato
Interior
alat
##ggo
Morten
Vladimír
Slade
András
Horváth
039
جا
##خانه
##jnu
##وان
##īr
##گن
##بد
لی
##ک
دهد
##شت
کرن
غرب
##ahu
Ghar
اسلام
هر
##سین
جوان
##رو
##سر
apud
##estiones
##viv
##loge
Fink
##ال
خمس
##مين
Saints
gagal
Oulun
##kylä
##hto
Madre
Radu
##cules
Universitatea
##vés
##ètic
Espanya
Esta
##iola
Societat
Núñez
ک
##نگ
##اور
قصر
##voje
Jury
café
coffee
Veterans
Statue
##dlo
nation
conceived
triangle
formed
arcs
circles
1719
##shof
Glück
1709
1715
Pommern
Mecklenburg
CDs
##racia
cable
##ας
##ticu
Bonner
##sprung
Spitze
crystal
##Bride
Interpretation
رو
##انس
861
##زه
Salas
##پل
ذ
##هاب
##هر
##نو
##roft
##baran
##دب
##ران
derived
angular
diameter
yield
million
##agne
029
Galiza
##stid
Chao
927
کوه
##بن
من
قلعه
##نج
را
##بر
##ور
Alegre
security
Cooperation
174
##gência
##ícias
Denkmal
Juden
Europas
##nès
Opposition
958
Oued
Vater
##partei
##itischer
828
##ziali
##stische
Korps
##school
RSSSF
##≠
011
Kontakt
##soma
heden
andra
##regat
stav
kolem
kontakt
minerals
##trice
##čani
kode
##رج
##رن
745
Iranian
Mighty
Sting
extends
options
Manning
salvo
##piller
Tommaso
bang
Caracas
NSA
##ives
FIPS
##nted
Resource
##eep
##yoshi
Oswald
Xiao
Yao
##nière
efficient
vector
##zyk
collision
##oux
##aniu
Shandong
ASCII
changing
produces
values
nothing
keeps
removing
depende
allows
implementation
instructions
Multiple
##gård
construction
XXIV
miss
Prima
Divisione
Seconda
Straße
Ministers
##sii
MV
##یی
##نز
Landesliga
##sliga
##stos
##isme
##cking
IFK
##krona
##eson
Pinto
Fernanda
Batalla
生
き
Watanabe
male
Faust
Hieronymus
##سا
858
##یری
##عاد
##تش
Pasar
##gad
##ير
Mesir
##ص
##وست
Nobody
reads
##كان
##اج
##رگ
فارس
##yder
##زار
چ
##گرد
##digan
##گان
arch
047
Innocent
albums
gift
score
mich
##gona
##وم
763
##هی
ما
AH
##فت
سیاه
##کل
سازمان
##که
##ای
خلق
ه
##پر
##تو
آزاد
596
Irish
كل
##اله
ترک
کرد
##پ
602
##kuwa
integrated
##sny
##AX
Kuwait
Darkness
Jozef
Girard
Cycling
Sensa
govern
##hār
Ī
Persia
عرب
تركيا
jos
##δος
##χει
της
##ίας
Tartus
##nud
##mose
1472
attempted
##ccupy
former
supplied
establish
leave
garrison
island
Clemens
##hku
prison
fellow
died
refused
offer
goods
##uré
##tré
##yuan
Hongkong
的
智
慧
對
照
香
港
出
版
編
譯
newspapers
862
##dalo
##cant
Snooker
tournaments
professionals
compete
alongside
amateurs
kuwa
Scotia
Pony
##яв
мост
tours
Brunnen
Davide
Coppa
##ingar
Traditional
tipo
Housing
Umbau
interface
pattern
##linger
##wki
Everything
Inspector
##jci
##buat
Turm
1146
alde
mori
Dakar
##ndig
winter
Rather
Doris
##arn
##vost
TIME
##Č
NEWS
Reports
traffic
Countries
tire
Lowry
##pool
##combe
##elsen
##kirchen
##twy
hk
thrash
kymmenen
##ptica
Essex
##shima
Ivory
Sheriff
Hahn
L2
Varga
##kasta
##gnant
##loa
yillarda
Vana
Петър
Nunca
falar
sobre
Elisa
Polish
Rate
election
##rät
月
氏
##hì
支
##kwa
unan
opinion
Indo
probably
oriental
occupied
Το
##allo
introduction
c4
##ǎ
387
##uì
1231
1406
tribes
north
nul
##νιο
##ίνα
##να
Summary
late
emperor
purple
narra
deed
celebrated
secretary
##sheim
قد
##باط
##کری
شهری
بشر
##وي
##ynie
##adar
فرد
1239
نه
##ئن
##ایا
933
##بی
##نین
##بود
##هن
##گ
مل
##زن
Tuy
##يس
##ناب
##رسی
##شم
Gibbons
##ddon
happen
worse
really
notice
slowly
Climate
Lecture
Nov
##arter
Temperatur
Zug
##mmes
سو
##سن
Ā
هفت
##گل
##piä
Sociedad
هند
##یز
ای
##ذ
##رمز
##nement
##niste
##شی
##كة
Roja
آر
##اق
##لا
دار
##ريد
##پا
PAL
Olivia
Lleida
##lding
ABA
Jaén
province
Aragona
arts
jardin
terre
five
moon
Merkel
update
writer
##ained
following
violent
protests
##ntan
beyond
##frontation
Qur
##urat
Agence
Presse
bilan
Hague
##ços
1374
Margarita
##vist
##wm
fights
Groups
##cena
Valerie
relief
resources
##niego
Township
Rutgers
variety
##edet
Jordi
Torre
Phoebe
##iflora
herb
Reggio
nell
Carrara
Lucca
pruvincia
589
##monte
Genova
lighting
engineer
##odni
viti
##folia
Crimson
##odidae
Coccoidea
Dewi
##vato
##olia
جدا
##ادر
Terme
##aration
office
Јован
##овски
Homepage
conventions
ROM
ospita
##lgo
Bonifacio
##koa
##aia
Mancha
##pelle
Samoa
Harbour
Tonga
Alois
Damian
Lui
Barlow
risale
Tyson
TN
##croft
##cations
##oine
Antilles
##ttir
reggae
Cuenca
provincia
세
##븐
데
##즈
Cáceres
resolution
need
achieve
pari
##ïc
##uur
Director
celebration
projects
Albacete
Burgos
Viola
zna
Premiere
1258
1255
##nadi
##esté
Raoul
##tario
##ím
1262
1265
##ût
Badan
##tuti
Neste
##graphia
##niti
kora
admiral
أمير
commander
navy
Merriam
line
882
Ἀ
##νε
amin
##aina
##fod
##iest
editing
##RNA
Badajoz
Extremadura
Claudius
spp
##intes
##éter
developments
Taxonomy
Recent
##plications
##ights
filum
##dii
homi
sapiens
ook
zoon
##oses
RL
Guinea
Bissau
aspects
##etat
Ritchie
infant
antic
examination
##pide
##mom
##gino
Changes
Kylie
Minogue
Mindanao
Bangsa
Luzon
DOM
began
Companies
Extension
specific
Azərbaycan
##əyi
##ərə
##əm
Feb
styl
##sjon
##byen
##ønland
##øk
##iske
##ønn
##åt
##banen
##æt
bane
Occidental
##ingo
Nueva
##cija
Vizcaya
##izal
##kirch
##enau
##klub
Vienna
##mins
##naire
Looking
K2
959
Towns
Ove
##enty
celebrate
abilities
Deadly
Canberra
Spiritual
##jur
##gården
1554
1553
Aleksander
1372
##dori
Tehran
synagogue
Really
sustainable
policy
##erda
Entwicklung
erne
##baren
Energia
Jahr
feed
##eilung
952
farms
challenged
##nological
##lase
##áez
##ensis
Antioquia
##ennes
##butan
##baret
Hunting
##teller
Speaker
##viny
##hiu
Changing
Пол
domina
##lech
Schiff
##jama
##dora
##ngan
Provincia
##cura
##άλ
##ος
##eniu
paid
##kyn
##egos
Autor
1367
Villanueva
aside
##dorff
1651
Elliott
dont
paraît
##ïs
composer
livre
##èse
##ploring
Testament
##luat
Contribution
Geschichte
##cism
tomar
vare
##logia
McKenzie
##istic
Fortress
Biblical
Schmid
sogenannte
aura
##roise
##édée
Petite
##iens
Lana
ZDF
Marche
##ovaly
Viscount
romance
##uvia
##vint
##rium
Switch
protect
domestic
##toi
Pruvìncia
Trentino
Adige
Francia
##onica
##mpia
Minutes
autumn
olive
##pecies
##ifolia
wood
landscape
ornamental
characteristics
sheet
Agricultural
Lists
##singen
Bianco
##fici
##vao
Webb
697
Bukid
##idar
house
trip
ambient
864
Tiberius
##igu
##dse
Hellas
agar
ß
##tami
visse
genus
virus
##уар
##tev
##iera
NB
##bourne
##nsky
Whitehead
##vait
blir
##ups
##ipper
Albuquerque
conta
##ezik
falling
##Ρ
villages
Peel
Gonzalez
Carry
##dry
Ode
Durant
Kyle
Desa
corto
##giver
fighting
hidden
meets
learns
##power
could
##tling
together
ways
across
finds
assault
facility
preparing
scale
equipped
armor
lights
measure
manages
complete
array
contact
find
##ention
block
lived
surprise
interested
located
reactor
kills
spite
destruction
##ück
##olari
join
tournament
Ribeiro
##koj
##doni
owned
##iting
Olof
Circus
Kensington
Clapton
##gentum
##dius
##esos
##sworth
Carthage
##fuhr
productions
##riers
Spice
Owens
##kkel
Melchior
##paro
Suid
##bán
Gonzalo
##flora
Alaska
Plants
##oides
##rega
Stato
Città
Vaticano
canon
Churches
Ecclesiae
kardinal
vacante
##regnum
##pien
ἱ
##ερά
sedes
Jaan
și
##dub
Latvia
##enga
Lego
Fang
##jna
##nian
##jud
##karan
##ntang
Sân
##jena
wings
Pepe
sail
##orno
##rania
##qual
##alog
##лат
Slovenija
talent
Kina
##rodni
glas
##voz
Ancona
##ciano
##cchio
Reggie
lake
referendum
Arezzo
##nado
fuego
622
asina
##kovo
##ulo
Yaoundé
brach
Escobar
Strom
endangered
Dickinson
dello
Takeshi
Yokohama
##asure
##cche
##nju
##lust
Monument
##ranu
##menes
1257
##stva
Ewing
findings
recorded
##ically
##ggere
Sunda
757
Jaya
Engagement
Gogh
Gade
##ére
Nagar
Bernie
Cosmos
##ieri
oro
Schubert
Jawa
Rahman
##apan
Savoia
##llino
Basilica
##voli
toma
##vola
gall
##idea
##βα
##уа
グ
##ア
##バ
##ொ
##ய்
##யா
##āl
##etor
Identification
##agen
##yuki
Nakamura
##dium
##uco
##ritos
Jiménez
Gutiérrez
Ло
##ң
##гу
narod
attractions
##рта
та
##бу
##нни
handen
Sacred
Texts
Syzygium
Eucalyptus
Euphorbia
Salix
litt
##oral
cattle
##finals
Finals
##mael
direkten
##idit
803
pode
1244
1267
1266
Scozia
1334
1355
1369
##bré
##lione
##strada
Jamaica
##rych
Warning
fresco
أي
##حي
ˈ
##ˈ
##ː
Missa
Barnett
##chard
Gunnar
##ikai
##rál
Magdalena
Liszt
##sene
Kako
##ared
##oby
##posti
Fenner
##orlog
sacra
path
##pino
##tanto
##inia
hir
##pato
Prata
##match
##tains
Morro
##telle
Teodoro
Selva
Humberto
##rrido
##نة
début
Reprint
##aggi
oggi
##tanti
cens
fenomeno
idea
##undo
Feuer
Fue
##chte
dima
yari
oan
κόσμο
##erbach
Resident
##vich
##brella
##talan
passage
contained
believe
attributed
##amenti
ehe
Grund
##schrift
chiesa
##blica
articolo
adar
##tee
##casa
Calabria
##senza
harr
مع
##ده
##llat
مطار
حلب
الدولي
Syrian
Aleppo
airport
state
Syracuse
Elijah
Rochester
##dios
##meria
Technical
Bibliothèque
Royals
##fusa
Mauritius
##ags
WNBA
857
1228
##ffice
Writer
##systems
german
##lmat
Peninsula
sensor
##htuu
rail
continue
fenn
2551
##oky
Kawasaki
অ
##স
##ম
##ukan
##hium
yellow
##εί
Araneae
opis
inclus
##orium
reca
Platnick
##viet
ह
##िम
##चल
प्रदेश
##beth
1335
Madhya
##galom
##neo
Summers
materials
Ouro
ouro
els
##shan
##lesia
##cation
##tei
##mung
Loki
þá
##óra
iris
Sigurd
##alas
materia
friend
garden
porte
unit
Tripoli
Settlement
##grapher
autobiography
##ης
##γη
##βαν
##των
σελ
Алексей
##ро
##ёв
While
Katalog
UD
##eht
Departement
Dupont
Statistisches
SAP
Pressure
##sbahn
Hjalmar
##hacht
##wirtschaft
durch
Viertel
##jahr
Jahres
falls
Beier
Chrysler
KG
Güter
Wirtschaft
Wasser
hectares
rain
Anhalt
Thüringen
Daten
Vorpommern
Poor
clock
Greifswald
Autobahn
Bahn
##efeld
Consulta
unless
##makers
Gérard
Vaucouleurs
##metry
brun
##mage
mosque
##eito
Tourism
##oksen
Wert
Liguria
Spezia
Accademia
##bido
dl
##nario
##binder
Dustin
corda
canta
Questa
vita
Generale
Vittoria
25th
signore
idadi
Elk
##oval
mesto
Neuchâtel
##ifs
##idge
کند
##هار
##نده
##ρει
##δή
tamin
##astic
##briek
##leis
Sverige
##keld
##jom
Toda
##zut
##jut
juta
##iju
Seinen
Yamato
##amik
أحمد
##مس
##ع
##لل
منصور
##تن
##صر
1242
Haji
##هود
ایرانی
יהודים
פרס
##ים
latim
mass
##rmat
critici
acts
proud
IRA
Bahá
یافته
های
طرح
آمار
##گیری
فرهنگی
کشور
،
##ضا
##های
ایران
##نامه
اما
##کن
مذهبی
وزارت
فرهنگ
اسلامی
1386
1466
Reunion
Contest
Shoot
##ött
##hauer
##zym
Wesen
##vena
Nacht
##neva
letzten
##valla
##yanan
denn
alles
wie
##stod
Nilsson
plays
Cut
##FM
Hydrogen
Rifle
Solaris
Unito
Concord
Hammond
##skt
studied
crash
ea
##boards
##start
Québec
aime
loves
##truire
##énie
##sais
voyage
Docteur
##atori
##vater
##klimat
Maire
##seksi
hör
1748
aj
Mémoire
Radical
mét
##nésie
##karang
##okie
Ferry
inn
##ocence
##trine
##γων
##μο
##ίνη
##μα
886
Marlon
##tryk
##itie
##mberg
Domino
Runner
Satu
جب
##ئي
##خضر
Jamal
##qat
Texte
khan
mur
Jak
NRK
##jem
Nye
Teater
##ddle
##oof
##prisen
##bladet
##ր
##և
##ել
##այ
##երեն
##richt
novelist
##zeka
Seen
Custom
boss
Counter
##tello
##ulden
##bound
Zoran
dat
Constant
##ropa
bella
##dona
##erten
rende
dj
##mau
##liwa
##eton
XXX
approach
governance
Keller
Mestre
heel
Orton
##mination
Chamber
SmackDown
lie
Zack
Garrett
Provença
tha
filho
perdu
##dotta
##onat
##erman
Faber
##naan
##oum
Filme
##stide
##peche
##musik
##äne
Robertson
standing
dating
Until
Mammals
##quus
mbi
Jón
##scal
##ientes
##rja
Various
XXII
Škoda
Bentley
Suisse
ФК
##ки
slova
##inga
צרפת
Allied
Lech
Poznań
##sista
Legends
Bernhard
Prinzip
Geographische
##kreis
##bildung
Henk
Bavaria
Crosby
Peck
Saône
Jochen
Hedwig
##thas
Elke
##hrer
##roth
commedia
Cassius
onore
voi
vecchio
realtà
Quand
##stres
##iato
mondo
mach
##enna
Enkel
Με
##дио
Звезда
им
Ленин
##ского
##мс
Динамо
Jolie
##ratos
##mbawa
Farrell
Creta
ossia
##mbat
##damente
##akati
Gruppen
Staat
Anschluss
Cantal
ק
##אט
##אל
##נית
featuring
Straits
Printing
pula
Kedah
##ngga
Siam
แ
##ต
##ม
##ป์
##ไทย
และ
ป
##ะ
##ว
##ไ
##ป
##ษ
##ณ
##ีย
##์
ส
##ัย
##กาลที่
๔
๕
##ferito
##أ
##ṭ
Abitur
Ausbildung
Programme
influences
student
phase
teachers
##raid
sending
students
schools
less
Saxony
Regel
##sium
Beruf
##chnitt
numer
##prüfung
##plom
Diplom
##xamen
LL
Fach
##hochschule
Studenten
Rhine
Hesse
##förderung
Rankings
Etter
587
א
##ֵ
##יל
##ַ
##ת
wall
##cono
##cido
fue
##rodu
hacia
##ió
Sudamérica
occidental
unas
pocas
décadas
##conoce
razón
cual
nombre
esta
##ótica
último
Caja
##marca
Pizarro
Fury
Cobb
stadion
##padno
ostrova
VQ
##pania
Wanna
أن
##وض
877
##éad
Bengali
Cet
Singapore
CGCG
milk
2546
Andersson
##reate
Facts
Christensen
##lax
Philharmonic
##aben
mura
Vintage
Mafia
Framework
##ôr
##ḥ
##érte
##hier
ח
##שמו
##נאים
##μων
##ῖ
##jai
Singers
##zion
634
1657
militaire
fewer
ensure
maintain
users
price
##vacy
KPD
##lande
##ürzte
##issons
niemal
##fallen
##ätte
##äsi
Hindenburg
gens
Neuen
Bauern
##zeitung
##hner
##critte
ihrer
##kenntnis
Réunion
##يلي
##ثة
##poidea
što
##рас
##ими
##вра
Justus
Erlangen
Cuvier
Chemie
catalogue
Ripley
Minister
Ալեքսանդր
##ամ
##ան
qe
Gefängnis
##länge
Heimat
Spiel
Lande
voll
##alkan
Víctor
463
465
12th
##uvat
combined
supplement
Wittgenstein
Vernon
##making
834
Apertura
Independiente
accounts
Cagliari
##nale
Supercoppa
Natale
Defensa
Justicia
Argentine
##ición
607
Argentina
##minato
##riere
storie
Sofía
lineup
Neckar
elk
fashion
performs
ceremony
friends
eating
disorder
Hals
McDonnell
NZ
##toka
domi
##nero
Theresa
Дмитрий
##ченко
Buckley
Judd
י
##ס
##מין
לוי
galaksidir
contest
##idu
corn
pais
pastor
Brassicaceae
##ctum
vulgaris
references
Lancia
separation
Nm
Saab
corona
##vaa
##raith
marine
##siden
camera
Dolly
Kammer
Krzysztof
Primul
##iak
Runners
##ghter
Actor
living
dream
Comic
Dexter
rating
##بيل
##يب
degree
##rosa
Ĕ
##ḏ
##ía
Ո
##սկե
##րան
##գային
##ին
##փ
##առ
##ատ
##ոն
Olsen
Fairfield
lade
Jurassic
Romans
italiano
dab
##gitt
##etas
##osaurus
Malayalam
海
上
僚
監
Headquarters
警
隊
航
路
啓
開
保
庁
##onsa
##ugar
Eros
Amore
##ivar
circle
parc
Borneo
rookie
average
##uire
##zier
streak
##ensive
50th
Anniversary
Seat
V6
Floor
tung
bias
##totta
##saur
##aurus
Verfügung
Syd
Soldaten
Tode
##psia
tous
1655
1661
##sgemeinschaft
Gegen
##seitig
##keit
ehemaligen
##hörigen
Hautes
5194
Papilio
##åra
##ötland
##lhas
##ceo
##Đ
anglo
Linguistics
Юрий
##есни
Екатерина
##ушка
Guerre
Supply
845
slave
bred
slaves
tango
electron
##uai
##kkus
##kura
##rado
##kach
##mida
Sendai
##shino
##zuki
Hien
Neptune
Arie
Comet
##ojo
Zao
Shire
##manto
Mato
##wami
##kita
##wano
##kuun
A4
Transportation
1327
Subaru
898
Ungern
Фёдорович
##нг
##ерн
фон
##берг
##ningen
1728
##գա
և
Voices
Inga
Seasons
##ệ
■
##ար
Խ
##լ
##պ
##կան
##ութ
հայ
##ենք
են
ս
##երը
Երևան
անունը
Հայաստան
Հայ
Oasis
##șa
affaires
Blut
impresa
Hie
##monia
Piotr
Maison
Boot
Natur
##liches
boat
Salto
##formes
natur
naturali
##lern
Loyola
LOVE
Herrscher
Große
Brüder
Cea
Nicolae
##ești
##hance
##ște
delayed
##chang
Regime
Gallo
Romanian
##richter
Ţ
României
##cii
JP
##لي
الخليج
العربي
Publication
Persian
##iang
##tats
gegn
##toso
söder
##ρου
##νικές
##με
##ις
##Δ
RM
##stava
M2
UA
##ament
昧
##onika
Tibetan
1283
Beograd
##rje
Verbindung
Андрей
##аря
Köhler
cultures
##body
pred
##want
πολύ
polu
##λος
##cible
£1
MIDI
##IO
Леонид
##ове
629
Oeste
##ulosa
unga
##öten
##amine
Parliamentary
Buster
Keaton
이
##철
ty
##оль
##цо
Министерство
внутренних
дел
обороны
##ряд
##ли
ос
##ого
назначения
Cao
曹
洞
Soto
Ō
Training
signs
Winkler
mye
connections
Pastor
lui
parler
Canale
körül
consists
Bassa
Younger
Francisca
Bois
##atus
Esprit
Ebro
Publius
Alpine
native
grew
##igio
dated
Rana
POP
severe
##hode
##usement
SOS
sonraki
##tting
kone
MF
Hispania
##nsis
##pasi
Germania
##trix
##toria
##niana
##tatu
Oriente
##itate
##iae
##unit
Figur
Eugenio
##ngur
##ctylus
turc
mx
conocimiento
##otica
superiores
##icos
##rás
1544
##vue
##renada
Outra
Pauline
Finlandia
qualified
qualification
panorama
1610
##wley
noise
cont
##rnia
ordini
fungi
##kawa
raste
Huerta
##uise
giant
##զատ
ու
##կա
##խ
##ց
##ախ
Տ
##ատի
##կ
Պ
##պի
beach
##iples
020
Reeves
Saddle
დიდ
##ბა
##ნი
##უს
##ულ
##ნ
ქ
##არ
##თ
##ველო
მათი
ს
##ო
##ფ
##ლები
საქართველოში
ის
ხ
##ჯ
##ფა
##sidae
##ungi
##kung
кара
##цы
##джа
1388
##ulsion
reduction
gear
governor
auxiliar
taking
##érieure
Maritime
hukum
ध्यान
rupa
##āra
禅
##dant
autres
##gression
Governor
六
祖
經
頓
教
最
乘
摩
訶
般
若
波
羅
蜜
惠
能
師
於
韶
州
梵
法
531
determined
mann
lines
morning
massacre
commenced
arrived
soldiers
##vancing
nationalist
secured
engaged
##ез
ар
##мян
Violence
021
##եռ
##նա
##աս
##տան
Ղ
##աղ
##զու
##քի
##անր
##ապետ
##ություն
kings
priests
merchants
1392
specialist
grade
execution
protocol
skills
transition
interpretation
artistic
equal
higher
jumping
passes
attempt
valued
reflect
difference
Northumberland
1546
sportive
Vicenza
ἀ
##ίς
Hung
Ирина
Валентин
Tatiana
##нен
ὅ
lambda
##чев
launch
lume
akkor
##ιο
##шин
legate
##ātu
##wahili
Doherty
##nery
Nederland
##dges
##tys
divorce
##bours
Caterina
##letto
Beata
Vergine
##dolo
##tā
##āri
##aju
é
528
forth
##unes
covers
stay
Wolverine
Creed
##ryk
Avengers
lance
pura
##aise
Randolph
1212
1272
teren
##obia
loco
##icz
Males
Taking
##cella
americana
Shark
Diamonds
##kolen
##zynski
Katarzyna
debe
Andrej
leve
##vej
Bí
Lorca
Verso
##ntar
poesía
##vidad
Poesía
política
Strait
CX
Copenhagen
Pedersen
##ège
##mates
Lakes
Northwest
Midwest
Solanum
rebels
heute
Hübner
Schiller
##äu
##ühne
Ufer
##semble
produksi
Steiner
Ensemble
Tages
##nå
##stedt
kung
Cosmic
Daryl
Prunus
absoluta
##вел
##ьев
Оно
День
радио
##haal
##iec
##cornis
Ausstellung
##ilung
##erei
photo
deutscher
reise
##rdnung
regulation
##gesetz
Argo
fascia
##ätta
##jum
##ätt
##mål
##ciata
brevi
##ples
##οι
##νη
##lias
##osto
##aida
##γος
IBM
cili
##fie
città
suoi
Nello
##tà
Partito
molekul
Як
##тск
##haca
##уска
##ви
##пания
##ути
##дре
ул
##ык
##овского
##onym
1708
1726
1634
Gmina
##zyn
##kkonen
GMT
چه
1646
Նոր
Ջ
##لف
##րկ
##իչ
##անք
کلی
جن
گا
##رل
vista
##ending
Judge
anger
criminal
##ocide
Salah
слов
##ѣ
##ъ
język
##ŭ
ancient
##cial
Serbian
Belgrade
Manuela
##lega
##chste
##rotta
Bermuda
vent
##lost
##pogon
##bidae
##ián
##chus
Leading
##porte
##ñón
##wers
ਹ
##ਰ
##ਿ
##ਮ
##ੰਦਰ
ਸਾਹਿਬ
Punjabi
ਦ
##ਬ
##ਾਰ
##ném
##rren
##dette
##arty
quest
Vescovo
##corso
##mə
Məmmədov
Agreement
Senate
Comment
crop
Hektar
Beirut
##logisch
sämtliche
##werke
besten
Carabidae
Lyman
Engineer
بني
##يف
##terio
Schweizer
suisse
svizzero
svi
Danubio
Peña
visa
##ilitat
enters
oso
ministry
maintenance
lowest
##darmerie
millions
##leva
Interface
جمهوری
##ذر
Phelps
##طل
##imas
##mter
Prescott
Mathilde
##rė
##liche
##national
Kjell
Camilla
Notable
1509
Amigos
पास
##ोर्ट
भारत
ग
##रा
##ज्य
##ports
suri
##primerie
everything
daily
Lebanon
##penses
Lebanese
citizens
##ðið
Þjóðskrá
Íslands
Paco
Lucía
ihn
##dock
handel
svenska
##heter
##posten
nye
syv
gjennom
politie
##sje
##styr
Hrvatska
##ovni
ABBA
Pitchfork
remains
1398
Soon
Wrong
Promotion
Remixes
##bki
keyboard
observations
주
##몽
朱
蒙
ג
׳
##já
Einar
ciri
##áns
Dartmouth
##hical
population
policies
Scholar
Paterson
Кот
∫
Наталья
##дя
##нова
Along
##itare
principes
##férence
poids
mesures
##ама
Ascomycota
Basidiomycota
##dida
asko
Yesterday
Moravia
##rimo
Rolls
Augusto
##êt
##meister
Middleton
##zialistischen
##tatt
##halte
Lothar
##laub
##gte
##gien
1629
1630
Festa
##erald
amore
gioca
Romani
##mori
##schaft
dritten
##iante
isla
1297
##zzy
Mildred
amely
##mated
drum
Schools
##culture
##verlag
quae
##edu
fest
annum
sapere
hora
##bilis
##uum
Pasquale
Italien
settanta
introduzione
ore
foc
moglie
hom
anch
##tù
magic
uscita
convento
parte
tutto
questo
paura
1644
##rsko
Frida
Noch
##чной
##ган
Kendrick
régiment
amis
faut
rang
##ulen
fête
##kies
aqui
Artemisia
wer
##zien
##achen
##gano
Breite
Movimiento
prizes
economics
laurea
select
Tomatoes
781
tape
Oaks
Arnhem
Mitglied
Frankfurter
sech
Jahren
Lynne
posts
cables
observed
Acer
Auburn
Bretanya
Armor
Avril
##vigne
Paola
##⁄
Medley
Presenta
Auf
Edizioni
1347
##ogue
Arabic
Aquila
Zoltán
Peking
Peso
Reef
##rapher
Faculty
Î
##reiche
##ürmer
##ziale
Partei
##dendo
##nken
##sein
##satz
##gung
##chtigt
##ldig
Urteil
unge
Celsius
1128
日
記
Ô
Luise
##sministerium
##klärung
##kretär
Dienst
Leiter
Nachrichten
##wesen
##iones
Statele
##χο
##τες
##isation
##ânt
Nó
##íti
români
##țul
##udis
Metropolis
romani
##museum
empire
20e
Istoria
informa
enw
##elos
##aic
Farben
##sation
nine
Xaver
884
##pkan
Tage
##onde
Gegend
Dörfer
zerstört
##reise
massa
##iert
conviction
gained
armed
percentage
combat
revival
crime
##ordination
##rero
crossed
fish
807
nearest
village
##яч
##еслав
##си
Hauts
##ола
##рци
##бри
Община
##рве
Ryszard
##íka
Ringo
##яг
знак
мал
##ый
ер
##هور
##اما
##vaart
Léopold
1605
##arium
##banken
Stockholms
##änder
Estate
Indus
transforma
influenza
##ococcus
pne
##umon
rough
evo
##ebre
UCD
##cima
471
urbe
##lhouse
##stätte
Professor
meine
##àdio
##sió
gauge
Bibcode
lectures
correspondence
arXiv
##ическая
Советская
inflation
056
holes
Aguilar
primordial
Norsk
##νική
Ρ
##διο
##ωνία
##ραση
american
alumni
association
##drat
Anura
##јен
opštine
##chutz
1617
Knjiga
Stanovništvo
nacional
##nička
pripadnost
podaci
naseljima
Republički
zavod
statistiku
84433
Falco
jug
##xica
Norwegen
Lappland
##ularis
Duque
##eiro
Gotham
##tention
wear
Woodstock
Flood
##ots
kerk
##كس
1746
##φο
##βία
growing
gero
Writings
Risk
artwork
Prophet
##epta
کام
censo
Plans
journalist
twice
poetry
dichter
##teria
Gaia
##anos
##ssandra
Lieutenant
##fford
Cheshire
Thatcher
lieu
10th
##kert
##asien
historischen
Aussage
##rny
##што
##рный
##блемы
##анне
##лем
##шина
Новое
советской
##ологии
##И
##ики
Яков
##левич
##рин
##аки
##ф
его
труд
све
##дений
Наука
##ура
ДНК
ге
##алог
##рко
##яз
##ычных
народов
Урал
Кавказ
серия
##тно
##ген
Проект
илл
ди
##лины
потом
##шти
##ип
##чак
данным
##ии
Вестник
Академии
##стон
США
Август
1198
##ладение
##нет
##ических
пред
##аний
##шт
культура
Исто
##рико
культур
связи
Южной
Сибири
##бак
##óna
少
卿
德
高
昌
##ẽ
yn
ә
##nē
##ņa
##уми
##рев
##рки
Harmony
Attorney
attorney
##درس
شریف
karier
Koblenz
drag
queen
Paus
##anias
Geoffroy
##quier
##rval
Wort
Twain
##liers
Goiás
Ivy
##réat
fortuna
chant
ū
Gazette
##uge
GL
cel
Gonna
ford
Baronet
resident
campus
Camden
Comprehensive
sede
uomo
##áil
electoral
finance
statements
Ritual
##inent
Hotels
##urant
##czyk
##pensa
viridis
ovat
舊
唐
旧
书
945
##сени
##ј
##чин
Republika
Hercegovina
Република
##сна
##гов
##Б
Srpska
plastic
##brica
##itado
maio
siglo
nuevo
museo
centro
investigación
Fundación
Patrimonio
Histórico
Servicio
publicaciones
##ítulo
contexto
cá
1229
1249
1248
Inferno
##orte
##sume
##idad
Hoya
assoluta
dance
ballet
Ballet
##iselle
Baptista
##tão
Sousa
Willard
##formen
Passports
recognize
##miu
1762
Não
##nética
modelo
##mica
Maarten
longer
Recorded
ego
##uation
Denne
room
Vocal
tribal
Artists
##listen
Individual
lista
##parade
Alben
Medien
Ultratop
success
topped
finn
##walt
Eleanor
##zela
location
requirements
##perk
Ansbach
##iekt
##SR
##tely
##mosi
sheep
dies
##nças
cop
mk
kirik
direktor
tao
Bangor
##eku
Herbst
Colour
Nowa
Ivar
Larsen
Taça
fut
Caledonia
Treasury
##ifica
Tasmania
764
tuer
orden
##tlich
##nson
##ocht
Noche
Comuna
Jenis
##chluss
Publikationen
Zusammen
##fassung
##cyjna
Thanh
quốc
tế
Thành
Nha
yaşayış
##cave
Feature
Luzern
Willow
##worm
Tears
Čech
retire
toren
##umes
Rhône
Rouge
##ξαν
##δρο
##ivu
thing
credits
##zija
##oria
Slovan
##ća
##ezni
##chaft
##nien
##zego
##cko
Guinée
Concours
seis
kuin
百
度
dù
rank
bai
##dert
krog
Crash
967
##pulse
Gaming
spel
##온
##원의
탑
タ
##ワー
オブ
ア
##オン
école
##شي
##اي
##liet
Recreation
lite
##đa
Gheorghe
Judo
runt
proper
##алов
Без
##дан
##dá
talle
Evolutionary
aged
##ويل
##arie
Originals
Several
##mmy
cartoon
##cque
榎
本
健
Weather
##teurs
##CP
Karola
karon
zena
Mort
ufficiale
Pero
Architects
Annales
scientifiques
##tér
##atic
Mémoires
Panoramas
##thèse
##wärts
##մա
##տ
##ունի
Փ
##ամբ
##ուկ
##չ
Dodgers
Giants
Secondary
arc
arba
##tyás
##stadion
auteur
sive
donar
logic
1170
1210
##ngue
1225
1235
Assisi
vue
##TION
##glio
inclusive
usage
nouvelle
kalt
liner
[...]
