[PAD]
[unused1]
[unused2]
[unused3]
[unused4]
[unused5]
[unused6]
[unused7]
[unused8]
[unused9]
[unused10]
[unused11]
[unused12]
[unused13]
[unused14]
[unused15]
[unused16]
[unused17]
[unused18]
[unused19]
[unused20]
[unused21]
[unused22]
[unused23]
[unused24]
[unused25]
[unused26]
[unused27]
[unused28]
[unused29]
[unused30]
[unused31]
[unused32]
[unused33]
[unused34]
[unused35]
[unused36]
[unused37]
[unused38]
[unused39]
[unused40]
[unused41]
[unused42]
[unused43]
[unused44]
[unused45]
[unused46]
[unused47]
[unused48]
[unused49]
[unused50]
[unused51]
[unused52]
[unused53]
[unused54]
[unused55]
[unused56]
[unused57]
[unused58]
[unused59]
[unused60]
[unused61]
[unused62]
[unused63]
[unused64]
[unused65]
[unused66]
[unused67]
[unused68]
[unused69]
[unused70]
[unused71]
[unused72]
[unused73]
[unused74]
[unused75]
[unused76]
[unused77]
[unused78]
[unused79]
[unused80]
[unused81]
[unused82]
[unused83]
[unused84]
[unused85]
[unused86]
[unused87]
[unused88]
[unused89]
[unused90]
[unused91]
[unused92]
[unused93]
[unused94]
[unused95]
[unused96]
[unused97]
[unused98]
[unused99]
[UNK]
[CLS]
[SEP]
[MASK]
<S>
<T>
Garrison
Historic
Area
on
historial
##linen
alue
Barbados
##in
p
##ää
##kau
##pung
##issa
Bridget
##own
.
Se
entinen
,
1780
-
luvulla
perustettu
brit
##til
##äinen
var
##usk
##unta
Ta
##rve
##ys
##y
##väl
##lä
##unn
##alle
Bar
##bado
##kse
##lla
nousi
Britannia
##ssa
Yhdysvaltain
va
##pa
##usso
##dan
aikana
kun
ran
##ska
##laiset
lähti
##vät
tu
##kem
##aan
am
##eri
##kkal
##aisia
Jo
##ukot
saapui
##vat
sinne
mutta
ne
olivat
maj
##oit
##tun
##eena
ym
##p
##äri
##ia
Til
##ap
##äiset
##raken
##nal
##mat
##yst
##ytet
##tiin
1783
So
##ta
päättyi
samana
vuonna
ja
tämän
jälkeen
sot
##ila
##iden
määrä
las
##ki
saa
##rella
Mu
##tta
ol
edelleen
hu
##olis
##saan
Kari
##bian
##mert
##en
##rien
##leva
##isu
##udesta
vuosien
1789
hall
##itus
han
##kki
26
1
he
##hta
##aria
maa
jo
##lle
uusi
rakennettiin
IC
##OM
##OS
s
5
Vu
##osi
1808
1814
##unnan
kas
##voi
65
56
##arii
##n
##yi
si
##jo
##ittaa
2
700
##ilas
1800
luvun
##vu
hi
##das
##tui
lopulta
##ä
##ht
##tettiin
1890
##irt
##oma
##asta
vi
##ime
##iset
1905
1906
6
Ny
##ky
##ään
alueella
sijaitsee
##ksen
pu
##olus
##tus
##mien
##maja
Var
noin
100
rak
##enn
##usta
tai
##enne
##lma
##a
joista
puolella
##lista
ark
##kit
##eht
##onista
ku
##lt
##tuur
##ih
##istor
##ial
arv
##oa
Al
##ue
Carlisle
##nl
##ah
##den
et
##el
##ära
##nna
se
pinta
ala
##ltaan
60
Historia
##llisesti
sitä
##är
##ö
##i
muu
##ri
kaksi
kilometriä
pitkä
##llä
it
##äisellä
##vul
##la
al
##kup
##er
##äisen
##rin
j
##teit
L
##änt
##inen
raja
seurasi
##oli
##toista
##tav
##ii
##vaa
jossa
nykyään
hie
##kka
##ranta
3
4
##ueen
suurin
##us
1791
ki
##vist
rakennettu
ups
##eer
##ien
##arm
Sen
taka
##na
pun
##aise
##ksi
maal
##attu
ti
##ili
##kas
N
##ämä
kolme
po
##h
##isesta
##ästä
id
1700
pie
##nt
para
##atik
##ent
##tää
jolla
useita
moderne
##ja
vara
##stor
##aken
##nu
##ksia
Su
##ure
##mpa
nur
##mista
käytetään
##vos
##ur
##hei
##lur
##atan
tunnetaan
nimellä
Savannah
myös
suo
##sit
##tu
vir
##kis
##tä
##yt
##ymi
##sal
bar
##sla
k
##yvät
h
##öl
##kk
##mä
##ssä
pela
##ile
##massa
Vaikka
kent
##ällä
ei
##tka
##an
enää
kr
##ike
##tti
siellä
##ytiin
1860
ensimmäinen
v
##äl
##otte
##lu
kohta
##sivat
Britt
##il
Guiana
Kent
##än
vier
##essä
##onis
##esti
merk
##ittävä
##vart
##io
jonka
ju
##lki
##siv
##ua
kor
##ista
varten
su
##itel
##vest
vei
##ste
##tty
Yr
##jö
III
:
n
vaak
##una
Pie
##nes
1807
##ira
##ken
##nus
##ita
##uksia
ovat
muun
muassa
1790
har
alueen
ko
##ill
##isku
sijaitseva
van
##kil
ollut
vuodesta
1933
museo
vuosina
1803
1806
##sai
##raal
joka
my
asui
##nke
##rro
##stal
##oks
1928
käytössä
oleva
##hau
##tau
##sma
Di
##bella
pieni
ke
##idas
Niger
##osassa
Bil
##man
aa
##vik
##on
77
Zoo
Baba
##sta
82
Aga
##demi
##iseen
Kei
##taa
aika
##isemmin
järv
##iä
joiden
##kiä
yhä
##stos
##sa
Ko
##jaa
150
metriä
##kea
##kan
pe
##itt
ka
##llio
##j
##yr
##kä
##nne
Po
##hja
##vesi
lähellä
maan
Ves
##laista
mine
##raali
##pito
J
##nte
kasvaa
t
ta
##ate
##li
egy
##pti
##nha
##ara
##pal
##mu
sekä
vad
##iki
##erre
##aka
##asi
##oita
täysin
as
##uma
##ton
Ai
##kai
##sem
##min
seu
##dul
vie
pai
##mento
##lais
teda
##imo
kuu
##via
##bu
##taan
kautta
kulkee
kam
##elik
##vaan
matka
##yttä
aut
##maa
##rei
##is
##puolella
##lta
Yer
##irom
##kku
##lalta
l
##öy
##dett
ihm
##isiä
el
##äi
##miä
esi
##ttä
##viä
##his
##torial
##lisia
##maal
##au
11
G
##zed
vu
##ore
##tynyt
nau
##tae
##int
kira
##hv
##vä
##pii
##s
Jan
Mate
##jk
##o
##oj
##zy
(
24
kesäkuuta
1838
Kr
##akov
marraskuuta
1893
)
oli
##ola
##lainen
##dem
##aal
##ari
Hänet
sad
##oista
ha
##hm
##oja
tapa
##umi
##staan
jotka
le
##vinne
##et
lu
##kui
##sina
kopi
##oin
pain
##oku
##vina
työskenteli
jolloin
P
##uo
##ettu
Venäjän
Pre
##uss
Itä
##vallan
kes
hänen
ty
##ön
##sä
##ärke
##itä
##laisten
kans
##all
##ist
##unte
##elle
Jozef
Che
##ł
##mo
##ński
7
1849
Bo
##czki
huhtikuuta
1914
Ku
##kl
##ówka
Za
##rze
##czna
real
##ism
##va
edu
##staja
##ssaan
Hän
opiskeli
ensin
##sov
pi
##iru
##stus
##kou
##lussa
jatkoi
op
##into
##jaan
München
##deak
##mia
missä
hän
mu
##ihin
##iin
##teil
##ijo
ole
##ske
##nku
aikaa
Ukraina
ennen
pal
##uut
##laan
##lala
##tik
##ot
##ähe
##ks
joten
##lm
##ons
muutti
Par
##iisi
1875
palasi
1887
Monet
##kin
##öt
mat
##koi
Lie
##ttua
##eu
##du
##ille
Katarzyna
##bro
1898
1951
##van
##veis
##jä
##bron
te
käytetty
runsaasti
##äre
materiaal
##eja
##ly
##ttänyt
eri
osi
##onn
##oll
##ärit
li
##ten
must
##aa
val
toi
##sissa
##rk
##kaat
per
##rit
maailman
##sot
##isen
ajan
##vim
##pia
nai
##sku
##ji
vain
osa
##lyn
Ve
##nä
saksa
juuri
##ensa
takia
joutui
sota
##pak
##iseksi
##tyi
trauma
##atti
##seen
er
##oon
mi
##eh
##estä
Władysław
St
##rzem
##iński
##stä
yksi
##hu
##olta
##jaksi
osallistui
yhdessä
##ehen
kanssa
akt
##vise
##sti
##laisen
avant
garden
##jes
a
r
##ikk
##eek
##si
1930
alussa
Eng
Hi
17
toukokuuta
1977
Sur
##rta
indo
##nesia
sul
##kap
##allo
##ilija
sai
miesten
nel
##peli
pronssia
vuoden
2004
##ol
##ym
##laisissa
At
##emmin
siinä
##nelle
sijalle
2000
Sydney
Biography
and
Olympic
Results
|
Olympics
at
Sports
Reference
com
Damien
Walters
##jai
##teli
##lpa
##tas
tram
##poli
##ini
##miste
##lija
vai
##hto
voi
##lun
elokuva
##ura
2007
Jackie
Chan
##inni
##omi
##ota
YouTube
lata
##ami
##ins
temp
##pu
##video
otti
##een
y
##hte
ro
Luke
Go
##ssin
elokuvassa
"
2008
toiminut
teh
##vissä
##vissa
Ninja
Assassin
2009
Kick
Ass
2010
2011
opet
##ti
Jade
Smith
##lua
Karate
Kid
Lisäksi
##menta
##nut
nuo
##ria
kot
##ika
##upu
##ngi
Derby
Christopher
##nella
21
lokakuuta
1989
Wald
##shu
##t
Saksa
sve
##itsi
mo
##otto
##riu
##r
aloitti
##uran
Sveits
Formula
Renault
0
sarjassa
Vuonna
voitti
sarjan
mestaruuden
Myöhemmin
##ut
Euro
##serie
##cup
##ilu
sijoittui
toiseksi
2012
F
##2
##ittu
kolmanneksi
2013
ajo
World
Series
by
saavutti
kauden
av
##aus
##pai
##lust
kolm
##oss
##ija
ker
##äten
25
piste
16
ks
Deutsches
Museum
suom
saksalainen
tek
##nii
##ont
##iet
##issä
Saksassa
##ttain
##aile
##e
##iol
miljoonaa
kävi
Museo
28
000
##tely
##esi
##nett
50
tie
##teen
##elta
perustettiin
1903
ins
##öör
##hdi
##sty
V
##DI
koko
##uksessa
##k
Oskar
von
Miller
##tees
nimi
Meister
##werken
der
Natur
##wissenschaft
und
Technik
Ni
##mens
##kaisesti
##ttel
##ee
##tuk
##sia
##tila
sijaitsevat
##nell
Isa
##rj
##oen
keskus
Ka
##ngin
##valt
##uus
##to
lah
##itti
##ren
Saar
tun
##nettiin
Kohl
##eins
hii
##lis
##aar
myöhemmin
u
##udeksi
nime
##kseen
Museums
##insel
##elmi
kuuluu
kuten
##öd
##yna
Siemens
1866
auto
##bii
Benz
diesel
1897
laboratorio
atom
halk
##ais
ensimmäisen
kerran
Hahn
##ras
##sman
1938
##ttiin
nan
bio
##tek
##nologia
##ev
##ip
Zentrum
Neue
Technologie
http
/
travel
nyt
##imes
guides
euro
##pe
german
ba
##vari
mun
##ich
264
##57
deutsche
museum
attraction
detail
html
?
in
##line
=
class
##ifier
suuri
##kok
##ois
##tyy
##ppi
##sten
kai
##vost
pieno
##isma
Euroopan
la
##aji
##hti
##tie
##hit
##ystä
Alta
##mira
##aust
##jen
##ös
##ella
##ko
##hteen
lisäksi
haar
##aos
##asto
Fl
##ug
##werf
Sc
##hle
##ß
##heim
18
Ober
##sch
##lei
Schloss
Bai
##jeri
##pala
##tse
##hall
##lent
##oken
koostuu
##has
len
##non
##tor
##nista
komen
##tok
##es
##kuk
##sesta
##uksi
joissa
##tell
lento
##kon
##eita
eivät
mah
##eet
##aren
Es
##illä
Ho
##rten
vel
lent
##ävä
H
IV
pur
##jele
##nto
1940
luvulta
##laisia
1950
1960
##etty
VT
##OL
Vietnam
sodan
##kauden
Sa
##kso
jälleen
##stym
##isessä
saat
##uja
neu
##itto
Verkehr
##szentrum
There
##sien
##höhe
##attiin
2003
##em
##lje
##kkaa
##are
##ir
##ret
tiek
##ul
##kun
##voje
juni
Bonn
1995
1945
##kei
tied
##ett
##tki
##mus
##iai
##sil
Kan
##eon
til
##oissa
12
##vän
##ivi
laskettiin
13
70
##otis
##syn
##tym
##äivän
1925
Alus
lähtien
tar
##tettu
##iede
Saksan
pel
##stään
##hing
pa
##ho
toisen
maailmansodan
##mmi
80
%
20
##istä
##hout
##ui
##rja
##ukset
##ativa
##nsa
vasta
1965
ede
##ltä
##neen
1980
##hop
##olt
##nsi
34
140
##metri
Ent
##inti
##udet
##tivat
55
vuoteen
1993
mennessä
yhteydessä
##ski
##sto
##isto
##tit
ny
##aika
##isten
##emu
##se
##oiden
##ku
##vana
##oro
##vai
##kut
##tei
sa
##ral
Y
##leis
##öä
##stu
##lema
lait
toiminta
Op
##astu
demo
##nst
##raat
##ioi
engl
##ann
##iksi
ilma
##vil
##jel
##kset
radio
##amat
##ito
##imin
##aru
##ust
sil
##lan
##ikka
mitt
##aam
tieto
dig
##alin
##ente
##illa
2006
##önt
##tanto
energia
##stö
ge
##odes
historia
ve
##sir
kone
##enos
##at
##ty
##ök
##alu
navi
##go
##stan
##py
##lv
mate
##mati
##gall
##eria
metall
##urg
##kro
##elek
##tron
##kaa
##su
musi
paper
farm
##asia
f
##mak
##one
##ote
##ala
##itte
##nis
##lut
tele
##kom
##mun
##atio
tekst
##lite
tunnel
mit
##kylä
##dez
departement
kunna
##wari
##odo
##stel
##rje
##olla
##masta
Ky
85
asukasta
2001
kahden
kolmen
metrin
syv
##yy
##dess
##vila
##je
kuuluvat
aka
##lip
##al
##ae
##uka
##ptus
##kek
##as
tunnettu
Salvador
pers
##ica
##okk
##ainen
##ulu
ter
##vey
##sas
##ema
Fernando
Suárez
Figueroa
helmikuuta
1533
elokuuta
1608
es
##pan
##jala
room
##iska
##tol
##ispa
nimitettiin
22
1587
##arian
##arten
maaliskuuta
1597
Zamora
kon
##sek
##roi
Gaspar
de
Qui
##roga
Vela
Catholic
Hierarchy
org
Bishop
Francisco
Reino
##so
Ba
##eza
1534
23
1601
Córdoba
hänet
Pedro
Porto
##car
##rero
jota
##ivat
Juan
Fonseca
kuoli
66
vuotiaana
##assa
Oz
##eia
##racia
##no
'
Os
Graz
##iano
1983
São
Paulo
Brasil
bras
##ilia
jalkapalloilija
peli
##kalt
##taja
Kauden
##ka
##essa
pelaa
##kkö
##sen
AC
##uten
2014
tuli
Suomeen
torn
##iola
joukkue
##eseen
Tor
##nion
Pal
##lo
47
Tau
hänellä
##minen
Kiinan
##sar
##jassa
Shen
##zhen
joukkueessa
kaudella
Nil
##vam
##ma
päätti
uransa
www
##lii
##tto
fi
##stin
num
924
##24
##nen
TP
lle
brass
##ppa
testi
19
siirtyi
seura
##ava
nous
##eeseen
na
##uri
PS
Ke
##mii
pelasi
##lin
##joje
##mi
ps
080
##31
San
##ain
##ise
##mpi
FC
##äm
##naan
sol
lopulla
##tko
##pi
##muksen
ky
##mp
02
##c
ham
##le
09
oz
_
gra
##ciano
##nassa
##avat
vuotta
286
##55
##6
##7
##LE
9
pelannut
##sessä
kaikki
viisi
##isse
##uras
109
ottelua
nii
maalia
2015
Mi
##kkel
##maan
##kko
##kalle
Fe
##m
##øren
metro
##ase
K
##öö
##pen
##ham
##inan
##nja
M2
Sun
##d
##by
##øster
kaupungin
Tan
##skan
##inas
As
Ama
##geri
##uk
##koli
##iken
ma
##ksu
##eel
ly
##hy
2005
valmis
##ger
Strand
##park
##ima
##ran
Metro
##jun
##tan
Van
##l
##øse
##mal
Leon
W
##cz
##ół
##kowski
1852
1936
##rp
##siä
##oto
mais
##emia
Tatra
##ori
##rena
roman
ai
##heit
##kust
1889
impression
##isti
Om
pan
##eutu
Vuoden
1900
##yli
muut
tuo
suuren
##kaan
##ata
##uksen
Le
##rg
##ra
##vs
##enin
##alainen
2002
toimi
##tea
##ana
##aje
##nnu
valmistui
Troy
Mall
##ette
Matthew
1970
Lev
##ack
Ontario
Kanada
kana
##dala
##kie
NHL
New
York
Rangers
Edmonton
Oilers
Jersey
Devils
Ottawa
Senators
Boston
Bruins
Tampa
Bay
Lightning
numero
##isuudessa
1988
run
##kos
##arja
456
51
+
68
119
##hyl
ist
226
min
##tia
sel
Chicago
Black
##hawks
vastaan
1997
pak
##otti
##mään
##kke
Hänen
##ussa
vielä
yhden
##ät
##uu
##acki
naimisissa
Lynn
##etten
lasta
##juna
The
First
Great
Train
Robb
##ery
televisi
##oes
##ity
##kses
juna
##ry
##öst
1979
ensi
il
tullut
ri
##elo
o
Michael
C
##richt
teki
siihen
##äsi
##kir
##ituksen
perustuu
oma
rom
##aani
Herr
##mies
##östä
Elokuvan
juo
##ni
##ästi
1855
satt
##une
##osia
Sean
Con
##nery
Donald
Sutherland
Les
##ley
Anne
Down
Alan
Webb
Malcolm
Ter
##ris
Robert
Lang
El
##phi
##ck
Wayne
Sleep
Pamela
Salem
Gabrielle
Lloyd
George
##ing
James
Co
Elokuva
##aju
##isesti
yli
dollari
Video
opp
vuodelta
1994
Il
Ja
##uh
##onne
##itu
perin
##seksi
sei
antoi
##ides
mikä
sana
##llis
##iot
hy
Etiopia
kirja
##imi
##hara
##hut
##tava
kielen
##tami
lain
sam
##mune
##esta
g
##ə
ə
##zin
##eles
Mer
##tön
29
##sona
##time
saada
##hin
vok
##its
##evi
##nok
##usa
yleensä
##niste
##valli
##siin
tot
##eille
fon
##eem
use
##amp
kuin
symbol
Living
Things
##hd
##valta
Linkin
Park
yhtyeen
studioalbum
julkaistiin
Suomessa
27
Albumi
##neet
##emma
Minutes
to
Midnight
A
Thousand
Suns
jäsen
Mike
Shin
##oda
Rick
Rubin
mukaan
##stää
asi
##mil
neljä
##ilta
uuden
ä
##änen
He
totes
##inkin
##tev
##ansa
olevan
##tul
sen
##tuva
heidän
ih
josta
##lok
##sena
albumi
valittiin
albumin
##vien
hen
##oh
##tais
##heid
vuoksi
ensimmäisenä
single
kappale
Burn
It
heinäkuuta
Lost
the
Echo
##anten
Castle
of
Glass
deb
##oi
Billboard
200
##listan
##ssi
##jalla
223
kappaleen
##ynt
##im
laulaja
Chester
Ben
##ning
ilmoitti
##alaisen
Voice
että
yhtye
##oittaa
##misen
##sei
##sell
##iko
##kuussa
Kerr
##ang
!
lehden
##toi
uutta
pari
tulee
##mas
jak
##amaan
mieli
##pite
##inäkuussa
Rolling
Stone
paljon
uusia
olisi
##ärk
ul
##os
Maa
##hde
pala
##avan
##lleen
sisältää
enemmän
kitara
##ns
##toa
iso
##tos
##keit
ras
##mpia
ele
##kt
##ros
##oun
##dej
##lost
##amatta
Hu
##htikuussa
Complex
master
##oint
julkaisi
Tu
##mb
##vel
tea
##ser
video
Warner
Music
##ide
##lka
selve
NME
nu
metal
vaikka
##nist
saam
##hda
pitkään
aikaan
sis
##ält
album
##eilt
Spin
##llaan
Owen
##lett
rap
##tyn
ver
##rat
##tuna
##isi
esiintyi
Honda
Civic
Tour
Inc
##ub
##usi
##te
##M
##ath
##htye
pit
konsert
Admiral
##sp
##alas
##tteri
Be
##rli
##inis
##itettiin
##tter
##eissa
Yhdysvalloissa
##hten
##stil
##dessa
X
Games
Los
Angeles
ensimmäistä
kertaa
Etelä
Afrika
marraskuussa
##kuun
lopussa
##deo
olema
Single
##tys
MTV
ll
To
##uko
Lotus
F1
tall
iPad
##hje
##lman
aja
soi
15
blog
nimen
enn
##ak
##kot
##ukseen
net
##tis
##ivu
seuraavana
päivänä
Lies
##ree
Mis
soit
##tons
BBC
Radio
osan
##cave
##nger
hun
trailer
Myös
viimeinen
Power
##less
elokuvan
lo
##ppu
Kappa
##lee
tehdy
##nnut
itse
Timur
##km
##am
##bet
##ov
verk
##kop
##u
Yahoo
viral
##rii
##lise
##valla
syyskuuta
10
mol
lau
##jia
os
##toni
##kee
Ker
##leta
##uis
siitä
sanat
kat
##sella
In
My
Re
##main
saanut
##teita
##pira
Skin
Bone
Roads
Un
##tra
##ed
##inn
##ost
Bob
Dylan
saan
folk
piano
ballad
Vic
##timi
ag
##gres
##sii
##visi
##mma
punk
rock
Penny
##wise
Dirty
Rot
en
Im
##bec
##iles
##mm
Tin
##fo
instrument
Until
Break
kita
##risti
Brad
Dels
##oni
laulu
##osu
Imperium
Map
Ol
##lila
levy
sound
##miseksi
##Z
Nina
##rme
8
##dete
##raten
elektron
het
##ele
Pen
Gori
listan
##ynyt
kappaletta
##nyt
Mar
Over
##ex
##posed
##han
Nielsen
Sound
##S
##cani
##lev
##utta
Australia
##hiko
##alta
nimeltään
##lab
##win
Si
##za
Many
tan
##san
reggae
##arti
##sik
##kona
##aja
Euroopassa
Vi
aku
##stis
af
##rik
##kala
##wahili
##idi
##nki
##llään
nya
##sak
syntyi
1972
Dar
Sala
##iassa
kolmas
laps
##lap
##sis
##hee
Mus
ohella
toimii
##arin
sarja
##rt
##äjä
vil
##jeli
##isin
##gam
##oy
##ossa
##space
##itat
14
Liv
##rec
##ord
##sin
sittemmin
##bis
Records
Chi
##kond
##eltä
tarkoittaa
##mala
e
##nta
##hra
##utu
##kautta
Levy
Green
Dragon
studio
Oslo
Nor
##mund
##ail
artiste
Bara
M
Kurdistan
Khalid
Sal
Sudan
Uri
Seri
##sun
##nik
Thor
##bjørn
Holt
##eir
Inge
##or
Henrik
Johns
Jacob
##jasta
On
##R
##ebe
Meksiko
Carol
Kina
##sha
##ias
Cha
##ba
Kongo
Sister
Yan
CD
##bab
##pend
##ane
##cho
Dre
##ad
Studio
Helsingissä
U
##ood
##mani
Ya
##po
##ttaja
suomalainen
Sam
##uli
Te
Maja
##cala
Cu
##rz
1859
1929
valt
konser
##vati
poliitik
Int
##ian
##inka
1899
##teri
1919
1924
##onin
##njak
##tetty
##otus
nimensä
Et
College
Oxford
yliopistossa
1886
##dust
parlament
vaan
##eli
maailma
kirjoitti
##kutu
##ksesta
Keski
Aa
##sias
Persian
##sy
##my
##sian
##gel
1891
##ios
##tee
##riks
men
##etti
##eman
1894
libera
##ale
##nser
##tua
1895
##ali
##koa
ali
sitten
##aksi
##udis
##tuksen
är
##kami
armeijan
Herbert
Kitchen
johtaja
Arthur
Bal
##four
menn
##misi
mil
##jon
##äärin
##tär
Vai
##heen
Engl
##anti
suri
##tö
##rah
linn
##oihin
##de
##nei
1916
meni
argent
##ano
##jan
les
Nathaniel
Marques
Encyclopedia
Britannica
johti
naisten
##ke
vastu
##stava
kamp
##anja
David
##tsu
##ajan
##tur
##vet
vet
##uris
män
##eis
sijaan
käytti
##nia
##ture
##rave
tur
##nin
siirrettiin
##iston
##ör
##ög
##ener
##aat
##toria
##kel
no
eli
ep
##alo
##ude
##llinen
##ati
##ryk
##onet
##hum
##atta
alkoivat
hita
##asti
vart
##vaksi
##dok
1920
##rip
SM
1990
kausi
##ipa
##llon
Suomen
mesta
##ru
##uden
Ur
Kot
Ty
##öv
##äen
hopeaa
Helsingin
NM
##K
##Y
Run
##kes
Amb
##ani
1957
int
yr
kuuluva
ö
##lj
##asu
##htiö
##lian
##ce
Industries
##omis
##tajana
hallituksen
##heenjohtajana
Tam
##mikuussa
2019
Forbes
##ion
59
miljard
##udella
isä
D
##hir
##hai
##rem
Ani
##anin
Joseph
##yd
Patrick
Joe
1878
S
##ford
Ir
##lanti
1937
Saint
Louis
yhdysvaltalainen
##mita
##listi
1904
tuolloin
Christian
Brothers
##loj
##ou
##ees
alle
kilo
61
##lys
##etu
##pallon
main
##kaj
##yksen
440
jaar
##din
49
vis
kunnes
alkohol
##ellett
##uje
##voja
1901
1909
om
##ityksen
piti
1918
##ole
asti
be
##agle
rot
##iri
Fort
##ha
##talo
Ra
##kal
##össä
1971
AR
##CH
Old
City
Hall
History
Center
otettiin
National
Register
Places
re
1973
E
Berry
kad
##ulla
kaupungissa
Indiana
Amerikan
Pier
##mari
Moro
##sini
1986
##alia
##kent
##pel
##jana
Italian
##mman
Serie
B
ottelussa
Pescara
Livorno
##atu
##älle
ottelun
hänelle
annet
syd
amb
##ulan
berg
##amo
joukkueen
Ata
##lanta
BC
##dion
Stadio
##leti
Az
##zur
d
##pää
##iste
##ttu
Bergamo
syn
##sinin
##ési
Ce
##peda
Silva
México
me
##kola
##pik
##cate
##pec
##kunnan
Pi
##kimi
##tori
Girolamo
Pri
##gione
Manuel
Pérez
Gil
González
Luis
Rey
##nos
Cervantes
Carl
##burn
Townsend
1884
Jackson
##town
joulukuuta
1966
Helena
Kalifornia
laivaston
##tem
##iaan
lai
##vas
ura
##leni
kap
saakka
##vir
##nan
##jou
##äis
##kh
1912
##vall
lähes
kisoissa
hope
##isia
pro
##sine
Henk
kilpailuissa
300
##kilpailussa
95
600
94
arme
##ijas
##utnant
president
USS
May
##flower
1915
olympialaisissa
Antwerpen
yhteensä
kuusi
##yas
kilpailun
kultaa
1921
MM
##tali
##paa
##kuu
##pet
1939
kuitenkin
1941
jäi
##pul
##lisesti
##kens
Mary
##nasta
##not
historias
##ölle
1967
##lil
aina
Mark
Sp
##itz
ohi
pääsi
USA
lista
par
##haa
Christoph
##gge
1962
Rhein
Münster
##kuntaan
##kip
##iis
##cili
##bban
titul
31
Felix
Gen
Reinhard
Let
##tman
Heinrich
Janssen
1932
##vela
1961
Aqua
Sir
##ense
Maria
Ludwig
Ave
##rka
##pist
Tampere
1982
##stant
kust
##ans
muuta
Neuvostoliiton
##jat
##tian
pasi
##rint
Neu
##ova
Ruotsissa
tal
##vi
perusti
tam
##pere
##mul
Matti
Ar
##ne
hak
##uteen
##uutta
##miten
sala
##nimi
Ki
##ettiin
##lko
##mais
##ojen
Antti
Vir
##tanen
##alla
Heikki
##anta
##mons
Va
Me
sy
##me
I
##hmi
##sko
sosial
##mie
##hen
Tur
ir
vo
##turi
##smi
Sitä
##het
##jar
##itari
##nak
Kar
Ale
##opp
##ome
##vista
usein
kutsutaan
##tane
Jun
##nila
##omu
##ller
##vo
Rain
liittyi
Peru
##lai
##olu
Aleksandr
Sol
##ženi
##ts
##yni
##risto
1976
1978
nit
1974
##eksi
##iss
Wahl
##ström
&
Wi
##ds
##nd
##tkan
eikä
##kään
##jil
muita
1975
Lenin
Zürich
vasi
##meen
##elma
tasa
ry
##hmä
##von
vero
joko
olla
##öll
##ikai
##sesti
vert
##aut
##kia
##trin
##see
sos
##onan
oso
##kor
Hui
##ttin
ra
##viv
##menn
##lli
Hal
##ms
##tad
##est
##yne
##piä
##net
Vuosina
voit
##onna
##ven
320
ans
##ait
##kinto
30
##uun
##tunut
R
##tsi
1985
aluksi
##vih
##evo
alun
lama
##nnet
##tyä
##tiva
##lmen
ru
##ots
##lisen
Ruotsin
##ttanut
##jale
##gend
Stig
Johansson
TV
##4
##usto
saman
##änä
san
##ovan
olevat
##sille
##hun
##itys
##mint
kommen
##taat
##radi
Toto
Tv
##yk
mukana
tos
tv
##rn
##kus
##öitä
##tele
Osa
##jina
Pat
##berg
Marcello
Army
Lovers
Camilla
Hen
Mini
##ža
##rski
##merk
##zma
Dmitri
tehty
##id
ansiosta
Venäjällä
##ron
Moskova
##isella
##rilla
ven
##rain
Ivan
Mart
ale
1813
1818
pats
gran
##un
##kellä
hai
##para
##hän
Vas
##edra
Olive
##stola
1908
Telecom
##usko
##losti
##okon
##riko
##neva
##lmi
##äistä
hyvin
##tte
hui
##ott
##lui
##yri
jopa
500
julkaistu
table
##hone
##hel
##imia
Camillo
##vre
Torino
##O
##liv
olive
1948
alkaen
poika
Adriano
opis
##emaan
##mene
##tel
joita
so
##velt
vient
##iy
##rity
alan
##viin
etenkin
##uuri
##isena
muiden
Ettore
##tt
Mario
Bellini
Cor
##bus
##ier
Kahn
Ga
Au
1968
##llisen
Giovanni
Pinto
Spa
##rke
An
Introduction
Design
Culture
Twentieth
Century
Harper
Row
184
229
Questi
##auksen
osti
##ney
Underwood
Pohjois
mark
##oilla
Programm
101
##usha
##llin
Nas
##itet
##yn
Apollo
käyttöön
##johtaja
Carlo
di
##edett
##just
##isty
##hön
jap
Sharp
Sama
##kkia
##utom
##tien
Doc
##ute
##upas
AT
T
##corn
Computer
fu
ene
##stön
Sole
##wski
##javi
##mmer
##vodi
Polish
Auto
##motive
Industry
Warsaw
##he
maak
##sul
kaupunki
##lk
##uvo
##nma
rei
##keä
About
Us
Guilherme
##que
##uil
##her
Mad
##alen
Florian
##ópolis
edustaa
Espanjan
Primera
División
Valencia
vas
##iso
##mist
##muk
Udine
750
##oko
##rva
##uks
##sens
ssa
Messina
##aso
Ancona
sopimuksen
Granada
Salt
##stra
##umen
Bodø
Nordland
sal
erittäin
kilometrin
##äässä
Fylke
##vei
##rata
40
##nissa
##oki
Ala
##pati
returns
black
WB
##J
##him
##ksiä
1832
Lin
##mill
900
##ok
coraz
więcej
za
##mó
##wie
##ń
autobus
Info
pl
Ton
##do
##öre
relief
erityisesti
ren
Sana
italian
##ondo
Rond
suure
läpi
sent
##tri
mini
##aty
##ksessa
##dom
anti
##ikin
##eik
##isessa
##ikas
ton
##lik
mal
laut
##dot
uudelleen
##sioon
1400
1500
Italia
olleet
##urin
##nkin
Ain
##utati
##ey
Union
Pacific
##uria
pois
##onsa
##hden
##oka
##ono
##malla
##kr
##osta
Hie
Iso
##lti
##luas
käytettiin
SNCF
Turbo
##mät
rata
TGV
testa
Bombardier
##enta
Jet
##T
##upa
niitä
Johan
##rika
##pte
##eni
##kast
Miss
##dassa
Val
rat
##äs
##hemmat
Ju
Aurora
##ppur
Olga
Pe
##ipo
##ker
##men
##isko
##ulus
Tek
##nil
##iosa
##stol
##yslu
##aud
##skou
Tai
##ulun
kom
##ppan
##kur
##oise
ant
pat
##osas
##toon
osaa
tais
##äisessä
##lah
##della
takaisin
##asa
##len
##jalan
##rir
##menti
##kad
##roon
##sodan
##veli
##äki
##enti
ad
##jut
##ups
La
##pin
##ior
##hmän
##ona
##ina
##ant
##tina
Seu
##raa
##maks
##sur
##ment
##nister
##yden
##nys
tammikuuta
1922
1923
##kunta
kaart
1927
ho
##iti
##ijai
esimerkiksi
1926
II
Lo
XIX
##olle
Wall
##ander
##stad
##tet
##har
##htuu
mur
##hia
##hri
##kasta
res
Mur
##hat
##uilla
saattaa
Andrew
##og
Oldham
1944
manager
##otta
Stones
1963
##jis
loi
poi
##kina
vast
##ine
Beatles
ima
##gol
sodass
suku
##nim
##ens
aust
##rali
##selt
##raan
##mur
artisti
kuitenkaan
Tämän
Mee
PR
##gon
##tins
Ian
Stewart
##ölt
Decca
hieman
aiemmin
##län
##iona
pidetään
onnistui
Mick
Jagger
Keith
Richards
klas
Allen
Klein
runs
Between
Button
oman
yhtiön
##mediate
Small
Faces
Rod
Jimmy
Page
Jeff
Beck
Eric
Clapton
##tanut
Amerikas
projekt
##oittanut
ABBA
##rdy
Rus
##z
##czy
1870
Pavel
Tre
##tja
##kov
##oksen
Mir
is
##stva
kuului
edusti
##eitä
eks
##pression
##petti
tau
##lava
##lna
yliopiston
professori
##oste
Abel
1955
##af
Pretoria
##kih
1984
Kim
##berley
##bula
Ada
##xu
But
##lha
##gale
Erwin
##cht
Dan
Girard
Daniel
Well
##and
##andi
Tigers
OM
##HA
junior
##iu
London
Knights
OH
##L
Memorial
Cup
agent
AHL
Hartford
Wolf
Pack
ssä
Charlotte
Check
##ers
EC
##HL
tammikuussa
Darius
Kaspar
##tum
put
##mik
Kaudella
Marc
##olo
##kim
pudo
##fre
##nnes
##fina
seitsemän
##ness
##eko
33
Ryan
Call
##ahan
##upat
##raja
##isy
kesällä
2017
2018
KHL
Ava
##ngar
##mmen
##jien
##uuden
ido
Messier
Land
Sha
##ye
Monaco
Grand
Prix
##des
aj
##urada
Pa
##cede
Schumacher
##anga
kis
kola
##nnis
Bruno
Senna
Red
Bull
Webber
Nico
Rosberg
##iku
Japanin
Japanese
##zuka
##ada
Japan
voitto
Sebastian
Vettel
grand
sl
##rok
##pei
Vo
nos
samalla
Alonso
##key
Felipe
Massa
##neksi
##mui
Kobayashi
##kojen
toinen
##ilussa
##koro
##sut
##kul
##jet
##ähän
##yny
##gur
Suzuki
Kimi
Räikkönen
##vala
Williams
Bot
##jant
##pais
Cat
##ied
Garde
Johannes
ent
Palm
##én
##sessa
##tak
rin
##tama
Kristian
Vilhelm
Eli
Mat
Lai
Raum
##lyse
##ritti
valtion
##raut
##kat
1917
##ujo
varav
Por
##mark
Las
Har
##jakan
##avo
erosi
##aks
sama
sura
##dim
Bro
##vt
##v
Vladimir
##ovi
##š
1969
##šel
##bin
##sk
SF
##NT
##set
##minister
##tku
##villa
mitä
site
alueelle
##chi
##A
##yū
##ei
kan
##uge
##neiden
raport
Grace
##ō
##ū
torpedo
##isari
##missa
Na
##kajima
##N
Ten
##zan
Yoko
##ena
##vinen
NK
##9
##C
##mare
##onge
##lmat
##iv
##äst
##tiv
En
##ento
##htui
tou
##uussa
1942
##tamaan
##lus
sido
##noma
sillä
##holl
up
##sari
##nn
##jos
AM
mall
##meta
##keten
##nat
kang
##noi
##1
proto
##ene
##mistä
##rr
##utti
##vann
last
##udi
##chin
##tail
hel
välillä
Mo
seurauksena
Sar
Nagasaki
##bos
Ō
##mura
##ete
##inä
##bon
##rse
Gran
##äin
##lto
Atene
##um
##lton
Ark
##sista
##oti
versio
hae
sui
##hku
Turun
##kirja
##ston
Gunnar
Finn
Vis
##mane
posti
##tista
130
##umis
35
1998
52
##sive
##ilo
##lander
##deko
kymmenen
##uisen
dokument
##tif
##ilm
ik
##takt
##rati
Albanian
sta
##kio
;
ainoa
mere
798
neliökilometriä
##slu
141
944
kunta
##dis
##iteen
##ço
##ë
Pol
##iça
##kra
##par
Thomas
##zh
##api
##lly
Bombay
1964
##sore
Ignatius
Paul
Roy
John
Baptist
##b
##ër
##utuu
##ässä
Make
##donia
586
137
047
Bu
##qi
##zë
##los
Salomon
##inha
##cci
albo
##gula
##omo
BirdLife
Suomi
##tut
##jini
##met
Lu
hau
tavataan
Papua
##udessa
Guinea
sub
##tro
tro
met
##oris
##tom
##ets
##utar
250
gram
Bird
##life
##jit
Elvis
Presley
mono
##foni
RCA
Victor
lokakuussa
1956
##osa
##ysk
Record
studios
Hollywood
##lad
You
Mine
##äisin
##bum
##ses
##sios
##dio
##ikko
Recording
Association
America
plat
Steve
##hole
Otis
Blackwell
##ilt
Para
##kak
Jerry
Lei
##ber
Love
##shi
##sing
##und
Dog
Don
##rue
Little
Richard
cover
Up
Long
Tall
Sally
Ready
Teddy
country
How
##ating
Atkins
Ever
Bou
##dle
##aux
Bryant
Line
Aaron
##hro
##eder
Wei
Tom
Parker
Hill
Range
Foley
kant
##rila
She
kertoo
##smen
##iran
##isestä
##vy
##yde
amat
Mississippi
##pelo
##sio
##ertu
Scott
Moore
basis
Bill
rum
##pali
Fontana
Jordan
##aires
renn
vall
rhythm
blues
western
##ural
##nick
Peter
King
Rock
Roll
Complete
Masters
32
##sää
##rud
##upi
##ssing
That
All
Right
Mama
##pari
blue
##grass
Monroe
When
Blue
Moon
Turn
Gold
Again
Ses
läs
näyttelijä
Natalie
Wood
Nick
Adams
##emmat
Nuo
##inal
Dean
filme
tämä
##anut
##ttaa
Jorge
##nsen
Ernst
Life
38
Martin
Press
ISBN
312
1857
##äivää
tap
42
bens
Ed
Hopper
##hak
Aubrey
Brown
##ppel
##kari
saivat
##lot
##unnu
LP
1382
kein
stereo
Tämä
vede
pian
1999
##jul
bonus
##raid
##stys
Nel
raid
##sel
##der
Too
Much
##önen
Bonus
##yskuussa
20th
Fox
Jul
Sony
BMG
Direct
Stream
Digital
DS
##D
teknologi
##rait
Playing
for
Keep
Any
Way
Want
Will
##tusta
##master
audio
##resta
##uro
Bud
##annen
Loving
Entertainment
Original
Album
Classics
##x
##CD
886
##97
Ei
us
##kota
olleen
niiden
heit
Camden
Näin
##ult
ilmestyi
erilaisia
Lista
listas
Hot
Sau
Curtis
1987
Cloud
Minnesota
Yhdysvallat
Phoenix
##yote
Kurt
NFL
Vikings
Craig
##erroksella
44
##oron
Toronto
Maple
Leafs
Brian
Lee
##tch
##upan
##op
##imu
Wild
Vie
##iva
Elliott
Dion
Phan
##f
tak
##lasi
##erin
##pun
hänestä
pelaaja
##utto
1931
Helsinki
##imit
1958
WSOY
##sana
##mitt
##ajana
Tie
##don
porta
##jista
##bio
##grafia
##nite
##emi
arti
kol
Arti
Mann
##äiden
##oksia
Mal
##kar
##tano
##uste
Mets
##oir
##liste
jos
##pea
ihmisen
nap
rasi
myötä
##aro
gu
ville
##isiin
##uha
##I
##ju
avulla
##irat
##otu
vint
##java
##etaan
##jao
rodu
##tella
Group
##hou
##nds
Related
Br
##eed
voidaan
##istan
##kej
ket
pes
co
##ndi
##uv
kategori
mm
tree
cu
##uin
##isis
##rista
##iria
SK
##ajo
Ken
##nelli
Greek
Hare
Hell
Ich
Tiet
##rodu
##rar
##odu
harr
##ieri
##H
Pas
Buster
Mello
##w
Smile
Da
##up
##hine
##nisk
Harri
niistä
##ket
minkä
wa
##lesi
##gini
dum
##fr
##ies
##shire
Basse
##pil
##list
m
##rama
mata
basse
da
##chs
##bra
##cket
melko
nykyisin
dree
##veri
west
##fal
pol
##veu
##dy
Esimerkiksi
##arus
##anke
##sestä
jalan
Sweet
Home
Alabama
esiintyy
haut
Key
Grave
##yard
mon
##tään
##uman
##bone
sini
##tic
##pes
American
English
walk
Tree
Walker
plot
Pl
ken
##rak
##uttaa
##ttää
tas
##rite
##isellä
mei
##uvat
##njo
koska
##omina
perusteella
##mouth
cat
##oul
##leo
##pard
##iral
taas
ott
##aen
45
cm
kg
##joj
##ttavasti
mis
##ink
##iel
sight
##ntaa
juu
##rens
##eline
wind
ns
##ulen
kar
##adu
##ps
##vais
##hi
##iks
vill
##ikan
Ne
##lon
##tin
##mit
##ive
types
poden
##cot
##got
ci
##rne
##co
dell
fa
##ank
pääasiassa
##ntu
Mon
##lisi
##rill
##ury
gun
##dog
sporting
group
kanak
nou
##ösa
span
##it
##ako
manner
seis
gr
##iff
Point
Dogs
##rieri
##rina
bu
##ll
##öte
##rri
##erei
##riers
##llt
##erit
##ukan
fe
##noty
##liko
##uster
##olat
##riere
##tako
##rus
##inte
##oine
##ter
Pr
##az
##sky
Prague
Rat
##žský
##ří
club
Czech
Republic
rate
##oner
Rate
Vale
##ncià
Real
Sociedad
Can
España
kata
##quin
rota
##zas
Española
##hola
##vitt
talle
##kell
sile
sna
##uts
##rot
lukuun
##tate
##naut
##seri
pin
##istei
##staa
ora
mountain
##keus
##mer
Der
grosse
Kosmos
Hund
##ef
##ü
##hrer
139
Stuttgart
Mountain
hir
laika
suur
##rvik
##tla
##nni
harm
##nh
##fors
##inko
heden
##peri
län
##ipe
##rian
##uti
##šu
##ša
akit
##urii
##eal
##ean
##jin
##tar
lähinnä
##eva
tee
##loa
##relle
alkaa
Kun
tarp
ok
##puu
näin
##itan
##nial
vars
##kako
##isa
koskaan
##äne
historian
110
boa
##gin
##äti
121
mas
##fie
##osse
dog
argentino
##jona
##hode
Rai
Rhodes
Ridge
##back
##F
Publications
##0
##8
##66
##3
##22
876
372
huolimatta
pitää
##änsä
##rana
lei
leo
breed
South
African
Show
##änyt
ass
##yrian
##fia
Rooma
##aku
##nnan
##kyisen
##fin
##pele
##joni
aree
##nalla
##bull
##gia
staff
niin
##pur
##dell
Lion
Fight
Cause
England
Stop
Both
Ring
Pit
Bulldogs
##uum
cure
##nde
penn
##lva
##ther
new
##landi
##nko
Pennsylvania
1892
##hoe
##maker
1907
Ex
##ct
Animals
Alto
Tribune
Publishing
##rui
Cher
##yot
Kenia
##egu
ajal
63
##enä
mara
Rotterdam
Maka
04
48
Samuel
Wan
##jir
06
##inin
Frankfurt
##tone
03
##ssu
loppuun
Wilson
##psa
##ng
Newport
Beach
baseball
##ött
Angels
Texas
##odet
Santa
Ana
Junior
##joukkueessa
Tim
##ulas
##jali
##iga
App
##chia
League
##ikon
##lem
##mällä
Sand
High
AA
Tulsa
Dr
##iller
Fr
Rough
##ider
##tou
esti
Major
rive
seit
##pio
ERA
##mmy
##gala
Rama
##dhan
Mto
##ro
1947
Orchestra
##ssy
Orchestre
Super
Pro
##vins
##ock
Kind
Belgian
##kyinen
isänsä
##ksa
##yä
appel
puru
##kum
Ban
##cce
##ss
into
Franco
inn
##wach
##ame
Mickey
Jazz
Uganda
Mika
OK
Fan
##galan
set
##zee
trumpet
basso
rummut
Mata
##mila
kahdeksan
lava
norma
##alis
##dest
##lass
kong
sou
latina
soul
Amer
Songs
poor
man
1992
##nsä
Ma
##mbo
Kwa
Sin
köy
poli
her
##ätti
##isuus
hal
##lami
Sai
##lama
gospel
##vara
dre
##lock
##sins
##dettiin
Has
##ler
Sankt
Gallen
Gustavo
Test
Cam
##inada
Franz
##reng
##tika
##rko
End
##meria
kurs
dias
##tere
bis
##avi
##lein
[
x
z
]
##steen
pis
##män
##lten
##les
yhtä
##gasta
prior
##itee
pide
##leen
##meer
##nce
Tales
Mobile
vek
##ny
Pel
Nokia
super
##kene
este
upp
nopeasti
kell
##arle
Klaus
Fleming
Albert
##felt
##eo
##pent
##laus
part
##pah
##apa
linna
##uren
kirkko
##alau
##kalla
##bba
Sten
##bo
##ellä
Zach
Top
##mme
valla
##akse
##onu
Jos
##vin
##uas
##rava
arm
##uai
##kana
au
##ktor
##vot
st
1873
Jean
Léon
##ér
##ôme
johdolla
Magnus
##son
##elj
Jules
Bas
##page
johon
alkoi
##vata
##ges
tätä
salon
##gis
Tuo
##llo
##odi
Frank
Claus
##trat
##nska
1877
##use
Tun
##aton
hori
##pana
##ttyä
##real
##pse
##atos
##inga
##lank
kylä
1879
mars
##inii
aula
##ante
sum
Ö
##rm
Fredrik
##ster
##lund
##ril
##nant
##rij
##vis
##odas
##atin
Herman
##ida
Rosen
##dahl
Kat
##luku
##rs
Pai
##oje
##tii
##tiku
Res
##viu
Ham
##mah
##arra
palkinnon
##erien
Is
##oles
1949
639
meri
Pola
##ngen
##mmar
Kale
vat
##pata
##last
VI
JR
##pania
veri
##sim
tien
##kolla
##dat
No
##auta
1934
##cc
Ghana
gh
##loh
##uku
##mota
ur
##hockey
Barbara
##jal
UC
##uch
##osis
Big
West
##fere
Chelsea
##gas
##eit
vuotiaiden
##lose
##lmos
##di
##onas
Ti
laid
nuorten
##mest
Atlantik
##IF
hon
##dek
PK
paras
##vusi
##deva
liiga
Karin
##ga
Hon
Pela
Hong
MY
##PA
Aki
De
Port
Spain
Trinidad
Tobago
tri
##nida
##dt
##oba
##gola
##oten
##gan
FF
Jar
##yga
FK
Dai
##ass
##oden
1809
visu
Ser
##lach
##ius
##lau
Rune
##ool
##ino
##kaita
##ätt
uni
##vorm
##vit
1802
##hem
##llia
Ville
##rine
##uni
201
Pin
##aid
Weil
sp
##onta
Ah
esitti
lois
##top
##erst
##röm
##ksyllä
idea
kann
##atet
##tinen
##re
##kula
##anos
##tov
##ämään
##elu
##elde
##utt
##heenjohtaja
Estland
sank
tehnyt
##toma
##mmin
##onar
##vois
sort
##efe
##pol
Helm
mani
##fest
##pont
##rto
##utui
##elia
##bine
##aun
##unut
##alaisten
##torio
##rise
##ruk
johtaa
pass
##teile
suoraan
##ual
##lme
##äe
##siva
##östa
##nem
##puis
Rum
##pat
##äike
Mildred
Pierce
HBO
##okan
Cain
Todd
Haynes
Kate
Win
##sle
Guy
Pearce
Evan
Rachel
Melissa
Leo
##elli
##tans
film
noir
Joan
Crawford
Oscar
Dani
Bol
##nini
Bologna
Sid
1946
Battista
Rocca
Cornelia
Er
##sili
Men
##zani
1952
Cremona
71
Karl
Josef
Rome
##yin
Sebastião
do
Rio
Janeiro
Col
##umna
Eu
##g
##ênio
Araújo
Sales
José
Alberto
Lopes
Castro
Li
Ob
##chod
##ze
##šek
##lova
##kian
Ján
Kad
##ár
Elm
##ar
Shop
Main
Street
Kino
Kultur
slova
##kaupunki
##uta
##lke
##roll
##jot
##ule
häntä
ar
##tala
tape
Times
kaikkien
Best
Movies
Made
##stuu
Guide
Griffin
2016
O
##tma
##äder
François
Nestor
Adam
Anton
##ggi
Tampereen
For
##kii
1991
##rih
cup
##ao
Ivo
Für
1954
Henri
Lehmann
##ival
Sara
França
Palma
##resi
Luís
Gonzaga
Fernandes
Lors
##che
##iter
##ácio
Rodrigues
Alves
Tekst
##lio
pedagog
1911
edi
##oud
861
Ak
##etta
Am
##koj
##enek
##iton
##media
Markus
##üche
##édée
Grab
Koch
Souza
rede
##mpt
##aze
##iron
Carmine
Rocco
Antônio
Ribeiro
Oliveira
##vena
SS
Ha
lien
Mil
uska
tehtiin
##ötä
Jake
Sep
Silla
##mana
Francesco
1902
##cq
##pende
Or
##viet
##erm
Gala
Raffaele
Rossi
Luigi
Tra
##glia
Giuseppe
##nti
58
##és
Velázquez
Lau
Emilio
##ero
Luc
##tica
version
##gali
Dies
eni
Infante
Toda
##quina
soundtrack
##liset
##mis
aan
##ite
##arki
fir
php
##sam
mucho
Sergio
Contreras
Valparaíso
chi
Carlos
##cud
Tag
##var
##rub
Santos
Gabriel
##rra
##ín
##vies
##etett
Concepción
Santi
##ssima
##cezione
Sem
Tem
##uco
##vian
apo
1996
Yo
##landa
Mérida
í
Alp
##uche
Morales
##rre
Carmen
Man
##yes
##yte
em
##ños
una
casa
##nove
Sidney
Metz
Birth
Jerome
##erts
Rudolph
##sius
##erk
Mariano
Simon
Paso
Brill
Building
##court
Manhattan
1619
Broadway
##isuuden
Art
Jr
Coleman
##ik
Seymour
Kaufman
säv
pianist
School
jazz
##lessa
Sinatra
##ell
Try
Change
Now
Witch
##craft
1953
Carolyn
Leigh
rev
Murray
Anderson
Alman
##ac
Tony
Bennett
Fire
##fly
musika
##cat
Ball
Caesar
Charity
Dorothy
Fields
See
##saw
Wife
Barn
Emmy
Wells
Shirley
Mac
##aine
If
Friends
Could
##alista
Gypsy
Soul
Rogers
Grammy
Osijek
##čko
bara
##nj
županija
piiri
##oat
##lavo
##nian
Đ
##ši
Bel
##šće
Mana
##stir
275
056
prosenttia
155
Hat
Sein
##joen
Ou
##kkan
Lok
93
Nike
Premier
Manchester
Valentin
##atki
turn
Piet
##aris
U21
Fins
også
signe
##sht
##agh
##gh
##bi
##sse
Kabul
Afganistan
##zara
##per
syntynyt
Iran
Taliban
Teheran
ser
##ltu
##itas
##uki
##oren
##lub
organi
Tal
Dynamo
##eku
lat
##vial
Spartak
##rmal
Latvia
jotta
##bista
fut
Some
##imas
##isso
##aille
Š
##jor
Kara
##daan
SJ
pure
mos
ya
Koska
##obil
Turk
##vite
##yku
International
Circuit
##aye
Qatar
rada
MotoGP
Vuodesta
järjestettiin
GP
##vasi
joulukuussa
Dubai
##drome
selv
##ül
sprint
Barnett
Newman
Baru
##ch
ab
##kti
Students
##nel
##ellen
Sub
##ject
Artist
William
##zio
##tesi
Mother
##well
Roth
avo
##tona
One
##aisen
##tris
Ad
Reinhardt
Cl
##yf
##fort
Still
Stella
Larry
Station
Cross
Solomon
Guggenheim
##urt
##ffa
Sahara
135
800
##tein
118
98
arabe
##lbe
dj
Sie
##dun
##uva
##elin
kui
monet
elan
Phillip
Island
##nor
Bass
Coast
Shire
Ensimmäinen
##urat
sora
##pit
##uine
Rada
##kua
##udu
##miseen
asfalt
##jay
##xin
##mont
dollar
##eil
##pro
##fii
Ensimmäisen
Australian
legenda
Gardner
##bik
Fach
Té
##né
##rée
##dii
##keista
##zza
Kane
Born
kara
##auto
##uvia
Mats
Ross
Olsen
nor
SH
##unda
HC
Elite
##spects
##vus
Erik
##det
##seur
Fu
divisio
##etin
GE
liga
##ottelussa
Marius
Math
päätteeksi
##ål
##eren
IF
37
##ora
##nny
option
##tke
##ode
##star
liigan
CH
##undan
##ong
##chang
104
##ous
##urn
##pp
##mmat
Funk
Designer
1981
Minneapolis
Steven
Greenberg
##els
##teja
Vokal
##stina
Cynthia
Johnson
##put
##album
Mouth
ot
##ösen
Dance
Club
Play
list
all
##ic
artist
##26
##65
charts
awards
bill
##board
singles
##inale
##vyn
##ls
hit
every
uk
##öhe
##tej
##lue
##rti
Frères
SA
Adolf
Alfred
1888
##watch
Vintage
##nas
##teht
##chen
##nais
##maat
360
root
Hamilton
Watch
Company
##oval
News
Virginia
##sos
siis
Hampton
sat
##ama
River
Portsmouth
Norfolk
##aman
##tela
1621
1606
1612
Ohio
1882
Ship
##building
Dry
Dock
tela
Tel
United
States
Forrest
Enterprise
##suke
##llus
##vene
##pien
log
Warwick
##mian
War
ak
##vaar
planeta
##ario
University
1175
1248
1206
1227
1241
kohti
kl
##kasi
##oak
telt
##uolella
##jak
##vak
##uita
##rate
monia
##eim
##vale
##nai
##tion
##rota
##hli
##etet
lank
murs
Marin
##čin
Košice
##cin
Prince
##ugar
Regina
##P
##pects
2020
https
sports
ca
hockey
##hl
map
leaf
sign
defence
mart
marin
one
year
extension
732
Zi
##nder
##uré
##sker
Maan
alta
##ré
##sso
##lom
##ve
##uto
milli
°C
##ea
##halt
Sad
##eves
##vej
elää
##desi
gas
##loni
##lam
saka
##umm
Nord
Dong
##oum
##zo
Dirk
##pare
Toinen
Dol
##ueel
##tomia
##logi
koht
Mitsubishi
67
Peggy
##teris
Chant
Hy
##avia
##ppe
##ssar
Vers
kami
##kaz
Charles
##él
##icien
Émile
##cles
Brand
1853
Find
##cle
##ose
##ai
medal
##mione
##ulo
##akon
##graf
##eista
1883
task
##uke
massa
##nnon
mag
##tike
##nek
##ello
ID
##EA
##iske
Moto
##IM
FIBA
AFL
CB
##ek
##okat
##kam
##eiden
##rek
##ister
##vali
Ved
Mikko
Jimi
##luse
##nka
Ein
Olav
##lp
seuran
##pija
##osto
Fin
##isar
Mail
Nous
##amas
311
##33
##04
##91
326
##45
Länsi
##ppo
##nnas
##uksesta
Marko
Have
##valle
##99
##lty
734
##58
##60
veto
##71
##ouse
##ation
##uen
##miu
##uns
##mon
##pso
##järven
##adi
Stadion
##jaka
##pasi
##teet
4500
b
##oke
Edmond
##18
##86
Pont
Martel
Fabrik
German
##stum
repeat
##nit
Pia
tehdä
Switzerland
##odan
sk
Patent
Office
Index
Trade
##marks
issued
from
428
##ville
joilla
Oro
sua
proprietà
Mit
##iteta
kvart
Boulevard
##éro
Fribourg
273
##ines
Auguste
logo
Portrait
Compagnie
des
Mont
##res
Franc
##illon
1847
##zis
Ernest
1850
halt
laat
design
1862
Ancien
Maison
successeur
##ätä
Jacques
##eki
##nine
LCD
Time
June
Gang
Seven
Animation
Tata
##rano
##wicz
anima
##mation
koos
Deborah
Dennis
##zel
Lou
##heimer
Bernie
Wright
##efer
Dick
##bas
Rich
Aron
We
Ia
polis
##hod
##ód
Fi
##lé
##rimo
##ók
puolestaan
##inta
Homer
##val
##uet
##itaan
##nge
##koja
##tetaan
Anatolia
Anti
door
1100
eaa
##mei
tavoin
400
Dia
##gora
Olympia
408
##mos
##isk
##tett
##zmann
##sivät
1876
nek
##rop
##olin
Louvre
British
##nost
##lal
##ellisen
##listen
##maid
Athen
hell
##enis
##fi
##tras
##yl
teoria
cell
##th
sein
##tip
##ats
##sain
##heessa
liitettiin
Zeus
##ieu
basi
##lika
kup
fra
##nk
1300
kirkon
voti
figur
##vora
##verk
##nosti
##sant
##iá
##ára
##ós
##uda
##ääosin
##mio
##toja
##B
Apollon
##eth
Th
##ól
##ólogos
##lyi
##iselle
Rad
naar
##unt
470
Fritz
Werner
Uhr
AG
history
käyttää
tim
##10
Nicholson
Benjamin
Den
Buckingham
Slade
Fine
1910
##inu
##mises
##tes
moderni
##worth
Henry
Abs
##tract
##réation
holl
Mond
geometria
Gabon
sir
Leslie
Martini
Circle
Survey
##stru
##cti
##festo
konst
##tivi
##smin
##aten
som
##mite
##ktion
representa
##skalainen
Abraham
1775
Vallée
##ux
olemassa
pioneer
##bil
Ludvig
XVI
kuning
1747
1823
##rol
##ogist
General
Bi
Bien
##kien
br
##dien
Kaikki
##lim
home
##kova
Sy
##rmi
##rsko
##rije
##keskus
##vci
Ž
152
494
454
Iberia
niem
##tha
mau
Euroopa
##rost
Mau
islam
Roma
Got
Toledo
##dei
Antoni
##ud
Diego
1599
1660
Goya
1746
1828
Miró
Dal
Greco
1540
1614
Pablo
Picasso
##uer
##nica
##ysta
bas
Dalí
Madrid
Reina
Sofía
Málaga
Prado
Flame
##nco
anda
##lusi
Andrés
Segovia
##era
##uela
##eral
##áci
Domingo
##ire
##film
##ñu
And
##alus
##nue
Ranskan
##ajat
Rafael
##lles
Calvo
Cannes
palm
##idia
heti
filmin
##ij
##west
##ern
##oros
##dó
##dova
##mor
Antonio
Bandera
Luna
##ope
Cruz
Javier
kin
True
Belle
É
##osten
fant
Alejandro
##ená
##bari
eut
##anas
parhaan
Sea
Inside
death
debate
news
Serrano
##imme
kirjailija
Miguel
1547
1616
1605
Mancha
Muñoz
Molina
Federico
García
Lorca
Canción
Jin
Nobel
##gara
##zag
##uir
Jacinto
##aven
Ramón
Jiménez
Vicente
##ix
##andre
Camilo
Cela
##visión
##E
##luka
RT
##VE
##itis
##elis
Internacional
Antena
Cuatro
##eci
Sex
Inter
##eco
##nomi
media
Barcelona
Kata
TV3
Canal
##X
Catalunya
i
##FM
informació
##dri
##esu
Galicia
Bale
Aragon
BT
##V
País
Mundo
Per
##ió
##dico
Vanguard
ABC
bbc
profile
991
Country
Profile
##leh
##kija
minutos
Qué
ADN
##isir
##kara
sim
sah
##rami
gaz
##pach
kur
toma
##pri
##inie
española
##akas
cho
##riz
##tio
##kkus
artis
##iren
Que
Manche
##ater
illa
##lak
café
solo
mai
##tot
corta
con
lec
Torres
Jerez
Frontera
she
##rry
jer
##ez
Sang
##ría
hed
brand
ce
##hla
fiestas
locales
Oh
UNESCO
monument
sulu
##vio
Sport
reference
##loma
##loss
voittanut
FIFA
ranking
Associations
##nz
Spanish
Travel
##ogue
ten
Davis
Fed
##spel
Nadal
Omega
1848
Speed
professional
Bond
Brandt
Fonds
watch
time
##mail
##lora
Gordon
huu
##toka
1959
36
kart
43
##iben
kn
##inska
##dice
99
633
984
中
島
天
山
Jill
##meren
B5
##ritu
pare
Proto
lens
keväällä
1943
##version
km
##uan
870
394
kW
133
MK
##versi
alat
eden
##pulan
##W
Steel
over
##sized
##bele
##llan
Citizen
Ronda
leve
Stein
Jacobsen
##vík
##aret
##ór
##shavn
novel
##leja
##ør
##rissa
Isla
Ask
Há
##úla
##skas
##ului
##ús
##av
##ík
kunnan
##sih
##nelles
##ið
##urs
##øn
##gren
Gill
##mment
##mmillaan
##igne
Mei
160
162
Tas
LLC
822
1701
Institute
Academy
Pauli
kale
##nter
Stevens
Gross
Coca
Cola
##kamp
$
Samo
ah
##kera
##smo
##polita
##wil
##mans
76
pale
##nno
##anne
##lia
##pis
##ula
##öp
##unii
ampia
kings
##eries
##osti
persoon
##äitä
##kine
ilk
Dubrovnik
Dub
##rova
nere
##tva
##vassa
425
781
##ču
Met
##ković
##uze
##oče
##eau
1872
Angers
Eva
##rist
##eur
Mathieu
Pierre
Marie
Frédéric
Fall
##ières
91
Nei
Marian
Kill
##arne
Kerry
Katedra
1842
Augustus
##lb
##ugi
##fert
bus
##isit
##mek
seks
##éa
##gar
##lca
##orme
Derry
dies
79
Rap
##Q
Tomás
Ó
##aic
Gaetano
Ali
##brand
Edward
Kevin
Daly
Claude
##cker
Belfort
##bé
##liard
Eugène
Georges
Lec
##nier
Yves
##ôt
Maurice
##pert
Cham
##béry
##rienne
##rent
Leone
André
Bon
Gustave
##uar
Philip
Boy
##jas
##mel
María
##jí
Emanuele
Gera
##da
Anthony
Theodore
Lobo
Karachi
##escu
##deiro
Islam
##abad
Raw
Ea
##rns
##haw
##ful
##bia
Cardiff
##wich
Albion
Norwich
County
Nottingham
Forest
hatt
##mpu
Englannin
Football
FA
##mol
Rita
##aak
Malawi
Bed
##was
Wales
##iak
##rans
Hart
##pool
Millennium
Stadium
##onal
##uid
##las
punta
##roja
##gid
Capo
##rell
Padova
Mantova
Anas
##tasi
##estre
Filippo
Francesc
Bartolomeo
##gnon
Roberto
Bus
Milano
Umberto
Colombo
##igi
##zi
##tili
Mol
Nevada
mor
Bau
##ghi
##unto
Idea
##lden
##stein
suv
##ere
turi
##äit
with
Titanic
orkester
RMS
##kinen
viu
Wallace
Hartley
nei
vene
pelas
alusta
Near
God
sin
Lord
Walter
Night
Lives
Our
Help
Ages
Past
est
pani
##mn
Lowell
Mason
uno
IMDb
##vint
##ytyi
sell
ilman
##lony
Harold
Bride
##mell
lui
##rado
Song
##mne
##dol
hil
Cameron
##stettiin
##dent
shi
##lling
##yra
##ivät
##hre
##ulle
##otes
iku
##matta
punti
luokan
Asian
halve
Bruce
##may
##dik
221
start
178
##vira
##dal
##ävät
##tl
Lotte
##ique
##ium
##vima
##vili
UE
Crown
Killer
Finlandia
##vosi
Queen
Victory
Till
08
Mead
##ow
##lands
Passion
Kemp
cameo
Kjell
komedi
Rennen
Trail
##vern
Winter
Road
##viti
Hudson
Manitoba
##wan
##olelle
##awan
##uck
##ires
Tien
pituus
752
varrella
##lien
##utus
Norma
kino
90
##tain
##unti
##pue
##vek
Ministry
Northern
Development
Mines
##dje
220
266
Tokio
Antonín
Raymond
##zawa
House
Nara
##ismus
pre
##fekt
##rte
Mister
Pleasant
Mr
Ray
Davies
##nks
Picture
Book
bok
mille
Studios
##tud
Ä
ses
pasu
Bee
Nicky
Hopkins
toimivat
##enz
##ie
Duffy
##edi
This
Where
Belo
export
##yen
Manfred
Said
Belgia
nn
Reprise
##olen
Harry
##selle
Cash
##box
64
mill
##onik
##sein
File
EP
Two
Sisters
Village
Andreas
##uno
Ennen
##lju
##ensi
##ivo
##ummer
##bli
##ografia
Jupiter
Jones
##rät
##yske
##tora
##mot
Saat
Pete
lap
##ittää
Rolls
Royce
##ume
Clock
Je
##eter
Had
kod
##git
##ogen
Gerald
Martha
parti
##äte
##kol
heilt
##sua
##tana
un
##gen
##ay
##ottaa
##dista
##ydi
##app
##pelle
pula
##yttää
port
##dna
jen
##gi
taj
##aikan
##tuu
Reynolds
##misesta
kuulus
historians
##iban
##yan
##ppy
##athlon
sport
##U
Race
260
Maastricht
##burg
Enrico
##ender
Sagan
Óscar
Freire
##kill
Cycling
##news
Järven
Palo
##usse
##aste
##rven
##usu
##nnar
Polar
Nikolai
Poll
##joki
##mona
##dite
Å
lake
##ánd
Lam
##mittel
rus
##rej
rai
ved
##mata
##ido
Lys
##eos
53
##piro
##lum
##vate
##amine
##sene
##niano
##ues
sor
vaste
##pr
##most
gene
taip
##umu
##ologi
##lor
voivat
ap
##oria
335
Marion
Nest
Why
calor
count
##pila
##tavat
Please
Lennon
McCartney
Kenny
Lynch
samo
Helen
Nashville
Stoke
Trent
Liverpool
##rie
##session
otto
radios
##essi
##caster
Harrison
cele
Baby
Abbey
##oper
Geoff
Em
Burt
##lga
##arie
##gri
ira
##asse
Volga
maiden
##aes
##sumi
pet
##ge
Ibn
##rtas
##date
kuni
##etään
Mas
ū
##ī
##−
##tiu
##onika
1360
tat
##psit
##tsen
##tero
##juk
##atok
##rna
Oy
##hol
Ab
Elena
Bulgaria
Veliko
##ă
##rno
Balkan
635
city
##pop
##ulation
##roman
Bulgarian
##nski
but
##ner
##mpe
##kenti
##rkin
sie
##istas
Ural
Rainer
##lst
Mars
MCA
Gas
##oline
Alley
Soto
bike
From
heavy
##monie
##pian
##nse
pasta
##atte
97
konsep
RF
##ID
kort
##katu
Pays
##eca
##rd
##pass
##IN
##odia
##amma
Wien
proses
##tuvas
##krat
antaa
##ntia
Alegre
Venezuela
Chile
participat
##ory
##bud
##get
Sit
##iah
sit
ide
##jesti
pilot
##tih
Selv
##soma
Noi
6000
##mise
##cier
Finland
CF
CFA
standard
sponsor
##heng
##sah
Region
Europa
AD
Hanna
##kang
##lop
mar
##rkan
##nent
##inger
##bridge
paid
Washington
Capital
dy
tipu
alas
##erii
##eris
##pani
Portland
Pirates
##onom
##udo
84
Philadelphia
Flyers
Florida
Panthers
Anaheim
Ducks
##KA
Providence
Lindsay
##tam
768
951
TU
EM
selo
##luk
Josh
Bowman
Joshua
Tobias
Berkshire
television
Amy
Wine
##house
Miley
Cyrus
##rust
Emily
Gun
##vah
##love
271
KP
Akt
##hik
##idae
##imon
##rest
Must
##amer
##lou
##ict
##hys
##ikal
dra
##pl
ara
##päin
vino
##rau
##dus
##tsa
##äisiä
##lat
hyd
##pta
##kalan
Mongol
1200
1240
##tare
hunn
##ellus
vallas
Persia
##nast
ord
##urm
##ogu
##itor
Unii
soo
##lbum
Ela
##ekti
##nika
##uska
Sus
##ijen
Timo
##jaus
keng
Mikael
##itos
Mais
plural
anglo
kuningas
institution
##uj
##kata
##kant
##aj
##ritt
hin
##tata
##nou
##lekt
Gene
##ves
Olivier
Bern
Heine
Uni
##lever
CEO
Amadeus
Milo
Forma
##the
Raphael
##kins
##isme
klub
Agatha
Christie
bi
Osborne
Murder
Three
Stage
##meri
Meyer
Solo
##thur
ch
Johann
info
Medan
Med
patent
an
Zen
##ith
##ët
Hennes
SE
Fa
1865
##brique
montre
Z
##éni
Use
##utos
565
Primer
##grafi
Hz
##cilla
Def
Lab
Sector
Limit
Gia
##rdi
More
##llat
##odik
ETA
Alice
Powell
UK
Britannian
Racing
Driver
BA
##RC
Status
##á
Vicky
Melville
Kur
lar
##gii
##iei
##mea
##duk
lima
Last
vale
##rap
##fen
wiki
index
title
C3
A4
virus
Hank
##ily
##duta
nuk
##kuma
##mee
help
##raus
##psi
##ällöin
##nee
vett
siten
##nty
##eta
ibu
##fe
napr
##lul
lie
##yle
Pop
delt
##oides
pop
##omb
199
##arna
##äu
##rma
Vene
##zzi
##nato
1896
Trentino
##zzano
Nizza
Verona
Ida
Fra
114
252
Dina
Howard
##hari
Montreal
Canadiens
WC
Michigan
Tech
350
rang
Houston
Aero
Carolina
Hurricane
hävisi
Buffalo
##bres
##latt
Eriksson
Jose
Sharks
Arizona
##rle
1935
flor
motor
aviation
culture
diving
cal
652
sert
##if
##llu
Professional
Fleetwood
Lindsey
Stevie
##hian
kit
166
39
105
##tao
SP
##ovanie
##stadion
Otte
HP
022
##sken
##vini
Luka
Nils
Kai
Thatcher
that
##cher
Margaret
Blair
Sinn
##laat
Helmut
Lothar
Schmidt
Spezia
##hren
zu
##esia
##nilla
Ecuador
##koon
Richter
##pose
##rum
060
##uano
##llar
##ato
##raz
##ax
##iny
Quito
Guayaquil
##chan
Coffee
Del
Valentina
##uds
##ovna
Tbilisi
##ntie
##vane
##ert
##tium
##pon
##icum
##tist
rent
hien
##vive
##sat
mö
##sou
##lasti
##hal
Ver
Het
##del
##lius
##isie
##meni
kota
136
här
arc
##ticu
##tuel
flora
##rv
##arta
##yre
##dian
Turki
ainoastaan
##ilis
Eno
Ut
Ina
##pine
Lahti
##viat
##uve
lume
tih
puro
##ranno
Afrik
##unu
##mut
##eas
##tuti
##atie
426
##raj
##hav
Billy
Rose
Durante
Doris
Day
Stephen
Boyd
Berkeley
broad
##way
Hip
##pod
##rome
iki
Rodgers
Lorenz
Sheldon
Columbia
Willem
Dois
##ologia
##kert
##leg
##kog
##niti
##ners
pen
ask
##nur
ever
Regions
##mina
UEFA
182
309
Departement
##mou
##igu
##irin
##llé
Loma
##malt
##laki
##oso
##mara
##ulli
##uur
##aha
##keta
##aik
term
##etus
##yse
##lex
Sv
##vero
##nej
##esten
##voll
1741
savu
##osan
##utettiin
##över
##aki
1913
##usan
Otava
##é
##bom
##mé
Togo
tog
top
##nau
Armin
Bielefeld
Timișoara
##hor
##od
##ovas
##aida
##sivo
Dne
694
Juha
##ärvi
##stik
##tory
##innon
41
533
##riss
441
##pini
Vor
603
Host
268
##jub
038
460
##mali
##boro
Shock
Terror
independent
##uel
Nguyen
Whitney
Hitchcock
Linn
Nathalie
Movie
##head
Pictures
genre
##tima
##inet
##hos
##dens
dia
##ave
Victoria
Secret
une
##ngo
ek
aur
out
hotel
mass
kim
Ramsey
Becky
Bat
##cha
##ear
##tellen
Camp
tappa
##stej
Cowboy
hip
Gustav
##hala
##misel
##nym
##riy
kalas
##ingo
##lati
##ivas
terme
##gene
hava
geen
##arat
Bio
Sunshine
Project
##iselt
pot
##entia
prosent
alene
##dina
aktiv
DNA
##eky
trans
##lato
##oran
RNA
sito
##uille
##vens
Afrikan
apartheid
totaal
str
##ategi
##logist
ANC
Apart
##hot
Projekt
ster
##noj
api
##seid
Israeli
##rae
##nisten
##uhan
Sim
Ola
Fam
Doo
MG
##fu
Od
internet
tarkoitus
##leet
raka
Enkel
##ling
Rei
##Pa
Sera
Rob
Chu
Vista
Urban
Justice
Deadly
Impact
Reunion
Breaking
Bad
Alma
Media
##sano
##ikos
##rst
Ros
##tedt
##rvi
882
Torre
##cutiva
##lve
Petr
Mexican
Díaz
214
##tue
Mayor
metri
##llen
034
325
een
##lament
Irving
Monde
##om
##hr
Musik
##ej
Liber
##atori
Kawasaki
##ress
laki
219
Yuki
87
88
Okinawa
Reggio
Emilia
##ting
##ech
Köy
nytt
##lain
§
ela
##kita
SU
##OR
LA
##US
##Ö
##Ä
##IT
##IS
##TA
ien
##rais
sok
##rom
##ph
Lor
Eurovision
Bos
##tröm
Melo
##festivalen
Girl
semi
fina
##aina
viis
pump
##oid
##ffe
tra
melodia
##ruption
##ely
##atakse
Professor
Pekka
##lja
##uise
hinn
##eto
##vere
Harris
Wo
##fford
republika
Santo
Maar
Turku
filosofi
##äisten
##fa
##finder
Lock
##stedt
Lager
satu
##mli
##nges
Pound
##pies
Golden
Wer
Bunny
##ael
Fred
Kirsten
Karen
Lutz
Anna
Far
Playboy
##pua
##uos
##ark
Know
What
Boys
Like
Internet
Tomatoes
pos
##rvo
123
Stille
##edia
Thunder
##we
##wo
tradition
mbi
presidentti
Julius
Nye
##rere
Brook
Do
##elem
Master
##ians
Tanzania
Vier
##ailles
Yet
##bit
##row
Assembly
Animal
Nation
Friendship
Society
Marty
Dee
CBS
Sarah
##ever
##vona
rit
nr
##jur
Jussi
Pioneer
##ela
##rili
##tal
##uru
##tumia
##ingi
Lauri
kommun
##gik
##kott
Part
##anen
Göran
##inne
Patria
##anie
Hope
tome
##ntos
koriste
##hil
Krim
##eka
Oulun
##pista
##opa
puis
##tojen
##jik
##kah
##eber
Silver
##še
##slav
Leonid
##nadi
Kings
Q
##cto
##cats
##ident
Elo
Mona
##rch
Alec
Martinez
kokonaan
Campbell
54
Stanley
##omas
Ann
Malmö
Kirk
##edo
surma
1156
##nala
##jumu
##uton
##gg
én
Georg
Kato
trad
##anus
##st
##rni
69
ISSN
1457
714
ainakin
sada
##iais
1600
manter
pidettiin
1422
##ldo
kapel
his
Messe
##nius
##ond
ill
1688
Holm
1868
##herra
##erta
Viktor
Axel
##cre
##utz
Hjalmar
##nho
##×
##11
Haut
##vija
##vasti
##ein
Kris
Trondheim
tina
ga
##sna
##rel
Nu
Otto
##ceni
78
kupa
##bre
Mecklenburg
1338
1412
brak
haur
##mes
sunnu
Kap
alt
##tari
##kylän
##nabis
##abi
fest
Amsterdam
Counter
##culture
Fame
Edwin
Franklin
##quen
##cera
Byrne
Francis
Dunn
Davenport
Dwa
Tex
##arkan
Rapid
Clayton
Nie
##edt
Aquila
Amos
Cleveland
Meta
Alexander
Quinn
##vec
##cian
Bernard
##sg
##rove
Soc
Pilar
##czyk
Gilbert
Roger
##ries
bene
##byli
602
243
##mella
Terminal
velocity
Nash
Bridges
Sitt
Buffy
Une
Tod
Miami
Donnell
mafia
Ye
##pla
##gat
##dere
Nan
##lete
ia
##nji
74
Nairobi
##pers
IAAF
Novo
##ort
81
Tara
##ital
##istik
Glasgow
83
72
Ostrava
86
##igan
Birmingham
Peking
92
sektor
Erin
##ukat
##lkan
##lih
Asa
Rabat
73
Doha
##cy
##sele
##dsen
Petter
##iros
Bristol
##vita
Atari
##grafii
Star
Wars
Kabinett
##boy
kontroll
plane
##etto
##hota
Plan
##etan
zoo
##mann
##aktor
link
##dotto
##oga
029
450
Mueller
Lunar
Battle
Asteroids
Deluxe
Space
Due
542
Enn
FL
##UN
##NE
CO
##IL
##OT
##ON
##TI
##AT
GO
BE
##UC
arcade
007
Kiel
##tale
##ids
mask
DJ
Slow
Hockey
Zone
Kui
Karel
Division
versions
Ole
##G
Freeman
Get
Loud
Ante
##tara
kome
##nio
##vete
kala
##jeno
palju
kalan
Egypt
##yel
Dynasty
##jee
##hani
Nes
##onos
bot
##ulis
pub
illas
Michal
##ú
##ň
1822
Biała
1844
Praha
##elen
Memphis
Tennessee
Alex
Chris
Bell
Stephens
Andy
Hum
##tib
kalt
##järvi
##vento
1752
##elt
##stire
##asan
kela
ret
ami
##sme
1748
Amir
teologia
tohto
##porta
##tat
1750
##herr
mail
Doyle
Swiss
##cora
##enen
progress
element
##moin
beat
##lerin
##alan
Ca
##ggia
Brooklyn
Ini
Nicholas
##arz
Vos
Daily
Bridge
##port
Connecticut
Sans
##éré
##dino
Glenn
##dá
##loch
Sullivan
##GC
who
are
not
Sul
##iana
##gave
Snyder
Belmont
Massachusetts
Douglas
Queens
##ladi
Humberto
Sousa
##eiros
Riley
Lawrence
Cunningham
McLaughlin
Og
Mans
Syracuse
René
Arnold
##ish
†
##nya
##nyi
zi
##mba
##wel
##wer
Dixon
##dlo
Pius
##vun
##dla
##cu
##be
##wen
Xavier
##gad
##rlo
Ignacio
Prieto
Vega
##ving
maja
1623
1719
1724
##wat
##yria
mala
Chang
##ryn
Philipp
Alf
Conway
Archbishop
Ravi
##ew
##uz
Chen
##iako
##nach
##erry
Aby
##rsa
##yal
Vall
##illy
bel
##ove
retired
pastor
96
Ci
Graham
##nkan
##lie
forti
##tros
##trum
Mega
##lani
qui
##org
Bosni
##tija
Aston
Villa
##hme
##iche
##bien
Barth
##ping
##test
Rang
##jata
Central
Marine
##rsi
##llos
Danny
##kovic
##kort
Ajo
AK
##neo
##tai
##fis
##sion
3000
Ari
HS
##uso
##rgan
##pok
835
2500
##jam
Kort
##tim
##plom
##pide
Mira
##cino
##loop
##cion
##yx
##ver
##gent
evo
Microsoft
##rive
Windows
OS
365
Premium
Student
Business
Mid
##siz
Android
Google
iOS
##tores
Phone
##mbia
##riven
Online
sela
Web
Open
XML
Selain
##kst
Asia
##eso
##messa
PC
##world
##note
Vert
beta
Matt
Hun
##wick
Warren
224
CC
##igo
##nosa
##off
playoffs
katta
Colorado
Cohen
Centre
Cast
Nova
Vincent
Baldwin
Walsh
domini
Abt
##gni
Murphy
Emil
##cel
398
##tani
##emen
##lito
##num
valuma
km²
Lydia
asteroid
Alphonse
##rrell
Asteroid
ell
Aber
##lac
Espinosa
Chávez
Mag
Fernández
Flores
Ash
Shi
sau
##ban
Nur
Jakob
##ya
Kant
Vana
##jave
147
##veen
soil
##jama
##fur
1368
Natura
##sika
##kyn
##vajo
##oel
Papp
##ilan
Joel
##pato
Rim
##tuje
Mel
Lui
leven
##nten
##oji
um
75
ano
1810
##oase
##dia
##rab
Mohammed
530
##jalo
##raf
Göteborg
##sata
##sum
Macau
Tower
##liselt
Convention
Moll
338
suis
Hongkong
ben
Sociedade
Turismo
##vers
##ões
ST
##DM
Fraser
Vancouver
Westminster
##ingham
##laze
Denver
Nijmegen
Eredivisie
125
##ssis
##oo
##hon
Lasse
##liga
##HC
Uz
##wili
Eat
Staten
September
Post
##card
marmo
##atas
##yor
Masa
##yuki
Sono
Joker
playoff
Ligue
Ping
Mor
##zine
##avu
mont
Arte
Io
Blues
##rott
Kis
try
IFK
##oot
Pittsburgh
Wu
mich
Gay
##lord
##gner
##cco
Ronald
##oney
Newark
Connolly
ore
Baker
##wy
##rman
Detroit
Edmund
Casimir
##zok
Perry
##aw
##cza
Curtiss
Cornelius
Leipzig
Omaha
##ding
##bras
Fabian
Wende
##amar
Min
##kane
##unis
PP
Hamm
Milwaukee
Connor
Lincoln
Eugene
##ehan
##bina
Nitra
Slovakia
828
Salzburg
##mir
833
Pan
mora
##oman
Moravia
##lav
ee
Lima
Duarte
Car
##pera
Viana
Ellen
Gilles
##ário
Istituto
Augustin
Bento
nome
novo
bispo
Bernardino
Timothy
Manning
Reno
Kenneth
Steiner
Nebraska
Oregon
##nsan
Alfredo
Isaac
Cecil
Méndez
Gonzalez
Kiss
##saka
Taiwan
Taipei
猫
花
園
hou
Jika
の
時
間
Osaka
Hana
店
##lita
##unki
ove
Frei
##opio
##tree
##rada
1839
1836
##tw
##icki
##sl
##iten
joc
907
514
##rdia
pensa
##sest
Este
##iski
547
267
663
173
615
444
У
##к
##ра
##ї
##нка
Macdonald
Sonia
Catalina
Mt
##iza
Channel
Islands
Avalon
Harbor
298
km2
##anha
##entu
##delt
mio
Rowland
Stephan
Geology
California
Weather
Service
##piti
302
887
297
171
552
198
w
##rc
dr
cgi
bin
c
##MA
Lili
Singer
plant
##lg
##rimage
varia
Arc
##rco
##carpus
tras
Dudley
has
gigante
Gal
Lyon
##oth
##ibu
##ndus
ssp
##mele
##but
##ifolia
mac
##roca
##rpa
Hogan
Toy
Global
##wit
ed
Strom
##rig
Botanical
Gardens
Golf
##fra
##arma
##ake
##ophilus
##eche
nes
##icus
##rial
##rod
##omy
meg
Pero
##mys
##cus
##culatus
or
##hana
##jell
rok
##gitt
Stark
##ox
stage
comeback
##soni
##ison
##ishing
##tay
Len
Laut
Orange
Dana
Marina
del
meno
helikopter
##IC
pati
##stop
od
##acha
##mber
getting
around
golf
Polk
Maas
##stia
riu
##kla
Lover
Cove
Des
##cans
gar
##iba
##ldi
sur
Shark
Weston
Natural
Resources
Defense
Council
##vay
Good
##case
Absolute
##ife
Casino
Dios
462
##70
##°
491
##25
##iant
Landing
Jack
Her
##chis
##isal
USC
Southern
Fisher
m2
ml
Clark
##ble
##óla
##nar
isla
##risi
modu
opera
asus
##ý
##lú
##ði
##tah
son
Alla
##ó
úr
##nir
##saurus
din
##osaurus
##auri
##ratos
jur
Young
fos
##lit
Yunnan
##ärt
Elisabeth
Lande
##holm
Uppsala
Rein
##feldt
##köping
Staff
##gda
Sharif
Louise
##volta
Dino
##fel
pura
sik
##anej
Aust
##ithe
sö
##liai
↑
Hai
Chambers
181
978
727
##erot
##mits
Algarve
##jus
8000
CE
lave
LR
##organ
##dh
##ān
eva
##ṃ
##kā
##ṭ
DR
##DO
05
GMT
Wheeler
Bengali
##ogo
Leningrad
Pt
##šo
##žan
Nam
stat
Novgorod
Av
##ovo
##lov
Did
Dor
##žni
##tino
Grad
##oš
Jak
##link
##vno
##lts
##gile
Novi
Otra
Polo
##hov
Sm
##nits
Sr
Selo
##jev
##bol
##kli
sh
##ast
##vid
filosofia
##dula
##mua
##uring
357
##5
Odessa
##telli
Fat
platt
duo
Mons
vin
##ric
indie
Underground
you
Juno
Award
##nol
alternative
Live
Out
Blow
Away
Prize
##rici
Soft
##eton
Syn
##thetic
##ingas
##atar
##htis
×
soli
134
##iju
##sions
##rya
Glas
##bury
make
Lakers
##ican
##YP
##vaja
57
##ssie
Gott
##ush
Du
##ishi
Jesse
jako
Maio
##kini
Tee
##haal
Dinamo
SC
2021
##ede
Sami
Bei
##jer
##run
##tait
##16
##äden
##isha
##lion
##nity
##ovat
aim
anno
Valls
Abu
Agustín
Ricardo
Carles
Jaume
##cell
Menor
##can
##eke
##ission
Conferencia
Episcopal
##grafía
los
Obispo
1560
Polis
660
Ek
##asien
##tism
about
ich
λ
##α
##λιά
im
##lias
##leman
##teta
##vent
##ted
##rono
##mine
verb
Ling
Dis
##order
Path
##ologie
Handbook
Gerhard
pp
stress
words
phrase
sounds
ski
##of
##renia
Alzheimer
prime
health
channel
review
syndrome
associated
conditions
complex
##ities
treatment
Robertson
Teoria
##pir
##rul
positiv
Alle
##gor
##tase
##laas
##12
##ntas
Mercer
##att
Kalle
##iro
Twee
Betty
Boo
Mae
Queste
Costello
##jans
Pope
Sailor
Barber
Hour
##ross
maha
##vided
Of
Film
Cartoon
1885
##gno
Cardinals
Holy
Roman
Church
Firenze
Sant
Eugenio
Cardinal
Colonia
Cap
##pado
##iar
XXIII
Pizza
##rdo
Benedetto
Alois
Lexicon
##ca
##bulo
quae
##ffi
latine
red
##ivar
mes
Ott
inter
##venti
Pain
##jent
##usia
tennis
Mesa
Boogie
Engineering
Randall
modi
##fio
Fender
##bov
Santana
##kkonen
Fighters
Dave
##bain
Nirvana
Never
##qui
##pment
recording
htm
##menu
Montero
Moreno
##rrian
Sevilla
Regia
##eno
Enrique
##nc
##ón
Badajoz
Arch
##diocese
Santiago
Ara
##cil
Salamanca
Universidad
##ificia
Andrzej
noi
Geral
##tant
##vom
##fant
##inat
Wie
##ź
Michał
Ż
##eb
złoty
640
##cze
##rb
Grzegorz
Cie
##chow
##pina
Netflix
##typ
##play
ideal
##ago
Engine
E3
Metacritic
##hance
Edition
##yki
##sole
Xbox
juli
##vano
##roa
Roca
##bane
##llas
##bino
##án
Moral
##ejo
Jaén
##pic
Melvin
Sud
102
Blast
Cubs
MW
Waterloo
##nsis
233
##tens
##AC
Islanders
Calder
##she
Bears
128
##ches
Baron
##kud
Ice
Sei
Rabbit
203
##enna
175
##IH
AI
Erste
Bank
Eis
Liga
##šča
Zagreb
143
##EL
163
Vienna
Benoît
Allan
Senior
AAA
Creek
Generals
Nathan
##iky
ind
plu
##eks
Nos
##anea
moll
##issima
##melt
1690
Anders
##lken
1729
lik
##logia
Diocese
Río
Gallego
sales
Esteban
##xa
##gue
##lini
Romani
##ces
Papa
aceptó
renuncia
##eño
Buenos
Aires
Angus
##eid
Most
Argentine
Same
Marriage
Monk
##tich
Cole
US
Sioux
Falls
##edes
Penguins
NCAA
Utah
##zli
##esis
##ators
Jamie
Augusta
Lynx
Blanchard
Ljubljana
Mitchell
Yann
##ick
##lay
HK
##ice
SV
Alt
Kyle
Jakub
##paro
Alba
Vol
##zé
##hé
##ári
##bir
Stavanger
##skog
IK
Stefan
Continental
IB
Petrov
López
Arturo
Mein
##vie
Benedict
Agency
names
second
bishop
pont
##ifica
Secretary
Yale
Bronze
Purple
Heart
minister
##president
Lyndon
Nixon
Nato
##sunt
Forum
Tak
##ib
Augusto
##senza
Domenico
Pic
##chine
Marco
Scale
Chiara
##sche
Sempre
##ntan
Remo
amore
è
fem
##polo
##odd
Á
##tá
ties
Finnmark
##ála
##dda
##šom
Hán
##rim
##aga
##let
##já
##vr
prej
##timus
##hama
Gray
Clear
##olia
Bis
##ign
##anon
##pido
Agostino
Maddalena
diploma
dele
Sri
Lanka
Dur
##rdu
nun
Nigeria
Jerusalem
Pale
##ezi
niger
Um
##uah
Ok
##ig
##nze
##wed
##ogia
hora
##ο
##γία
##rology
By
HR
clock
##ogi
Kauno
Disney
Rooney
##jeng
##bak
Bron
Cathy
Mori
##arty
##zz
Benson
##tanan
Thai
Laos
Males
Singapore
##ilio
Pla
##cido
##rung
Luxemburg
Haiti
##leto
##gnan
Casa
Pasquale
Venezia
Senegal
Bissau
Mali
##rita
Royal
Victorian
Order
##jön
milita
konstant
##lesiastical
Knight
Wen
Brooke
Class
##gla
##tomi
Zappa
sinn
liver
##ube
1880
elv
##jio
touch
##rats
Programme
Agricultural
##ulator
Astra
Software
farming
Challenger
##ndt
Masse
Ferguson
##že
slov
##enia
Maribor
##zer
##nicu
Michele
##cchi
##berger
##šta
Bassi
##gha
lib
Beirut
vik
Lao
Liban
Brun
##iera
Sf
Roland
##éc
##ès
évêque
à
âge
89
##onii
patria
Ph
##icia
dei
Antoine
##hora
č
Josip
##ć
Bog
##eti
passes
away
##tna
##bard
##éo
##pha
Than
Mala
##bar
grego
Jabal
##puri
##cale
Manila
fil
je
##wani
Jaime
##roni
Gérard
##gea
##pili
##ivne
koor
1776
##zne
##vuk
190
Luciano
Bari
Bit
##onton
Aur
##liana
Andrea
Lana
Mauro
##fino
##ghe
##rci
Bert
Paolo
Virgil
##zei
Claudio
Newton
Holanda
##rato
##cena
Eduardo
Martínez
Som
Amar
Rebel
Georgia
Armenia
##bai
Leonardo
Vieira
Gus
##mão
Nacional
##fim
##ê
Serra
Mallorca
##unas
##taine
Puig
445
##eat
##rew
111
Ruiz
Pos
##igue
##utat
##orten
5000
arab
903
Muslim
##kere
Öl
ari
##vator
##adan
Só
##por
##vile
##valo
mot
romans
Jesús
Ze
##cata
Norbert
Rivera
Carrera
Ernesto
Ira
##cí
Passo
Fund
Urbano
##gay
##có
##lger
Uruguai
##anan
##akt
Hay
Cindy
Robinson
Sonic
##dge
##hog
dub
##bau
anime
##borg
009
Naruto
##lea
Monster
##baus
Phantom
##ggy
Scooby
Cristo
Rede
Christ
##eme
Mara
##tean
Innocent
Carrara
Annie
AS
UCLA
Gore
Johnny
wins
animated
feature
savo
Tip
Lea
##iens
Suku
##ljen
##jah
##saal
##iji
Paula
Tala
Simone
Vest
##erda
Sosial
filmi
Elaine
Arkansas
Band
Ronnie
Hawkins
Hawks
Pink
Waltz
Scorsese
Ram
Woodstock
##èche
194
Charleroi
Huy
Joaquim
Rodríguez
Philippe
##aceae
##sus
##resu
##neta
##ters
ehk
Parkinson
Butte
web
##arch
Shackleton
Leonard
Sunderland
Newcastle
Arsenal
Bradford
Avenue
217
Broad
Trevor
Ford
reserve
ni
348
Wembley
Matthews
##rea
ista
##erte
Express
Charlie
Chaplin
när
People
##rran
Soccer
##hua
##tatt
Return
Grange
Sands
Noble
Lancaster
##eritus
Shrewsbury
Wir
hospital
age
Noël
Kelly
Brewer
Godfrey
Holland
Derek
Noel
Pere
##uf
Justin
Riga
Brennan
Grégoire
XV
##giani
##agg
Clancy
Carroll
Roberts
Rush
Canberra
Pietro
##mid
Norman
##roy
Denis
Bryan
Gallagher
Gerard
Arm
Kennedy
Julian
Richie
##kner
Deeds
Six
Ace
Mafia
Lauren
Judas
Priest
Souls
##power
livet
##alt
##pita
Cry
Geoffrey
##uca
Ways
##alim
NC
Editorial
##orse
Sexual
##hic
Coventry
North
Commons
Pay
demi
konflikt
##ilien
##vao
Bosnia
Kosovo
Irak
š
##amus
##limi
Kuwait
Libya
say
ante
##logy
women
hur
Eco
Celebrity
Brother
Dolores
##lón
Estrella
##uana
Roque
Jerónimo
##reu
Herrera
Frederico
Friedrich
##pfalz
##netz
Bischof
aus
Unter
##uara
##tório
Costa
##dana
##zon
Minor
Angelo
##dano
Romeo
##rini
Tri
Forte
##ucci
pictures
futur
##gati
##mate
##pione
McLaren
##naam
##iat
##puls
##uline
1052
Doors
maist
##eile
##vine
Peace
##ild
espera
##nton
##aram
##lott
113
##luna
##rile
pus
Stato
Fuel
Stock
Exchange
##vant
bien
##hn
##masi
total
##jara
fall
##osen
ii
##rotta
pave
content
view
##dona
419
VR
##idu
##öli
Shakespeare
ako
##ndro
Colleges
Cambridge
Pembroke
Philosophy
Peso
46
Politics
##ability
##boje
homo
WHO
Report
Science
Religion
Making
Meaning
Conference
Faith
Network
July
##PS
##ilus
Vito
article
##veden
Franck
##tage
Germain
Lay
borde
Stade
Bord
795
812
Claire
Pour
##tales
Elizabeth
Hughes
##telussa
Task
Aku
Illinois
Rancho
Mirage
Touch
Morning
Diana
Gerry
##ffin
Theme
##any
Going
##writer
Greatest
Almost
Serbia
##sima
##unen
BR
union
normal
Gud
##iñ
##kama
Sarajevo
##duction
##ml
255
520
145
225
##gos
##ety
m²
605
Justo
Andrei
##ram
Alfonso
Guam
##taka
##lake
##glo
##ustris
##gina
##ceae
##liere
##tomie
##rang
##hede
511
mari
##nom
Levin
Alaska
letto
##pola
Universal
tr
##uba
Viking
Liam
Linus
tip
Head
finalist
Put
Superman
##rds
Air
213
Boeing
737
Pakistani
127
##nah
##azi
Stanford
fellow
##cono
##hini
KGB
kontakt
##hus
Wonder
Begin
young
Girls
Iron
Not
remix
MBC
Core
Saul
##iman
Sylvester
##dane
##lage
##aben
##dige
##wamp
Luz
multi
##flora
fri
##gida
##tup
##sie
leto
DVD
##udes
Martins
##bot
##riai
Toyota
RA
EV
484
Tesla
Motors
##ovine
##river
126
##imet
##rid
240
volt
##data
##spis
Who
Electric
Jon
##rush
##vro
##acon
GM
##ason
##ici
##aco
Bosch
Samsung
roja
##lte
lit
##ioni
ae
##rody
##itetu
##ratu
Lahore
##iem
lan
Madagascar
3D
Gloria
Monte
vanno
##iker
Vita
jag
show
kaip
##hael
Fun
fun
Format
Nate
Rue
##thal
Dos
Nights
Are
Jane
Carry
##dges
##hes
Problems
McDonald
Used
##luit
Panic
Disco
medio
Glee
902
stream
Nickel
##tena
##nnen
Tonight
Starr
##sh
Light
Facebook
##lies
106
minut
Portugal
##erbe
Wichita
Dodge
Malone
Forst
Han
##ifen
Casey
Roche
Evans
Springs
Thu
##rler
Barre
62
##market
##uy
##tati
##riti
##rba
Hoffman
Donovan
Loire
##odossa
du
##oux
##ssen
gall
XI
Etienne
Loup
sed
##iment
##ives
VIII
1490
Bretagne
1477
1514
Angoulême
Frans
turnaj
##gare
Navarra
1492
1549
1516
##ést
Vinci
Lisa
##con
##ovu
1519
1854
##imen
restauro
##sity
##rett
Puis
Rom
Elia
1720
##lec
1797
##bbi
nero
##bbe
Ik
185
hasi
##emaa
##for
##did
##lid
##lf
##apo
##mena
kali
Micro
##pino
go
##rima
##apan
##ulata
##sale
Blanc
##ques
1735
##reti
Tradition
innovation
tour
Fifty
##hom
ratio
##nalis
1770
##vert
integra
hep
##rean
por
Historical
Atlas
Jewish
##cken
Books
176
177
186
132
144
tua
##reg
##ioa
Esti
##rias
estima
otok
772
Transport
##érien
Brazzaville
##jame
DC
Turm
156
terror
Abdullah
joskus
identical
distributed
##ismu
Hava
nume
##erine
1506
1526
##há
##cs
Vladislav
Osman
##csi
parete
Jag
Ferdinand
János
##poly
1521
anar
##stro
Raja
##manie
##vide
Habsburg
1520
Belgrad
Pest
Buda
##mki
Trans
##vania
##jda
István
Bath
Tao
##buk
664
115
az
Sato
##metrie
alla
##tula
1586
##wd
##anii
Édouard
##tier
328
330
##idan
##arak
##40
′
″
3°
327
save
voida
##veta
##tieri
Pape
##eck
4°
##ivet
Horace
##vika
4000
515
480
##stat
A5
##onde
192
Ji
##rō
980
236
710
785
##obu
193
##jō
Zu
A6
Reisen
Zero
##toe
##fik
B3
Abe
230
231
170
koe
A2
342
Kom
Saw
##mino
##shin
Son
##kich
##zu
##anak
##kawa
Take
##fusa
##dak
##runk
Kami
##gah
##aras
##jima
Sue
715
580
174
##varu
1a
343
344
##vue
3A
Shanghai
##pune
##yje
neste
610
Hispano
Suiza
##rito
345
##ulin
Nagoya
Watanabe
##ichi
##gun
346
Max
##ponen
210
211
##naar
##cki
222
##klub
##chter
##borgs
##klubb
Unit
Åbo
##dro
##neri
##tten
##änner
212
##pas
455
459
461
SL
##roje
457
218
237
239
##rval
ES
##UM
Ima
##tral
##omes
103
##lohe
MP
##roc
spela
##enas
Years
미
##안
##한
마
##음
Hyun
Yu
Tell
이
바
##보
Fool
##ür
##wim
##verein
Stern
Hamburg
##erna
##hild
1856
##club
Porsche
China
Hist
genera
##ttore
##pot
##presso
Orient
Limited
オ
リ
##エ
##ント
計
株
式
会
社
##pson
USD
Five
Days
Summer
Bet
Lambert
Kay
Boyle
Bello
Romano
##trie
Gale
Research
Corporation
Apple
Galaxy
Gear
##bble
Macintosh
Chrome
##book
##noten
Maps
##ains
##inde
fonti
font
Firefox
##ipper
Free
MB
##site
off
Work
Chat
Conte
##xt
inte
##gro
##imate
Hello
Food
##rese
##kali
##anna
ska
Ski
Phil
Alexa
356
376
data
ori
Oriental
filosofie
##gem
Josephine
Four
Yankee
Give
Reg
##ards
##gne
Square
Com
Adolph
Revue
Judy
##day
Bernstein
Robbins
Town
##uld
Million
Dollar
##musik
##ep
##usel
pais
##ump
Wonderful
Halle
Theatre
alumni
pris
polar
##pris
##gona
##bal
Woods
NASA
Loew
##itten
Hernandez
viene
##reen
Bild
##ares
Lim
##isario
227
Catherine
##teau
529
Pot
##lapa
Version
780
582
253
Burma
Abdul
Command
Jim
Bowie
Davy
##rock
##tipo
##ntis
Lars
##roth
1796
1864
##rgi
Sofia
Alberti
Demo
##ën
Tax
1819
##rurgia
1834
##tir
1863
##holt
##lega
Immanuel
##moni
##ibus
1851
1843
kanton
lt
Chr
Workshop
metre
Britton
Quo
##iling
Aircraft
Own
Pilot
Carpenter
Schneider
status
##mbol
Malta
Gibraltar
##irs
Valle
142
##tile
##pus
##nito
Svensson
##viera
##avio
259
best
för
vissa
Esa
##ensiva
Hann
##ils
##ars
##yme
Jen
Johanna
##taro
##sr
Waffen
Meets
Glory
Hammer
Standing
Rest
Linda
##art
Angela
Kovács
Margareta
Irene
Hus
##moto
eu
3rd
lav
SBS
^
원
##더
##걸
##스
전
멤
##버
현
##아
복
##귀
Korean
Retrieved
##ffers
Vocal
KBS
1505
Transilvania
1511
##ninga
Zsigmond
era
##rky
László
1262
1290
1272
1277
rep
##ře
Rudolf
1278
##pt
prins
Nikolaus
1288
1282
1239
1270
1257
1258
241
bana
1268
1255
##meno
Elisabet
##aver
##nev
##grid
##dit
##niem
##ltan
Energia
Cultura
##jekt
##poon
##ennes
kV
##kaman
Finnish
Numm
##poser
pdf
##nga
Ill
##odon
LED
##ovia
Kang
Networks
Liu
##ceu
216
anal
journalist
Hannes
##unan
Kamera
Wrong
Better
Brooks
Conrad
##zard
Katharine
##rad
Saxon
Rosa
Jennifer
Jason
moi
1515
Paramount
Soundtrack
Gladys
Sessions
Leave
Your
Bear
cit
411
Wallis
##50
swing
##berry
Domino
Tol
Late
Sons
Bing
Crosby
Andrews
Porter
stemma
Just
Really
Every
Follow
Dream
EPA
404
##perus
Seul
##vol
##ktu
##hej
plasma
##ongo
uga
##ndal
Toro
##hanna
##uga
##wa
##inaria
Military
##riate
Lot
Emmanuel
Loki
Géza
116
Jelena
eno
Serbian
pelo
Béla
##cens
##monds
##aves
IS
##veni
##jke
Dot
##gua
##tú
##lho
Flor
##entino
Ferrer
Cine
Cicero
##rla
Children
##mar
Bab
FAO
konkurs
##gain
##ffen
holding
Schwarz
Wit
Guides
##kate
##ents
720
Flanders
##ikat
##awa
Rodrigo
Orlando
Cabrera
##lar
els
##vador
Lajos
Kada
Dama
Alvarez
Ramírez
sing
##rela
Gregory
Yong
Soo
Ng
Fernandez
##vino
Três
##uent
João
##áu
Coll
##ndo
Hamburgo
Mesopotamia
Levant
315
269
##yramid
205
1650
1550
##mosi
Amon
##juma
Rams
##ikken
671
3500
3200
Ele
seem
amor
Amor
Babylon
heet
##hista
Hee
sortu
1080
Salman
689
614
612
mee
baby
##heme
Foi
##niki
##udan
722
597
Arabian
Saba
##bate
Arabia
234
334
332
Its
Kristin
##adas
##rath
##rala
634
1000
249
Bagdad
suolo
Merit
Saudi
mand
##tial
Israel
Arab
terrorism
Libanon
Gaza
##mous
Saddam
Hussein
##anno
protest
human
Isis
Ruben
Prof
##ugo
Luce
Sánchez
##redo
Peder
##sig
Carsten
Weißen
Bayern
Slovenia
##ctor
Hans
##rsti
112
#
963
##rib
2307
0000
forma
Dawson
Was
Faber
571
1293
His
479
##17
##34
Kentucky
##graphy
209
collection
bo
##etik
disk
Ms
##blu
##rail
Blind
Lemon
Jefferson
Snake
Blog
##lane
##ncy
##clo
##pedia
blogspot
Singles
Allmusic
Phillips
706
Because
Illa
hull
##yba
##puje
live
trio
##ept
Dam
they
town
Hit
##tola
##skij
Dewey
WM
Uncle
Eyed
##ple
Haas
high
school
##pusi
note
##erat
roll
Cave
Die
Gavin
Edwards
Jenny
##scu
##cks
Austin
Sheffield
Truck
Semi
Opera
Count
##enan
##uak
##ange
Vlad
##ivos
Reza
##ojo
##fair
Brit
Bayan
##dor
##ahi
Mohammad
Bandar
Shah
##bada
Baghdad
Shore
272
244
261
##bri
##zii
##shed
Abad
Hawker
Mercury
Fury
Pegasus
Hawk
Dimitri
ait
Jukka
taon
aid
##thi
PDF
##bier
##dero
Mari
##llion
##tiny
Novel
HMS
##lig
Tahiti
Fletcher
Timor
Irish
##nea
Independent
##ront
Publishers
Weekly
Mirror
Lan
##ynek
nen
Rouen
−
Tunis
Tunisia
bak
##terio
Nicole
roue
##lji
##hain
Lycée
lys
Pasteur
Roux
Stéphane
Quebec
##iques
Cornwall
Calgary
Flames
Morris
Shan
##tz
Reed
Cedric
##ico
##ibe
abu
##zong
##kha
den
bal
formula
##iest
##forma
##rose
Cliff
##nuo
##roma
##ag
naam
Orion
##hah
Telegraph
Das
bell
nove
##mci
Deutschen
historischen
##zehn
Deutsche
Welle
Reich
##wehr
Portable
application
USB
Piano
##parti
##vem
##vedo
##red
##ukt
kama
##lod
##nami
Liszt
Beethoven
##aca
##doja
##endi
##hie
##sco
##onic
lahko
##chino
Pieter
Bleeker
##oide
Rin
##mere
##omia
Donetsk
fasi
##vitch
##jt
vand
##ates
Daryl
##pton
phi
##lade
Atlantic
Whole
##ando
##ned
##nche
Goodbye
Beauty
Back
Along
Led
Stati
Voices
List
Duo
Idol
Filip
##nien
Pearl
##idor
##lime
Midway
Ley
Hayward
##land
Sulla
##wir
Duc
Af
##posten
Svensk
Amin
##teni
Gustaf
##litz
nat
##onga
##hamn
Sante
Klub
##sies
JJ
Cali
##TP
luna
Banner
MS
Him
##reis
Irwin
Goodman
##xi
##äng
##onen
Taip
Hull
##öse
Chemnitz
aki
MLS
##östen
JB
##rber
##masa
Marokko
1591
##sm
Elmi
Somalia
Hertfordshire
Modern
1618
Rhythm
Festivali
Yusuf
Jam
987
##sson
##pad
##rå
Vladimír
##bí
##č
Slavia
##nces
1289
1306
1301
1305
##vski
##pron
##ssia
Montréal
##fs
##13
Rodney
##smith
Dead
Drum
Hunger
##lako
##éra
yn
Slave
##wet
##ben
Pitt
Bianca
polk
##hant
Ost
##dum
historische
fede
Mihail
Gert
##erg
##vor
hang
##ules
##zar
Jugoslavia
Flight
##vedett
Moran
406
jug
731
527
1x
2x
281
Witte
##bach
1261
1312
1307
##itie
##pade
1308
1309
1310
Miracle
Twin
HD
PV
viri
##bok
nok
nah
sine
ferme
##visa
Human
Planet
Napoleon
Oliver
Think
##izm
Acre
Automobile
Carter
Tode
Woodrow
Rule
##dence
ex
Law
Cats
Magic
##dder
Roosevelt
##telle
Carnegie
Edison
posee
##rasi
With
Mind
122
Beyond
curta
which
can
their
five
sense
have
some
friends
now
then
commun
##icate
##eron
Mental
Dy
##namite
Clement
##entos
Unlimited
Through
##itive
##titude
##teria
##kwa
##yang
##hay
##cid
##ws
Somebody
Savage
Garden
Deep
##bran
Saturday
##tand
Alexis
Marseille
jurist
##ége
Stan
##mond
##iene
Musa
Cyr
Berger
Romane
##sque
Fantastic
Princess
loin
Ilona
Tea
##æst
há
hol
##monia
þ
##ló
trim
##sid
##ckt
sky
hain
##kale
Icelandic
Rec
##ipes
prepare
##rda
Ramsay
lao
oud
Zimmer
##rosa
puolueen
propaganda
kuri
##epe
Stalin
##tru
ort
##odoks
aller
##ekin
noto
##iento
Mesto
##LL
##rmo
##UL
998
##47
##ssel
##perk
##sero
Kosten
##none
Rep
Lust
##out
Susanna
##onty
##sala
jump
1371
1395
Anjou
1380
Sigismund
Napoli
1385
##vang
kuris
##gil
##atus
##turm
Georgi
##suna
##iras
405
1345
1386
1381
adopt
Loi
215
746
969
##oven
VIP
Inn
Bamberg
Hari
Elsa
Into
1571
Isabella
##sza
##iver
1561
Parti
1563
1565
alus
##iani
1566
1570
DM
##lante
sina
##wis
tol
##sol
adam
##olina
seo
##skim
##sent
##rits
ATP
maju
1456
1471
##vinu
1478
##sitz
##skap
##inge
##onte
Trip
##uvel
jina
##mbu
##halle
hoch
##kob
Wat
##azu
##bun
1440
1444
1452
Lux
##áris
##veg
lagu
1424
1434
##śni
1443
Albania
kaks
proton
π
σ
typ
Flora
Mask
##imus
Futsal
Eupithecia
fenn
##dica
##iven
##eun
##pli
svenska
##cia
dl
~
Mitt
##med
Hang
922
art
##kta
##blad
##sca
1024
##41
Mongolia
wi
Lepidoptera
Geometridae
##kare
##ysik
##itum
##aran
Ras
##ych
alpina
1101
##écs
##vár
Madeleine
Astor
Force
Katherine
##rl
##mage
##type
wikipedia
European
Commander
Crow
Michel
##zir
Ing
2100
##ugh
stadion
##ahu
##lir
##klu
##anka
Eski
##nders
Harald
paj
777
292
1214
668
242
Hilda
Horst
##blo
Salon
nam
##ibi
##19
page
archive
read
##bjerg
Namibia
##ors
##00
##82
##48
##lls
big
break
##beat
Bom
MC
Giant
Robot
##face
##ismo
informal
154
Ars
figura
##pos
##gade
Pet
När
Kraft
Ces
##FK
VP
##gano
Sergej
##rku
Alexei
tutta
Rusi
107
Action
Tiger
Martine
Rojo
Nieto
Yvonne
Romain
Terence
##bust
Madagaskar
nors
##dag
1040
Troyes
Talmud
Liter
##acy
Morrow
company
187
##gab
##teko
Rev
##jek
Lac
##hman
##rkas
Watson
Won
##rmes
##yton
Albrecht
Schwerin
##ruh
##adt
##lkie
Eduard
Vogel
Brest
##ckel
##enburg
Reus
##izi
Viktoria
##odor
##iz
##law
##lens
Paris
Schleswig
Holstein
##tini
Péter
tab
Meg
József
Zoltán
##ánie
teu
sia
##ág
##áni
##ági
airline
banned
within
EU
Airbus
A3
##30
launch
budget
long
flights
January
fleet
planes
##takse
##pper
mert
##zca
##njoj
Graf
rende
##roit
Rally
enough
Yellow
Stars
##dra
Palace
State
lives
##tock
##luar
Warriors
Oakland
Spider
Wolves
Bulls
##jevi
##jevil
##jano
##dori
assistent
##tatu
##ški
##geni
1867
##amos
##ams
##novi
##deki
##rsk
##zoni
1869
1871
##ojas
tube
##loos
##enko
post
Levi
Boris
Qing
A1
##GP
NEC
Touring
Dhabi
Citroën
##TC
East
Movement
Bieber
##ladan
fl
##eisen
129
##sor
##tiker
180
##spieler
Nürnberg
##gga
##send
Verdi
##enstkreuz
Bayerische
system
1350
##fied
shift
638
##ntal
##vision
Kamerun
Cameroun
##oha
##eru
Versailles
Cameroon
Yao
##unde
Nigerian
dual
sud
877
Populations
poti
##hio
Pak
difficile
verir
Laser
##HT
NA
Bismarck
##tuse
Polska
##KS
##chy
Milton
Keynes
Duna
##városi
##cé
##ák
##hul
##deka
##menes
nie
1348
historie
Falk
##ymo
##logisk
det
norske
og
danske
sprog
##oop
*
##rees
##tikan
Maha
##gram
sang
##utama
##ieme
##iuo
file
##eska
Bourgogne
Côte
asta
##rgu
##terne
Ant
Sava
##chon
##dae
satul
##iger
##leu
##plan
Hartman
minimal
293
Buch
Writers
Monthly
Woo
##lley
Somme
Cambrai
Pass
##chend
Medal
Bobby
##urne
Chapman
257
##kommen
Lifetime
##ttir
##professor
##umo
124
veren
##pona
##trem
##psia
##nju
##000
##51
##uais
##usion
##este
##diu
##rmon
MD
##mau
jan
##inos
vere
##mentu
ime
##urio
##dos
##onia
##ations
##rium
dem
##male
Junge
##rmann
##iaceae
##cular
NE
##år
Ekonomi
435
desert
boot
varv
##eng
##boot
Gideon
##äck
##dba
century
invention
shaped
world
air
##plane
NY
Elias
Howe
Wolff
##com
##dson
##rivit
##BU
Bachelor
Arts
Management
MBA
Northampton
professore
Higher
Diploma
academic
dea
##nina
##ND
PE
##ploy
Organization
##kry
employment
maso
##vera
staat
Borg
##nemer
##baan
##uit
##hter
Sora
Einar
Alfons
Ans
##kovo
##rif
##rafi
##hea
iko
graf
##nchi
##ugu
120
Stanton
Ragnar
Björn
##ager
Palau
Ang
##wara
##ūs
##vd
317
276
811
329
277
1250
M1
Frederik
##sberg
København
##rton
vasto
Katy
Stalingrad
telo
partis
##air
Story
Harvey
Act
Lady
Volkswagen
segment
Škoda
##tig
##AP
turbo
GT
Seit
##rga
##nap
Barat
Yun
Meer
Lego
fan
##niku
##dow
##bur
##stas
##bird
##denis
Rex
##dene
##AF
##ūt
##rand
##stane
Mendoza
Paraná
1536
Ulrich
Schmid
quer
romani
bola
##ande
Gara
1580
Negro
##gs
Roskilde
Christians
##havn
Christiania
##tland
##sters
##å
##dil
Border
PlayStation
Heavy
Short
Hero
Maya
##xton
NP
bou
board
komma
##zerk
##ramm
##ige
##cer
Krieg
##igen
head
##hien
Ultimate
Hunter
##grade
##gist
Peak
Game
Rankings
Plays
##tation
IGN
九
七
重
爆
撃
機
##ūna
##war
articles
weapons
486
educational
##21
military
##ctory
aircraft
asp
558
Gwen
Normandia
Winston
Churchill
Danzig
##šia
še
Kairo
Korea
##rys
SN
##hali
Truman
##hof
##tle
Oder
Königsberg
Kaliningrad
trust
Edgar
##lgan
##kre
##ioso
Nikita
Hr
Dwight
Eisenhower
##antas
Gary
Powers
Gaulle
President
##ež
##emlin
Clemente
ET
##okou
00
##oju
ev
##dou
AB
Kommun
Hof
270
Reagan
SD
Reykjavík
##atkan
IN
396
Pers
683
cont
##vention
tank
Bush
##kna
##rki
Start
IM
GA
Maiden
TA
Armed
Forces
Europe
##pter
Mitterrand
##sler
Giulio
Andre
##rone
##bber
STAR
##uban
Gol
##penn
##ßen
013
Elbe
##äste
Giacomo
Achille
##lves
Vincenzo
bong
Cathedral
##cula
Concept
Benoit
cathedral
Photos
##psis
##inia
##sser
##emon
serem
##etem
##sada
##kret
ente
##oge
Mina
##more
##wing
Merrill
248
##br
Jamal
Sale
##hard
##jum
620
##ngu
##ft
##gut
Nov
##igas
beach
##orn
Bin
##holz
saha
E2
vilka
Valdemar
##hoff
##bile
Cum
##ming
Greg
##hill
Hartmann
##klo
##lima
##oor
linea
Hg
##liu
kompleks
ion
disso
meta
##noli
eta
diet
##etter
Nowa
compounds
Chemical
Technology
Wiley
Gabriele
##rier
Compounds
Industrial
Chemistry
fungi
##ptis
##sula
mg
##trag
samma
##phe
##folium
##mera
##mier
##fine
##jene
##itou
##juje
##lige
##bry
##oer
##lana
##itar
Booker
Lew
Oni
Roi
Contra
##ctus
##punkt
Agnes
Caroline
Tha
faut
laisser
##odie
décide
texte
Musique
focus
##ff
##oc
Philharmonic
Awards
Bart
Chopin
Det
gymnasium
Vinter
gik
bag
##æ
Elton
Orbis
PJ
Debussy
Ravel
Ward
metodi
##ardi
Helge
Dahl
117
Wake
##nificent
Marines
Dev
Putnam
VM
Morrison
Knud
Airways
Browning
##field
##isan
Marshall
Ferrara
Candy
Atomic
##ball
##ked
Bean
##ead
Punch
Cherry
Heads
Tropical
Salvatore
730
##rdin
##rut
##fet
join
2200
Taylor
##thers
Elba
crossover
thrash
Brain
##dea
##core
Mirko
Tras
GB
Bands
Nuclear
Fast
Death
medias
Hung
IFPI
##tera
##wall
##enal
Slayer
##hrax
##ernity
##ficial
##cal
##ptica
##gers
Walther
Blut
Boden
ideologia
Nat
NSDAP
Siedlung
##gruppen
##führer
Hitler
##rés
##oan
##stand
Jovi
##bora
Wet
Highway
##rtu
Emanuel
##ård
##xos
##varo
Akademi
prof
##ess
1433
##jela
Marlborough
Curt
##rych
Nicolas
Challenge
SI
##neb
##ländska
##erto
Americas
Pages
aspx
Kleine
##siste
Fanny
##ibo
##cking
August
1425
##rza
Goldwyn
Mayer
##rrow
##kiewicz
##bello
Laguna
MGM
##lver
Allsvenskan
Kali
AIK
##gården
Örebro
Västerås
##öping
##mers
BK
Mot
systeem
IP
646
Sirius
Kantonen
pek
issue
011
##49
gradu
01
##eniu
##diat
ambienti
trend
Dyke
Tone
Brod
578
860
Medi
Labor
##atorio
vita
mato
##isor
##sper
##cak
927
280
Ch
1454
##ght
Nikolaj
Gardiner
Stad
Tunnel
##vatori
Jakov
##ije
##lase
Gram
##phon
Mikhail
##iul
##fonia
AllMusic
Russian
Alexandra
##jd
Budapest
Imre
Stat
##zing
Naval
##mora
Atlético
jugador
##bujos
Deportivo
##dila
Simeon
Levante
debut
partido
oficial
Palacios
Bundes
Offenbach
##ç
ğ
##timo
##oky
##lob
Mater
##ätte
vien
EN
##VI
##tery
##pens
tin
##ntar
KO
##sette
2050
2030
Innovation
alleen
##sif
##able
Teknologi
TK
Aachen
Cal
##tech
OP
CR
##ES
##IP
Org
##EM
##ET
dose
Petro
##tadt
##āja
##achi
Step
##rov
##eš
##garde
131
##ung
Feng
Chung
##nam
don
##kies
##yong
##uang
##yuan
Yi
Tian
##hima
##iwa
##shino
Frederick
Dann
ana
##01
1840
##20
Sigurd
##deg
##raaf
##sunda
familj
##dar
Wide
##lave
middle
block
tom
##ccion
##ccio
Volley
Perugia
##issent
Tirol
Alpen
##volle
##ching
##FC
##umont
euros
Kazan
Seo
##hwa
158
##shima
Seoul
388
##etes
159
hala
##gie
##mossa
##jong
##jang
Chem
##maga
Hiroshima
##ŏ
selu
##alkan
##song
ḥ
##lā
##zali
Muhammad
##slim
sun
æ
##jta
##hid
##q
hadi
##ḥ
##bay
Tae
##dong
##eny
##lity
Cho
##evan
##agi
Ding
##ucha
##wein
Torpedo
Yang
##wei
Chao
##hkan
Yuan
##hida
Chin
##nök
##kole
##orum
##manu
##mero
Nikon
D8
FX
CM
##ampa
JP
##EG
##GB
sensor
variant
##arto
##eus
1716
1485
##volo
##hna
1709
1710
1714
##idos
1721
E1
##vle
Rand
##als
Belfast
A8
Edinburgh
Bergen
Kong
##vinger
##sby
##ungi
##ängen
E0
m³
Ist
Edvard
Wilhelm
##beck
Ruth
Faz
550
540
138
432
764
##lata
##sne
gi
##gawa
##wati
##pakt
##itur
##skie
##fall
##tagen
##orii
306
##öva
Wii
jauh
pado
Pato
318
uit
Uit
Andersson
##lén
409
mase
##nene
324
1734
148
Clarence
##wyn
988
Theater
Diane
Field
Kruger
Marjorie
Gates
##jati
Bradley
##kken
sisi
Titan
wall
##ying
##vaded
##gy
##eg
Peng
today
artifacts
transferred
Egyptian
2022
##gani
##mete
Ltd
##rija
##inkan
NKVD
##mission
304
374
375
##elte
##ums
tio
##lfa
##bona
##eve
##vede
·
Manga
##naro
##guin
##aldo
##obert
##esse
Jäger
Hermann
##iec
##hers
Heinz
Wagner
Jochen
Winkler
Uwe
##erti
Europi
Team
##II
AKB48
##ayan
##emot
##sert
##hab
##yo
yo
Nippon
##zai
Venus
Oricon
ina
##zuma
1588
Ying
##zhou
##eten
##haru
Qi
Nanjing
##dores
##ahe
##ätter
##ings
1640
##ötte
##kette
650
##oty
sus
ultra
##resa
##dito
##rio
##matu
##eson
##yti
380
observa
Hotel
Set
##lement
##oe
458
##lari
##llant
##krit
##sd
Helsingfors
Nya
filial
Gard
Hellas
pasti
Sven
Partners
##bou
Produktion
##akei
Panda
Leaf
Bengt
##motor
Nordic
CV
##king
##tine
##tore
##jung
##bros
Link
840
##klad
##vori
Virtual
Isola
##rland
kus
##velle
liep
##rino
hill
Juli
##žne
##žno
##nsk
sopra
Classical
Vivaldi
Händel
##pora
Mozart
Julia
##eras
Alessandro
##ï
Sings
Rossini
Neill
Obra
##zt
ï
##dente
Damian
##rling
Lake
Egg
crowned
Berta
Ralph
Kuba
Siegfried
Brie
Rostock
Wolfgang
System
Guardian
Angel
Samba
Chart
TOP
Come
Enemy
Arena
domi
##nari
##fter
##aming
klubie
armata
col
Bolivia
house
Tears
##legen
Frankie
##ckle
##iert
Ryu
U2
Mariah
Carey
##ply
B4
Ron
Boat
##aia
##omen
Dok
##ument
Bir
##zeit
ER
##NO
##usal
430
RD
##tint
Hits
##gard
Gateway
vela
esis
##ary
##yid
930
Petri
##odea
296
Ime
##oons
##nkar
ail
##uvad
ani
Kors
1613
Svenska
kyrkan
kyrka
1792
1794
##uvres
Dark
Virgin
Güter
##druck
##hische
Betriebe
GmbH
206
Bros
Magdeburg
##pero
##riot
1682
1696
1804
Lombardia
Gian
Bere
lang
Barbarossa
1356
Visconti
VII
1398
##azzo
##rtos
Pavia
555
##vato
637
619
645
581
495
476
592
868
702
429
AFC
Bourne
##matidae
##liku
sola
Atlantis
Von
##die
Bonnie
Clyde
Maj
barrel
Shell
##gris
##wah
##ridge
Emerson
Kingston
##basis
Magazine
Double
Lines
1634
SMK
Beaumont
Lester
report
848
Bosco
##tag
##anda
Ruanda
Haag
Kini
Viru
Front
Patriot
Rwanda
##PR
##game
##bangan
Congo
Laurent
Congrès
national
pour
défense
peuple
##wal
##bila
Sultan
Toni
Hugh
##lco
##kori
1635
Mill
074
Yn
##ütz
##alog
gen
##owi
than
Lino
acid
hier
litt
##akan
##ilen
Myanmar
##mbi
##ror
##stes
Gandhi
jury
opposition
##edu
##uridae
##saur
neo
##char
##tosa
##nie
Marsh
##urus
##haga
လ
##ုံ
##ခ
##ျ
##ည်
hk
##fund
Folk
##enska
##sund
Salain
##askan
##bek
Wiki
238
274
290
##ño
shu
ji
##tador
1532
Pizarro
Shu
##nando
1552
1582
##dret
Velasco
##teti
Hua
KK
bos
##ovac
Adrian
##ach
1633
1694
1673
1674
1683
##öta
1656
1658
##fy
1665
1679
1689
1678
Collegium
logic
skola
pole
Lied
1684
1687
1668
Ramon
##say
Rockefeller
##tza
##hru
##nken
##talan
vers
nave
##ilir
ment
till
Fashion
##tavu
tyre
##mai
##dorff
##dant
Galleria
alih
##tonu
duet
##ghing
Sinne
Neil
##yon
##edy
Edith
Fitzgerald
##rende
Mack
##sume
##ved
##rigo
##rny
revision
allo
1728
½
##¾
1723
##sni
##emes
1760
1745
1759
1801
Bland
##szi
Dona
que
##BB
Federation
Body
##ders
fitness
##tne
##eyn
Biographie
Phys
596
Contemporary
809
Build
magazine
Prime
Health
Cook
Monsieur
Period
##ical
Publisher
Year
##trition
Milk
##ctive
Self
Fighter
Less
Alive
Schiff
##gger
Venice
Poe
Rae
Western
Janet
Rolf
Bloom
##ław
##nico
Mountains
Durango
Lone
Pine
##ard
Regis
##try
Temple
fila
##toku
Vera
Gottlieb
##pre
Wehrmacht
Michelangelo
Vogue
Frankenstein
filma
Royale
Lombard
Indy
##lung
Simona
##beri
Tatiana
Calderón
##source
Classic
##qvist
Dresden
Heller
##cro
##eken
sentiment
sång
##eran
Asien
##dd
##ntra
##cola
Corp
Mode
Maximilian
Russ
##inea
##risten
NT
Sien
kolo
helt
Lakin
Silent
##oft
Romanian
##orp
202
Ones
##icht
##nesa
1874
Satan
Under
##rico
Simpson
##ook
1830
Henrietta
Swedish
Fish
##dbu
##jø
##rgers
##col
##rries
##llet
##pukan
Department
Store
##sli
Maynard
##oos
Vasa
##ility
interval
##punt
tok
Lund
##riva
##ppio
kiri
Umm
Karla
Westen
##dorf
Ś
##kiz
##kowa
Wrocław
##owska
Edouard
##ény
##ngue
Beau
##lieu
Alpes
Maritime
##rag
Und
unde
##nih
C1
sien
##gby
Daniels
##tre
Acid
##ught
Oil
##lena
C2
##38
##ade
amino
sait
Genius
Madness
Female
054
##ob
np
gov
##load
##tton
Sylvia
testament
##lende
Isle
##upe
##vity
Steam
hardcore
Hardcore
kamera
vio
##xy
Oaks
Mining
Genera
olio
##olas
ov
ovest
pau
##huri
än
##ED
YOU
vila
Genesis
remake
Eight
MI
##SS
##ING
game
lost
find
via
will
dead
Exit
minne
ou
##illo
##AL
##usen
Kamal
##gre
##anche
Dado
##kushima
Xi
##uya
##üs
##katan
Tibor
##kó
Tamás
##zom
##bat
##hely
ás
Monti
Parco
nazionale
Marche
##bria
##ubt
##reep
Viola
##ovy
lied
plan
##pelt
##alny
##yla
Elliot
Indianapolis
stand
Next
Friday
Cube
Finger
iPhone
cross
##lant
1524
##zano
1609
1664
##pole
dela
##ware
algo
mana
##arse
Lena
##mberg
Nieuw
Nederland
protesta
1625
1626
Oranje
1642
1643
##kelen
Bronx
1639
Harlem
1647
##karan
Suriname
Richmond
1685
huge
1764
1774
epi
##paka
1812
1788
afro
1811
10th
1820
814
1825
Erie
1831
1858
1835
Points
lika
Tomb
1837
Croton
##rons
108
Liberty
Lower
Siden
Ellis
Flat
Chrysler
Empire
terrorist
BM
avenue
262
rank
informa
Giulia
284
285
Greenwich
Warhol
153
##rins
310
Yankees
Babe
Giants
Dodgers
161
278
##nog
##rafia
149
Pál
##tent
##elet
alba
Baltimore
Maryland
Lance
Hampshire
##ulden
Columbus
Springfield
Falcons
Cory
##acher
##roe
208
Mare
wos
##inak
##skem
École
##chnique
spéciale
militaire
##RA
Eo
##rinin
Bureau
Ren
##gnement
##EC
Document
##tér
##ieur
##pion
##nage
Organ
Antony
Blum
288
##egi
Banque
Worms
pull
Mord
conte
Encyclopædia
Academic
dikt
Benito
Mussolini
Lissabon
##ngt
Krupp
399
Battlefield
EA
Illusion
Electronic
battle
release
date
announced
Origin
DI
##CE
Tokugawa
##guna
##gé
235
park
##nda
Sforza
1595
##enes
##sans
Odd
Della
1447
Ludovico
1466
portail
1476
1494
##meran
Performing
Notre
Damen
Sabrina
Teater
Screen
Actors
Guild
Lewis
enne
Russell
Penn
Gent
UCI
Dei
##ži
##či
Eds
##byn
Falun
513
Kung
##ätta
##grund
##dn
1781
##öller
Sky
Fact
gård
1881
Robin
##borough
##stem
##dali
1821
Norske
kirke
Jørgen
empire
Aberdeen
Meiji
Edo
##agawa
Saga
##tidae
disco
Ester
##pect
vokal
Janne
ONE
Films
merito
Swing
Nothing
Pub
speed
dating
Maine
festa
Coming
##final
Ruf
power
##press
##vén
##dé
Jonas
##åland
##ems
Luther
##ören
##ingen
Sion
Hyde
Cecilia
##32
499
##tendo
204
##toso
##redi
Eugen
Marta
Barry
Women
Russo
##ervo
##lino
##lition
Partito
##olare
Italiano
Kids
Block
popis
hop
bei
Ibu
##nimo
##dhi
Albany
HM
##AS
Emden
##kod
##ec
##odné
##vé
centrum
Seneca
##loge
##fici
Miriam
Theo
##uros
##hrys
sto
Dialog
##versari
##ē
Gall
##tinto
##som
##pensa
##over
##sante
##DK
ze
##RI
piloto
piloti
##smus
##aly
Basa
##unit
freestyle
Strong
##cla
Sandra
Adelaide
kandidaat
##nky
Ungern
##vore
##ärde
edit
##så
##ås
1302
Fuller
1299
##ringe
1365
1321
vende
mer
##52
##wid
Ode
##rants
##room
##anum
lato
Lato
950
##100
##ulat
Petersen
Pada
##nose
kabinet
Scout
Borough
Polytechnic
Bomber
##erbach
Festival
##uation
##remo
Bono
Cass
##zia
Matteo
Tripoli
##tania
Troms
##pski
##bs
##sels
vite
Planeta
##arios
##jerne
##cover
kura
Bluetooth
3G
GPS
1280
reso
##ution
##tical
Telescope
NO
##acho
general
##scope
technical
details
Palazzo
Governo
##sci
qua
##dru
Kark
##etas
##venes
##pasa
##sita
siet
Hindenburg
##esh
Patel
Auckland
Limoges
##ctura
Hippolyte
##zare
##ussée
Rhône
Seine
Inf
##érieure
##langer
radi
Panama
Case
##éon
Wellington
Interview
##šina
Sokol
##iam
##vald
Aalborg
Matthias
Lag
1861
tallet
##atur
##kapet
##offer
1786
1795
##tof
##fer
##vig
Creu
##kirch
1769
##leten
1782
1779
##anu
1773
##metre
Peugeot
305
sedan
koje
##leri
journalism
Image
##eret
##vic
Borbón
##tenberg
XIII
##fon
##rout
##35
leis
##sori
Naam
mito
klip
##bara
##dao
Jang
##lina
Nelson
MLB
kop
Amanda
fik
Baltic
Protocol
##enaar
##tura
##rac
##yth
Angola
Ingrid
Bergman
Greta
Walk
Nilsson
##ritz
##mez
Ils
Casablanca
Humphrey
Boga
Hepburn
Audrey
Arne
stad
Fell
Syd
##ect
Wise
Globe
Ridley
##gret
Olsson
Burns
Viva
Vegas
##bieta
Tommy
Selle
Another
Christmas
Maud
Oct
##opus
##kkor
stati
alam
Magda
Kristina
##born
##feld
Woody
Downey
Oman
Storm
Fargo
Spielberg
Jurassic
##öhm
##dler
Nees
Ami
Iz
##abel
##oru
Natal
Reine
Hugo
Anak
##walk
##erina
##huus
##landia
##ån
##lter
Jonathan
Rhys
Meyers
##wak
##ening
Mia
Turner
##ace
##acea
##beth
Shaw
Prometheus
##fta
##sses
Maxim
##ün
Tomas
Danish
##gens
Wegen
##mania
Hooper
Carr
##nade
Colin
Firth
Hurt
##cik
Toby
Poor
Tat
Finch
Richardson
Ulf
Blood
science
fiction
##ship
Rihanna
Gaga
maka
Telephone
Jens
##pid
Americana
Shelley
Rebecca
##tny
##rook
##ables
##oms
##lgar
##sje
Mendes
Patrice
Alicia
Shooting
Kitty
Sao
##irse
Seventh
Rupert
Sanders
Wilde
Blanche
och
##mde
finns
inga
Mach
Avengers
Yates
Rice
Burroughs
Tarzan
produktion
Hornet
vent
Diesel
peu
##geo
##dies
##elmo
505
PSA
##iehen
Parlament
Viena
volo
207
183
Aden
Karol
Kumar
Via
MT
Elisa
SVT
tj
1095
1098
Dieter
Konstantin
##lde
Emma
##haven
##æg
##ørre
Bjørn
Andersen
7000
1583
pelle
Price
##figur
Luise
##gesi
##läge
Hansa
##ften
1826
koju
##old
##forening
Milli
Shadow
##gra
Ralf
Beta
##guard
##viny
##allen
##efeld
maxima
##kosten
pla
001
Kuhn
mann
##sama
##aker
Suva
##rf
337
##take
sunt
Kramer
169
##hip
##eak
Board
##sett
McKenzie
##ift
Kiev
##vare
Instituut
##NI
Berlin
partner
##eske
##utes
Yokohama
Eleanor
##rones
Dramatic
BAFTA
Scotland
##opia
Kit
##ngton
Sibelius
Schröder
viola
Kati
Gottfried
Zo
##zaje
##wald
##jken
Konrad
Opus
##times
Tallinna
##orkest
##rior
##mban
##dine
##tega
Disc
Sui
Television
Maggie
##lmes
##croft
Signore
Caro
Fonda
Patricia
Neal
Thompson
##bh
Saturn
Sheppard
Subaru
S1
Kupa
##hert
##skop
##erir
karbon
##lek
Copper
##rmin
tapo
##rime
ft
##sya
##meyer
ary
##ride
supra
##yka
vera
medicina
fato
pistes
##eitos
819
##ulant
Paulina
415
Melchior
Blume
tenor
Düsseldorf
Oper
Baden
Württemberg
##erata
Scala
Opéra
RAI
Teatro
ensemble
Strauss
Elektra
Aida
##mès
##vola
789
390
##59
Yorkshire
##ksta
##dium
##sley
them
Burton
football
##15
Towns
Raul
drama
##atum
##uhkan
1110
##yg
##oof
##taju
Mohamed
##bie
Djibouti
OR
##ían
Observatorio
Instituto
Astro
##ís
Canarias
Observatory
##esco
##lone
##losen
steam
##tikus
##gência
##yana
##rty
influence
vegetation
southwestern
shown
poll
diagram
ati
Geo
##200
PA
##CT
Foundation
880
ف
##اط
م
##ة
محمد
ال
##فه
##ر
ي
859
##dras
Guinness
Unesco
fez
Abi
1406
Erasmus
##erne
Morgan
##obia
##sworth
Gli
478
921
Terry
##logii
##rog
Published
553
##14
##28
##occo
q
##wi
library
oldest
newly
renovated
open
visitors
Library
##ado
Moses
Mai
1135
1204
Idris
univers
1332
##rzi
##rts
Jacobus
Bali
Medina
unes
808
##tuta
Paper
Werk
##zeug
Hand
##werks
##technik
mittelalterlichen
##pier
##tellung
##dgren
Europäische
Mittelalter
4th
Verlag
423
##42
786
##orio
mina
pese
kora
##anik
##dz
##elio
astronomi
malik
##buri
was
other
doctorate
any
field
license
teach
except
religious
law
obtain
had
study
Madras
sivil
Bald
1249
Miki
##valet
367
942
VHS
Olivia
Linden
Wisconsin
Hannah
Fay
##nnie
546
1762
Adler
##dde
##gård
Ora
1765
Net
Genoa
Motorola
##bility
545
551
##nties
Montana
Clair
Benny
906
751
##cos
franco
teine
Barra
Apr
Lex
Rui
403
504
Fiat
Sedan
050
##bild
tag
estate
familia
coupé
618
Vanessa
Care
##ames
sous
Forêt
Kod
Mathias
foto
##ografi
topo
Här
Julio
Asunción
Paraguay
Blackburn
Rovers
Olimpia
ring
##lae
Audi
Davidson
##dega
##lard
##nae
César
##lch
##mante
##gal
##itsch
USGS
Geographic
Names
Information
geonames
pls
283
##44
AN
489
##hlt
##ühl
Hofmann
##egg
055
1379
##27
Tier
1451
1799
församling
Mille
Shandong
Armstrong
Jing
##juan
Deng
pri
Yen
Ito
Gong
amiral
Hara
Yamaguchi
##urai
##gai
##ab
##fil
##sic
kanal
laiku
him
ende
Georgian
Tango
tango
enkele
##tec
Palmer
##valent
sila
ger
dis
Sears
##iidae
1537
1541
fr
Kristus
##ntz
##hlen
524
##lemen
1535
porte
##meu
1564
Daniele
##terra
Trento
##dote
##gest
##tisk
##ierto
Est
##enty
##duksi
annos
risk
##oire
Table
esto
sive
kulle
##graaf
##mant
1006
502
##far
##kte
Ziel
Kaiser
Permanent
end
##tria
##iati
##HI
Data
Monitoring
##igues
Tours
##antum
française
##ntana
Provence
Aix
Académie
Sorbonne
Aten
école
romane
##lang
Variations
French
191
Nordisk
##rige
proven
##ull
Dreyfus
action
Française
##liet
militant
Came
##loc
marginal
Vichy
visi
##vaux
##qu
##ête
monarchie
Esse
intelligence
##urar
mét
##èque
absolut
Barr
##tren
##aldi
traditional
Comte
##sato
Montes
Voltaire
Rousseau
##baar
agn
Protestant
Chemin
Hole
##aire
##hart
##hne
##sais
EE
##firma
Gina
Carole
Drew
Daha
##pra
Ange
##shaw
##risk
Reporter
Robbie
Variety
Found
Happy
Wheel
selain
##ci
graaf
objekt
Sandy
Sander
Monica
##sior
Rene
Teen
Beat
##reer
##rson
Anita
Ladies
Meet
Harding
Montgomery
Gibbons
Willis
Wedding
Zack
frère
Keaton
##ried
Barnes
Susan
##jem
##oties
Uranus
##mori
Thorpe
##ray
Intelligence
Basil
Above
Mount
##idt
##cock
##tade
Alexandre
internationaal
debat
##ceau
Voix
528
Petite
République
Gaston
war
##stide
##seks
##ffre
##tyje
Alsace
Lorraine
Sciences
Tracy
Grant
Wein
august
county
##rinde
Pauline
Together
Butler
##lberg
Winters
##beau
891
##leb
Dickens
Lane
##bent
Hathaway
Melbourne
Neo
differenti
294
531
tredje
fjerde
bet
\
als
Lucien
Hubbard
MacArthur
Within
Shea
##rer
385
920
Photo
##goa
Burg
##esch
##mns
##dning
Dag
Joaquin
##pres
Satellite
21st
Freddie
Dodd
##hält
Dome
Spencer
Jessie
Money
Rooms
Heaven
Westwood
Always
Serena
Susanne
Cooper
Darren
Angelina
Jolie
Collective
Earth
##worm
humor
Billie
Burke
Ferenc
##nár
Trieste
##bare
Lakes
960
box
office
Herald
Fellow
##sford
##bij
##dzi
Grande
##ères
##nikov
##rant
Economics
##rupt
##father
##zov
##pou
Russia
Aleksander
FS
##versa
##hoz
Ahmed
Nou
##yev
VA
##uosa
##šen
separat
Putin
##jeti
Armas
631
Gravity
Bullock
##houd
Explorer
STS
157
##rona
Sojuz
##gong
##jere
##upil
here
Ove
##ási
Potter
Hey
##zki
Tourist
Honey
Scarlett
Blake
##lya
Guillermo
Monuments
Damon
Argo
Dante
Luck
Captain
Abd
##uwa
Muse
##rane
Dublin
##ngs
1480
##vuje
1554
391
##hur
talk
agit
Bernhard
Fürst
Aus
##iges
Amt
Liège
##stre
##tuan
Lausanne
Amiens
sap
Greifswald
att
##zini
chargé
affaires
##wig
##fürst
##cca
Principe
Campo
Prins
Ming
Donna
Laura
Bukarest
Humbert
##chall
Welt
##politik
##tid
lab
Hubert
##mburg
Oswald
##tenne
##garten
##nun
hus
imperial
Petty
##rice
##resse
Tang
##phile
##cas
##sé
Aziz
für
##prins
##vier
##cir
##asis
Algeria
lord
##ört
##schi
Hard
##genen
##feri
##agu
Stuart
Wort
Schon
##rich
Reinhold
##meti
##deu
##tsch
Allgemeine
Zeitung
##siono
hart
Dietrich
##ese
Donau
Fürsten
ball
##voa
##bald
Beth
##weg
##owie
villa
##uskan
##nino
Leopold
quo
##rián
Raj
##olari
##hina
##chio
##ndra
##inus
##lag
##verket
393
##slag
Lindberg
teologi
##ffer
##qe
##cosa
dark
Dawn
##lici
##rach
##lic
Mundi
Brett
Petit
##aq
Sia
##qin
Lionel
Avery
Eaton
##low
RK
651
019
Eddie
##ols
Season
Matrix
##led
Scream
Haven
AP
##bound
Rotten
Ay
Florence
##yers
Woolf
725
##smine
beton
gravi
##yak
Kaplan
##vær
MV
##čar
420
##kull
##Wh
##otov
ont
##ssime
##klar
Margot
Naomi
Chandler
FBI
Joanna
##mle
##rion
##parte
392
##meiden
Fuck
569
Ritual
Metal
viva
##bes
##yama
##bett
Volume
##sce
triangle
##elos
##mmet
tik
90°
neki
Euler
##ña
Pretty
Debbie
838
464
Drama
stone
bl
ros
##meo
Swan
face
events
##hore
mesi
word
Carolus
tempo
##ongen
VfL
Wolfsburg
Plaza
Werder
Bremen
##laza
teams
##lijas
Grenoble
Katowice
##imene
Griffith
##gles
Fontaine
623
506
##gma
mura
Teodor
Memoria
Archive
395
filosof
Platon
Aristoteles
Locke
Cours
philosophie
positive
##ntara
Darwin
primit
Marx
Weber
Elmer
Jürgen
pra
Uno
Milne
eng
##eall
mang
##oya
Geographical
Supplement
Papers
##raphic
Southeast
coast
gala
##esos
##radas
ato
##onien
Hale
##atia
##wart
##rou
Utrecht
doctor
##andu
Groningen
Barnard
filo
417
##tät
Verne
##ckman
Björk
ICC
Clifford
##chester
Beni
##anat
##gnar
Romagna
Nissan
##stig
418
Hallan
Norra
##nary
##bruk
##lida
##äger
##hed
##för
##loppet
Pred
teori
##fes
Olof
Quincy
Soccerway
Homo
##lium
Testament
##unk
##ege
norme
##smu
##yta
anaa
enkel
##marie
##logie
konte
##fan
Room
Ezek
Standard
Bible
##IV
NET
termin
##qet
##â
##qat
ת
##ֹ
##ּ
##וע
##ֵ
##ב
##ָ
ה
##esor
domina
kasteel
##posto
argument
practice
homosexual
Corinthians
##ēs
ἀ
##ρ
##σε
##νο
##κοί
##της
μ
##λα
##κός
##νε
##ία
##dera
##ript
Evangelical
Alliance
##κο
##ῖ
##ται
ἄ
##ση
##ν
κ
##οί
##τη
##itia
going
after
strange
heter
##ulos
child
boy
##imos
##onat
##ende
##jeg
Nice
##quist
##ohet
##binder
##titut
1829
##vout
Eisen
White
Kathryn
kode
Tate
Islas
Ranier
##cari
Juniors
Estudiantes
Independiente
Newell
Plate
Tigre
##eres
##ñ
León
Copa
América
##lasa
359
Hidden
Valley
Filips
1785
##mland
##orto
##rge
1538
1542
Skåne
Jörg
huset
##eket
##slow
Kinshasa
##kong
Transfer
##markt
##gau
teste
PSV
Eindhoven
Jana
##trine
##dise
analog
centro
Harvard
Obama
##ryl
Anthology
Sheridan
Ono
Ringo
Voor
##olver
Quality
##urance
register
1833
online
October
shore
##ponent
##svar
##rike
##tting
prop
offshore
1732
1754
1753
1771
1772
Dexter
Stab
Worth
##nsey
Legenda
##gr
santa
Berge
##TO
Hala
α
pine
##apon
born
Pick
##hagen
Dietmar
Bauer
Dorothea
##avor
PB
Bahrain
Gulf
Rodolfo
Bianchi
Mercedes
India
Gutiérrez
Éric
##gnen
vari
Gros
##jean
Maldonado
Sherman
Harriet
Pulitzer
Gunn
##ystal
Centrale
##plo
Porta
Nuova
Milan
Mass
€
##nita
PKK
petrol
ISO
301
##vne
Zug
##sieg
Simmons
##boa
##lins
Sterling
Drummond
Judith
Evelyn
Bangkok
##lsk
Ivar
Wilhelmina
##chier
ama
reist
##kten
##ftar
##joy
Comedy
Acts
446
358
Box
hair
Capitol
Lur
##ttle
SIMBAD
Identification
##asure
##ments
##ography
Astronomical
##nées
Strasbourg
071
823
607
279
015
Adi
1637
1706
Beata
##acht
##meister
1653
1670
1671
1680
1681
##mla
1693
1672
Magdalena
1715
##gami
##90
Pure
hits
Rana
##ld
Ireland
Edna
##šno
##esa
##unia
##TV
669
749
##polis
Handel
##skolan
##ativas
##rgia
560
hyn
475
095
836
th
999
metrov
##metro
##nera
Haus
Should
Hayes
##inum
Face
Woman
741
Laurel
extra
good
##tyg
institutions
guardia
education
may
university
league
Release
179
Performance
##dicat
BS
PhD
##rth
Campus
Alps
Wes
Gibson
Bela
##ztes
Fischer
klar
Henderson
Kita
1021
Melody
Maker
Ahmad
Herb
Standards
Cool
Coles
Payne
Tucker
Dunlop
##aby
Groove
April
Impossible
##pendium
Suite
Sonny
Holmes
Wait
Valentine
Side
Essen
Pueblo
Mexico
pueblo
1325
pueblos
##ás
##quez
Corona
1598
1620
ute
coma
territorio
Bent
Date
##endix
rose
rex
Salta
Argentino
Dit
##80
ane
##luat
##amaa
##ptor
ago
Ano
kalah
fim
zon
##ifer
##ring
##lni
Lucia
##ln
Denna
2D
Wind
##fn
Drive
##hita
##strate
##gian
Number
tech
hot
mia
everything
sequel
should
##edito
games
announcement
890
##85
Stranger
Veliki
1846
Nantes
##bei
##sed
381
382
Rennes
##mbe
Ferry
Eiffel
Félix
arma
Rusko
same
seas
Gast
eo
##ony
Normal
##pé
##wes
Ruhr
Étienne
##éta
##hang
543
##yck
##nama
##rca
Bogotá
517
Colombia
Suzanne
Collins
Hut
##chers
Color
Lions
##gate
Lyn
##tzia
##orne
Matki
Twilight
Atlanta
##bee
Dat
mk
démocratique
motori
##hausen
Anhalt
##dalis
koloni
1358
1180
1220
Straße
##unsel
Diaz
Jaroslav
Rudi
Liberec
pod
Berlín
##ř
Orten
##ém
Bahn
metros
Wim
##ír
##bel
##ých
##ét
##šil
Punk
Toten
Nancy
1841
##toga
Orleans
Platt
##philus
planta
##sey
##plant
Sheriff
##riff
tola
##aft
Armand
prince
##aci
Antoinette
##lande
Bourbon
resta
1815
family
XVIII
1234
Alger
331
ordo
1739
716
717
1845
Camille
Place
##sling
Restoration
régimen
1824
Orléans
Bonaparte
1798
168
pense
ancien
##bere
##lü
195
197
Plessis
Richelieu
##tern
hat
pt
régime
Ultra
##èle
313
353
##öss
314
##tenu
265
316
liberal
352
##rante
Baptiste
Adolphe
##iers
355
##vou
sensu
362
barri
##kade
364
##36
1816
1817
1827
##oration
Rothschild
Economic
France
Germany
##dha
347
Honoré
Balzac
Comédie
Manu
##cture
Beaux
##roix
Dominique
##street
Bellamy
Titus
Productions
Wilder
896
263
Director
Playhouse
Collection
Joyce
##okkal
Adele
teil
##paper
vento
puts
##tato
##rao
liv
menos
hem
##isana
minus
Mandy
pick
##eski
soft
These
Something
Videos
Robson
Low
##ndes
Wanda
Hunt
2025
Cost
Dover
Code
Emile
Uruguay
Montevideo
172
754
rois
Motion
##ored
##gio
eit
Artists
Stevenson
Lamar
Ibrahim
Sierra
sierra
Craven
Bach
Rocks
Classification
##jonu
Earl
Hood
skin
##ogs
usu
ward
Enterprises
Journalist
SW
Pig
##ggs
Ulla
256
Oude
##cella
Pater
Archives
Slag
##bank
Cannon
##dale
Dimension
##base
Levine
zom
Teresa
##leigh
Colonel
Julie
Julien
##öten
##mbit
Québec
Airport
##rator
research
##lib
##anih
##chn
##eide
909
##ppen
Joachim
Amalia
##lmer
##jeve
##gels
##lskapet
Model
NJ
##ipun
Norden
##grafisk
Lexikon
Antarctic
##öld
IATA
ICAO
##ær
370
hub
SAS
##ø
Navy
finn
##stare
##blik
##HF
465
##wiki
PMC
automobile
catalog
car
1252
belle
delu
##xe
525
DO
autour
##yik
##wne
1430
##kg
820
VW
5500
Opel
Kapitän
Alfa
952
472
003
March
Princeton
Plymouth
Gertrude
Arcadia
Mrs
##xel
096
817
##rdan
angol
##ensis
Burundi
##huis
Eritrea
prin
##gli
##bini
##wu
##ega
##lensis
##ème
##gou
Burkina
Faso
Turks
Jessica
##our
Abdel
Lina
Pandora
Hals
Dunia
hindi
dunia
##ridae
Albatros
##zane
##chard
Jesus
Afonso
Ní
dos
Mato
##ânt
##cimento
Cel
Girona
Vigo
loan
cel
##horus
Botswana
Lesotho
##zima
Zimbabwe
Kosova
DF
##boll
##sja
1284
Zimmermann
Oberst
Heer
##leitung
Erich
##dendo
##held
Barbosa
Lucas
Moreira
Neve
##erman
Boca
minuta
##lans
Kopp
##bergs
Una
##uc
##cura
##eira
Severin
Batista
Bez
Hier
Pepe
Vom
Reis
##bó
Gerardo
Andrade
Ponte
Eye
manche
Fulham
Khan
Clarke
Tottenham
Boa
Sherwood
Mackay
Swansea
Garry
Wigan
Athletic
Reading
##gaan
Crystal
##web
Ona
##iye
Chain
##essen
Dad
##dari
Eastwood
Sawyer
##xas
Heather
market
Niki
lift
Nikki
lado
Marvin
MacDonald
Pam
Jedi
Ez
Fou
Renzo
Valeria
Oko
##vud
636
spirit
Harcourt
Dominic
Vidal
Ortiz
Tierra
##ún
Darío
Cúc
##utan
##zak
beni
Musical
love
##íbal
Duque
##ubi
##à
Reginald
Fisch
##ione
Shawn
Vince
Vaughn
Jared
Guru
##sola
Lucio
Gonçalves
##éru
Genève
Freiburg
##cque
Stamm
##cide
##iard
Bala
##talen
##rün
##ël
Dec
##elles
##nthe
##ault
589
308
##uth
bang
##lades
##rega
##oza
Gomes
Marino
Bangladesh
Cele
##stino
Miglior
Brunei
Leopard
Gan
##chal
Helga
1469
1472
##cke
1569
##bergia
1576
IX
1596
##ntza
##union
slott
ph
bor
autumn
kelle
Entomologica
983
228
maar
Viborg
Yuri
À
Dust
Factor
Enter
Lens
Shake
Christina
Ø
Move
Petersburg
##stve
universitetet
fakultet
organo
07
##celles
Bey
##iato
##nili
Carbon
##agens
Frost
Devil
Survivor
Nintendo
protagonisti
COM
Ground
##tago
##dr
Demon
rein
Messi
3DS
##cked
##cae
Yamato
Sept
##eje
##stelle
Ronaldo
metode
##zari
ega
##cor
polu
##uwen
##zor
dio
hali
Meteor
##ological
##gnet
Ion
Jung
##rez
##unun
Makoto
Windsor
##fire
Swift
Jay
Leach
Worcester
DE
##plu
##GE
Funktion
funk
##owa
##cko
##hardt
##anza
Teksas
##aktion
477
Extra
##vole
solid
seul
hög
Other
##fjorden
516
510
##voie
Verdun
##raft
Gull
Feld
Hannover
##ions
Reuters
Shows
Canada
Control
Risk
Banks
Bloomberg
November
February
Interest
times
CBC
EK
efekt
Finance
states
##mone
Liquid
Response
Financial
Market
Review
Autumn
lower
##night
target
percentage
point
cent
press
frame
way
forward
TIME
Reader
Digest
Linux
hardware
adaptation
##ponenti
firm
##mpo
Quick
##ML
##bris
sail
##fish
Architecture
Chief
Engineer
project
ut
andro
drivers
HTML
Alien
##tr
##dotte
Ericsson
##ics
muro
nova
releases
##mic
complete
transaction
split
Qua
##drag
Intel
bit
ARM
phone
MPEG
Gemini
PD
early
access
zur
see
##sea
bol
Weimar
Volk
##spartei
Verein
das
Deutsch
Ausland
##DA
Loir
Brock
Budapesti
##emann
Christiane
##šit
Sve
##geon
Moritz
##anc
Innsbruck
Oeste
Adel
##boden
Allison
Nana
##õ
Amber
Brien
##zers
##üt
##brunn
##teg
##mental
##gant
##horn
Verwaltung
##frau
free
##lance
ac
##cap
Savoy
produkt
Firma
Hands
Named
Moe
let
Sammy
Så
Jaan
minima
gab
nivel
Liberia
Johannesburg
Barlow
Mitch
maillot
jaune
Porte
##ants
##sport
Vlaanderen
##cato
Lotto
Trek
Mondiale
##nts
##mbar
Grau
1030
##mner
enten
liet
Hook
ie
Water
1245
##lights
Commissioner
Lights
##utas
Heritage
Moi
##tze
ere
wie
##rker
hand
##vudstad
##sblad
Presse
Lawson
Grove
##dington
Rémy
Trinity
##scription
Belles
Lettres
Rohde
##dnia
##raum
##rdt
juures
Blu
ray
becomes
Anglo
crime
thriller
arts
entertainment
reviews
888
step
dil
NTV
Narva
Artur
##gien
##lda
cha
##bea
##yer
gracilis
jam
##posit
##ites
UU
deeply
##ised
marks
first
east
authorities
order
arrest
more
Brotherhood
leaders
##iya
##dli
summit
##istir
bra
demonstration
##zeera
deaths
injuries
take
streets
again
CNN
supporters
shot
Cairo
Middle
AF
##leno
massacre
least
killed
attack
army
headquarters
sources
Monday
##aad
Din
##zem
##bla
ekonomi
crisis
plans
marche
340
Alexandria
hold
march
anger
police
ammunition
attacks
kosti
December
##giu
Zuid
##gir
##mano
Memory
Blanco
##NL
Xiao
1405
##fang
steel
##shan
##titi
##zhi
##iline
##abia
Fang
治
隆
唐
宋
1699
Zhu
Quan
Tong
Soon
##gden
##eda
Site
Haupt
##ieven
Kuntze
XL
389
680
658
904
905
609
436
536
##tary
509
512
Hub
##lisch
806
KG
Junkers
JG
jaoks
Köln
##rai
##wind
Süd
##marine
Brandenburg
##üb
151
Nom
T2
T1
Spitze
##dyn
minimo
##itze
##geschoss
TT
Boxing
cut
left
eye
##tinent
tako
Lukas
Hassan
Basso
TKO
light
##weight
Intercontinental
Zoran
##vici
Daddy
Loves
Rok
##cule
##ève
1743
1726
XIV
##muje
1698
##jusi
579
premier
ministre
1713
1717
membres
passé
dont
nom
commence
1727
1731
1733
app
Stanisław
##czyński
1738
##hringen
1766
1740
1742
1486
##tors
Sari
Saskatchewan
Blade
##DB
Seattle
##birds
Legends
Rochester
Americans
Holz
iron
Brendan
Shane
Steelers
Schultz
Grey
##rillo
Ghost
##enden
##overe
omega
hans
alfa
Streit
Resident
Evil
Capcom
Origins
NGC
GameSpot
##amen
UFC
tae
##kwondo
judo
##KO
##bric
Jess
Kota
##FS
Mix
Mohr
Pearson
Winner
##ulare
##NA
Laval
##éd
##ateurs
Chico
##guen
##éen
##eurs
Acad
##urst
Rocket
Concordia
##erson
##zoo
Wings
Guido
##haf
Laufe
##wiesen
507
##hawk
Motor
577
SO
##yclone
##cable
##ndent
1705
dini
Booth
##ones
##ymer
1496
##žje
polo
Nag
##orna
Zao
##ž
1649
Condé
1692
632
Mademoiselle
Mariana
1725
##ńska
##iare
##rnia
Fran
Gets
pne
1335
627
628
1530
duke
regent
Pfalz
Chartres
Françoise
1697
1707
1708
1718
Guillaume
Dubois
Dogg
Tada
##rida
Eagle
##bourne
Christchurch
Kaap
Crimson
Perfect
Person
Mani
Court
periodi
Trio
##lines
##ød
1140
Benedikt
Infinite
Charts
Hate
ARIA
extreme
libre
##gu
Mess
KS
##ilise
736
##dean
Leibniz
Riemann
##nkt
deriva
##zaba
Berg
##zco
Bilbao
Annette
Garcia
Puerto
Rico
fight
Perez
core
dan
thai
Showtime
##zew
Castillo
bon
Roller
MMA
ble
Clay
##uida
Jeremy
Cerro
164
Champ
vs
Dallas
book
decision
win
##zal
drop
feat
hopes
##ight
FOX
results
shock
third
round
Holloway
interim
##ated
event
{
1390
##act
missing
weight
career
body
just
gave
headed
back
literally
before
Dustin
Chiesa
McGregor
##gom
Duke
##fus
play
Extreme
Cage
##fig
Fighting
Mills
##ties
##ropa
champ
get
##kreis
Garmisch
Parte
##nkirchen
bai
##weis
Propaganda
##bru
Operation
Talking
##panie
Dictionary
Vermont
570
410
bolo
##gnes
Mora
mori
taki
moral
SG
##ringen
Anno
##menten
CN
##eland
Arctic
franc
##bell
##tski
1545
##žit
##rode
Minsk
##ctes
Championship
##ière
Trophy
Rapids
Tomáš
Slovan
Bratislava
Nová
##ndres
Eden
Ingolstadt
Everett
Dame
##unds
AJ
##iac
Heat
Brandon
Rowe
##bing
pars
kanan
##ømme
nak
Tristan
NBA
##valiers
562
541
1777
##cra
Acacia
Split
Prost
Only
Mortal
Rise
Remember
##nima
##down
##fora
gate
sample
noise
##wood
DL
Oceano
Devi
Gomez
##arde
1722
Limousin
made
Blois
##vad
##rup
akan
ig
flota
##bore
ang
nata
Typ
##haceae
##eden
vida
Linné
1737
Fries
##cter
##ists
##ța
Moskva
##zen
##nay
Ç
##bn
##dny
sete
Général
1408
1409
##side
##posal
Supply
##ometa
livre
Occident
Inde
état
affinis
Wilfried
Sparta
##tesse
469
##inkel
arten
fish
chip
Somerset
mans
##ddin
##iled
carro
##pling
bones
##xta
toa
hole
peur
stil
che
double
sisters
1066
##sait
##kao
bitter
##cul
Sting
wo
##rce
chu
Sprint
##rios
Savoie
bost
672
##pils
bando
Guardia
Nueva
##eberg
##onnan
hag
tali
##asy
##vičius
##tual
perform
sels
starost
##voj
ob
##eln
miris
mir
##zd
##tnik
##ement
##prav
sem
##stvo
Latvian
##otas
992
##dai
Dem
Stara
699
##jov
Gora
##skoj
##hino
##jevo
416
Goran
##tn
##ores
lig
##DC
##AA
##CC
Goddard
Studies
##eville
##WR
GS
Hansen
Nino
temporal
Indonesia
Nauk
##upen
##cilio
nauk
##nesi
Sonja
match
Jurij
Katie
Lowe
##OK
##SI
Missouri
##ssem
Pastor
##tow
##oci
1585
##ddle
coffee
cream
Bailey
Cream
gur
Verso
Crisis
Magyar
Nagy
##díj
##awn
##bul
##pogon
indicato
sm
##øge
reti
##ihan
##iner
kring
##mester
##anse
Cedar
##ogh
##iony
Frozen
UN
##itch
##itarian
Shoot
Cure
Future
##ký
##relli
575
får
##øt
##foot
Dato
Amazon
Pole
Rockets
tre
##sdorf
##hera
1007
##ooni
mye
KM
mali
##nul
TS
Chronicles
Krause
Hidalgo
Agent
Manuela
##tanti
Veronica
mutat
Wong
##brella
Takeshi
##riam
Wednesday
Charlton
Ipswich
palais
Löwen
##kede
##bers
##osos
Deputy
##enstein
Attack
Père
##uchen
Jugend
##bildung
Garland
Copeland
##nec
##erade
Conservatory
Freddy
Buck
##anju
##lce
487
verde
gali
##cial
galega
bro
leg
##umes
490
492
##zid
acord
##pada
##deira
493
##ão
##ção
501
503
##okie
498
##mmel
VQ
reserva
madeira
Madeira
##gado
past
488
doce
ovo
508
##jike
##rás
Beira
Baixa
Interior
Norte
##iante
loss
tient
tier
165
BD
##SM
##pididae
1702
1703
distrikt
1648
##äter
677
Bernd
##avy
Statens
Aman
XII
Friese
##ynd
tid
##skrift
suit
nas
##utako
##inja
##enga
Suit
##eling
##pura
##enter
914
##43
##ssio
##nament
puno
side
##eul
uur
Satu
##enham
Gdańsk
interno
##onie
##noy
##oben
##beni
Karim
januari
##angan
Dakota
Lead
masuk
Whitaker
Schreiber
Terre
##grave
##yw
Daniela
##efa
season
team
##ratas
öt
526
livres
Curse
Chuck
Mancini
Child
Fiona
Revenge
Fiorentina
##hale
Indians
##vette
Wilkes
##ammen
Parma
Sox
Vivian
Woodward
Hotspur
Middlesex
##omos
##dami
##paksa
##gint
Irena
##mini
ös
ὡ
##ς
ἐ
##μ
##ί
##ζε
##το
Gregorio
Nazi
##anz
##mesi
void
khi
avion
##lland
##rous
adoption
##ilea
Commentary
Word
Treasury
Knowledge
##wr
teka
##dry
##bius
##sare
##festa
AL
##ering
##ression
Middlesbrough
##bern
Moldova
Moldavia
Romania
Dnes
##wang
kwa
hom
##dier
##onology
##zus
static
settlement
rulers
##itra
Schutz
##vertrag
voll
##tex
##frontation
Kooperation
Cologne
EL
##CI
##hoek
##NP
cinéma
vérité
Pike
Yes
##fond
##pekt
fondi
key
961
Spectrum
##23
##ömer
##stav
Halo
##phin
AU
993
##cis
816
##cist
jure
facto
Andrej
PM
Vargas
Danubio
land
##code
##mad
caso
único
Marca
Player
Statistics
##EN
Turkey
Match
Hyundai
award
Montpellier
Hérault
Umeå
BV
##dley
Celtics
Glen
char
##lotte
horn
pou
##vios
1711
Today
Brass
##bant
fars
Dom
##iné
303
##tures
water
##retta
é
Ardennes
##rako
322
##piler
##enbach
Louvain
##agon
Logan
Wade
Writing
Sci
##haus
Christensen
##big
Greene
Raoul
salah
Bautista
##tive
DB
##lory
##losa
792
##kab
653
572
567
Wiltshire
Southampton
1020
##69
Camera
##fone
##gata
RAM
Colour
Francesca
Roberta
Ivana
Spagna
NR
##quilla
Villar
Brugge
Agence
métropolitaine
transport
Metropolitan
Transportation
Île
Jésus
Rivière
Îles
Regional
Authority
824
rad
Riverside
Ventura
Rail
##TF
##fare
##zie
Takes
##ände
Tyler
##foro
Famous
Gentleman
mises
how
became
liber
##tarian
Ankara
##mentali
Römer
##enze
##ère
##ziger
fondu
Neuchâtel
##dner
Sign
μm
##elius
##tham
Heidi
Voyage
##ián
##doria
##zione
Martino
##franco
Luca
Luiz
##conde
##ília
Dias
##mente
Osvaldo
##miglia
Fel
##icis
##simo
Stefano
##mael
Castella
Adolfo
Monza
Como
Pisa
##ousse
Rimini
Bolzano
Transit
Commission
449
Special
##laget
##ages
Kelvin
##zog
##cio
della
Castell
Sebastiano
Alben
##qa
Dir
Custom
Greenwood
##qan
Allah
Jeho
Mono
Somali
Giordano
##anes
Cut
##opes
Holiday
Gift
##ements
##felder
Isabelle
##obe
Leeds
Leicester
Bolton
##amenti
MR
##cen
##auf
Verband
Finnland
##ninger
##rack
##ssent
##sfield
Condor
##nský
ľ
##vého
hokeja
Deutschland
576
Marvel
Comics
##nberg
Goldman
Clare
Wolverine
##tante
##voy
tema
elemente
747
Peters
robot
##tivo
rege
##erum
Raven
##sher
McCoy
##rebro
bun
##kker
Summers
Potomac
Sabah
##rates
Father
Corrado
##è
##chor
Théodore
Adrien
Dio
##ène
##iad
Zee
Osten
ME
station
##hiu
##jante
symbole
##tirol
Ehren
##zeichen
Landes
„
sind
ein
gehören
zusammen
Luik
##cinae
##didae
##cidae
##glie
Albin
Clan
##chet
Kaye
Ese
Hungary
Peppers
##ravy
gula
gul
##leve
Hungarian
##ká
sz
fog
##ány
##zek
##sz
##árd
##cum
##áli
##pá
kör
Lopez
Latina
dance
Bila
##osing
Thing
##eborg
Bug
Bydgoszcz
Finlands
##bund
Delta
Runners
1641
1589
1610
693
##liny
1572
1590
##enay
Medici
##inho
1604
##lette
##iaren
1603
1602
##ndet
1611
1638
royale
Baseball
762
NL
sand
##ahl
##ningen
blev
ett
##blem
Falle
##nija
##ttning
Eliza
##tlen
##rence
Napier
Cai
339
pH
Henning
Feel
Moment
Aguilera
elect
Chantal
Nolan
Buddha
Chatham
Kölner
goud
##nert
291
287
##oek
Limburg
Twente
295
##ecu
valet
299
##disi
##oses
Sergei
HF
##dman
Wenzel
diplomat
1329
1330
Sardinia
1744
1756
1763
1778
##viertel
##ić
Franjo
##dola
Banda
##smas
Zum
Marburg
Fulda
##zzini
Minerva
##rës
Miroslav
Benevento
1736
Acer
##enza
1758
Palermo
##endo
Tiranë
##dita
##cie
Merry
##berto
Gerd
Erfurt
Pohl
Petrus
Cobb
Arad
Bolt
McGraw
Machine
Freedom
##och
##ów
##tional
guld
nationalist
##eger
Austria
domestic
affairs
##erer
##srat
Franken
##bling
##affe
##reform
Luzern
Konstanz
Basel
##ě
##čín
1207
##national
##sino
##geen
##enie
Krishna
##inate
Erica
handel
685
##ward
##nborg
Werke
elementi
2400
##bilis
##vimo
Spiegel
373
994
020
855
245
590
Wladimir
baron
Roc
##ourt
Namur
Léonard
##gny
Steiermark
autonomia
lands
statt
##halte
##ips
Checklist
plants
ann
Diamond
autori
##eie
Verfassung
##besitz
544
iu
##fried
##iau
NATO
Boom
nuclear
##parecido
Almeida
##inhos
Brasília
Sérgio
Rocha
##riet
##choa
##izio
Lugano
##lò
lati
##dela
RE
##SL
1615
Hector
##oz
Mahler
Question
##kva
##èse
électronique
Philips
##cornis
189
##atic
Fauna
Europaea
Java
Mission
##zze
##oar
##dance
Eddy
Sanremo
alma
##nac
canzone
italiana
vit
barn
##vyko
successivi
Sonata
sensa
##pios
Bomb
Concord
Rojas
##ways
Holger
##DS
##ünde
Gotland
Brittany
Cork
Santander
Malo
Cherbourg
946
##rnet
##mov
##cere
Pac
##rso
Lega
##drat
##chu
Chiang
Anand
Ranch
##bagi
Filho
##qua
##bali
Horizonte
##íz
Armando
Álvarez
Christophe
##üe
Batang
Belt
##ucht
##chat
augusti
Padilla
Aya
##gama
non
legi
ukr
##hmann
Secondary
Arap
##dore
##tung
ova
##teral
Seiten
##enberg
##etz
##isch
MO
##cov
Proc
pred
like
##cati
Daphne
##izia
Multi
##state
Republika
##nischer
Schatten
##enland
Getting
Hilbert
##ekte
Mainstream
1695
Sweden
##gna
die
##β
##fos
##oom
gli
Tennis
##iade
##nation
##UI
##skom
Arbeiter
Damm
##ktig
##inck
Waldemar
Americano
LM
##FA
Maybe
Size
Letter
Eerste
divisie
Tweede
Niko
Tonga
##sheim
1362
1437
1429
1646
major
1247
1463
1528
Crowley
Wand
electric
cara
Basketball
##veres
##gari
1787
Ulm
1805
hof
##krieg
Aube
##rieg
buku
Knox
McCarthy
Font
##ews
Kenya
Resurrection
Elf
WRC
Fiesta
Sporting
RS
Gwynedd
programmes
Marathon
##neur
Reeves
Andromeda
Dari
##cope
##color
##dara
public
domain
Tito
##illas
Naga
##nana
##ades
Haifa
Maccabi
CSI
Goa
Pereira
Če
##vá
##žo
##LS
agenti
Marcel
Buy
Hyderabad
labour
##lona
distribution
effects
rest
working
Fabrizio
1291
1326
##clusion
Steffen
Observations
##ures
NB
##ER
Working
Member
unions
##fédération
Internationale
Amateur
805
basket
finsk
##skt
could
agree
terms
viel
mati
ss
Hills
##ximo
##ästen
Ángel
Rare
Ende
Diptera
Syrphidae
Peninsula
Biol
##styr
##cute
##llum
251
##riana
##ops
##oce
pili
282
##ymus
К
##ани
##кул
##ы
vietos
##vokal
##omme
##malen
##mler
boom
##gaster
kiti
##poste
Bugs
kune
Ultima
##rks
##anje
##tni
rote
##dling
Christi
Giorgio
Kristen
Yamamoto
##ffet
Kreuz
Dalla
Recordings
##zja
##ało
vise
##illing
Belarus
775
##zina
959
Factbook
Sada
##plar
##fico
##rnis
412
Rubens
Youth
Bulu
##lope
##dija
##dja
##strom
pola
665
##vito
##lore
Beginning
tel
Taman
##bati
Telugu
##vani
Sent
guru
##ngan
Avant
##endra
Bij
##works
##rani
pool
##thy
##eep
##egas
Cyril
##jr
Kerala
Jalan
##gui
Bangalore
Airlines
ATR
##bahn
##terie
##laria
kuid
##lif
##iami
Tyrone
##fjord
##jord
Yard
Lands
##krona
Duchess
Frederic
##hold
##ntou
Petra
Comtat
anna
049
##ælde
##gn
##boken
1704
1624
Niels
Als
Hilfe
##hs
##aur
Kungliga
antik
##odio
±
BP
##enar
##2011
##örner
##zko
937
Thiessen
Monsters
##ruce
Merr
Cent
##ennial
Northeast
##bey
Curry
##iler
Brent
##rond
Marek
##łu
##szy
Henryk
##łę
##esso
##uint
gamma
##ád
Brno
##řice
##bne
České
##ĕ
##jovice
Poet
##xan
Karlovy
František
Henrique
##nça
Campos
Corso
##llata
##pest
##ía
Paz
Guimarães
Asti
Liza
passion
##guas
##arte
##izar
##jähriger
##bischof
Jahren
##bera
##áz
##lc
##away
Paterson
Pino
Halk
standar
247
Delhi
Khu
Olomouc
##ěch
##čená
priest
accused
sexual
abuse
deep
Würzburg
matches
##chberg
Kreis
Modena
##nig
Genova
1097
1136
933
935
1264
Niccolò
Castello
1393
1391
1441
1438
1450
##cole
mese
1510
1512
1527
Cesare
1629
Form
Beatrice
Józef
Piotr
Paweł
##wice
##iek
Teodoro
Przy
##zym
##urd
##ąż
##nice
Wielki
##zes
##balt
##osz
##ewicz
Jerzy
Śląska
Tarn
##sław
Lech
##owicz
##ą
Lamb
Avignon
1274
Duran
##cejo
Aarhus
Jennings
Sussex
Suffolk
Eileen
Selby
OBE
##IO
##TER
DEM
Künstler
Inschrift
##PER
##ST
##INE
gegen
##älder
Himmler
Auschwitz
verlegt
seinen
ersten
Größe
Kunst
NG
Gesellschaft
##straße
stones
Schritt
zum
Rijeka
##RO
##beli
##ielle
##kanie
Stockholm
leva
##ffle
Molly
##thon
Norsk
##late
dat
Oleg
reke
##nsul
##enu
Pavilion
pia
##ínio
Paco
Fortaleza
##zana
Aldo
##gott
Pico
Cape
Yucatán
##nson
delle
##ggio
##icion
Città
Chennai
Here
##jim
Omar
##halen
##nden
##dang
##hig
##ndas
Engel
Dum
##ndu
reform
angl
##korea
##won
##jú
Teixeira
Cara
Elise
##quet
Białystok
##cek
##stri
suburb
Renato
##hier
Augustine
##abu
Choi
Jae
Bye
##hire
##rick
Fry
Vance
Lois
masu
Filmin
Norge
Øst
##fold
##banen
232
##nere
##wl
caer
Welsh
rare
teen
teise
##êl
kuwa
Alpi
Hera
öar
Sims
Zorro
alias
##stek
##valiere
##chera
Piero
##idat
corte
Inghilterra
Altos
Everything
Wanted
Were
Mathematics
##alogy
nl
##dalen
alb
##hynchus
Riviera
##èze
romaine
Welfare
Inner
SB
Heide
TB
##gesellschaft
Benfica
Juventus
Aviv
Beşiktaş
Tromsø
##ricio
##bang
##ése
Plateau
##riga
##đa
##log
dud
Dada
Martinique
##rance
surge
eight
Olympique
##pf
##zice
Endre
Gyula
Regensburg
Müller
##eba
Västra
##sborg
##banan
Andorra
govern
finances
item
584
sets
estan
##citar
partir
aquest
dima
tard
Església
Cortina
Mumbai
cancer
hod
##blast
Dakar
##OP
Nadia
Nad
Fortuna
Thorn
Age
##ła
Minister
federal
1453
Constitutional
experiment
Cullen
Non
##wn
##UP
Dil
Leopoldo
##ílio
MiG
1143
##curi
Baku
##ško
Azerbaijan
Ritter
Herren
1243
ban
Seed
bed
##aban
Wisdom
Nun
Sua
##nici
Paderborn
Becker
König
Gervais
##omotiv
Dieu
Abril
##biy
##dze
Mg
Encore
Mort
##érie
##usement
##éka
Phyllis
Byron
Neubau
Racine
Crew
##örte
strip
Dancing
##guan
##come
Regular
##mming
Beast
Scene
care
Legal
Files
institut
dal
universitet
Medvedev
##ijski
Zwei
Elijah
Ebert
##chel
##mbra
Teruel
##úa
##cam
Party
##rique
musulmans
1632
321
##had
pages
democratic
alliance
##zona
##ías
##zada
Fernand
Libre
##hane
Sega
##sere
##jenja
Event
##quest
Meadows
spin
##cliffe
Ova
Committee
IOC
Multimedia
##ée
Mod
Pointe
Noire
Singh
##ular
##gbar
##afa
##lier
Dupont
246
##gert
##pie
##bola
##udou
##ég
##ssé
Sidi
Leclerc
Didier
##érou
papa
Trung
Yên
Hoa
Thanh
rupa
##here
##mile
##lder
##bica
Winkel
##how
close
##zell
##bor
Kaya
Constantin
843
##esen
leksikon
dek
##prisen
veu
##mins
MH
Search
Tomorrow
NBC
##ndig
##venil
Lil
Geiger
##ced
Willard
Reaktion
##straat
CAS
Ort
def
Krebs
##fat
##hib
från
även
Lune
##sholm
Amalie
Constance
Matilda
HB
Villages
kole
##éal
Sénat
russischen
Export
Suez
Dent
##zil
Luftwaffe
##diviso
Raya
Dara
##force
Slim
ez
Aleppo
##ania
563
##roux
Piemonte
1157
1137
Encyclopaedia
925
Ramiro
1410
Zaragoza
1146
##ovala
1147
##má
##anto
Lleida
##dani
##ltad
##dini
1150
Grund
Regio
Esercito
Corpo
##ruppe
Marketing
##ykke
##istrat
Advance
B2
BB
Turkish
movie
days
Adalbert
##dza
Donato
##ccia
##klus
Vergleich
Yaoundé
Jérôme
Oba
Gant
Kobe
##dira
Tako
##rosse
lac
Titans
Final
Mens
Assam
act
jointly
tackle
growth
##lne
Crazy
Gone
street
Ricky
doc
FR
##pm
##mpong
##gye
Upper
##gatan
Seminary
##ales
Leuven
##rnas
Cerca
##nías
##tancia
Cádiz
Almería
##unga
Emery
##bong
##undo
Sovet
##ikh
Mk
##inda
##mung
##vard
Trading
##sday
laser
hör
Aiken
##quus
Role
Radcliffe
##pulse
##aff
Spot
Naked
Wish
Invisible
Then
Blonde
##ition
Talk
##tli
##TH
##OD
Affairs
Episode
Hair
gets
cast
After
Database
Off
Second
final
star
heading
divorce
husband
three
years
files
papers
citing
differences
wedding
photos
right
notes
Huffington
##wright
Fue
Juni
##uada
Ambrose
ekstra
tardi
##dw
##bow
##É
Éireann
##komen
Galway
Done
##esie
Muir
apa
Vickers
377
Univ
Shannon
M4
M6
##ddy
##í
Reserve
##úl
##taca
##hí
Dartmouth
Flower
Eit
Newfoundland
##óis
##amh
##IR
##lico
Durch
Primary
Government
Bertrand
Aid
##demia
Relief
Services
Lennart
##BL
##cit
dux
##zica
##yras
549
##ianus
##muth
##dig
Edoardo
Tempel
albedo
##llaria
gal
##culata
319
Júlio
Arias
Medellín
##dad
##uário
Nha
##gasi
##rica
##46
1269
Mustafa
##graph
##ndia
##cea
884
ruler
radical
expected
Islamic
##400
ā
Khalifa
Haft
Former
rebels
posts
##ggins
##rité
Dauphiné
Quintana
##done
##cchia
ingen
##kura
##cou
old
##historic
Figur
Bohemia
1085
1198
1253
1346
1370
1415
Background
Note
##ektor
Böhmen
##ähren
##drich
Patton
Czechoslovakia
Václav
Havel
##čan
##ská
##ická
strana
fighting
stop
its
tracks
Č
Stanislav
Parliamentary
Elections
Election
Brief
Rogue
Leader
Close
Deal
Radar
án
slo
##žil
poslanec
##át
##čas
##jné
Trump
Compton
Scotia
kundi
Branko
##vić
monte
##neg
##grad
Balkans
Partizan
lenk
RC
Espanyol
Montenegro
##ović
##2010
##čari
##ged
##ient
releasing
coach
bila
Spike
Treaty
Environment
##rish
Ente
store
fire
á
boli
Stal
Volvo
viena
Jeffrey
Based
Medicine
##ction
natur
medicine
model
Comprehensive
chronic
disease
JA
##sida
##sminister
##rase
##ovej
##ː
ʔ
##ɑ
Karlsson
349
legato
concert
AV
Abbas
810
799
801
807
146
Lippe
##nham
Westfalen
##ndr
##aster
TM
magnitud
1755
Juden
##nich
CAD
CA
##teka
print
sci
Economist
Print
manufacturing
technology
change
Feb
edition
supera
##lej
Incorporated
Select
Sint
object
Cherokee
Indian
Reds
Dale
Vaughan
Buddy
##BA
##sart
##ndan
Kao
Piazza
##égal
##xen
##bert
Doria
Month
##zela
##pierre
global
fin
FIS
188
Chad
Bend
##jed
Armée
##IA
Groupe
##torii
historii
manga
Jump
##cao
##ication
Combat
jih
##äus
armé
Fowler
Moss
##wad
##quis
##aná
##glio
##rí
##ít
##úr
Ciudad
Bolívar
Parra
Margarita
music
samba
Siti
Varela
##úp
##abo
##çon
Sina
##ğ
İ
Hacı
##oğlu
Ön
Büyük
##üst
Demi
Alban
##drón
Nicolás
##úd
##telse
Rubio
Caracas
##sort
Salas
Hernández
Peña
##áv
##cón
Guerra
Berna
Rincón
Mile
##mig
##uaren
Pío
Ortega
Márquez
Gómez
Constantino
##omir
##lí
Víctor
Card
588
##ğu
532
magister
Oriente
573
591
604
##bt
Democracy
Prin
Republican
##uff
##regat
Sandoval
##ücke
##yanan
##uzi
##ardo
Romero
Coro
##nheim
Cortes
##dato
Trujillo
##oco
##psilon
Zeta
##anias
Katrina
##argo
official
category
layout
##limen
Political
##gical
Environmental
Acta
Academia
Social
Evolution
Civilization
cultural
Perspective
##dire
S0
Advanced
Study
##kind
LE
night
trip
##latina
##mum
deve
##umit
aver
##nata
##print
996
ida
insects
Sveriges
fauna
##järilar
521
##ptera
images
Eesti
##chidae
##öden
##andia
Family
spoken
##nout
Poetry
Connection
poetry
nta
uri
##stone
Local
##wder
Rubus
verso
got
##mh
Technologies
Ferrari
##ecta
Plants
Native
Nurse
Salmon
Fruit
Trees
##zot
##nore
##ddi
Itali
Siena
Colle
Alessandria
Treviso
##gaste
Gilberto
Armenian
climb
Species
Palmas
Salazar
##miento
Rodriguez
Fabio
##ncu
noticias
actualidad
mede
tira
nota
##edde
##lás
Dora
##dua
habita
species
466
##icola
##adel
cf
307
Curitiba
BMW
##TM
##frika
far
<
>
ach
##ðar
Vernon
ç
##ueil
trop
##stres
##öne
Zbigniew
471
##ohn
Panel
##amental
##wai
##grapher
Biographical
klima
Balance
Physical
Approach
mois
##aña
Segunda
Tora
misma
piedra
ESPN
Acosta
##oq
##uía
##agan
Antioquia
##zá
##garan
##nca
##gué
Istanbul
##níci
778
831
842
852
856
Marcos
794
834
Viljandi
Laurie
footballer
died
aged
##post
Morten
Feet
1644
1676
##éri
1661
Tot
1669
Horn
Km
kill
Akademie
##ptur
Laurence
Jude
Hardy
Gonzalo
montaña
Peterborough
##end
avec
¡
Señor
Eberhard
SPD
ej
Justus
Léger
Spice
Islander
UTC
ferry
caps
##ize
hierarchy
Martinus
Lozano
##cara
##mang
Héctor
Sarmiento
Hoy
uz
woman
Uzbekistan
Jeanne
Toren
treh
787
804
Taj
Sacramento
829
Athens
Fayette
##mom
##leme
sut
971
peste
Oda
Canterbury
Winchester
Sunday
encyclopedia
saints
621
##laste
Æ
Eve
Deer
##hurst
##stic
perspective
##combe
##read
985
##bb
pesem
Pau
##OC
##OH
ß
##dón
Florencia
Llano
##lano
##áez
Iván
Primeira
Clube
Católica
Colo
Abby
Carlton
##ljem
MA
Nickelodeon
Sicilia
Cartagena
##bón
Mechelen
##wijk
Germania
##adó
##contre
Formule
##2000
##gast
Michelin
Plato
##uvre
##vage
Filipe
Albuquerque
##ijn
##door
Vries
Norris
Sacha
Motorsport
Munster
1088
Limerick
Population
Reports
Website
##icios
##ienne
##SA
##ciation
varie
ITV
Plain
Fair
Treasure
##pectations
Once
Darling
Sec
##roft
Faust
Goethe
##jonal
##gnac
##zam
##jna
Nga
##wand
Christianity
Radical
Reform
mort
Léopold
##bond
UCB
##bita
##koba
Clinical
very
active
sodium
seco
calcium
##rox
813
Gazette
Medical
##rax
##gisi
nar
add
##ikt
TD
##cok
source
##plications
##xica
safety
mida
sleep
disorders
Journal
##cology
Suppl
167
Articles
seda
Hendrix
truth
##dose
Ships
##ZA
Parade
##enten
##viata
tika
Bernardo
##cedo
##rán
pipe
mig
1037
##alar
##ufen
Socorro
Pamplona
##ped
Bravo
##phis
##logische
Hochschule
Breisgau
prim
regnum
##mps
Ferdinando
Khoa
Lig
Rosie
WP
OL
##orte
Citizens
##jera
##vés
joins
options
homi
savann
##ologist
Climate
evolution
Sumatra
Borneo
Tasmania
Conti
##pene
1315
1322
maya
##sible
climate
##aps
civili
##zation
Nature
##ared
Terra
Chaco
##rren
problems
societies
collapse
##ieties
Lori
1388
044
genom
##esc
##ence
entry
##svis
##örter
Mighty
Sanat
They
##illes
Swimming
##wé
Rouge
fer
##rbus
Prunus
##oidea
##inae
natura
##rekt
##nele
ahol
##sara
##part
##matik
1529
dai
1544
1577
1578
##zuki
1432
##tada
1495
Sra
##cà
nhm
fakt
insekter
042
Noctuidae
##ramide
Quercus
Dragons
519
##yu
##reta
##likud
##Works
##hment
stabil
veg
ens
##cant
Random
biti
bala
##taba
IBM
##brar
TNT
franchise
Flynn
Cars
Noah
salas
##rious
V6
Hobbs
Hicks
Braga
roi
Tore
Serial
625
Full
Consumer
Electronics
micro
Kern
Support
1212
social
473
929
386
geni
Neki
median
argumento
##ekt
pseudo
##entat
##gono
we
Critics
Choice
Sá
##azione
Gesù
Baja
##örp
##maz
terminal
##dèle
##lele
##bad
##inya
##pang
Guatemala
Haar
biografia
bug
node
##abb
bod
##vez
Schwartz
##erus
##cephalus
Champs
##phalus
eso
Falkland
##enic
wil
1749
##lowe
Sturm
Tuhan
Instruments
##eji
1592
##nish
##ǔ
ħ
Sancho
volume
##gonia
Reilly
1154
stel
Aleksandra
##ald
##cim
Chapel
Gilman
##klis
##krotnie
##ieron
##jef
1652
1654
postal
##veo
##laar
##bilan
suhu
ug
ʃ
šo
##ʃ
1017
##yoshi
1593
Invasion
Clements
196
Yin
##xia
Cheng
armija
##olie
Communications
BL
##chie
hard
Paddy
Bitte
Brave
Twist
Areas
Welcome
##fini
Sunset
Basket
Escape
Guitar
Lose
666
Bora
##ptunus
##wano
Syst
433
027
##AN
PL
##olio
Schalke
##elsen
##kirchen
Regionalliga
Plant
##naceae
##messi
tutti
Ballad
Eine
two
aquatic
##öda
##ash
nem
asteroide
1221
Eros
Door
Fokker
MAC
Sword
##solidated
##mbang
##aba
Ceylon
##rable
Neptune
Lockheed
DH
##htar
narra
Stand
Akira
Gruppen
Zara
Cristal
956
Kansas
GR
874
tragedia
movies
##EE
##64
Say
Sharon
select
abstract
##FF
##AD
##liti
##rån
training
campi
##cross
Rota
Hannibal
Clive
Barker
Cold
heb
##ș
##fero
Iași
Chișinău
pentru
##rare
Mihai
Nicolae
politico
pm
arrested
corruption
Cet
##lge
##ncio
##nza
Pio
##diction
Farrell
Tokyo
says
when
money
saved
done
treat
Chili
Arezzo
1645
trap
##belli
velho
Juana
##torno
Corte
##ckett
Ted
Boone
##pico
junta
##elas
##eros
Från
nej
##gl
##niek
611
Chip
##bala
Clemens
Nicola
##ield
881
##sü
transfer
Marcus
esse
Archibald
Een
entra
Burlington
Groot
Cornelis
##etum
##råd
kapital
Tomé
Príncipe
##wem
##tead
##care
CS
Bassa
##çu
Când
##mbawa
##station
ESO
##AR
search
planets
zone
Very
low
##mem
helps
planet
life
given
position
##øy
Pomerania
##ären
##gste
people
##posta
##ysis
##gly
aside
##osoma
Tres
Dane
död
##rungen
musik
Fehler
sog
Versuche
753
Tanner
##jom
##taker
1522
bagi
##mand
1675
##ā
While
Lorena
Engagement
Igor
Ned
##vě
##ť
##ný
Draft
Winnipeg
Jets
mobil
week
##tott
Motiv
Vampire
Nine
Horse
Giles
Thinking
Embassy
##zig
IR
Rescue
Garda
Có
Nach
##dur
Nostra
##uny
oa
struktur
transparent
form
##orat
ehe
##anken
paral
Security
Fars
##djan
sari
Against
Dla
Weapons
Iraq
Christine
##jf
opinion
didn
mind
CIA
Rights
Hasan
Maji
##wasta
text
mayor
##ceed
goals
1793
##atories
Energy
metodo
support
Cities
##citi
##istance
##mosa
Napoléon
Fulton
##frica
Minden
##MS
Career
FIA
Daytona
Samen
Verde
KA
##ussion
NH
hurricane
winds
bat
parts
Göteborgs
Coppola
Kuna
Filmfare
Kashmir
Gujarat
grad
role
Lebanon
Flash
Spy
AIDS
Access
##nance
Vatican
sac
comedia
ocho
entre
Faro
##doro
Hendrik
##onano
Fusion
##rington
Lorenzo
##nzia
##CA
succeeded
##wana
##ifa
Davide
calendar
unveiled
Lago
##agne
##llino
Salerno
##agna
points
970
António
##fir
Calendar
##band
Rees
##logical
Foot
##acker
##itati
Planning
Community
Canadian
Initiative
materiali
Overview
Contributions
##vente
##latus
##onidae
##mord
##ituary
Literature
##burgh
##blica
##tions
Aktion
##skar
##tenia
##porte
##nios
##iero
##nov
##ened
##UR
##ronie
##ötet
hoc
Irma
Hansson
Autobahn
##szeit
Hagen
Track
track
OF
Samoa
Nations
CONCACAF
738
novi
mentor
init
ref
mua
Ella
##tide
##nzi
provinsi
##qual
##uchi
Doug
Apache
ponin
Joanne
##egan
Harrington
eines
##ndar
##bih
##dl
##bah
Pasha
##ington
emir
Dayton
protiv
##ody
Svetlana
Behind
##ngiu
corn
Bowl
hire
Ellie
Temps
Fresh
roles
Maharashtra
##tya
Kerk
Rode
Sacro
nach
dir
Cinq
neuer
##zzo
Italy
Athletics
Luanda
##cense
##ião
##üller
led
Sunny
Dalton
Smoke
Sanctuary
Oasis
Being
Killing
Novak
hero
##iness
##hair
Arabic
##halb
##ging
Fiction
##irao
##ʰ
##dah
##ɪ
→
##duct
SMP
syna
SSR
##EP
##RT
##pher
##ining
EX
##CL
##stice
Tina
År
Karls
å
##änge
gång
##väg
##sland
1223
Neckar
Heidelberg
1224
Fantasia
Ivanov
691
Kirke
Tolosa
##quista
##cima
Nasir
1184
1199
1213
1211
##erra
##enien
lega
Arnaud
Bordeaux
##gón
##atra
##laz
Piedra
##bue
Pratt
Burgos
momenti
Baxter
Oggi
##stab
##rema
Launch
kantor
##stellation
Ares
##oster
Inspector
Kongress
universe
most
powerful
rocket
miles
test
##elling
nasa
path
space
Artemis
##oed
534
535
Felice
Guglielmo
Bose
Siracusa
Lancia
Orton
TR
codice
DOM
JavaScript
API
archives
move
CSS
Platform
IA
slide
work
through
browser
future
##GL
##83
local
cache
1347
Cagliari
borough
Census
Lutheran
Theological
Bound
Patti
##while
Colt
##zzy
Gillespie
##tono
1784
Jeffries
Calais
##î
##pek
Şah
Killers
##bby
iTunes
##erek
##cott
Ghosts
Pax
meist
Trust
##øya
Kristiansand
teater
Sør
##landet
Agder
skal
Architects
Construction
##venir
chiesa
pagine
morto
##ranti
band
##glossum
##suse
##mt
Vittorio
Peu
Taste
Huber
##hammer
Berne
##tikai
Trap
##ùn
##ò
##ché
Kepler
Gao
##edor
Ulster
##lady
##dió
##chta
gael
##ough
##nad
Downtown
##reich
Middleton
hul
##leben
Unión
Pride
Venstre
Rasmussen
##øk
danes
want
election
if
steps
down
##aard
politike
dk
politik
Abrams
Speaker
Merchant
Truth
Facts
##gino
voda
##two
Syndrome
##égre
##érico
Hazel
Batman
Forever
Actress
##houses
##sef
Samara
Gregg
##gler
452
≠
ε
Comic
sale
patru
ekipa
équipage
Cell
##sés
huit
##vich
chica
##orter
Restaurant
Catch
Siri
Secondo
Garner
##now
Ruska
aura
fascia
##ivent
Era
##jonen
Visa
##tics
##bana
##rius
##alni
##arius
Musica
##ěz
##rál
##ová
Britten
enfant
siècle
Epic
Hawaii
##ttet
Mimo
##backer
##fonie
Twins
Target
##ovie
##verse
Stari
Vide
Ronde
Parque
##ático
Estádio
Olímpico
##áticos
##drom
rio
isan
cabe
Bang
##alari
koha
Martina
##cent
##hão
892
lov
20e
Salix
##mula
Seni
Aurelio
##nzo
mapi
##hmen
Theory
##mics
##vereign
Monetary
Systems
Palgrave
Macmillan
##02
##ynie
Caja
##uses
474
##etro
##bens
Neste
sangen
inde
xe
##gru
##dliche
##walt
weltweit
Trier
Zie
##bauer
Mem
Augsburg
senior
Korps
XXX
XXI
##tner
##bst
did
##ylus
tapi
##fał
##xo
Cour
Durant
Dewi
##rene
##js
Blitz
derby
front
##ulatus
pone
terapia
Gregorius
##itate
vem
##ulose
piena
larva
Huis
turun
visa
sex
maxim
##niska
Champions
1498
Mesnil
Vieux
Lille
Brescia
##fica
Wenn
##ients
Root
delay
##age
Alam
FM
##agen
Hastings
##omosom
##tog
Madison
chromosome
##phone
Bhutan
Nepal
juge
Μ
##ύ
##ρες
Χ
##ή
##vres
Khi
254
##nect
Sens
##PC
AMD
x86
##view
Quantum
Solutions
Mathilde
Forza
434
forza
motors
works
Société
Français
##tiques
Freak
Gloucestershire
Herrmann
rugby
1551
##lons
##nomy
typer
Myth
##tress
Herder
##rship
Ideas
##tient
ud
even
tung
jenis
Baum
Lebens
##ligi
##stellungen
##ischen
##ölker
Labour
teaching
BF
breaking
green
anniversary
Norm
NSW
books
google
Broadcasting
mystery
suggested
losing
disa
newspapers
nid
##IB
pg
movement
dictionary
##dne
workers
Constant
Giovanna
Falco
##zta
Győr
##zów
##śli
Marcin
##czu
##contra
Arno
Cuneo
Assisi
##ŭ
Hiroshi
##bata
Cumberland
Toma
Walt
##stati
Hesse
pero
termine
##ponente
konden
##stev
permit
Argentina
Deacon
Norton
Wanderers
molen
kt
1010
##cito
refere
Theodor
Romance
story
true
##diso
Stereo
##istent
Farm
Kanal
UP
Frey
Azul
Futbol
Estadio
##ekli
Те
##рек
##ли
М
##ект
##еб
##ška
##cris
##tó
customer
stories
Industri
Iki
Sunda
rod
Creation
shoot
##fari
##sinde
Sleeping
##mend
Venne
calls
suicide
##inent
political
hadden
historic
rally
trophy
Nilo
##juana
UA
civil
parish
lados
fell
##pone
Pony
##dbe
surrounding
area
Rural
Keys
Fever
Copenhagen
popular
Ulysses
Production
Lords
Dumas
Steele
##singer
Current
##rner
##arias
##eses
Coral
##bles
Coco
Save
Poems
pianoforte
Amnesty
Dreams
##tico
Stafford
MySpace
##volve
Ashes
Eternal
Nightmare
bear
##ance
##anisme
Goebbels
geb
Knut
theme
parks
Filosofia
miss
##loso
##poru
911
sita
Essay
Lilla
676
DDR
##ijoje
Brady
##pterus
grandi
##nch
cor
1417
438
442
Kendall
##sier
Stare
player
1226
Länge
Monument
Guadalajara
Oviedo
nuevo
Goal
Herzegovina
esperanza
##venu
##nano
##olc
chansons
##cted
##atul
ON
##ION
modul
##CO
Perrin
tell
##obi
##riat
nm
Novara
Violet
Birds
##ticus
tider
##museum
1558
1607
1617
kultur
##ärare
Archaeology
koristi
Stockholms
##inek
Baile
Bowling
Gamble
RP
Maurizio
Piacenza
ette
Without
Daughter
##ossen
Lenny
##½
★
##★
gang
anak
Present
Below
##kerk
Clara
Bow
Foster
Salisbury
Usher
##quence
Meine
Postal
Luzon
##rede
1768
##reden
Gruppo
Silvio
Berlusconi
Canale
épouse
Série
Flamengo
Mineiro
Lucca
Cantor
##uire
Crash
Cobra
racing
1557
ön
##itude
Ocean
Hammond
Rica
Norway
Köppen
seasons
Ethel
Doherty
##asca
Schweiz
Ticino
Erst
‰
Staat
state
##hosa
muda
##torie
András
adres
sovint
1461
##gleich
##iardi
##gnano
1508
##erie
Accademia
##postos
369
kinne
Reyes
##unces
summer
Summary
##trice
Cantal
Sabina
##ieti
well
confused
##lene
Legacy
863
371
721
681
##tira
Iris
Chapelle
Dans
##issen
Elder
figuur
##nastu
Symbol
##jeni
Stora
##eş
Alexandru
Ioan
Hohenzollern
Sigma
##lă
##ghet
Duca
Gheorghe
##tă
##rescu
Petru
##ăm
##ând
##ră
##ști
035
##dros
##mós
##ídas
##nali
##ité
Eintracht
athletes
aren
##itzen
Leonhard
559
##ronen
medios
##llah
##elé
Karolina
##schen
Ingeborg
##erse
Interactive
neid
stali
Moyen
##ué
990
départements
préfet
##ié
oka
Mittel
Neuen
##celli
Coma
##cchio
Natale
##dre
β
##ief
sao
ferro
Holden
late
goal
usato
Kaiserslautern
division
signs
Karlsruhe
abroad
##keeper
##štas
mare
##ė
##dij
piel
##irne
##fasi
Dachau
##gios
##ánt
Má
##ške
1686
981
Kossuth
##véd
Sieg
Szeged
Miklós
##race
##eum
##rowing
##made
UNICEF
##ktat
##holders
seek
clear
policy
increase
output
Youtube
##zeg
##tius
Tallinnas
##bili
##zs
##äcker
##dern
Hildesheim
Keller
Esch
##zett
luxe
910
För
##zend
##orf
##urado
Vila
Guard
Cáceres
##lá
Moser
Velvet
Bring
Horizon
gone
gold
Horizons
goes
Kingdom
Hearts
Remix
Update
Hess
Hop
TO
Poco
##bán
Courtney
basketball
players
##tish
usa
mens
alpha
##izza
##rdos
##brun
Mange
Austro
679
Oud
Chandra
##zzato
Renaud
McDowell
Railway
##inar
Quintus
Gaius
Mazda
max
##bc
cn
fast
facts
Officer
HQ
Garrett
lk
##lios
431
basal
Hien
##imenti
Perm
basin
##owski
##brio
Kirby
##zika
eds
CG
##Net
##eds
##icher
##tender
Flensburg
##stras
grau
Aux
##nare
##sburg
Dear
Führer
Reims
Selva
WR
##IG
##shing
Connell
##yos
##hood
dramaturg
##tax
directed
translation
definition
scheme
gener
##zott
##élio
Ouro
Fino
Corpus
##break
Legion
Esteve
Percy
fur
Estrada
##anski
Zapata
Zacatecas
Café
frei
##heter
Posten
Chevalier
dans
ordre
Wege
samhället
tiden
jord
##anden
Kensington
members
Riccardo
medals
köyde
Leif
Amérique
##verdi
Public
Tiberius
##bbia
onto
561
##MP
Katarina
fram
##ldt
##ningar
##stod
Gregor
staden
Caspar
Week
Weekend
Heath
Mint
Messenger
Pepper
Rugby
Dorf
##ovich
Sinclair
Players
Jensen
Braun
Gracias
Ett
##hrt
Gould
mixtape
##stag
VS
##serien
Mauer
Shelby
WTA
ITF
Slam
Pavlovic
##ván
Irina
Marii
Tamara
##str
##øm
Fredrikstad
##else
Odense
##ragen
##dab
Hanson
Cover
males
Wimbledon
##tě
##pán
nadal
havis
Rao
Brisbane
##lding
##ász
##lno
##cium
Dolby
Graphics
Olaf
##gt
Tail
Revolution
##nted
this
day
##cka
##diya
Rajasthan
##kle
Cultural
##india
Dillon
##telj
Loop
Oklahoma
##ður
##ót
ð
Ruby
Kalmar
Before
Sorry
Alone
Lucky
Wanna
Loved
Mean
Words
Strip
Oscars
Winners
Engelse
Marija
##vna
Bones
Cowboys
Vorpommern
Odeon
##pés
Vicenza
Astrid
digital
##ånga
##iej
evi
Notes
##thes
robusta
595
##oog
##ector
##md
lies
Ellington
##liff
Maia
Friend
mando
Rage
Rocky
Heard
Diva
Mandarin
Bahia
##frido
kHz
##achment
##phen
dro
030
##worthy
Sophia
filosofo
Hora
Sandro
Socialista
Garibaldi
Gestapo
PCI
##ütt
Constantine
ABS
katholische
Drop
Prima
prima
zona
##pokal
##atea
Transformers
Title
Deadline
##SF
##ME
##RS
##lsey
transform
Cemetery
##mble
agente
##etakse
Images
Chinese
production
##been
Teams
##quel
Moonlight
Cinema
Exclusive
##even
##former
adds
##plosive
Imagine
##form
Premiere
Sounds
θ
ψ
ED
Thornton
McLean
Midlands
SDP
481
dor
handle
1002
esa
Excel
mortal
Marka
384
vol
368
Tartu
raste
##niu
608
718
##edet
##etek
##länge
rast
##²
tir
006
##coming
Rayon
##ffel
Wire
rail
prosa
Humor
profil
veliku
414
413
##LA
##tje
##deti
##vire
##zzare
##gment
Haley
Around
##zaren
##yat
Fortress
Antal
##sze
##ébe
##rmen
##table
##bito
##tito
tao
##rpen
Laboratory
##urre
9000
##edio
testo
##voli
ACT
##itori
mineral
Mito
Frau
##demann
Blant
##veren
Malaysia
kartu
##brice
Farnese
Helene
Planck
##äfer
Sørensen
Nordrhein
Known
##quire
##isija
δ
##witz
Ecke
typen
arcs
Fallen
staa
SR
Cesar
Lily
##vind
Half
CW
##natural
CT
Thérèse
Renée
##wimmer
Prophet
Works
##pac
Fest
Steen
##chant
Seas
Caribbean
Cruise
Nassau
Element
Carnival
Legend
Queensland
Linz
##eler
Taani
Bourg
Shepherd
Tracks
Sverige
Barrett
Pedersen
Associates
Arnhem
Antonius
Brody
##ovne
Margherita
366
923
##maire
363
1411
null
Lilly
Gail
1273
##nesian
Vanuatu
##riba
##guera
Nauru
Thorne
Moor
Insight
Cincinnati
Ferrand
Methodist
##nosi
##schop
Gand
Delft
Zoe
##arden
##GA
##gst
Surabaya
Praia
##eiro
Maior
Cop
Rijk
##mospheric
antenne
sg
##atak
någon
Rubén
Dario
Karma
mental
lot
bout
nuit
Céline
##dam
alter
ego
egon
Zeit
##évi
##lski
bil
763
banjo
##ikus
Listen
##isio
##posti
##cm
hac
##uter
Birch
##byl
Paulus
Dordrecht
##eert
Sichuan
##žas
offen
853
Koninklijke
Esther
pelos
Pasadena
##úin
Magno
Maestro
##cche
##giz
Piper
Stirling
Talent
Albums
Jemen
origen
##rska
##medi
terra
##rolle
##lares
Hurley
Desmond
Saunders
Jobs
##gic
Paradise
limited
Perth
##ckey
Leonor
Heroes
ORF
Klagenfurt
Wiener
Stadt
##chse
Jako
contest
Score
running
revealed
Miranda
Iowa
Trouble
##crit
trouble
Boxer
##endorf
Avec
annis
##plus
Rhin
Lyons
Calabria
Magna
Grecia
Cooke
Habib
Bund
Breda
Hobart
Varese
Riva
Marcia
Paus
##estad
telenovela
Navarre
Mauricio
Hessen
Brabant
Figure
Members
austro
##xis
pang
Kurz
##graphie
Literatur
Zukunft
Kampf
##ität
##frage
##zial
Doll
##fram
##bid
##bide
##lije
##nburg
Zwolle
Held
Neri
##macher
##ischer
##ės
##ų
Lagu
Chef
Kira
Studien
##werk
##pital
##wärts
##PD
Freiheit
##ičių
##tė
##goga
Nowe
Miasto
##nike
Kaunas
mieste
miestas
ø
Alten
Göttingen
Montserrat
##nbar
##klat
953
Niemcy
##ło
nad
świat
##zych
czasów
##goda
Vater
##óra
Prešov
##chau
avut
theoretical
interpretation
learned
phenomenon
updated
Lear
britannica
Psychological
Experiment
Perspectives
safe
##rmed
##cience
##ologe
Psychology
323
Olympische
Spelen
##HD
##reste
socialiste
Socialist
##used
Mouvement
##épublicain
##ulaire
Fédération
##uye
Szczecin
##ferrato
##liz
##cuda
Gino
##franca
##iglia
Marcelo
Raúl
Rioja
Cá
##istencia
Struggle
Í
##fano
##gone
Blas
##nci
Punta
Crist
Minas
832
Sometimes
Fantasy
RPG
Adventure
Alpha
##venta
##verso
##icas
##ép
##inski
Rosario
Horacio
Hermes
##zone
Lucía
##cua
##estes
Fuentes
Martín
##imber
##ibert
Salto
Mayo
U20
FDP
Među
##bolic
Bundesliga
Coronel
##tez
##garri
##nación
##ví
##ressed
interview
##zim
Hotels
Grupp
##like
Carmel
Arrow
##asco
Tenerife
construcción
año
paso
inicia
##ám
denomina
Kamen
io
Juliet
Andhra
Pradesh
##tō
Sweeney
Assemblée
Nationale
##té
##vrier
possibili
##yar
##viste
prose
##dura
Tübingen
révolutionnaire
##CS
Corner
878
##holder
Ursula
427
Halifax
Joint
##vous
##erung
##ecer
extrem
artikel
453
tys
Fly
på
##bergen
##ind
gör
med
april
februari
##leder
##light
##ify
##bod
allt
##bladet
sv
Official
Larsson
november
##rande
oktober
Sing
EMI
Education
##KI
FOR
##RD
##NS
##sted
Bangor
RI
##lich
##ferd
ē
Fragment
##sok
Witold
Sinfonia
Sacra
Thames
Affair
Higgins
##itev
cun
paar
araw
776
##enger
Traffic
airport
listed
ranked
##ār
##ņš
##ļ
##ēka
##GO
##ājas
Rīga
##SP
##tā
Nové
##ır
Eagles
Boot
lange
1761
583
arch
##meter
director
Blanca
Selection
topic
language
1111
Dix
hp
Edge
##jad
696
cc
1016
cm³
termos
spiral
Coach
Blackpool
Jaguar
##ruje
mph
1751
##gion
sino
too
##front
Safari
Metallica
##ório
Willi
Honor
##zera
Schmitt
Aguirre
Syzygium
ruso
##lica
825
Kode
RB
##iation
Solar
Dynamics
forum
offices
##pce
mission
relativ
##RE
antar
##ctica
elektronik
dar
##fera
##inimo
Gods
IUCN
ITIS
##tropical
birds
##WD
behavior
##mper
613
matar
naval
teatr
JK
##dberg
##beta
talet
storm
##burger
Jena
Emilie
##gul
##bben
Kristiania
##huset
1455
1487
##orie
CP
portugais
Terceira
##ês
##icu
##ltura
serra
aire
052
##handel
fly
Eyes
Strangers
##langan
gull
##makers
##nati
##fication
1489
##eningen
##rater
Wizards
##lska
Formel
1651
1546
Pascal
tha
Dominion
Els
elders
guide
dominio
Imperial
ay
Umar
##rimi
nord
chim
Indo
Azur
dun
##droj
##seh
lakin
##lse
hl
##arium
Tribunal
Pocket
Snow
##onor
Mao
Isles
ned
Breton
breton
destruction
##ration
handed
restoration
##bene
gada
yok
Orsini
##mide
motto
Shadows
##cales
864
##ieve
##reat
##amik
##vade
##ulte
##roka
Mehr
##unes
energi
unten
##mire
sexta
zen
##jeta
##stial
##áka
noko
538
##steria
##oca
foi
##reia
Associação
ends
Veneto
Wang
Orden
Padre
##IE
Melanie
depot
homes
Alter
##cet
##ados
##mycetes
aflat
deo
##iente
Κ
##κό
##νι
mile
##wch
Ancient
Companion
still
##nfo
##mirante
DD
Barrow
##rness
##cah
elas
LL
##DP
##uat
017
023
##uju
RSSSF
Duck
##iensis
##ctique
Silence
##cout
Margit
Diplom
före
Selim
##omba
##ivity
network
promotion
##cing
physical
activity
Conceição
Lazio
Internazionale
##eby
tiene
entrenador
Ficha
##cei
##çao
Todo
##cado
##émica
Coimbra
treinador
Jornal
##ícias
falta
respeito
Vitória
ao
minuto
deixa
named
##ît
«
veut
»
##quipe
quitte
##GI
##NC
##Ç
##Ã
##UE
Portuguese
scored
trick
marked
knockout
nine
Desire
##mpas
mix
Parku
##runa
Artemisia
##copa
camp
##dert
jula
1627
788
##llius
##nies
Brenner
seme
##ronica
##bral
Brassicaceae
##sikan
Finlayson
##prise
##ű
Debrecen
##âm
##ǎ
Farmer
##point
row
delta
##AG
Reuter
pr
Briggs
Shang
##sung
##ddon
##gus
Universe
Senate
langen
Reptile
##vado
##illet
Lange
Kuala
Lumpur
##uia
##yant
tipa
cable
##leda
Datos
aperta
aga
south
##wark
Wolverhampton
UD
RAF
Easy
termina
austriaca
##using
Pepsi
Occidental
##taria
Jacoby
##eite
##syen
Cyber
Fuji
Durban
filmas
##habilitation
Einstein
##èvre
Foods
Ê
##coli
##éral
Nabi
Champagne
über
Leben
##dau
Verhalten
verschiedenen
##phora
sung
김
##기
##성
Yon
Sung
Braunschweig
##irea
##wolf
humano
Calcio
vulgaris
statistik
Halen
Divine
##vation
Warrior
district
##veno
square
expensive
Police
Civil
1523
1531
##citus
Learning
ear
##dels
##pinnare
##ioca
Lyman
885
cap
Plata
Lodge
##jl
##igt
skrev
själv
tillbaka
##gelse
##nero
Perl
##aron
under
##sök
##tning
##biskop
1160
ibn
Banu
Malik
1333
##tilia
Gate
##mates
##cina
AMC
Walking
##ative
##MI
Program
MIT
Bollywood
Kapoor
Nadir
##dius
Borussia
Dortmund
Tactical
vital
competition
##player
2300
Centro
##nod
##oia
##erno
insect
1467
##atz
##otten
1327
##jeva
Horton
Louisiana
origin
rs
##pidae
sona
##fum
Krasnodar
##fte
##esto
2600
instal
Chronicle
Lancashire
Triumph
Panorama
protestante
Polydor
Spring
Personality
Sugar
##tique
Plains
##lug
##tub
Hancock
##spect
Downs
montes
kuna
ʿ
##īz
##ʿ
Shri
##kson
##bato
##akat
Antalya
##uza
##zion
Lara
##rua
Sheila
##xon
##wska
Wight
##òs
##vka
##znik
##bed
Pod
##hand
Account
Laden
##sonne
Abbott
Ș
##pă
##riei
##nsko
pareja
territori
Darmstadt
Schönberg
##cente
##pheus
bland
ua
Rote
##dox
Diplomat
Ponce
1462
##laine
Calvin
Lääne
##nduse
OECD
Jahn
Planets
##dida
##zka
##szt
##ület
Metropolis
##stellen
Poaceae
sue
##onym
Marquis
luce
##mten
moth
hybrid
dragon
##eye
##cast
##nensis
##cri
huis
blok
militari
Alternative
Liberal
Panzer
##kampf
##wagen
##amt
Entwicklung
##werke
Panther
elle
limit
Picard
bid
lead
revival
negotiations
Boss
Marianne
walking
garage
platform
##nidae
isole
Vengeance
Simons
Aisne
D2
Tyne
D1
Barros
Northumberland
Isole
forest
fet
saw
##tve
##cte
##long
##unct
Agriculture
##ences
lesser
##ohr
##rde
Nem
episodi
Meat
##idit
orbita
type
##wley
Gibbs
Appeal
Soviet
##siden
feminist
##cta
hele
spons
711
uma
Zij
Uma
871
Guzmán
1468
1474
1501
Eliot
Castiella
adulte
Scottish
Popular
Ashley
Denny
Prior
Reservoir
Ride
Parc
Nigel
cappella
Common
roka
##ttage
##patrick
north
##pted
##ockey
Watts
Journey
Williamson
##itiva
Called
Bloody
Distance
Dates
pad
Symphonie
formal
##tische
Studie
##nique
##theater
Weser
##lied
Lieder
##tischen
Nacht
Gedichte
Morgen
##ichte
##eveld
Erde
Bilder
##bogen
##buch
Kassel
Corps
Guest
Hrsg
##chaft
Briefe
##yce
Europas
Harz
##reise
##klik
hata
##friedhof
Fünf
630
713
##flies
354
Raad
##tene
1230
1225
Grafschaft
ibi
025
Universität
hess
KPD
Landkreis
Kirche
1238
##ük
Owens
Bahnhof
##lsen
Bundesstraße
##tert
##traße
##platz
Cox
##eding
##rchen
##ɛ
Neuilly
Hauts
Marne
écrit
petit
bois
prison
##ndre
langue
chez
Nell
Archer
##isson
Antigua
##buda
Belize
Guyana
Guadeloupe
Honduras
Nicaragua
865
då
Über
Beiträge
##stellung
dieser
##wasser
##stoffe
1757
##dka
##amed
chat
Wiesbaden
Ako
A7
##kirche
patrona
naturali
1581
Wittenberg
1636
pintar
gut
##tatus
##vater
378
Asilidae
flies
##folia
Plus
Hybrid
tron
Clubs
##ggo
1584
ecc
scho
Bois
malaria
Claudia
motiv
R2
Xu
china
combat
fortress
youtube
meet
Soldier
seen
##singen
VfB
Bayer
Leverkusen
Estadística
blancos
##nía
Puente
Nuevo
##ería
kampe
lingua
Saxe
##wegen
Statue
student
wire
smart
highway
batteries
there
contacts
between
base
Commercial
website
contact
##ously
Multiple
Wireless
Consortium
Angle
Shield
##icio
Dunkerque
Dow
Distinguished
Flying
##istant
business
GSM
##sad
Alvin
Brahms
saxophone
Rosenberg
##nomen
fai
graph
studies
sciences
fenomeno
Sonne
Existen
Therapy
approach
##vesti
##gating
different
understanding
reality
methods
##graphic
##ploring
among
##uate
describing
conception
users
##ebb
##cting
surface
towards
critique
Sage
Thema
relevant
intention
##tego
rele
##cl
DA
C4
alde
Hélène
puta
##mlja
##ofa
##esino
##jado
##phila
482
##nics
karate
dicho
race
##reme
##yai
Mound
Joy
##artu
slogan
##sc
##bly
lor
feel
sometimes
##bord
taal
bright
default
windows
glass
bay
inside
##otion
niti
display
battery
management
explored
##tese
camera
floating
##zm
598
confirmed
rich
rather
##plitude
Audio
dB
NFC
802
nay
HTC
software
improve
comparison
Cuban
Ware
bg
share
424
##TE
plus
Smart
mobile
gong
annual
Jie
GHz
instead
shek
##place
##SD
Cody
Isabel
##daki
Them
Δ
Beats
Left
Jasper
Bf
Persson
##auer
jr
##EB
Mannheim
Coburg
##mna
Hamlet
Hauptmann
##locke
##zle
##iteit
##pfer
Neues
Mortimer
Schiller
Berliner
##zler
Freie
Mitte
Molière
##preis
##konnas
quick
Benin
Travis
Brenda
Wyatt
Deel
Stephanie
IT
teknik
Pinus
##etre
Lourdes
##fabrik
Flow
alakult
Elle
Illustrated
##erij
Estate
Property
Rasmus
670
Lise
Derrick
amo
##teran
##haja
##phus
corona
##tojas
846
Deus
872
libreto
Euphorbia
##igua
##gera
##irn
wol
Bedford
##alse
##toren
Hamid
tā
oca
##diti
##nsky
Guns
Roses
##unge
toga
xan
##ader
##kán
##šal
mid
##ships
##eriti
##nium
genus
hubo
Polly
itt
because
Krista
Emirates
##ods
##nés
RR
nana
Carex
soccerway
Punjab
##aniu
##rdas
##öcker
Objekt
Günter
Intro
##duzione
brach
##uito
##tén
Liste
##erd
##ziak
Alberta
Madame
Herz
##sno
##arre
Vivis
##ldre
##rafo
Før
Sogn
Fjordane
tem
Atom
##üla
##zici
Gut
##WS
965
975
Sabbath
Osbourne
renta
Ewing
Fork
Amour
Heights
Kore
##satt
Straight
##isela
##ziu
VL
##hanan
##ovina
1265
Turkmenistan
hade
vlinder
##soort
704
Carlson
vare
##uce
reside
multimedia
Dresdner
Oberliga
Bianco
##crito
memoria
Flächen
Surface
Erika
Bella
Comets
Cable
mean
Sena
739
Corporate
aime
@
##UD
vant
##wca
##lean
##nth
Leona
##weise
dynamic
sector
##petitor
1384
##wia
##ś
##kow
Agnieszka
##ań
Město
##ę
anh
fragment
Korn
AZ
##WF
Gers
##hwin
##taire
##iusz
Ike
##ekom
db
675
Aosta
##prano
Chase
Patty
Jenkins
Terminator
##ruga
##jska
Beaver
Burgess
instrumental
##oyer
##lske
CX
742
757
BMC
Pallas
DIN
688
rpm
n°
NS
624
847
Jakarta
campus
humain
Sherlock
Styles
##nova
Suche
##cept
##eption
##ebre
##arni
brun
##lace
GND
Hubble
gris
##ceps
Willow
Saab
Type
ろ
##く
##い
##ち
##し
##き
##せ
##ん
##ゃ
戦
車
septentrional
coral
Herschel
##punan
##lare
##udio
Jubilee
Brighton
mic
Later
##tend
Reign
Stay
Diaries
Brick
Buckley
Randy
Springsteen
Arcade
Coldplay
Valerio
Moderne
Volker
##hiro
Yamaha
midi
Elk
Aug
Wicked
##quity
661
●
448
SOS
##oral
##erang
Townshend
Cheshire
Witt
361
USAF
##roads
##nette
289
Perkins
##fit
##fiti
##give
Spirit
Product
Communication
WWF
341
Collège
##leur
Él
Thin
wala
##patto
##max
rico
wel
Mauritius
Réunion
Indonesian
036
Workers
##ogie
Theorie
Critical
Reflections
13th
college
##erde
1970s
Annotated
Eastern
memories
bad
Música
dab
##initive
Immigration
Features
amar
Broncos
bowl
half
stadium
februar
joining
##UT
Astronom
Dorset
##ows
Annals
Physics
Scientist
##uchy
algebra
##žen
Erzurum
sullo
850
Ruggiero
Ricci
Esprit
##rdes
Concert
György
##lez
Miles
##nitz
Rollins
##plass
Kral
##lara
##urant
Graduate
Doctor
Excellence
Molecular
Speedway
NASCAR
##heart
Dolls
##blin
Grimm
Musée
##ifs
Vid
unii
##centrum
elegans
##šni
##dnik
##green
##tler
##kter
##pka
##pkan
Updated
FIDE
##dir
Claudius
erg
Chess
Composition
Honorary
##nock
links
Stories
Finals
##bani
##ienda
Castel
##rey
Johnston
##istra
##quín
Villanueva
##zet
##iende
large
editions
copy
Lillehammer
##shof
##kers
Günther
langer
912
Inst
##ława
ging
iken
##ienia
##kler
diabetes
plak
##sement
655
899
523
1396
Mircea
061
Wayback
##ḫ
Organic
##thesis
##BC
##hauer
VH1
Rossa
Astronomy
Institution
Sapporo
##entro
Mercy
##stadt
Mustang
Chevrolet
Falcon
##bler
Comet
V8
truly
distinctive
really
short
deck
nearly
image
Opening
Odin
fratelli
##liad
##mse
##gang
##reiche
##cible
Midland
Niagara
Auditorium
070
Evidence
1574
Murat
Mehmed
Tomasz
1488
boxer
WBC
robe
entity
spor
fac
##cend
deu
Ezra
Hieronymus
Author
##ized
##klas
1562
economic
india
international
weapon
657
##arsi
##culum
hung
##zut
Ethan
Alumni
Phi
Maxime
Stockton
##oxy
Xinjiang
Hulu
##jian
##cut
##stent
Signal
signal
arms
fever
needs
cool
doi
1093
Tale
##vā
##lide
Jānis
Sabine
Guangdong
Jenis
##ių
Lietuvos
##ÿ
##jud
##čiai
nic
##gual
##utier
##dési
##gning
medieval
code
translated
edited
introduction
##ötter
Societat
gent
majeur
Leta
Creative
Lennox
Ensemble
Irvine
Chamber
Samantha
##sdale
##vanie
mediana
##gust
LG
PGA
Dual
line
package
CL
##unum
Holding
Worldwide
##uali
Avatar
##plicit
Seth
host
858
Jardin
Bucks
trade
Pace
##passe
taken
Amerika
linie
##fahrt
967
##deutsche
ng
ŋ
##ilina
Assim
Ü
đ
Ð
Ű
Ő
Õ
AE
Œ
Þ
grote
opening
Wolfe
Grammar
Durham
Britain
verre
##tete
##ková
dot
##zky
Eminem
Kendrick
##ghter
Survival
Liz
##eito
##cota
##etos
tahta
616
##urua
Cornell
##haca
Yogyakarta
##effer
Ordre
Officier
Futures
##bosch
kao
##ně
Erbe
Kamil
Prag
##mose
Assault
NRW
##cali
##ân
Ş
##ări
Radu
##vode
Vasile
##óc
##nale
Vive
##MM
##ground
##ucus
Bray
McGill
Eleven
Morton
Purcell
String
Quartet
Magnetic
648
Após
##áma
##ék
Lá
##ró
##orí
##ío
##íos
770
##ím
##chos
##ýn
##üzel
##aper
orientalis
Katz
554
Georgetown
reach
deal
002
former
pace
retire
##ostas
record
quarter
finish
Gaia
##áček
tona
Rising
##jie
351
##vsky
##vský
Superliga
##doğan
##ktas
Flesh
##sumed
slopes
##style
Voss
Butch
sorta
##puso
Doom
##ňa
Resort
##rmente
Clin
Carta
Coruña
quiere
llevar
##ći
hasta
edge
victory
jugar
##dido
Ao
258
Chanel
Zhang
wei
filha
Conde
##erated
934
##vlja
844
333
1155
Р
##ад
##о
##щ
##ого
1517
028
##nome
Chance
Cotton
Thank
955
Siege
##wert
##chap
rode
##visor
Canon
homme
femme
Ames
##roen
686
Surrey
traded
##rì
Colts
Auge
Plzeň
Nagano
Danske
Formation
##cure
##messe
##büttel
Licht
##brück
##øve
IL
##lyos
##gle
нам
##ест
##ничество
539
402
##ős
##ő
##őt
Pob
Vida
Fate
##reo
nef
##viers
Kraj
##czas
##nów
Góra
baile
818
919
032
568
##okus
##anica
Harbour
Patrol
Lounge
##body
##round
Sentinel
##tando
Johansen
##bundet
Avon
Hewitt
Athena
Serbien
hr
clan
Else
##DE
##tenen
Larsen
style
##åg
##ecken
##idea
Logic
Chicken
McKay
Piece
Resistance
468
Michelle
##omyia
945
Thierry
##ienti
##vient
tala
moment
hela
mear
##hã
svi
1295
##jukan
##cade
##ató
Fonte
##ñas
##cun
##cioni
Factory
partit
##sches
##orchester
##arity
farsi
662
##zik
direktor
Sb
##jå
Subway
Burger
Leiden
##égi
##shaus
##lân
Vaud
830
kelas
ose
Howell
##sville
##jle
dari
جمهوری
د
##م
##کر
##اتی
افغانستان
ye
##rā
##štu
دا
##ف
##غان
##ستان
##ات
ی
##ت
##ġ
##jib
tad
##estan
Terme
Durand
Pakistan
Ismail
Rashid
Nápoles
##lingen
Clarkson
Danilo
mål
##RN
Poul
Dialogue
Colón
Teatre
Puccini
taba
##wał
913
629
Mammal
Bare
##rá
1556
Presidente
Bains
Müll
##eld
Governor
765
##americana
Jaya
##vska
##īt
##miast
Elvira
##ì
##èmes
Figaro
Lucie
Conservatoire
musique
##ellan
Desa
Bourgoin
deuxième
prix
Denise
Trois
workshop
aux
sons
##VV
Chloe
Natalia
Shot
Morse
##dran
Loeb
Daisy
Mackenzie
##brook
unit
##mondo
VF
##tici
##fels
##nje
##work
##diko
Ratings
olim
##lings
Rider
##jeda
##dov
692
##grat
Skopje
jet
##ricu
Brazil
1525
Discov
##ered
##yed
##pinus
##cius
##midae
##traf
##gana
Walden
mudo
##ønn
##letto
Hoffmann
musikk
##Ø
##NG
Louisa
Norwegian
Recorded
##gaard
##cami
##tello
##dski
γ
dua
##where
ideas
094
##loty
##quer
Assad
##uwe
Sébastien
##ça
Editions
Job
Concerto
Comté
##xima
##cendent
Lombardo
Pampa
##gae
Proceedings
eller
Fram
##53
Sloan
##trus
Presents
minor
##iliana
Penguin
014
neutral
Systematics
Systematic
##ology
Issue
##odidae
Kammer
895
Blok
##dres
alia
Ariel
basa
Aria
disque
Nora
##šti
972
Sophie
##ctat
##aio
##ficu
Beaufort
Province
Africa
animals
Shepard
HarperCollins
Ivy
Read
Sommer
496
021
nomen
Genus
THE
AND
893
Collected
Seasons
Private
Essays
##yder
Udo
854
ese
В
##их
958
522
##lba
##AM
##åll
skrifter
källa
forskning
Grote
Portal
##dena
Sima
##ingan
857
##tiska
Brunswick
Various
Playa
Birthday
Different
##KP
sello
Schumann
##èr
##èri
Karnataka
##ës
##tab
Smithsonian
Villiers
Zur
##ggen
asub
Soome
##äeva
nda
Castilla
##cija
##cano
##tituido
como
ruled
continues
name
Spania
replace
gibt
Lauf
Oficial
contrato
atlas
breeding
##lili
pas
sekund
visual
zo
##piel
Jordi
##quette
##cem
##linge
Sándor
##zala
##på
##stiska
central
dag
kb
078
blå
##åt
två
år
där
må
silver
Mayr
Editors
Insects
ada
##heur
Genetic
##tric
specia
Botany
Phylogeny
related
based
analysis
##DNA
sequences
©
##anger
##opsis
reaching
evolutionary
consequences
Danielle
1st
div
Process
Drosophila
experimental
created
Nichols
Exeter
Supporting
Material
such
attempts
described
##ahun
##duce
Welch
Strange
professor
biology
##ogy
437
mexicana
##chea
Does
predator
contribute
cave
adapted
populations
Biology
Letters
spp
##ptive
floor
##brik
fossil
genome
##OX
##ises
##áp
##agos
organisme
gaf
första
andra
Södra
755
748
733
##arum
municipal
Östra
674
##åra
712
kommunen
451
##yda
##nå
467
622
873
039
##seda
##manto
037
601
779
##nner
##lers
869
943
Generation
Route
musica
##dko
rand
jp
route
966
##åd
Vox
012
401
585
##vallen
387
poc
##bygd
##mda
939
031
##ålla
659
##idd
Kommunikation
803
518
740
463
537
383
548
774
941
439
724
379
Slot
##dden
##gd
efter
region
Selma
Ämter
647
mellan
617
004
046
råd
Oru
684
497
##ått
599
Vun
##xer
##unden
687
744
Mondo
940
1340
⅔
##wear
782
Salle
Rings
fisk
heart
1499
##blatt
##ävlingen
815
##änder
783
##udd
över
blad
875
889
973
##ädie
695
556
##mmes
067
##klos
Tome
Andra
##vra
336
Preston
954
##rken
##rådet
917
##jual
svart
796
Kommunen
##partiet
regi
apud
Omer
Stamford
Butterfly
Kylie
Minogue
Such
Lua
Károly
##ács
idi
##gonal
##ptation
##éad
##ettes
Motown
FishBase
##chus
Gijón
Extremadura
Albacete
Ferrol
##cias
##éndez
baja
##phyllum
##phylla
Tank
##riske
Navigation
##dria
WCW
Heavyweight
Wrestling
WWE
Jericho
826
Iceland
Ḥ
Twitter
##sts
##ján
buen
##ál
##uder
section
SAR
Rogaland
968
760
kolei
agama
##aza
iz
courses
mod
resource
##ssig
radar
vector
##sede
##taje
itu
626
ESA
##stilt
##tà
Barton
Sundance
MF
##abe
##æren
##øde
1767
##ermann
##ebes
poste
Kantoni
Sterne
##iving
##rgau
Bezirk
Buchanan
##baum
Hilton
Weinberg
##recht
Battaglia
Third
Goose
Chor
Arms
Unito
Rekord
Gonna
Lonely
Essex
Alcalá
##šna
Presiden
Repubblica
Lampung
##inio
diel
##yja
##īd
Yemen
Dutch
Quentin
chante
Josefa
##neses
##hnen
##mphe
##cnic
894
##kisan
zaidi
Isère
##pennis
Cordillera
##wain
##dse
2548
Bogdan
##laten
dui
Seis
##gje
##gde
Marte
##NH
##bacher
##rrer
##rmat
ums
Matter
tornado
Inga
Tornado
mesos
Pressure
EF
##erad
##jøen
Hordaland
##lidae
små
Catalogus
##rend
##nara
##qué
chilena
##ndri
statistics
##WA
Sacred
##havet
##nkas
##pisu
Italo
##ált
##cista
Grosso
Goiás
Espírito
Amazonas
397
portal
competitions
GC
##sende
1497
Language
Chocolate
jugu
##renada
Pará
Maranhão
Veracruz
Reichenbach
Hispan
##chmann
tailed
Piauí
Gap
Graves
Friedman
Bermuda
Baza
Waters
##zán
##ivali
Edit
droit
Finlande
##loze
mest
senator
421
422
Vendée
##ées
Cavendish
##rvé
Janez
##ič
Horne
##rgen
Lodi
##giano
##öhr
##ogische
##liche
##schutz
##warte
##erita
Universidade
Faculdade
Letras
##logo
Sektion
Section
##person
##action
Weiss
##demie
Wally
Corey
Cary
##ghton
Pokémon
million
Units
Sparrow
##graphs
insula
Zoological
Montfort
##creen
UB
##daj
##biti
Astrophysics
ρ
Astrophysical
##etat
Fifth
Distant
Scientific
Giuliano
719
PT
949
Medicina
direkt
natale
##ococcus
##kja
Voyager
IAU
Desde
##metry
Icarus
Duncan
stub
holder
Palmeiras
pape
rute
1518
1548
teolog
Content
928
1659
1712
Rhode
##olition
##verde
Oak
Nevers
Folge
##vab
Cisco
Frances
##igao
##če
##ů
sorti
Democratic
Moody
Streets
Thomson
upon
FAQ
tant
##diger
participation
doctors
psi
causes
decline
urban
population
##pire
Yoshida
##ssimi
Sebastián
Soria
##ʻ
Kew
Yoon
Ghar
Haji
Kawas
##rix
Wikipedia
crowd
##ports
##tats
Manor
correr
primeros
libres
Hamar
Devon
Fairy
Hold
##rtar
Ile
##bero
M3
Aude
##fix
##ourg
Prinz
Eugenia
Need
##rouse
Basin
Vierge
##bamba
##idable
Jamaica
Lorient
Rochelle
Round
Loch
##ruch
Catarina
Gerais
Mystic
avui
scores
achievements
Michèle
Quattro
##pping
Statistical
Poland
Gmelin
langs
##raad
ruling
party
votes
strict
Pune
Massimo
vald
##xista
Beatrix
Bulletin
snow
Brewster
Cristóbal
Goodwin
##vido
ice
winter
Murdoch
jim
tool
LDL
stan
##ester
aksi
flash
##etar
mise
karo
Ambassador
Cadillac
Wildlife
##fuge
##fas
##ciata
Behavior
Ecology
Active
##avour
KV
##eridae
Nomina
carri
industrial
NF
##plot
##žaj
Tiffany
Breakfast
Chez
Calle
Münchner
Walton
##dring
Expo
statement
since
missed
##MC
parte
Megan
##open
fed
Drake
draft
Bills
##phins
##due
Goes
legendary
Browns
pilsēta
##ētu
teritorija
pagasts
Packers
vince
Jacksonville
Patriots
Markt
call
Bár
##bung
ˈ
##ŋ
##orial
##bungan
eru
##ption
started
##lats
##TS
Klan
russa
##vares
##viare
departemente
Stil
##semble
Dickinson
Alain
queen
turned
activist
790
Chiefs
Idaho
##tang
Everest
natural
ambient
##cky
videos
Peterson
Palestine
Saints
suffered
alleged
assault
##zni
##skih
Lazarus
##zero
Ibsen
zena
##gabe
1054
Ching
Konflikt
##igh
dort
Duisburg
disc
##aian
Greater
Anglia
Stratford
Mozilla
BSD
Visions
SMA
##hner
saint
Focus
Adult
##some
##otic
bottom
##derd
##aniya
##week
Mühle
##iegen
Prinzessin
Schuster
Weiß
come
grande
Quest
Worlds
##atile
Beverly
Across
Confederate
Cavalry
Manager
##uler
##iated
Seinen
##ref
panel
##īm
##ās
##īn
##name
642
libro
##ûs
##sione
##laceae
Auburn
Bengal
Raiders
##tvu
010
mam
holy
##afft
Laws
Dov
sami
##zda
Yorker
##ppes
##inosa
Thom
##lín
ş
##ş
##doni
Anastasia
##iono
Hradec
Anthem
Paola
##lagos
Watt
1060
Domínguez
Pontevedra
##élie
Burnett
Château
##seller
##ntial
Twenty
Abruzzo
Piccolo
##perator
Conca
Nazionale
1573
##raca
Prat
##sica
##nic
Federer
Món
ley
Wilkinson
##icata
##hylla
include
only
##clu
IUPAC
Reviews
##hofen
##stoff
##UB
Chaos
Noise
##pace
favorite
drink
vague
Source
femmes
##nang
##eș
##steries
Nikola
1663
Suci
##colo
##lef
##monte
##inato
705
song
Guerrero
##urion
fatal
bridge
##irect
capture
intersection
nature
takes
place
grave
Casas
Monterey
bons
−1
Puglia
Galles
Franciszek
Fuente
Né
Roubaix
Given
##Leod
Kathleen
##servation
Congress
Amazing
##pten
##lvestre
##naldo
948
Kloster
Králové
U18
U19
Vanderbilt
1377
898
1263
Cristiano
Zahl
Hakim
Cabral
Câmara
##cida
##quita
Arco
##canti
yol
Ribeirão
Preto
enter
##barra
Monteiro
##område
Nouvelle
légales
Lévy
Sous
Lafayette
Phelps
##quio
Rerum
##staden
Trøndelag
##twa
pinyin
##áng
##àn
yu
##æk
Pond
##water
Lindl
Artillery
845
iba
##glas
908
1074
##rən
##ças
voce
Donatello
deri
Algebra
Wadi
Tourism
Rudy
Peck
biggest
Rover
plc
Aerospace
Holdings
Daimler
executive
coupe
compact
Discovery
engineering
##raq
Nakamura
Royals
Label
Hirsch
Twain
Landau
##pland
##gement
##vning
AVN
motivo
Taxi
Borgo
##lândia
##mium
##syon
##phorus
##organic
Baptista
VC
##friend
##rchy
Neto
##lci
Lagoa
Lázaro
##ô
Oral
##otica
bd
Sparks
cili
Arbor
005
Spurs
Maroc
##çat
##jde
##ögel
##ramento
Nossa
Senhora
Icon
##aí
##aros
##êd
ISS
Vehicle
math
force
##caria
##iting
Jardim
Valverde
Mário
Recife
Coelho
##ên
Comes
841
##cii
##onda
pound
##alne
lease
##dock
##boat
mab
masa
dur
sees
##zat
##buje
RM
niini
##baki
Unite
##cism
##izo
Chihuahua
Coahuila
##lipas
montana
##ional
##owe
Pardo
Ranger
##nque
##stria
nt
isa
Bacon
Style
##hasa
Jong
Merkel
Leandro
667
##rude
Rutherford
Sainte
Currie
##2013
673
Schulz
##posito
Español
Base
##raba
##gues
##wards
piccolo
##♭
979
LC
sure
##nnt
Fortune
Tunisie
Étoile
Zde
1339
1366
Parke
sans
seri
##SE
episode
##zuli
Doppel
##gänge
##ngur
Outside
##emente
lokal
##uele
Editor
##dans
District
##ncies
##unce
lion
aktivite
person
ff
Sheikh
##aden
Nazareth
Teaching
Northwestern
Rutgers
Experience
##quences
Humanities
PBS
##nière
Parsons
Toulon
Vienne
Moulin
Méditerranée
##loire
Atelier
##dolo
Liguria
Gironde
Grass
Kiba
gela
aria
santo
##zdo
##ijs
laws
##quo
pond
VG
soldat
nebo
##ulent
byli
stari
ing
Maarten
##éna
tada
##lenie
##ïda
Carrier
frem
bare
går
skulle
gå
MP3
##växter
namn
Seat
Lulu
Louisville
574
mater
##sure
##rets
Yvelines
mezzo
features
musician
vocalist
interviews
counter
Article
cherche
origine
baroque
##ESS
Sede
##alem
recueil
février
##lars
Massacre
cane
latitude
longitud
758
width
height
align
##èges
654
église
fortuna
##dades
1559
Libro
Valdés
1555
##oche
##logen
##yah
1730
Huerta
Joey
##uben
Buzz
paint
Divisione
Trophée
Machado
Escobar
Quinta
##laska
Lublin
##łów
##ząd
##ystyczny
1481
##ały
##wił
1622
Ludwik
1628
Krzysztof
Kraków
1655
Kazimierz
##gum
opere
Carla
Cope
##stí
Aquino
##jica
##oning
Direction
Combined
amis
##linger
797
Nó
Compostela
##zos
##ói
Belém
Pagal
Slater
Navarro
Palencia
daughters
##abat
Rahman
kabul
867
##tokia
##nire
Girault
##biology
641
DOI
1001
PMID
##iou
##ension
1038
MJ
been
learn
receptors
curve
critical
issues
elu
receptor
function
memory
1631
Creta
Casanova
Alcalde
Lugo
authors
##making
Parmi
Observatoire
artes
Gaon
bí
##ɣ
Ewa
Wolfram
Bock
##ices
Others
Jawa
Relations
##quier
origins
Slavic
nations
Ukraine
1389
Jesu
ś
Ghetto
##że
Polonia
Hooker
Hodgson
##meralda
Conan
##nç
Abbaye
Honolulu
##kums
729
onde
Marguerite
Preis
Europäischen
Kirchen
Seal
Scouts
garde
Domain
musicali
Cercle
Symphony
Barney
GL
Mercado
Boulder
Doe
Mystery
solve
Spears
##vn
##ölte
bilden
Künste
Anschluss
##schule
##ession
Große
Österreichische
##spreis
Helden
##denkmal
##ldig
##chreiben
entdeckt
Ergebnis
Untersuchungen
##ministerium
##verte
##gung
Fidel
##yman
Cummings
##éry
Barack
color
##ndorf
##system
references
Reggie
Bertha
Oost
##voor
Dva
Fairfield
Giro
Baie
Vecchio
##mesa
Drie
Anderlecht
Ajax
##žek
##coma
Hear
##peche
seno
Diamonds
Look
commandement
Henriette
##rette
él
Cafe
##cona
1539
Cartier
##ags
Constitution
##ehr
yon
기
##용
奇
誠
庸
##üne
##şi
Hamburger
Celtic
##duit
beam
riding
Basic
##ttes
Myers
Federal
Prison
##duc
837
FDA
Dominik
Links
Spur
Summit
##rière
startu
##start
##nture
Neon
mira
Sulawesi
##fassung
##sgericht
Senat
Bundestag
##rly
Flag
Marilyn
your
katolik
##mée
##jst
3166
Rory
Calhoun
Married
##siona
##ház
Valentino
XX
veka
Faye
samt
Dolly
Szabó
##ků
##édia
dé
##pôt
placement
strikes
buy
stake
billion
publications
financial
Destiny
Madonna
##reut
1372
1387
##clin
Codex
Foix
Garfield
Gambia
Merlin
Gießen
ung
öppet
צ
##דק
Willie
smooth
Beer
1464
1470
Maxwell
##szág
Banská
Bystrica
##ined
colleges
##rania
##bá
##ři
##ína
##čić
##ář
##chenko
##laden
4x100
Juba
##banks
Samson
Premi
Livingston
Regiment
##etting
Havre
Église
Tommaso
Champion
Marge
##kland
taxa
without
representation
1567
1543
seat
exhibits
document
libraries
organization
protests
Jury
rights
community
komon
Köyde
##PG
SAO
##zou
##phere
Bullet
Sino
Anime
##plex
Tomo
MX
Chiba
crossing
ユ
メ
セ
カ
##イ
Raider
Gianni
arte
Gibb
##patra
Larson
Staffordshire
Disaster
##quiry
laboratory
Hanoi
##serte
761
costa
##rical
Wave
K2
Smiths
Dende
Segun
Ayala
Princesa
##anic
Juraj
##lní
##ocht
}
##dora
Norges
tekstu
##reck
Genel
##zah
##lash
Sanchez
Judge
presents
Ibiza
Dash
Superstar
Gareth
Knows
DVB
##BS
festival
Courage
Dort
##citation
albums
##ãs
##istes
pink
Extended
profit
##ismen
Huang
Randolph
##eaux
##dios
Webster
katalog
Arie
Poison
Foreign
Nero
Maxi
##dic
francesi
Mayotte
directo
##f6
1194
##vuti
##stica
sites
649
Annual
Olson
Bắc
##ạn
Rifle
Yesterday
Philosophical
During
##borne
##ded
##luence
society
philosopher
Yeni
##krasi
Partisi
##rgo
Kopf
##icato
Cabo
##paar
##fic
roster
Parks
Secrets
Finally
Glacier
Malay
##gka
##ní
largest
cities
towns
Gazetteer
##ductor
##šas
memorial
##wave
##ða
Talbot
##lz
PSP
chart
793
##stavu
##valier
566
GNU
License
GPL
philosophy
opens
alphabet
##scal
Fuchs
Usa
##thus
1426
Marley
##yano
Hollow
Nobody
Hayden
Memories
Chapter
##logue
Passage
##chid
Iwan
Takashi
χ
blade
Name
Disk
##iata
Cité
##arrow
##petto
##lux
##xion
Darkness
##sterio
Inoue
Quinto
Fujiwara
Even
plata
Zombie
Warfare
Jacobs
##xar
Cancer
Railways
##kopf
##elar
白
空
青
冒
険
nin
couldn
generations
monitor
drift
Endless
screen
exclusive
special
##TION
plays
723
check
suffering
eyes
##orus
##vica
Wessex
Wizard
##ious
Phoebe
Emperor
##fast
995
Jenna
##anya
keren
Hokkaido
1118
##erate
Ramos
Campania
Elephant
africana
##rsus
primi
epic
orchestra
##eathe
##takan
974
Scots
CAF
##BOL
##americano
Sociology
##iological
Bottom
thought
2nd
063
##ibile
Models
models
Kinder
##wm
##rü
Rhapsody
those
shall
judge
##ūnas
##ytas
hulp
932
coi
##uari
##iration
Flowers
seeing
stars
buried
Holly
Terrace
##isjon
oil
Dundee
Louie
Tournament
##gree
##zama
雷
武
龍
##éi
レ
・
ウ
##ー
ロ
##ン
kung
Tanaka
##arang
##enario
凌
曉
雨
シ
##ャ
##オ
##ウ
Armor
Wesley
Rochefort
Miquel
ア
##リ
##サ
ボ
##ス
##コ
##ノ
##ビ
##ッチ
ninja
Liang
##hler
Destruction
##perate
Afghanistan
##spring
Havet
##valieri
tena
##turas
Everton
1050
fokus
Yukon
##ntino
series
rescued
wilde
##ulse
##nard
Jura
Wilderness
Seele
Geschichte
englischen
Martens
##eget
sede
intel
##elja
Hulk
##hese
sette
Younger
S2
##pped
##wag
Shoes
1630
Hindu
Foto
range
send
aval
fourth
Lucy
sapiens
Early
##bori
Ethiopia
Muhammed
##bna
##vão
Gama
Vasco
oro
Zaman
Addis
dok
Ethiopian
##idad
anu
Opposition
##tives
victoire
##crat
Nederlandse
##LM
Vuelta
Andalucía
##reau
##kje
##gged
Skinner
Virus
##rter
Coupe
Regent
Shields
Coal
##isited
Việt
Minh
DFB
Teatr
Spieler
Gotham
##marka
##posa
##iane
Conseil
Israël
mult
##ländsk
bond
Bremer
iris
economy
debt
##erald
service
full
Trends
##tream
##eluje
Normandie
##ldu
Nello
Gallia
partai
Hercules
子
連
れ
狼
Samurai
Itt
Juliana
##ligt
##ustre
Ruta
intera
Objects
Simple
thing
##rnes
talla
plek
Harmony
thesis
Monkey
Runner
Among
Digimon
Walls
gates
nucli
938
045
##ssion
931
##bson
Parish
council
picture
Beyoncé
Knowles
Since
Pitchfork
Total
Effects
Countdown
AIM
Peel
Havilland
polje
Baird
reforma
Landmark
Motte
Siam
Dumont
Capitaine
##ére
##jn
Cassini
lemn
##ôn
arrondissement
Fermi
généraux
Colbert
##tard
##cana
casting
##Pherson
Tyson
1355
hos
eKr
1475
##eze
##akte
Quartier
latin
Concorde
kilometre
Italie
##érique
##smann
Hoover
SMS
dt
Grandes
##més
playa
plain
viejo
1130
Medio
##amerika
ара
##ион
Afon
drog
appearances
agreed
makes
##iese
july
##ours
united
2561
hearing
701
690
fotos
finde
##NK
Ernie
Yesus
organ
Adventures
Literary
biography
1465
1657
CJ
churches
##batan
Representatives
2554
lifestyle
Hospital
##dati
##eben
Breslau
Kemal
Atatürk
##zmi
عبد
##حم
##يد
ث
##ا
ن
##ی
fets
Mehmet
Ottoman
Perennial
varje
Jeune
Turquie
Someone
adel
someone
decade
copies
certified
##rms
##dele
politics
choice
Protection
Clash
##ortion
Policy
##О
##фи
##циальный
сайт
Русской
П
##раво
##слав
##но
й
Церкви
acu
drum
##dagen
transit
mayo
Gupta
##lán
Reason
##lude
intensiv
##vested
famili
dome
##istic
Bartlett
Overseas
##ësi
Martial
Crime
Dytiscidae
Coleoptera
grund
##laga
Eun
Trend
Junction
Charlene
##stock
##ayo
Reforma
dijo
ls
score
chan
kind
##zyn
##hisky
Choir
##self
##platten
operator
##ringer
Cinderella
##cite
Goldstein
Operations
##citu
##reshold
##isted
Biological
vision
purpose
Marke
##bic
1202
##yasi
Tartus
##lić
Jebel
##šila
1070
##isation
coming
1504
##lī
Ā
Abū
##dā
Wing
Independence
##iq
Junta
department
##imento
##quality
Liberation
656
Feyenoord
VV
spelers
##ель
##ников
##ская
волость
История
##oze
##area
##enda
Boer
##cologia
##rdon
Napoleone
Euskal
Euskadi
##ûr
##echa
reis
Astana
Gallo
etappe
korte
##lice
territorial
little
Drago
##GS
##rong
Tema
##forme
Arean
##mada
Mojo
Largo
##euse
opus
##orlog
##janja
loose
bunga
Pool
##namento
nationale
supérieure
##idge
Orson
Welles
Roja
championship
standing
##cine
Libertadores
Sudamericana
##əl
##bə
##cə
##ər
##tə
##žu
##əri
##əcə
oğlu
##üm
##mət
və
Clinton
Aviation
##gator
cited
crash
##žav
##ən
##žna
Colony
discover
statue
appointed
nuovo
allenatore
leaves
##mbok
weg
schon
boss
defeat
difficult
nommé
nouvel
entraîneur
##UF
##messo
##fidata
vice
##gales
intra
conduct
disorder
Psychiatry
1484
1275
443
DSM
Manual
Thriller
##wania
Bursa
Vishnu
##vă
##ał
Indre
Siegel
Clint
Gallery
##rale
Bingham
Collegiate
pares
Ingen
Indra
##aggi
##iega
unusual
objects
Planetary
litteratur
##lagan
rider
##hoven
Freiherr
##wali
926
ning
##mington
Criminal
Minds
carne
##ception
Kirkwood
##mpf
bande
Cult
RAW
Soldiers
sig
politiker
flytta
Tyskland
##erades
##sökte
##sjon
##stische
Bruxelles
Brussels
Są
##ctivo
##cção
Castelo
Urgell
Thessaloniki
Greece
Cyprus
NYC
AOL
Delaware
Raleigh
Inca
##ntation
macho
##wyth
##edd
Acción
Floyd
Identity
##vropa
Arlington
Ferreira
rett
pollution
integration
synthesis
CRC
barra
ã
##hões
IMDB
Stephenson
##nede
771
773
Resource
Confessions
Эль
##т
##хай
##з
Д
##иви
##зия
поста
##влен
##ную
задач
##у
вы
##по
##лни
##ла
Сан
##де
##пу
вся
раз
##ру
##шен
##ная
ар
##то
##гне
##м
в
наших
руках
Bao
Laba
901
°
##finite
##NV
jong
Competition
Linh
Pernambuco
sick
minuti
Femme
Liechtenstein
CBE
dello
Thiele
Vision
crown
Atlantique
##vesse
##laması
##ı
söl
##dır
Ğ
##ination
Havana
##mbling
##Bride
Lola
shop
Highlands
##right
Marlene
kisah
Mandela
##dicate
Suicide
Salzburger
##kket
Leary
Concise
##uskas
mao
##ecker
DP
1667
Joaquín
amico
##́
##áta
má
##αν
##ïna
personal
trainer
##hya
##hafen
##flug
##linie
Kapelle
##wies
auf
##arn
Ihre
ihr
Inventari
ihre
Häuser
Kirchengemeinde
##sätze
unter
vom
##kár
ár
Geological
resolution
flow
Triple
TN
committed
friendship
communication
adventure
intellectual
exploration
greater
realizat
individual
potential
neither
##ctions
##position
another
particular
avoid
##iding
principle
coll
remain
Madsen
okrug
##iple
1367
1324
1364
nådde
UV
##xell
##bildning
##lagi
sva
kalender
##ublik
magasin
Yearbook
##lation
Prayer
know
secret
Promise
wish
Epstein
Ciutat
##stream
contrari
Paar
imdb
DK
Сергей
Ж
##ари
##ков
underground
По
##жар
##ав
##зо
##ле
##е
##zeu
sept
##koak
intermediate
komme
Lucius
726
##900
##áky
pack
Catalog
styl
##ising
##rnen
Kaune
Neumann
Nicolai
##guer
Neville
Duval
Hanover
Rosso
river
Blaise
##caire
komplett
rud
Piedmont
children
ESP
ASP
1103
##iyah
Iraqi
Classe
Revolutionary
Communist
Officers
Pärnu
Gauss
Interstate
Wyoming
bij
##unkt
osam
Centrum
##bours
##daja
Knopf
##niana
specific
##pressa
sobre
aun
##medio
advertising
JC
593
LSD
took
Nowhere
##dles
##gative
champion
olympique
décédé
##édaillé
##odontidae
vora
Bajo
##ncia
##entas
Σ
##ριά
##mida
##ctylus
turc
##nthus
tourne
cand
##ást
sant
Prêmio
Anatomy
##mick
Cuba
feed
##guire
creator
exit
Luisa
asuntos
Asuntos
##zier
Tallinn
##spor
carbon
Primavera
europea
athletics
##tour
Molde
Rosenborg
Fenerbahçe
Creed
Switch
moh
Lexington
Monmouth
##mption
Då
1242
##cation
Cheryl
Highland
firma
Independencia
Rivas
##shafen
##lique
Histoire
Lieutenant
Ē
diocesi
cardinale
cort
Sergeant
##dici
Serge
##rrea
Poznań
##ewski
MHz
blu
ity
Iglesias
##ù
##lban
##lyje
sea
voices
Violence
records
LAN
Stokes
##romo
Lynne
##iern
Salvia
##iara
train
keras
##desse
##fing
##rgus
mein
##mede
monks
##oggia
Druck
McDonnell
##sons
##lick
Thüringen
Sachsen
Altenburg
Gotha
Eisenach
##leich
kuru
Petar
##bart
##vour
##inite
##ästa
##lione
##forte
##raria
##samlingen
##hütte
tay
faj
##taw
volley
Shift
Nouveau
Zelda
talks
Giancarlo
Govern
##ador
##adar
##mí
##erz
##žini
Mainz
##tach
salt
terres
##ingia
##edit
977
världens
Jeux
##pena
hors
œuvre
Mey
ACB
Berria
Egon
##wohl
morali
##egen
##chner
metres
Township
##HS
athletic
Heft
Balthasar
Syrian
Tyto
Maluku
cold
Broken
Garnier
##zea
##digan
##jorn
recent
Celsius
##ginal
Weird
Avril
##vigne
Entry
Threatened
1303
##retti
saga
##nding
1320
Jón
##skola
Zealand
##rots
multa
Volta
##nega
Tintin
Zoom
kvar
Zweig
taun
tweede
particles
primo
eman
Wesen
materia
interaction
##ünden
707
##ônimo
##gine
Bethlehem
##ierna
##lax
##posizione
internazionale
decorative
architettura
moderna
##itazione
edizione
febbraio
includes
##ilig
##óta
dream
##liner
Afro
##theon
##kles
dios
tsunami
Nota
1316
Esta
##dós
##lido
periferia
Bundesstaat
##jeto
##ufer
Regan
Zeppelin
tribu
versus
trots
gauche
Hollande
Sarkozy
##itano
Hatch
##fatter
andre
forte
##lere
##heten
Adige
Maggiore
##hnt
##sang
##pate
Â
##ehn
studia
Rufus
##nese
##ntures
##erea
Patterson
##tones
Conservative
Gerrit
##ište
Zwar
Saarbrücken
##chten
natal
##dare
suba
Solid
Advances
##clave
Ego
Mansion
Smash
Orta
##ievi
Warcraft
Zanzibar
Theft
Meier
Remote
##chuk
Speak
Spor
Stick
PAL
##SC
Malden
##bór
##eiras
Vaux
podium
Muller
Effect
countries
capita
##EF
##torium
ohne
##rhein
Lufthansa
##iser
dozen
1930s
films
stare
Ginger
##bies
##xter
Thursday
ō
letter
Ríos
puerto
muy
##ssandra
boreal
Maguire
##garo
##udá
##dō
##lém
Celebration
Cromwell
##undu
Hunting
BY
##jects
Allied
Harvest
small
Calling
##sats
##rben
##ronik
##lao
Kantor
##geu
##urer
Ahli
brands
Ratu
leder
stift
eest
##fahrer
Potok
pago
##dity
##gium
marina
##hical
##chev
Cuenca
what
##fect
fel
Monumento
Arenas
##filmen
##iect
Cueva
Pinang
##ον
##υ
##ρτ
##ι
##δ
##ίων
##dí
##gía
##chien
Easter
##ijos
##kende
Arroyo
Raimundo
Ferro
Bonnet
##jnu
1691
##bour
aras
Herzog
annan
Kyoto
ASEAN
¨
##isasi
Margaretha
bombers
##ator
Dacia
##astic
Österreich
Ungarn
##quam
Roda
são
Hoya
##jete
Heiligen
##kreuz
klassisk
##ceum
maestro
Carmelo
presso
riva
dite
##viar
##ividad
##nches
##iño
Bester
jau
Mieczysław
Flint
##waan
kerk
##älvens
Qu
Loan
Institut
Études
Fondation
FN
État
Gothic
Shaun
Cassidy
Paige
Cosmos
Kako
patio
##coe
##kling
##mendi
##óre
##cides
Shine
Einaudi
Enric
septembrī
##īs
##ndak
##ņ
jeho
Changing
Religious
Landscape
Aragón
##acia
Nada
Prata
Carvalho
##ânia
Zion
##heiro
Those
Speyer
gestorben
##telen
##ddu
Jansen
##ελ
##η
##π
##ό
##σ
##κα
naj
##öfe
bairro
##gueira
klare
Estadual
##áin
##rley
Angelica
WK
Ludovic
Huesca
Pacheco
Puebla
Johor
Melaka
Cristian
##ision
##joner
Lyle
Interpretation
Frontier
Training
##onnaissance
##biter
achieve
four
month
filter
1445
spend
7th
rules
selling
soa
8108
theo
##fficial
##charts
##vings
Myself
Closer
##PM
Vittoria
کا
##پ
##يس
Mahmud
Auxerre
Bastia
Derbyshire
Constable
19th
##rnoj
##مد
##ين
##ه
##ُ
##زه
##را
ء
##qiy
fat
976
936
947
957
Medieval
fans
##woman
Dangerous
##dő
proof
elegante
moon
##rche
Galileo
Galilei
information
processing
perception
##hétique
##sthetic
##verarbeitung
Grundlagen
Anwendung
Bereich
Kritik
Springer
complexity
theory
beauty
Principles
##tention
Also
18th
ALT
invited
lecture
Sendai
Birinci
Ligi
##rire
##books
publishing
chapters
Nihon
##zaki
643
##china
شب
##رغ
Angry
dena
Hodges
##báñez
juta
##mentul
changes
##dà
##ètic
Josep
1677
##odno
nov
1491
grana
1502
##ncial
##ión
1568
1575
Their
##pulsion
Muslims
Murcia
Ribera
##cê
##tres
nouveaux
série
races
Espagne
Hachette
##jne
##NY
##puesta
derecho
nacional
sef
Código
descendientes
##mica
Ugo
##rusade
Rommel
##ikasi
1215
##immung
possible
cause
extinction
##icae
Entomologist
##firmation
parasit
Braconidae
Hymenoptera
threat
endemic
Canary
Conservation
Genetics
1431
Drums
artists
Touris
DOS
Safe
Kubrick
##ijd
1236
##arach
Routledge
BRILL
Anwar
##rnik
##ished
Jews
新
华
南
xin
##çı
##lı
##ffs
explained
Directors
Crane
Rheinland
Bochum
##richten
lever
wer
Duff
##reda
##went
brief
##cavations
أ
بو
##ولي
##د
ه
##شا
بن
##ح
كم
997
##ffice
Lagos
##fice
##nology
##SR
##teed
Kaufmann
cemetery
anders
##umoto
Rainbow
Reef
Railroad
Festivals
Nederlands
Ballet
libretto
elke
ballet
1086
Monika
Indie
projects
Reality
zware
Disease
##ection
##nā
Infinity
##tated
arrive
Dijon
rester
nouveau
sélection
Tout
pourrait
deux
fifth
rejoint
Confederation
Egypte
deja
français
job
##œ
Strings
##niai
##zug
pursuit
Happiness
SmackDown
Turin
journal
descriptions
axe
Gender
Goldberg
mercato
regions
proportion
##ally
larger
female
brain
Ceci
##pern
unknown
Psycho
higher
twice
many
drag
king
##hody
Towers
location
Iglesia
##lobus
1281
Revival
##kém
View
development
draw
Exempt
struktura
belt
##adh
RN
XP
Plastic
##vice
McMahon
effect
##cada
indoor
destination
Politik
još
če
posta
srpski
##šić
##deset
godina
njegov
Uniti
Njegova
##wys
Favorite
##scher
Willy
Jenő
2A
Nachrichten
##üge
##vende
Floor
##nő
Munro
Platz
Freunde
Cricket
sont
royal
1448
KB
Zola
Natasha
##tany
##adle
##dmark
Libertad
##erance
Cheyenne
G1
Formosa
##də
quitter
retour
Fußball
Kidd
minste
1189
1334
centre
formation
ayant
chemin
depuis
##gés
barre
##cié
Caen
reprendre
Platte
蝦
夷
共
和
国
Muda
ム
ダ
ヅ
##モ
無
き
改
革
##gton
##øst
##material
Rapport
dental
fill
materials
##dte
maxi
##cama
##VO
Aeronautical
##zato
Hundred
##aday
unik
painter
Newsletter
AFI
Roach
fluid
##eig
Selon
Commonwealth
##bem
##ernes
amour
Juliette
##fty
description
##lgo
Esto
##añ
##DH
Oosten
Noord
##şan
##anlar
along
##ły
Hilary
Gosse
Strike
Tehran
Yahya
Aubin
finance
aims
unos
Ł
Łódź
Selena
Sick
terrible
##ische
##itische
Untersuchung
yi
anomalia
Problem
Kolonia
##moor
##show
Latvijas
##rmā
Partij
##rder
##āri
##što
##ēr
anv
##ņas
partija
pilsētas
##āli
##stisk
##āl
##ņa
##ība
##īti
cita
politikai
##riffen
Humboldt
##rden
##YS
Palais
849
##ificio
Tempo
scomparsa
mach
República
Hautes
##ometer
faktor
Michoacán
Garros
##glen
directora
reports
expedition
Kazakhstan
Poker
Valerie
Tanz
så
心
Evening
##iče
Zambia
Looking
Landschaft
##gbo
lock
Watkins
Waves
Bury
believe
Seen
Ņ
lång
Conquest
Schulze
ì
915
10000
##cán
Hernán
Cortés
Guadalupe
Juárez
Emiliano
Álvaro
Cárdenas
peso
Salinas
Chiapas
chia
Oaxaca
PAN
##artel
##àng
1256
1259
1260
gan
ガ
##ナ
##ッ
ク
gai
##belt
critics
monde
published
Organisation
internationale
Languages
Translation
##bela
##baud
Sartre
Camus
##voir
Genet
Descartes
chanson
##aque
##mière
Renoir
Francois
##ruf
##faut
Ouest
TF1
Bleu
Disneyland
Puy
鈴
木
##ジ
##nez
vous
##ccupy
writer
alien
raro
008
018
Drug
##epen
Sculpture
McKinley
Loser
Cassandra
Funny
universal
american
overcome
curs
Reid
##pliance
degli
##ruz
##fah
##âr
##usok
Qaeda
##stern
Investment
##ipelago
wants
##ånd
pies
##forcer
##øs
##øb
ef
##iuni
fent
hari
##zyki
Coastal
Ferris
Potsdam
fame
wrestling
staten
##dure
Jego
##vod
##еп
##сс
##кий
музей
получил
имя
##юри
##ка
Ло
##нина
Anh
##reus
1507
##regation
accessed
signals
islands
Churches
Advisory
heads
851
holde
Remixes
MUSIC
Waiting
Makes
Cô
mujer
Mujer
Latin
##lía
##rnu
##grafico
Agostini
Scarecrow
road
##ktan
Method
Animalia
antichi
Dizionario
classic
Edizioni
Diversity
Kimberly
Jacobi
Catharina
B1
##dotti
1482
elev
rating
Structure
##strat
Evaluation
Engineers
simple
flood
protection
much
Progressive
ध
##त
##ूर
##ा
##ūra
datu
##्त
Sanskrit
##eath
Guangzhou
passed
##xpected
decorated
wrestler
##tede
##city
Symposium
prize
Soleil
Noir
diversi
Ethnic
diversa
disse
Administration
equal
opportunities
diversity
essential
##loed
Duomo
##fait
##óm
Sveti
##ženo
Šv
##nud
Yeah
##uert
##tioner
spiritual
actually
##ktik
Associated
quoted
MSN
Enough
##tations
RIAA
##verband
##industrie
Daten
salsa
##irata
ubi
Burr
##ujas
Samme
Comparative
oak
Rosas
impact
083
##brate
Growth
##OW
##yyat
pose
Palestinian
refugees
migration
Countries
cultures
Emergency
expression
جامعة
##أ
kallar
magia
quest
experience
gear
##rrek
Shopping
##unted
membership
level
spell
moun
shield
energy
accuracy
resistance
schools
elemental
##stair
divine
balance
Nile
giant
Merle
Torah
Shining
##ilor
Homme
termo
##ocke
eile
##kritik
Zhou
Himalaya
万
物
生
妈
那
Qin
地
合
##ærk
Taiti
blau
Augen
rien
Kanye
Beautiful
##īgu
Bourges
Hillary
##fiel
##marque
##jubav
cz
Tuesday
##cote
Autor
Emir
##necht
Lecce
##igia
svensk
spelar
premi
gav
acids
##biu
##gebirge
##önig
tivo
##orno
##igny
Ivoire
Republica
##cratie
progrès
UDP
##aké
##cello
Macht
nito
1187
##ruit
Compagnia
institute
##loads
##ocha
iPod
##formes
terrorista
Artois
Partido
orkest
tabla
bir
Dessau
Jis
##talt
Kumpulan
##cey
bore
##konna
heller
frase
Borja
##conia
Amore
##fə
##ğı
GPU
##rage
stella
407
agar
ι
Berthold
Marshal
##øger
død
Pardubice
hakkas
Toulouse
Warszawa
##ência
Lisboa
##dă
##ţ
##año
##ído
bile
Glover
Sykes
Marks
##heer
##txe
##cules
Municipal
447
Gogh
heen
ML
##gere
##itter
stations
reactor
operational
accidents
electricity
coal
fired
figures
##itant
Mihály
##vku
##ntó
claims
lights
flag
strong
squad
partnership
Ministro
##onstruction
adult
electronic
##üste
##ptic
pk
##umente
Hispania
Ritchie
Blackmore
##culo
internacional
Constitucional
valida
ayuda
##stiti
mode
##të
township
821
##üz
Qur
Qara
##yıl
##аря
##гин
##®
Quatre
rêve
EHF
##njen
##ević
##jelo
Köhler
##hlich
premiu
Magnum
Southwest
timp
##cendo
Medien
##zentrum
##aner
##staat
Wilmington
Technical
##rakat
arren
##aler
Halloween
Progress
Juventud
##mnik
cluster
Projekte
##oort
##ulado
##tims
##lnej
##presi
Darin
##arangan
##zellen
vitamin
Romantic
##writing
Contest
tenu
##ços
##Ó
##pisao
##vnica
##AV
##active
Feeling
Medley
##qda
##nania
1266
1271
##û
##vance
##üren
passar
passa
passare
##werpen
Analysis
Tribe
##cts
##wami
Dhaka
Galatasaray
dalla
##fante
Reese
##ε
##ω
##ος
Silvia
IPA
ɑ
Në
të
së
Kosovës
presidente
Republik
##hë
Marrë
për
Kosovë
Dell
Broadcast
government
Unionis
cop
##çi
jardin
Haute
Aeropuerto
##ación
Aérea
Printing
Teilnehmer
##pense
B0
1361
1375
##tles
##lektor
Dua
##bte
##tetin
Osiris
Fishes
##iformes
Gouden
##rbar
İzmir
Canis
animal
accounts
familiar
Integrated
Taxonomic
Wert
Antonia
##aya
Charleston
Amelia
##ndant
##LC
somme
comment
##aries
Basque
##zte
##mét
raza
Archivo
##ntzia
nav
Herriko
zal
986
Singing
Libération
bronze
championships
Level
Lecture
enemy
equality
Documentary
resa
Biblioteka
Beckett
分
音
Visual
##ném
##lera
hormone
##uant
##bės
Vytautas
Lithuania
Antanas
##ègne
Cramer
##čius
##plin
##tiske
hands
won
alone
suivi
##À
Bold
Ridder
SEC
Funde
Tragedy
Been
calling
Marconi
Bells
Carioca
Labs
Boots
##tude
##ām
acquire
island
##ifera
Meeting
Pleasure
Tucson
Kulon
Fear
playing
moments
##tado
1353
1414
1397
1373
1413
1374
1399
1407
Reeder
##family
##ulate
Buddhist
casino
Michaela
##roda
Internationalis
sera
fonctions
Atlantiques
##icie
dernier
nouvelle
い
server
##aborative
battles
fala
##bios
Carthage
ika
##bano
Surat
moto
Penelope
Boyer
Jacqueline
а
##ш
##ва
##до
##rskoj
dage
apart
##umba
kini
Cahiers
##lada
##NF
Saguenay
##kë
ω
Fourier
1r
Netherlands
##riak
Eure
##tiek
Drôme
Ille
Vilaine
aber
Grimaldi
Új
cas
##şti
Championnat
amateur
komo
essa
##ladá
Boleslav
##áři
##àl
##erten
Thirty
Miasta
Viscount
1317
1319
##cev
Oxfordshire
##noval
bela
court
penalty
Trofeo
##ción
Dominicana
column
Abigail
officially
PG
##ierte
dress
beautiful
##unter
dut
firme
rosa
sinensis
Veterans
##lendi
024
SFR
Instrument
TC
americana
1210
1208
jõe
##cies
5th
Quarter
Freud
Logo
Fotos
chain
Silk
##inama
portfolio
Ariane
##nymi
fia
white
##gold
coin
means
scale
yet
Witness
pay
cash
##SH
produces
##vinna
Jungle
Marlon
multiple
Weir
brat
Judd
##mål
Abitur
х
##ата
##mannschaft
academia
##aboration
Battalion
Bucharest
grant
Burning
TBS
##lates
745
Pfeiffer
##rgie
bella
donna
pupil
tym
##ljene
##valy
iri
ata
Caterina
##ürt
•
##ðir
##kið
Edda
##jsk
Resolution
Male
Dominican
Spisak
valor
##ected
Clermont
Scandinavian
tournament
leader
##tzen
756
brother
918
##èn
##match
##furt
brevi
##wane
noen
Labrador
cai
Believe
##luca
Machines
Enzo
boards
aq
mondial
Cette
bonne
etre
tatt
##rales
Manny
##quia
rise
Kärnten
Habita
Benton
##eration
##lift
ons
##rque
Languedoc
Roussillon
Ardèche
Aveyron
Midi
Pyrénées
##iniu
Enzyme
autore
##sikt
Kelas
île
1351
##estas
##grip
1073
##veur
##nité
Х
##од
##жав
##енд
##ənd
Volunteer
Mansfield
Ripley
Wilton
Caldwell
Vijay
##dma
##rade
services
##armaceutical
##piller
Amman
clinical
useful
chemistry
Detective
Guards
##vuse
Madre
Presidential
Akbar
Dixie
##voz
ž
##čo
Strecke
##eyer
allant
Vizcaya
chemical
##chem
organic
Teil
##ḍ
##āh
##lben
##vac
vaga
##ovský
##áš
Jüri
##osus
##lhouse
Mateo
15th
d4
e4
##scus
Bayreuth
Macbeth
tax
driven
##aanse
##ending
Transactions
powered
bude
saving
desire
taxes
drive
currency
Menge
economics
faculty
faith
does
bonds
doing
accept
own
sugar
modern
according
Brunner
concept
wrong
voo
variante
danger
zones
functional
Missa
solem
##metti
dad
##fts
Montreux
jog
Yoga
Whitman
##lamak
klubben
Elles
Maret
##rria
##chte
activated
cells
##ycling
##dosi
kada
mula
Amerikana
##ké
quant
Northwest
##atica
##veda
£1
##quila
##pna
Cochrane
##inder
##pida
Chine
subsp
scenes
Beauvais
baloncesto
magyar
closer
corda
dominant
##rador
678
L2
##naren
rape
Huxley
##jden
##course
pasa
Galerie
loves
Valladolid
##dung
zag
Browne
befolkningen
Nr
nog
1503
##flow
##jaran
mother
Brecht
birthday
Ukrainian
mathematical
wet
##bbit
Tolkien
Bilbo
vor
patag
Esso
TJ
Fresno
##kley
numeri
answer
Scientists
raising
##rated
humans
##nasse
known
worldwide
Fleet
Rumble
disciplines
techniques
##niques
Antwerp
SSSR
1185
bog
1218
1323
1331
##novo
romanzo
ghi
giorno
notte
mae
Mondadori
##rary
salva
##zien
Су
##пер
##га
Вы
##сшая
лига
##а
bästa
Bluff
Defence
##poda
ea
fundamental
##ßer
##pecies
herb
Bright
priority
aia
##venture
##barth
Jameson
##ckor
##ridor
hende
violation
##iales
##enau
Fatal
Feat
##neria
##keer
consta
Α
##Ν
##Ε
##Λ
##áno
##sí
Archived
##dique
##want
##haya
came
Fundación
gol
##eador
más
joven
##zlar
##harf
urbs
binding
Nesse
594
Referens
##gura
Historie
dens
svenske
Chamberlain
tuttavia
##reko
Shuttle
contracts
Imperi
##tigen
teren
tér
noe
##viy
Meter
laurea
Juozas
##jonas
##škai
Simpsons
commentary
Connie
Tercera
Brașov
##saba
Grêmio
Nm
1071
##kanten
twin
injection
##mack
##eker
##bold
jung
##nete
Miscellaneous
6th
##ibil
ridge
border
##iella
beau
##ikker
1363
##korps
Danmark
Universitet
Stakes
Hegel
Wola
seni
##rió
0001
cycles
nama
##mande
1235
##chung
chung
Normandy
##talte
syns
##kada
##zyński
Essa
##hlon
##kool
Sensa
##Η
##Μ
##Ρ
##Í
##üll
##cological
Basis
Prevention
##čki
##LD
grey
Bola
##tý
PHP
##SQL
gora
nivell
Nadine
##mter
##chov
##íme
mines
##macht
Charente
Caledonia
maritime
submarine
##bidden
1254
Michaels
##inam
Scarlet
##ına
##şı
##yakan
kids
Stellen
Schweizer
##duse
Clifton
Seitz
##Ц
##И
##М
false
uns
Platinum
606
##nado
sweet
Sexy
##dition
夜
神
月
キ
ラ
larvae
1427
Seite
1401
Jest
modesta
identification
##PO
##dly
gastropod
terrestrial
cam
Beatriz
Максим
Maximus
utility
explore
Loreto
ola
ms
##lagen
Guthrie
Accessed
Horror
inyo
##lų
##čia
letras
toit
architekt
##minas
##ildi
##ð
foods
##ciu
Wikimedia
##ŵr
Banco
Interessen
Gemeinschaft
Farben
nest
##ctural
composition
membrane
labor
linked
##fully
##ägen
dock
plats
##digt
CSU
##banken
Rollen
##jni
##iones
##alang
1666
##apte
Miloš
Yugoslavia
Stjepan
isto
##čke
##ničke
partij
Jugoslavije
komun
veće
##ncija
žena
##čilo
##birka
##zna
bez
državi
dam
operations
delayed
indigenous
Kafka
##slas
calcul
##nota
ATC
##ügen
##lgi
##ads
narod
product
Formen
Але
##сь
Б
##ял
##я
##цкі
Hours
Byzantine
Bibliothek
##thas
##flexion
researchers
neck
horses
##öhle
Königs
##mortal
vuole
##ovalo
selle
topics
Partii
1190
servi
##efficient
rankings
União
##ết
Bình
Thuận
Bộ
##tiven
kurios
##mpur
États
Unis
chur
meeting
stuk
Assistant
Nîmes
Enfant
beaux
Leinster
##pice
hôtel
##phia
##dhur
pattern
italiani
Bertram
building
Insurance
textile
Falling
Mediterranean
Depression
brutal
pittore
tende
##villon
buildings
environmental
clubs
##aeth
IRAS
##ature
##chef
Ravenna
Dendrobium
##andra
Xaver
Passau
Flügel
Freund
##mach
notice
##aging
Llobregat
Supercopa
Bloch
Libraries
gud
哈
尔
滨
工
业
大
学
爾
濱
業
學
##ěr
NES
escala
mapa
lotta
##zce
##tivu
Cluj
##gap
Mga
beri
script
##djur
syne
ʻ
Dying
Sutton
diari
clair
Gymnasium
1404
Kōh
##wydd
##Millan
Ethics
Tudor
Heidegger
##bl
Handbuch
Zoologie
Zoology
Arthropoda
Insecta
Gruyter
##ctra
inventor
bibliography
facilities
Soldat
Militare
patron
##rony
##elike
866
##nakan
1125
##hong
##guo
##stitute
cao
Tages
##zeitung
Mouse
Executive
Auvergne
Médaille
Résistance
Croix
Guerre
Forward
autobiography
called
Friuli
##sny
läst
original
##boj
courts
appeal
circuit
sentral
##VA
##gination
Paulista
Details
thema
##TB
##ingar
##nye
##ол
##б
##яг
##и
##ου
##λ
##γ
##γο
##æði
##veld
##ashi
Quant
##wg
##dott
##ikoa
##šava
Unity
##goed
##smes
USSR
better
prepared
Economy
stages
sociali
ahead
discussion
Apocalypse
comes
chosen
ones
Revised
sulle
Indigenous
Dewan
Croatia
1343
Pluto
766
found
Experimental
xx
##olata
Roots
pitch
Catalogue
Aan
##uw
Territorial
Applied
Mammals
areas
concentrated
mammals
Schools
1342
##gede
Estonian
Leadership
1075
japonica
Vázquez
##ctic
##quilibrium
Lage
##mmt
Cunha
Burmeister
##stätten
Severus
##gates
Gamma
##lones
##nsel
Côtes
##quels
Flammarion
##rrido
Nelly
Vice
bring
extend
against
ABA
soleil
##rcy
IRA
1980s
rama
Edited
964
##untary
chamber
Rules
##chool
hab
Tadeusz
Sejm
##ży
##ęs
##jetische
##iasa
historical
hour
##deel
Server
##vju
1483
1473
Gloucester
Ranking
Kathy
matrimoni
Ehe
linken
Bowen
040
Teacher
##ower
downtown
14th
Battery
Söhne
schedule
success
9th
##diri
##kół
Cuvier
##knar
##sbury
revolutionary
##geant
##prey
1209
clean
next
martial
##hry
Directory
##cript
Diary
Arles
acre
##kiem
##yron
bass
Gdy
##fahan
australis
090
comments
jeu
##igata
coaches
Attila
##Á
cyn
Valois
sider
Potosí
Zheng
Mirza
Fungi
##fung
##teten
##hips
trial
why
meine
zit
nicht
Sohn
##hiza
1219
bron
coaching
##tingen
urbana
wood
ч
##айк
чел
##н
стр
##уг
##tvo
А
##д
##мира
##лт
##ейс
##тв
кол
##гия
ш
##нява
с
##кам
##па
##ве
ers
comme
Comme
Hainaut
##élique
##wego
marquis
Odyssey
##ète
Schubert
Released
girl
grows
taxi
1553
Badminton
capensis
OST
loc
##lė
##lės
choir
scholar
Requiem
Exhibition
Leroy
Stood
Malaya
Circus
##sige
serii
##buran
Course
listy
##ęp
##rug
Championships
Charter
英
皇
御
准
香
港
賽
馬
會
disponibili
Moselle
Meurthe
Meuse
Vosges
killing
doesn
##nate
##msky
surrounded
thu
Rowan
selon
##ến
Oldenburg
Actinopterygii
Silber
Tarragona
Baix
comarca
Sancti
pauc
##azo
Bande
##plete
##èrent
euren
beaucoup
enfants
##bourg
Properties
interactions
atomic
##nstein
Silicon
Processing
Materials
##mines
##iate
##ctar
1216
Outlook
##dron
##legung
einer
##ftigen
christlichen
margin
##ssed
##teren
leave
Siya
##msa
##zul
##ported
wake
foot
defensive
##ordinator
##dams
Spiritual
cardinal
reca
##anique
Cœur
Histories
Sèvres
Examples
russe
##piece
Fink
##loji
eski
##vangen
##niya
##tling
##ъл
##ния
Genom
aîné
##cesi
##roia
vescovo
obispo
##érito
Alicante
lager
##ndor
Linares
uomo
più
consegue
famiglia
holiday
kati
carte
sq
WBA
##tlu
Semarang
Bandung
installed
##çe
##rů
Familia
course
factors
##plantation
##misch
##parten
##sers
##hidae
monster
proceedings
##dingen
##fontein
##centes
##entes
Cardoso
Credit
##bruch
Romans
##schap
##ník
spelling
##erste
emerge
##belle
##ický
Iulia
##rinus
##arono
Amendment
cases
##thèse
bello
runt
Riot
protagonist
##missie
program
our
##cision
12th
Coalition
##quela
##gå
##kait
##roat
##cije
naroda
Dušan
Hedwig
1378
##stwo
Instytut
##iczy
##ções
##úne
começaram
Catedral
703
Rakyat
computer
Expedition
missions
Iš
Krone
Prato
Cristina
Felip
Livingstone
1298
##uerung
depende
significance
characteristics
libero
quinquennal
sec
1460
Seda
blanco
Buta
drug
espace
publication
KC
locale
drugs
arno
soan
author
##zyka
##fato
Asylum
Christen
Beitrag
Theologie
Dritten
Partner
Rosenthal
##suki
Møre
Romsdal
latim
nominee
##udia
dala
cine
##ály
##ől
##rodni
hamar
baan
Treatment
Individual
##NB
##itato
uden
titel
##žila
##feln
Speech
##rète
Elements
session
Sgt
unincorporated
##lopen
Byl
Mimi
Reverend
Verdienste
Menschen
##rechte
designation
systems
dus
Griffiths
contract
bob
##ungan
##égué
lana
Oleh
##ocide
Mixed
Dracula
Celia
##ywa
esta
##FL
##zaci
Colonial
Blacks
Nineteenth
Figures
Practical
Thought
condition
behalf
##rayal
association
sens
Gundam
frac
##titel
##RF
Exodus
##adou
##geld
Nasser
##graphia
Artes
##cultural
honors
Brigitte
mainstream
##ccus
dong
##HP
##tige
##etera
Sharma
##ranje
Praga
charter
constitution
ready
Argento
Cid
##ště
daou
Hamas
##tán
férfi
##WC
Anything
Carson
tempos
Runt
##nels
##aling
Cappella
interactive
##eois
##ched
Premio
##loride
##lating
##jno
Lorentz
atoma
Foucault
skala
φ
≈
↔
dimension
units
##tryk
##AX
NDR
Ascher
vivo
transporte
1099
##hibition
diverse
##ency
##boga
involved
actions
Syed
adults
controlled
happy
Hij
contain
murder
victim
##ths
identified
evil
Braves
tongue
iria
Leiter
##üter
wat
Clerk
Ω
##later
##ulations
UNIX
Yuta
Puma
udde
twee
##regar
##produktion
seca
##ulsion
##weit
Beatty
£
Cycle
Twelve
Industrie
Fahrzeug
Allegro
Soares
##chas
##ací
##çado
Ávila
Salah
Flavio
舟
号
environment
tracking
update
waiting
hosted
TX
Hindi
Tamil
##mando
##iegu
mama
##jén
##fié
AH
Maureen
thanks
##ntre
chocolate
Schott
Correa
Mendelssohn
##ipse
##arf
##järde
##ován
fou
Sanz
Koning
Tous
##ség
##èma
##indo
##rido
butterfly
##ochia
##ulé
##ingu
##ével
Text
Triangle
##dado
##eña
Papilio
Portals
ataque
Pieces
Outer
gives
wave
motion
Ryder
##úc
##šť
česká
##lischen
Schwestern
Frauen
Zellen
spécial
##ngene
Nicht
##backs
relieve
duties
##ndole
fighter
##stka
##ncing
rapid
##plication
coli
strain
properties
##kjer
crew
mainland
##lated
Weg
##geber
messe
suma
frames
##willige
##division
Kroatien
collections
lb
##chule
Canyon
actes
acte
editor
Gazeta
gouden
einde
Desert
##tiary
Antón
Nadu
common
##gee
CPU
kick
##tussen
needed
culto
Bellas
kunst
unika
exhibitions
resources
important
##žel
##lnik
##dub
##bki
##vni
male
Jørgensen
indre
kjer
##partementet
perioden
Mineral
RTS
Jeg
##lsko
minerals
Gigi
lid
cite
Description
eastern
meetings
scientific
Atkinson
Ле
##йб
Г
##вар
##дия
##obra
UAE
dalle
Denne
Alison
Taranto
Savoia
##mpen
designs
karakter
eil
883
##jām
dit
##fono
Tirana
##angen
Hume
Chair
Rosemary
Returns
member
visits
Documents
##ctum
Línea
Perón
ト
##キ
##ョ
##ソ
##タ
Certain
passat
##ipendium
Justine
Fountain
NSA
siak
Kriegsmarine
Eclipse
原
佛
##hlétisme
Weaver
Mathematical
translations
Wonderland
##fession
##cracia
##ρι
##στ
##ὸ
Θ
##ῦ
Υ
##ἱ
##τή
##στό
Koblenz
##liya
Taking
serbe
##īr
Regisseur
poet
##forscher
Iranian
##zyk
Insee
##varet
##hotep
##ezer
waste
seed
##țe
##ția
##konda
¾
##wels
Huntington
1509
1579
Indus
Gade
682
##regnum
become
extinct
Hangul
정
##수
##연
鄭
秀
妍
오
##빠
나
soon
È
Duty
jin
743
##bye
Mahal
Honour
##zena
Poole
##outs
##dno
heritage
preserve
castle
1420
##rédit
jurisdiction
##gnant
questions
commission
couples
experiences
Families
##reate
##ization
Anthropology
Quarterly
Scholar
##ftet
##ocent
Werft
viagem
karne
poster
photo
gallery
fare
appearance
slow
faster
##feste
ojos
TSV
708
Avenida
Oliva
##érica
Peer
Comité
Région
Soldaten
##ämpfen
##lzer
Isto
##fod
Dorado
##isent
##chutz
legend
##jka
zin
Ryssland
åren
1403
Sied
##kultur
##æri
Mönchengladbach
developers
##coding
oksigen
Maire
##zionali
##kriva
##gdom
Kamer
rike
##tiden
tolv
Schiffe
evit
827
Ebro
##SU
else
##daten
Framework
legate
Bavaria
Questions
Fukuoka
##ūst
victims
fifteen
exposure
##xic
rice
implications
1231
##bibliothek
Luxembourg
entities
activities
intérêt
économique
agencies
informations
##iance
Ceir
##üç
##ntyre
##disch
privata
landet
Toscana
1594
lung
宝
亲
王
寶
親
乾
##zung
聖
記
數
十
萬
戶
，
先
痘
死
者
之
四
繼
竄
入
俄
羅
斯
薩
克
二
卒
殲
於
兵
三
。
Dalai
Houghton
Mifflin
##šuje
庫
全
書
Chong
##qing
西
洋
樓
于
敏
珅
帝
ambassade
Orientales
empereur
années
account
emperor
##éki
太
上
嘉
庆
Jiang
dynasty
《
清
史
稿
》
卷
百
．
列
傳
一
后
妃
碩
婉
公
主
烏
札
氏
##ciformes
airs
Maschinen
Asahi
kishi
##pler
pluse
åtta
##iesen
##yada
dina
أبو
عام
الله
أبي
جب
##من
##صور
sized
near
IEC
electrical
equipment
requirements
nerve
muscle
troubles
inférieur
enceinte
##lité
##gier
##ivation
##laire
Vascular
Surgery
prevent
##znie
méthode
traitement
##isance
utilisation
Tage
driver
dated
ابو
جعفر
عبدالله
Khorasan
qu
##žia
##ifu
##jwa
##ût
Mabel
Agora
##bena
791
bord
##iang
nag
finger
##baran
Kategori
##avier
1311
Lama
Naples
panorama
Sites
Jacopo
##zaron
1458
paintings
##pts
toward
fortune
##sance
##mā
Kitab
##ulco
armas
watching
deceased
##gné
vide
Agua
ikki
##leef
##iwal
1439
##opidae
И
##ператор
##ский
Ф
##ар
##фор
##овый
Завод
##prem
Suprema
##ذر
##eae
giving
##turing
Painting
##aring
Recreation
download
1228
obtaining
##gth
presa
##cando
tierra
##wnia
##ogical
Linnean
travels
cree
communis
intermedia
##inje
nigra
Takahashi
##ōnen
Roku
Sakura
##xide
##voren
segments
Enkele
##iere
2551
##immen
##tky
Saussure
916
##kaian
vista
Leste
Cantabria
##tavio
##idala
modernes
mwa
Ourense
leagues
Parallel
cd
origina
parallel
Reeve
##ktur
##έ
##φ
##ας
##yib
siècles
##bors
trail
curva
##ен
##зен
область
Salim
##eux
sensitive
childhood
teacher
programs
gender
perspectives
southern
##child
empat
kila
tropical
depression
##quent
Retired
##ruda
Britney
criminal
winners
##inden
##τρα
Andres
##unud
##pí
##tés
és
##lismo
##lée
Rt
##tyás
##földi
Niño
JPL
Browser
LINEAR
Moscow
##gún
##plained
##lative
mena
perse
Bender
Batu
##orul
Erlangen
##walde
situ
##umnus
##lser
##ác
##quía
##mbut
##tente
735
##sium
budapesti
##onder
diocese
##buru
versi
##zey
translator
intent
idioma
Practice
RPM
Ubuntu
Vogt
##ache
Regel
Mandat
##rná
##ále
982
##tno
pedal
962
statements
reader
##f3
##ocarpus
Prairie
vocal
Monitor
Anadolu
##vitas
companion
others
##banda
rua
##ánu
##wej
##yum
oni
method
preparation
##phine
##forschung
1354
derived
Medicinal
Hydrogen
kills
við
##arda
##roise
Raphaël
Gutenberg
##icy
##bka
Tiga
Manon
Hemingway
valle
##zve
##ssus
Cea
1035
Houten
Circumstances
Numbered
839
Mindanao
colori
##biet
Maître
##saint
Clément
retail
##nait
##hidi
1493
Stargate
##matan
later
colony
housing
oral
self
administration
Murad
##hado
retrieved
maintenance
medical
conversation
physician
politician
Issues
solution
poverty
##ufe
Biochemistry
##riche
induced
##fers
eliminate
Protein
Campaign
##reba
##waar
auteur
dramatique
poète
opponent
Borges
##achen
Puerta
##גדה
Bibliothèque
##pée
Recherche
founded
##hanes
##rmous
##ïs
##skej
##sitter
##hoda
Systema
politically
charged
remember
Lebanese
##telling
semifinali
spiller
fikk
siste
gir
seg
trener
ferdig
Thus
Jour
Rostov
Mutter
##rities
##ady
XXV
Austen
Wakefield
angin
Brabham
klein
factsheet
Sinh
1145
1º
##óz
##vía
hermanos
Bahía
respectivamente
Reale
Román
ок
##ая
##нная
земля
##kante
Prensa
##icz
Squad
timber
Isidro
avuto
##ntes
Catania
[...]
