[PAD]
[unused1]
[unused2]
[unused3]
[unused4]
[unused5]
[unused6]
[unused7]
[unused8]
[unused9]
[unused10]
[unused11]
[unused12]
[unused13]
[unused14]
[unused15]
[unused16]
[unused17]
[unused18]
[unused19]
[unused20]
[unused21]
[unused22]
[unused23]
[unused24]
[unused25]
[unused26]
[unused27]
[unused28]
[unused29]
[unused30]
[unused31]
[unused32]
[unused33]
[unused34]
[unused35]
[unused36]
[unused37]
[unused38]
[unused39]
[unused40]
[unused41]
[unused42]
[unused43]
[unused44]
[unused45]
[unused46]
[unused47]
[unused48]
[unused49]
[unused50]
[unused51]
[unused52]
[unused53]
[unused54]
[unused55]
[unused56]
[unused57]
[unused58]
[unused59]
[unused60]
[unused61]
[unused62]
[unused63]
[unused64]
[unused65]
[unused66]
[unused67]
[unused68]
[unused69]
[unused70]
[unused71]
[unused72]
[unused73]
[unused74]
[unused75]
[unused76]
[unused77]
[unused78]
[unused79]
[unused80]
[unused81]
[unused82]
[unused83]
[unused84]
[unused85]
[unused86]
[unused87]
[unused88]
[unused89]
[unused90]
[unused91]
[unused92]
[unused93]
[unused94]
[unused95]
[unused96]
[unused97]
[unused98]
[unused99]
[UNK]
[CLS]
[SEP]
[MASK]
<S>
<T>
The
Other
Bol
##eyn
Girl
merupakan
sebuah
film
Amerika
Serikat
yang
dirilis
pada
tahun
2008
.
Film
disutradarai
oleh
Justin
Chad
##wick
ini
pemain
##nya
antara
lain
ialah
Natalie
Port
##man
,
Eric
Ban
##a
Jim
St
##urg
##ess
Scarlett
Johansson
Kristin
Scott
Thomas
Mark
R
##yla
##nce
dan
masih
banyak
lagi
tanggal
7
Maret
Per
##nika
##han
Raja
Henry
VIII
dengan
Catherine
of
Aragon
go
##ncang
ketika
tidak
bisa
me
##lah
##irkan
anak
laki
-
nan
##tiny
akan
menjadi
pe
##waris
tahta
hanya
seorang
perempuan
Mary
putri
dari
bangsa
##wan
Elizabeth
menikah
William
Carey
Setelah
per
##ayaan
saudara
ipar
Howard
Duke
Norfolk
bere
##nca
##na
untuk
men
##ga
##jukan
Anne
ka
##kak
sebagai
sim
##pana
##n
raja
har
##apan
sang
meningkatkan
ke
##ka
##ya
##an
status
keluarga
Ren
##cana
dis
##uka
##i
tetapi
be
##rse
##dia
melakukan
Saat
##gun
##jung
ter
##luka
dalam
inside
saat
##rb
##uru
Inside
secara
langsung
disebabkan
##yu
##ruh
mera
##wat
luka
pun
jatuh
hati
sem
##bu
##h
menit
##ahkan
sua
##min
pergi
istana
sebenarnya
eng
##gan
karena
tahu
bahwa
mereka
di
##pis
##ging
##inkan
Namun
menentang
kein
##gina
diberi
tugas
pela
##yan
ratu
sementara
##kir
##im
luar
negeri
menjalankan
Di
mulai
##jali
hubungan
gela
##p
kemudian
cinta
Sementara
itu
dia
##m
Percy
Earl
Northumberland
mes
##ki
telah
ditu
##nang
##kan
Lady
Talbot
##cer
##ita
soa
##l
kepada
George
##rce
##rita
tak
##ut
Anna
##gha
##ncu
##rkan
nama
rep
##utas
tanpa
restu
ayah
pa
##mann
Mereka
mara
besar
##maks
##mbat
##alkan
##gasi
##ngkan
Prancis
mengandung
Ke
##luar
menerima
hadi
##ah
semua
hutan
##g
##ha
##pus
##jo
##do
##hkan
Jane
Parker
Roc
##ford
nya
##ris
mengalami
##gu
##gura
ia
##kur
##ung
kama
##r
boleh
mana
##pun
sampai
anaknya
lahir
##mang
##gil
kembali
Inggris
##gas
##jaga
supaya
##rpa
##ling
ga
##dis
mena
denda
##gir
lah
pen
##ye
##bab
dias
##ingkan
segera
saja
tersebut
berhasil
mere
##but
perhatian
Tetapi
mengatakan
adalah
##am
Dan
menu
##ntu
##t
apabila
##ica
##ra
Se
##gera
setelah
putra
##des
##aan
(
atas
##mint
)
##doro
##ng
keluar
Gereja
Katolik
Paus
menolak
sekali
menurut
##gang
##kat
dirinya
Pi
##mpi
##nan
meminta
Cardinal
Wo
##lsey
Tak
lama
la
lau
##mbe
##nci
publik
kurang
##kai
baru
##deka
##ti
Seymour
Ketika
ham
##il
namun
put
##us
asa
tid
##ur
Meskipun
jadi
istri
melihat
apa
hampir
##kuk
##lap
##or
hal
dita
##ngkap
tud
##uhan
##kh
##iana
##tan
zin
ins
##es
Kedua
dij
##atu
##hi
hukum
mati
##bar
sudah
die
##kse
##kus
##mo
##hon
memberi
am
##punan
##yang
##pin
##emu
maa
##f
bila
terjadi
sesuatu
terhadap
W
##akt
##u
eks
##eku
##si
tiba
berada
##ntara
ker
##umu
##yak
##sikan
memberikan
pi
##dato
terakhir
##nggu
##mun
##cula
se
##pu
##cu
##k
surat
##gin
##jak
kaki
##mpa
##ikan
tetap
##alan
akhir
cerita
disebut
##pul
##uh
hari
##pen
##jara
tiga
ken
##eras
##hu
##kum
menang
##gung
ai
##b
mal
meninggal
2
Stafford
memiliki
dua
Edward
juga
ibu
bagi
Ratu
##rta
##hta
selama
44
aktris
##rke
##bangsa
Dia
bermain
utamanya
seperti
"
Bitter
Moon
;
Four
Wedding
##s
and
a
Funeral
English
Pat
##ient
Dil
##ahi
Red
##rut
##rka
##rier
dunia
sejak
1984
Sa
##pa
In
Kaisar
De
##wa
Kekaisaran
bahasa
Que
##chua
:
Q
##q
Andes
daerah
termasuk
Peru
Ek
##uado
Bolivia
modern
menggunakan
gelar
satu
satunya
A
##de
##waan
G
##elar
set
##ara
##jem
##ahan
Sistem
##pe
##mi
segala
tingkat
##usu
moi
##etas
Hana
Hu
##rin
bawah
d
##wi
##fung
Si
##pir
seseorang
diberikan
tan
##ggung
jawab
##gawa
##san
##amanan
kes
##ela
##matan
nar
##api
##dana
Pet
##uga
bertan
##mel
##ih
##mbinaan
##gend
##alia
sedang
##gad
##ilan
##eb
##los
maupun
did
##ak
tin
##dak
##jah
##atan
masa
tertentu
suatu
##bagian
si
bekerja
pemerintahan
negara
tempat
##gab
##di
meskipun
ada
perusahaan
s
##wasta
Indonesia
pet
##mas
##yar
##akat
lap
##as
atau
ta
##hanan
La
##pas
Ruta
Rumah
Ta
Pe
Negeri
##pil
pegawai
##men
##ham
To
##ou
Sentai
##karang
##er
Serial
terdiri
50
episode
hasil
produksi
bersama
##ei
TV
Asahi
Masa
tay
##ang
Jepang
15
Februari
2004
6
2005
Selain
serial
kali
diangkat
lay
##ar
le
perdana
11
September
V
Ab
##arang
Ma
##hou
Mag
##iran
##ger
10
pena
##annya
meri
##lis
##rf
##mat
direct
to
video
##gis
peristiwa
##yel
##amat
bumi
judul
Ten
Years
After
bera
##nggo
##takan
orang
4
pria
wanita
Setiap
anggota
##osia
warna
yaitu
merah
biru
hijau
kuning
muda
putih
Pada
versi
panjang
##gunaan
dibuat
BV
##S
Entertainment
Jet
##ix
Kr
##ump
seni
musik
tradisional
Kulon
Pro
##go
DI
##Y
Seni
dima
iri
##ngan
alat
##buat
ba
##mbu
Bi
##asan
lagu
dibawa
Lang
##gam
Jawa
U
##yon
u
Camp
##urs
##ari
##uni
nada
digunakan
Lara
S
##len
##dro
Pel
##og
##yer
##upa
game
##lan
##enia
gong
##bun
##yik
cara
dit
##iu
##kul
##sen
##ian
terdapat
dus
##un
Te
desa
Har
##wili
kecamatan
Ko
##kap
##ri
Inc
tar
rakyat
kisah
Pan
##ji
##rian
##lompok
17
##tun
biasanya
diadakan
terbuka
3
hingga
jam
tokoh
##pera
##nkan
Ce
##pet
##ado
Ang
berasal
Yogyakarta
tentang
Umar
##yo
##mad
Wong
Agung
Jay
##eng
##rono
Sera
Amb
##iyo
##rko
##stum
ser
##dad
Belanda
##hia
##mb
barang
emas
sam
##pang
##pur
top
hitam
##gen
##akan
##cama
##ta
dura
mula
permainan
hi
##buran
biasa
mu
perkembangan
##isi
mis
##tis
##non
dianggap
##dang
ro
ikut
media
tubuh
Kini
Ki
Mis
Indo
##sia
disa
##jikan
ang
jenis
kaum
selanjutnya
Para
bus
##ana
macam
##ken
kelompok
##ing
Bus
mirip
pra
##jur
##it
Kom
Sedangkan
##ala
##ingi
antaranya
Jan
##nat
##ul
Ba
##qi
##ī
##mak
##aman
utama
terletak
Mad
##ina
Arab
Saudi
##bera
Masjid
Na
##ba
Nabi
Muhammad
##ku
##bur
serta
saha
##bat
berarti
Taman
Sur
dikenal
al
Ghar
##qa
##d
tanah
akar
pohon
berbeda
##nam
Ga
##had
##rdu
Box
##th
##orn
##rli
'
Po
##rje
##nis
L
##y
##cium
sh
##aw
##ii
Bahasa
Ala
##osa
##j
spesies
##kita
000
jen
##aza
##kam
Orang
pertama
As
ad
bin
Zara
##rah
Ans
##har
hij
memilih
ku
kalangan
Mu
##jir
##in
sana
Ut
##sman
##zou
perang
Bad
Beberapa
Islam
##rku
Joan
Cap
##vila
sepak
bola
Spanyol
kini
klub
Lie
pernah
Villar
##real
CF
Atlético
Madrid
Deportivo
Coruña
Microsoft
Dynamics
NA
##V
perangkat
luna
Pere
##naan
sumber
daya
Enterprise
Resource
Planning
bu
##duk
bagian
fit
modul
##jual
##masa
##ran
##mbeli
man
##uf
##jemen
##uangan
manusia
gud
layanan
##mini
##stras
##vision
kecil
menengah
Abdullah
Za
##inie
Wakil
Ketua
Badan
##meri
##ksa
2009
Ia
Dewan
##wakilan
Rakyat
1971
1997
1998
1999
hakim
BP
##SP
1941
##K
DP
##R
SMA
Be
##rau
sekolah
Kabupaten
Kalimantan
Timur
Sekolah
berdiri
Sama
umumnya
pendidikan
##N
dite
##mpu
waktu
pelajar
Kelas
X
XII
dire
##smi
19
Juli
Gubernur
Provinsi
##pak
Su
##war
AF
Plus
dipimpin
Drs
Eddy
Dar
##ma
M
P
2011
sekarang
Ahmad
##ong
awal
siswa
##rj
##umlah
kelas
rom
##bong
belajar
41
terbaik
13
Kecamatan
Ses
##uai
##put
##usan
Bu
##pati
Pen
##diri
Menengah
Pertama
Atas
##uan
Ter
##padu
Nomor
475
Tahun
2007
Tang
##gal
8
Oktober
resmi
berubah
Fa
##sili
##tas
berikut
Sem
##oy
##o
##uk
Gunung
##dul
Daerah
Ist
##ime
Peng
##kok
Bund
Ng
##leg
Put
##at
Sala
kota
##oro
oro
Banyak
menyebut
seri
tower
re
##lai
televisi
stasiun
##pkan
##rany
Trans
##7
Jo
##gja
tv
##O
##ne
SC
##TV
Metro
ant
##v
TA
Solo
RT
NET
##lang
gunung
api
pur
terbentuk
##kua
mag
lebih
60
juta
lalu
##sus
batu
berupa
##esi
lava
br
##eksi
km²
##bah
Nga
##eda
##ngs
Desa
wilayah
Lua
14
82
Km
##²
21
75
%
luas
Jar
±
##4
km
sedangkan
jarak
kabupaten
2019
Bat
nga
ge
##sari
id
1
##bela
Barat
##rbatasan
##kol
##lip
Utara
##gom
Selatan
##ding
Play
##en
##bagi
pad
##uku
Boy
Kent
##ire
Buy
##utan
Man
Kara
Sam
##ben
##sem
Sumber
Ware
Pl
##oso
##yong
##lara
##ting
##gian
rata
100
m
permukaan
laut
cura
hujan
mm
jumlah
85
##cak
bulan
Desember
ti
##ap
udara
##rki
##sar
27
##C
34
Dengan
demikian
sektor
pertanian
dapat
dikembangkan
##ke
##hut
##anan
##erna
Jika
dilihat
tercatat
penduduk
tertinggi
##band
sebanyak
08
##1
893
188
##jang
jalan
##pal
##perk
29
2018
salah
0
5
pusat
24
39
provinsi
Ada
batas
Wat
Mer
##tel
kondisi
##ografi
Tinggi
200
700
##pl
b
Cu
1954
43
/
c
Jumlah
basa
Top
data
tinggi
20
300
CD
##esa
##rja
##rak
sekitar
menuju
propi
##nsi
D
I
temp
cukup
jauh
##kota
sehingga
fasi
##litas
umum
ekonomi
##batas
##mada
477
Ha
Wilayah
empat
belas
Du
Lor
Kidul
##gli
Ja
##tib
Pace
B
Bulu
Bal
##is
##sina
Jam
##bon
##tir
##ejo
##rej
pemerintah
35
Kota
Tengah
Sebelum
1995
adanya
##atura
Pemerintah
nomor
23
##mbentukan
Dua
Leta
utara
K
##laten
795
81
ha
ketinggian
150
500
meter
air
topo
##grafi
sebagian
terutama
selatan
##buk
##itan
##°
37
°C
mencapai
247
jiwa
kepala
238
KK
##rmat
##cah
##arian
##ani
##dag
wir
karya
##has
padi
##dela
jag
##cang
ket
##sil
meliputi
##rika
mang
pis
buah
produk
ung
##gula
para
du
##lu
masyarakat
Pr
##banan
We
##aka
##hing
musim
pan
dijual
bahkan
sedikit
datang
##nju
Dusun
##nga
Pond
##ok
sebelah
##pra
timur
Kaye
Sen
##gon
##kere
selu
km2
9
berdasarkan
##unt
##ukan
pengguna
lahan
1080
m2
hektar
Hut
Ser
##iri
##gga
Or
##bita
tenggara
##aton
im
##ogi
pantai
##ngt
##ritis
Geo
Selo
##mio
##ro
##tul
##wung
##to
sebe
##su
##ko
##lur
##uki
kap
273
2000
suhu
##2
30
dera
##jat
05
##koa
38
Kew
##ila
##yah
Pa
II
III
##yum
##enen
Kepala
Pot
##ensi
Alam
##ologi
Eco
##tech
Tel
##aga
gan
##du
dende
war
ben
##ggo
##lo
kl
##ego
t
##logo
sa
##rang
angka
##sa
geb
tina
##tar
Bent
alam
Kali
##ged
##he
ran
Mata
##dh
##e
ju
##mble
puncak
gar
wat
sob
##eat
##if
Creative
##M
kayu
hang
##aji
tas
dom
##use
reduce
##cycle
gula
em
##ping
##lin
Teknologi
Tech
##no
TT
##G
##katan
tenaga
matahari
Art
##op
lu
##kis
wo
tim
##bul
the
kara
##wit
##la
www
giri
pang
##kar
##sek
bernama
Men
Cup
benda
pus
gu
##ci
##pan
berusia
##ruk
##uran
cm
##tiga
cup
paling
Kina
##ndu
Ka
##ntang
##wir
##usa
ahli
##mar
##bung
kai
mori
te
##bal
Kai
##mbung
dibuka
setiap
malam
##lasa
##li
##won
##gs
Kap
##apa
sesuai
##ngga
ja
muncul
pola
kon
##on
menggambarkan
rama
situa
Nusa
depan
keadaan
sosial
politik
##mul
Dis
##ebe
SD
##IR
##IS
##U
##KO
So
Pal
##iya
180
125
pek
##arangan
55
dil
##alu
jalur
Won
##rdas
##arkan
karakter
##istik
##A
##kata
##gor
relatif
##pit
berusaha
mengembangkan
usaha
industri
Pampa
sent
Pola
##dung
##dow
Wet
##rog
##ol
masjid
Age
##mana
bantuan
Yayasan
Ama
##kti
Muslim
##cas
Y
##AM
##P
milik
Al
Presiden
##eh
##arto
gun
##rana
iba
##dah
warga
wisata
sing
##gah
##wet
Secara
land
##ai
kawasan
ce
##kungan
berg
##unun
kar
##st
##gunungan
##wu
T
##row
##ono
pasar
terbesar
li
##ntas
##gh
##ub
Banten
melalui
pes
##isir
##lus
ki
so
sap
##tosa
as
##em
barat
##duduk
perse
##slim
Mus
##hola
##gar
pond
##ant
##ren
PP
k
##hol
##ifa
N
##iyah
hidup
##rda
dimana
##rm
##mir
War
##ugi
##irin
##bil
##saw
##pt
##lor
enam
yakni
##tang
RW
Lembaga
Perm
##yawa
##rata
##D
##mber
##day
Mas
LP
##runa
PKK
##pek
Mon
Plan
##jan
Kan
##igo
sini
beberapa
ind
##rene
##oba
##uya
##ker
Ker
##ban
kedua
ng
537
##6
Mayor
##itas
##eba
##eger
Wu
##ngur
Gaga
##lom
##pon
##jero
##gut
Dok
##po
berkembang
baik
##bida
perdagangan
pari
##wis
##ata
dl
Kato
Nat
##uca
##om
Ron
##kop
##ir
kantor
##tah
dilaksanakan
Kantor
Pol
##rami
SMP
kelurahan
pagi
sor
y
dahulu
##age
Le
##gi
lapangan
rumah
sakit
##rlo
##kasi
##don
Mir
RS
Lapangan
Bola
Dana
lan
##jut
Bara
sepanjang
proto
Sad
##unga
##dio
##mbo
##ni
Prin
##bo
Mel
##mbang
##ingas
Don
##dong
Tam
##bak
##jing
##mani
##mah
Je
##gul
##rici
Song
##wal
##gger
Ken
##dal
mencari
##ghi
##dus
memenuhi
##rsi
min
##um
cu
mand
##nak
##fa
##atkan
dana
Da
##we
Karena
sed
##iment
##asi
##pic
##gg
##undu
da
##hs
##yat
maka
mampu
bertahan
kr
##isis
dek
##ade
belakang
membangun
bak
##beli
mobil
##lili
pembangunan
gedung
##ora
material
in
##fra
##struktur
Bo
Bot
##oda
##anu
##ep
Pac
##are
Can
##dire
Dada
Hindia
Raad
van
Indië
organisasi
koloni
##al
Asia
1609
1942
samping
##bern
##deral
didirikan
badan
nas
##bih
##tro
##curi
##gai
des
##pot
##ali
##mbi
##cara
masalah
abad
##barkan
VOC
selalu
mendapatkan
Semua
titik
motif
Jacobus
##ter
Vis
##scher
18
bang
##kr
1799
kedudukan
dina
Republik
Batavia
Kerajaan
Holland
kuasa
melaksanakan
##rsa
##tu
kekuasaan
Dari
1818
##tif
yu
##dik
##ati
##fn
hilang
selain
##sih
inde
##pende
reformas
1836
Nederlands
##ch
Kemudian
1918
Volk
##sr
##aad
maju
1926
##era
asli
terpilih
##rhenti
berfungsi
##kala
kemerdekaan
1945
Anggota
##njuk
##pulan
##karan
##mon
##ja
reside
Hi
1840
Suez
kapal
##ayan
##gka
Tanjung
Hara
Apabila
##J
##end
jabatan
##kem
meno
##njo
tua
dipilih
Hendrik
Set
##id
##joj
##erat
politikus
Suriname
keturunan
ar
##site
##ktur
karier
sukses
2001
wakil
direkt
direktor
ur
Kementerian
Ur
Sosial
Ekonomi
mente
##mente
##bine
Vene
##tia
selesai
Menteri
##tania
Peter
##nakan
Bou
##ters
##dd
Maarten
At
##diko
##unan
memulai
profesional
1989
1990
SV
Sc
##hie
##dam
Dordrecht
90
Breda
NEC
Nijmegen
AD
Den
Haag
Auto
##dida
O
auto
sebutan
lainnya
##was
Yunani
##dí
##tos
=
sendiri
guru
pengetahuan
dasar
bidang
ot
##odi
##elu
sastra
tangan
sangat
ses
##hnya
##kah
kemungkinan
real
Kata
sering
##nota
ne
##gatif
dini
##did
##ik
intel
##ekt
##ual
bukan
##ingan
benar
mudah
sy
##arat
##ahl
##alau
begitu
kata
##guna
Jake
Z
##yr
Cha
##rma
##ine
Cl
##ce
Re
##cio
##mpen
##co
mono
##nim
##rice
penyanyi
Filipina
terkenal
YouTube
##jul
##rba
Dunia
Op
Win
##fre
album
studio
internasional
pertamanya
2010
Album
masuk
tangga
Billboard
peringkat
menjadikan
solo
sejarah
singel
##yramid
menampilkan
##z
Ini
##kses
40
##atas
sejumlah
tampil
Show
##rali
turut
memainkan
peran
Glee
Sunshine
Cor
##azo
Before
It
Ex
##plo
ditulis
Bruno
Mars
keduanya
Infinity
Bulan
2012
jur
Factor
disiarkan
ABS
CBN
Juni
Ca
Laguna
lakin
Carl
##bes
ibunya
Raquel
##rp
##isa
ayahnya
##kera
berumur
Untuk
membantu
konte
##yanyi
amat
umur
tujuh
tinggal
kom
##petisi
##barn
mengikuti
80
Little
Big
Star
American
Idol
##eli
##minas
penampilan
dipanggil
##ain
wild
##card
finali
nilai
final
juara
lokal
##enar
mer
##pai
menarik
sama
##lse
##oi
##mung
Video
fenomen
maya
diu
##ndan
demo
##kaman
Songs
Productions
Stockholm
##wed
##ia
berjudul
Amazing
diambil
namanya
Dream
##girl
And
Am
Tell
You
Not
Going
hit
situs
web
Korea
King
Whole
New
World
Ky
Super
Junior
Ellen
##gene
##res
tam
kalinya
terbang
acara
Will
Always
Love
##nnya
##vori
28
Gloria
Gay
##nor
##vive
##et
Lena
Park
##aco
##ña
Palace
Januari
bertemu
had
Mac
Arroyo
Paul
Grad
April
London
drama
komedi
musika
##eran
char
##ice
mempunyai
dig
##ema
##maja
p
##uting
Bend
##ungan
##jih
dikatakan
pedal
antar
Jalan
sebelumnya
Baru
era
an
dibangun
asp
por
##os
administratif
25
tanaman
##fes
tada
Han
saw
beri
##riga
tek
pekerja
mig
##boro
berbagai
formal
informal
Semarang
Bandung
Jakarta
Surabaya
##nta
##enga
##bang
Sokol
##iman
gi
##liner
bisnis
##so
sot
Bis
##guas
##kso
Bas
##kom
Pak
Pri
##mala
##km
##ito
##gus
##aha
Sebagai
zone
Led
sub
##sah
persa
##wah
Ir
##igas
sungai
populer
Goa
Pin
ag
##rar
sela
kegiatan
dilakukan
##les
##tari
ane
ra
tradisi
Ras
##ulan
##bre
##uwa
An
##eka
##kait
##esta
##pel
lati
dog
##thi
##cinta
renta
Situs
Mega
##liti
Bang
##awa
##tny
bel
##se
##isan
Way
##ber
##jaya
jej
##gia
budaya
##kal
klasik
her
pred
##ikat
Buda
##tkan
##mda
Surat
Propinsi
325
KP
##TS
##eta
32
Bin
bl
##kon
##esor
pak
##aian
paso
cam
makanan
##ip
##kong
##tot
bahan
bangunan
##gel
Pulau
Bali
Menurut
##unut
sebelum
##kla
##masi
##mer
Agustus
Kelurahan
Ku
##wo
##ring
##opa
Lur
##omo
##beni
Bon
Hard
Kalurahan
IV
VI
##stro
Tu
Car
##muda
##ntis
##bungan
##lat
##ges
##amp
##leb
##ihan
masing
##iwa
##anga
##tuan
membawa
ma
##rmo
mendukung
Air
Oy
sum
Muda
##ed
##hong
##mur
Ci
##lik
Em
##ple
##mil
##kna
##hara
gab
##jian
##sur
Hari
2013
diketahui
1946
##rte
##patan
##je
1877
Ji
tag
1365
H
ditetapkan
01
Sejak
memimpin
##kson
1949
1964
##pri
1965
Lu
##jana
1966
1996
Yan
2014
2015
2021
##uar
pot
mina
khusus
sus
Sungai
##elia
##eko
##nomi
setempat
khususnya
##tina
anda
Referens
Book
##let
##inga
67
##itia
##UT
Dalam
http
##hand
com
##kil
https
index
php
first
Wi
##lade
kampung
mert
kam
##wala
##bing
##ili
##ipa
ah
12
##usi
##wen
Dur
##kor
Kampung
Jura
##bire
##aten
tengah
Tan
##butan
objek
##ua
Ra
##jun
Sri
Get
pula
meg
ditemukan
Deng
asal
tepat
Kode
##pos
558
##mba
Logan
##den
Legenda
Asa
##asa
Maja
##pah
Page
Was
memasuki
##iki
##jalan
##nany
akhirnya
memutuskan
##jad
je
##lata
pilihan
agar
tenan
##akon
##inya
##gola
senjata
Prof
membuat
Wes
tu
##kang
##per
##cay
##batan
prof
Maka
##mati
##bia
##saan
hen
##pat
##bis
sis
tela
##gem
##bara
Ny
Sari
ci
bakal
Sebuah
Sep
##ening
##galan
##rla
##gge
##mbar
##gur
##data
kemampuan
ilmu
kan
##ura
##gann
dekat
##ada
##mper
##luas
##muk
kaya
raya
##sedia
kala
Bumi
Sion
mani
##festa
berisi
Ata
Is
Ono
Arti
##iami
berikutnya
menyediakan
##mpuan
area
wa
##fat
##daan
Wit
percaya
arah
Jos
##ingo
##rag
##una
##rde
Gand
##ho
pili
res
##bati
penyakit
ola
bat
##hin
metode
Game
##iar
##hina
##ble
resa
Baba
tapa
tik
pl
Demi
##kian
ketiga
##mbah
saling
##mbut
##uhkan
1892
Kad
##ten
Raden
##kra
##gara
Dem
Kar
##tik
##dem
##angan
Wir
Ali
##eman
##way
##yama
##haya
##cua
kerajaan
##klu
##onta
mau
bergabung
mendapat
hala
hab
##mpo
##bunuh
aliran
perte
##muan
ru
##tin
pengembangan
##uskan
##mpas
##tika
izin
dira
perlu
berkuasa
##giz
##sun
rencana
##gat
str
##ategi
menyerang
kart
##ika
##mis
pasti
##njak
isti
##akati
aya
jan
##nda
Dir
harus
##bit
Ti
ten
##tuk
##nti
##yia
Aya
##aju
##rit
Kati
##dada
kalan
lar
tung
lang
perlawanan
seng
##aja
mundu
pasukan
sia
ji
Pasukan
ko
##car
##cir
##tand
##bi
but
mencoba
##nyi
Lo
##sai
Kun
##mban
Rum
##rtu
##jama
##bau
##rek
##ge
##jaran
korban
ajan
##tai
bergerak
melawan
sebi
##pung
##tain
##hari
##lama
##yakan
kemenangan
kad
seno
##cap
Pest
##jud
##ima
##be
##bas
##hku
##rtugas
ks
##ria
##percayaan
##anden
kita
kela
##hwa
##GA
##ND
##EN
alas
##rus
keputusan
Sang
Adi
ak
##hil
balik
dem
berkata
perd
kami
##rat
##kha
##wati
##pala
##lih
##jar
##lim
jika
sera
belum
##rpen
##galaman
medan
timp
##dengar
##pka
##kau
demi
##mu
##pi
alan
membunuh
hewan
##cil
?
##ktik
pimpinan
kus
sepenuhnya
aj
lelaki
PE
##BA
##T
##UR
##H
##EP
##AL
DE
##SA
##iro
Hang
##abe
Radio
##ast
Sai
##ud
soe
##dar
Hart
##hard
Par
##aran
##leri
Sid
##ore
Go
Bed
Gen
##jahan
kelahiran
##hla
rev
##olusi
##lone
Inf
##ume
##gion
Saw
##romo
Um
##ndi
ref
ho
##cing
##sung
su
##bet
lo
##bst
aksi
Tem
Say
artikel
##gini
##sias
##gra
##jin
Salah
suas
din
##wak
##yen
merasa
Hal
posisi
##landa
sul
Ak
problem
pihak
##tans
##ternal
##sant
DS
Universitas
##dja
##lia
Nya
contoh
mahasiswa
##nt
##rib
##lar
bentuk
positif
##guruan
##nas
favor
##kup
##hit
univers
Sun
##IN
##II
Dahl
UA
##GM
puluh
mener
lima
Us
##tad
Wild
Sal
##bila
##ordinator
Maha
##sis
Unit
##02
2016
##jeng
Reza
##pok
menjelaskan
##uli
struktur
##gali
##dala
dibentuk
16
tema
dar
##elo
##laan
##nser
##vasi
Day
##rbasis
Up
##aya
Mit
##hada
Ben
Me
Program
Water
Project
##uju
program
dimulai
sila
melibatkan
angkatan
Tim
dose
terlibat
Dr
Sud
##ary
##anto
##wari
Nur
Ari
##hy
Toto
##bow
Fakultas
Ju
##ns
Info
##tog
##rafi
##inder
2017
##jati
##iria
##rid
070
##58
080
##04
1100
03
BT
##25
04
611
785
##c
##fo
semi
detail
skala
klas
##ikasi
##lita
all
##uvia
kas
sentral
##le
##wil
##ola
Forma
##logi
membentuk
rang
##kaian
##sit
formas
Tampa
##jala
unik
zaman
##lasi
Tras
lata
##mina
ataupun
Sejarah
##ca
den
dong
legenda
diwar
##iska
##hur
turun
temu
##run
generasi
##rasi
##ksud
usu
Walaupun
##tikan
##bena
hub
ide
diri
nen
##ek
mo
maja
##abu
Br
##ija
##mund
kehilangan
terlalu
sel
##aru
agama
##bangan
##ob
pengaruh
Putra
Melayu
Dewi
##ampa
pulau
key
##aki
kuat
Agama
lingkungan
hak
##menang
##dra
Ward
mendirikan
##tara
##rpus
##rlari
##lari
##okus
##umo
Bond
##abat
##stir
situ
perjalanan
##sya
##wara
hun
seluruh
##oto
##istir
berat
daun
il
##alang
##kamp
Fi
##loso
##fi
Oro
proses
kehidupan
berjalan
melanjutkan
##kannya
##hir
##lam
penuh
##jawab
ama
##nah
##pina
bija
##hid
##upan
tentera
##rga
##got
semakin
Sei
sos
ari
##kej
tra
##yos
##hat
norma
##ngi
##au
dud
kendi
sete
bug
##utu
pay
##uda
rasa
##kel
##bula
aka
mengambil
lid
tali
meni
##up
##pian
bag
##aikan
papa
##rik
##enta
##rter
##iak
##cam
kejadian
mata
ingin
##uat
harm
##onis
##lak
pulang
dating
##egas
isa
ger
dice
##lami
##uah
dipakai
de
Tidak
pindah
gara
##din
bela
##rken
##tup
nu
##ite
##hama
walaupun
bunu
beliau
##warkan
gay
sen
##iga
##paro
##arak
##dapat
mengeluarkan
suara
led
lega
##nji
members
berbentuk
##gama
Jag
mengadakan
##olat
mengumumkan
Til
##ase
sekaligus
memerintah
##ilas
Ya
##itu
makan
sea
##dan
sora
##adi
##bers
##hala
##bed
##sok
##rdi
koor
##dina
##lagi
cepat
##lun
koma
##ndo
Zaman
1900
perubahan
##isti
Sus
dijadikan
menjabat
##kro
##B
1933
1943
Sent
##gny
##oh
##utom
SH
##egi
##ew
SE
##diya
##madan
##laga
Bare
Guy
Banjar
##esti
Bale
##test
##ulu
##lod
##oga
##liya
But
##ao
Sir
Bogor
pu
##lut
UU
No
##wad
##mura
menghasilkan
say
##con
po
produkt
##utama
##bel
antik
j
nasional
seja
##hter
##nung
Sha
##raf
##uddin
Selangor
Sultan
Idris
Shah
November
Istana
##maa
Klang
Abdul
Aziz
Nor
Said
##atul
E
##gku
1968
##rina
##inal
Ze
1969
##hah
1973
##rai
1986
Lisa
1988
31
mantan
presenter
berita
##evi
##syen
Malaysia
Nora
##shi
##kin
Rahman
##AG
@
grup
rock
alternatif
Grup
dikenali
##lir
1992
Rad
vokal
gitar
Chi
drum
Ivan
Lam
bass
awalnya
Old
Automatic
kemudiannya
Genius
##OT
##W
Disember
halaman
##oha
##rip
##by
##nco
##ron
dam
##kun
ban
##mli
dinamakan
tun
Bp
agus
yo
bilangan
Besar
Pusat
sistem
Kur
##iku
##lum
Rev
dimiliki
##nja
##gajar
ekstra
##ler
Tre
##mes
##tino
Mojo
##tau
istilah
bor
mi
##brik
##unit
Medan
##ssar
1991
PA
##RI
Her
##arn
Bande
##ay
##jor
##eno
misi
##wang
##EA
##DA
##AN
##UM
##AS
##IL
Tanah
224
0000
246
##bey
##adu
Bala
len
##gkap
##hraga
Got
populasi
##pec
rendah
##par
sat
kilo
Kay
##ulo
Thérèse
Li
##sie
##ux
There
Yesus
Aku
Cinta
Allah
##bio
##CD
Baja
Flores
##erbit
Marie
Françoise
Martin
Roma
santa
Doktor
Teresa
Av
Katarina
Siena
##lde
##gard
Bing
##obi
kanak
Rohan
##erg
##antung
##rap
Yo
##hanes
Indra
##uma
Cet
Pas
##paa
Shan
##hua
ISBN
979
976
##15
dilahirkan
Ale
##nç
Beat
Louis
Beata
Az
##élie
Guérin
renda
##rable
##less
##lie
Their
Lives
sale
bi
dito
berbahasa
Latin
vok
Tuhan
##pers
##emba
1858
##bilan
dewasa
term
##pona
Departemen
Calvados
Normandia
##idor
apo
##tek
Benedikt
Notre
Dame
##é
Pauline
##rti
##ndak
ordo
##rzi
Leo
XIII
Anak
Past
pemimpin
Bay
##eux
1888
post
1889
##der
stroke
sanat
##orium
Sau
##veur
Caen
1894
kematian
Cel
##uer
1895
Leon
##ie
gagal
Francois
Maria
Suci
##uc
##yada
menyelesaikan
tindakan
##law
menyatakan
menulis
bagaimana
saya
menunjukkan
Cara
bunga
##dangan
pendek
spiritual
Kada
kadang
membaca
##hani
ri
tantang
##iling
##ank
letih
buku
hau
Alkitab
membuka
langit
pel
aku
##gert
##bir
sur
sentiment
##kana
##menge
diikuti
##mand
##umit
doa
Do
##gik
tat
sederhana
co
##baan
ning
super
##natural
##nian
terus
taba
1896
##dara
hem
paru
tube
deri
##china
1897
##itaan
histoire
une
âme
Kis
Sua
tuli
perin
##mori
##tru
##ksi
Ibu
Agnes
##tua
Hat
ret
##ret
##nza
##gue
menggantikan
##mungkinkan
rin
##cian
##ligi
##blik
anu
##mert
##unti
##tim
gaya
mengubah
naskah
seo
died
puis
##kre
diterbitkan
##ori
##tati
edisi
##tus
tulisan
IC
Pub
##lika
Washington
DC
Story
Soul
volume
John
Clarke
Puis
Santa
Donald
##nne
##the
Kane
1902
Polandia
Raphael
##nowski
Santo
Pius
##ndatangani
##kaan
1914
XV
##unda
beat
1921
##mum
##komen
##das
##beat
1923
Mei
1925
XI
##gatan
##mbahkan
kalender
1927
Calendar
##ium
Roman
Libre
ED
##IT
##CE
Vatican
hlm
104
42
Paulus
natal
ulang
141
Basil
##ique
Sainte
pez
##iara
peli
AIDS
tok
umat
Rusia
Ort
##odoks
##kui
patrona
1944
##mai
Arc
Yu
Anugerah
Ling
Goldman
Res
Prize
##iny
bir
##sul
NG
F
Environmental
aktiv
rum
Afrika
Eropa
Kepulauan
Negara
uang
Dol
fila
##fis
Richard
alma
##hum
##hoda
dewa
nomina
##kkan
jaringan
individu
tur
San
Francisco
C
upacara
##uge
presenta
##fere
pers
kebijakan
fina
##pha
##oman
memenangi
Vo
##x
komun
département
Aisne
region
Picardie
Hawaii
University
System
diploma
sarjan
master
doktor
pas
kamp
community
college
##tih
pekerjaan
penelitian
sean
##tero
##redi
##tasi
Western
Association
Schools
Colleges
##wai
##ʻi
at
##ān
##oa
Honolulu
CDP
Land
deals
could
##eathe
new
life
into
Moi
##lii
Pacific
Business
News
Sunday
July
Retrieved
on
October
##belle
that
time
even
suggested
moving
system
offices
from
campus
office
space
something
current
administration
is
not
actively
considering
Office
President
244
Street
Bach
202
##I
968
##22
Board
Regent
Executive
Ad
##strat
Secretary
Hall
Room
209
Metal
##core
Genre
1980
musi
hardcore
punk
metal
##trem
Selama
##da
##ftar
label
##garuhi
death
##cul
popular
Black
Flag
Hardcore
part
Th
##irs
##ty
63
66
Brain
Andersen
Jenkins
2003
Dance
Days
Two
Dec
##ades
Punk
Nation
Capital
Pos
##itive
Mental
##titude
##ashi
Books
Sabbath
Disc
##harge
##ited
##ins
##pira
heavy
##cipta
Glas
Ian
Burning
Britain
History
UK
Cherry
##fit
Earth
thrash
Blu
##sh
Hits
Hell
204
##win
crossover
kelab
Berkeley
Ruth
115
Istilah
merujuk
Felix
von
##vo
Maximum
Rock
n
Roll
#
198
Access
date
June
##ros
##ion
Conform
##ity
193
DR
Sui
##cida
##cies
##hri
##ste
184
##gisi
Metallica
Slayer
skin
##head
York
Murphy
Law
##gno
##stic
Front
186
##zone
Mot
##ör
189
straight
edge
##sada
IS
##CO
were
band
attract
both
Skin
audiences
their
music
point
where
ni
##ism
met
power
periode
##rum
##bs
##uck
##ers
1985
break
##down
unsur
reggae
How
Abrams
NY
##HC
scene
Mo
style
was
slow
very
tribal
like
Reg
##gae
adapted
outbreak
dancing
with
mid
tempo
driven
by
floor
tom
sna
##re
##micu
mos
Cause
for
kola
##bora
Steele
192
Antara
gelombang
Int
##eg
##rity
Crisis
Con
##ver
Hulu
Judge
##dria
Albert
Cho
##osing
Death
Im
##pro
Fe
##ral
House
222
223
##rif
Terror
##izer
no
171
78
here
used
its
original
context
refere
##ncing
##ors
##cha
Vision
##order
Hate
Ross
Straight
Edge
Clean
living
Youth
Social
Change
Rutgers
Press
87
88
##bod
##ied
Sharpe
Young
119
Sept
##ic
##hain
Joy
Division
cite
Ent
##omb
Bolt
&
##ey
##sta
Miami
Times
May
22
Karl
##ech
##ner
Ob
##ituary
prime
influences
also
discuss
Blood
relationship
See
Fire
##stor
Des
Machines
##mor
Season
End
genre
Gabriel
Card
##enas
Salas
Blast
February
96
Coal
##esc
Over
##cast
penting
J
Bennett
Doe
##olver
##taw
Lars
##rich
##linger
Escape
Give
Them
##ope
ton
##ski
red
##ukt
##atur
tanda
agresif
Tale
##opes
All
##side
##red
Hearts
Once
Nou
##rish
Hope
Com
##pass
Century
Media
Blade
Sub
2002
Kill
Eng
Alive
Just
##eath
[
]
debut
Shadows
Within
##rey
Curse
36
2006
On
Yesterday
Lead
##ls
Paper
##chor
Sing
##el
##main
Week
Mainstream
Tracks
Lagu
Modern
Nothing
Left
Lay
Dying
Rede
##mption
Fall
##omina
Grammy
kategori
Best
Performance
Ocean
Between
##erta
kome
Wales
Bullet
My
Valentine
Scream
Ai
##ui
Fever
71
kopi
minggu
Britania
Raya
Poison
memperoleh
sert
Recording
Industry
America
RIAA
##lima
Under
##oat
Def
Great
Line
98
Tri
##viu
##kes
Australia
God
For
##bid
Suprema
##cy
Pers
##ever
##ance
Sacra
##ment
Devil
##ars
##uks
With
Roots
Above
Branch
Below
Lost
Sound
##aration
56
58
Bring
Horizon
Suicide
Silence
Time
##lee
Albums
Chart
Crown
White
##chap
This
Exil
900
118
65
Canadian
47
Era
##ruption
600
memenangkan
Penghargaan
Kerr
!
Terbaik
Count
Your
##ings
meninggalkan
Diego
##fe
Dead
Arms
metodi
kontrak
Victory
Records
Murder
ARIA
Charts
##yin
##tesi
##rone
400
keempat
##pite
##rna
522
US
That
Spirit
Seorang
##cre
teknik
bridge
chorus
Teknik
grow
Instrument
##ff
keras
##istor
##kada
double
##itar
##etem
kebanyakan
Drop
##nar
Drum
penulis
James
Giordano
##nderung
daripada
sign
misalnya
Ave
##nge
Seven
##fold
Taste
Chaos
110
Rocks
Tour
night
when
he
##avier
bands
inte
##nd
position
themselves
next
generation
actually
pack
arena
Bury
Tomorrow
Dark
##est
Hour
August
Burns
Gates
Flames
Arch
Enemy
##work
##ject
Math
pertengahan
Es
math
analog
##jil
Fear
ele
pro
##gres
##oca
##tion
##mbawa
Knights
Aby
##ss
Chelsea
##pend
Doom
Electronic
elektronik
Kanada
Alt
##sou
##nds
Goes
Pop
Vol
Review
Hong
Kong
dj
##ent
##mos
##feri
instrument
kompleks
Nu
industrial
Of
Mi
Issues
Adam
Carroll
professional
Irlandia
bala
A1
##GP
GP
Series
FM
International
##med
##zai
Chan
##jen
TNI
##urn
##unto
Sumatra
militer
##gda
Bukit
Bari
##af
##stra
##abo
Tempo
##nto
Feb
##bata
Mail
archive
Akademi
Mil
##iter
Yang
Library
ohi
edu
Selepas
menduduki
##rkas
pejabat
##izal
digantikan
##ffa
##anda
##itori
##tera
##mut
##jata
Infante
Jabatan
##sp
Jenderal
##rom
tenor
alto
horn
Horn
Jerman
alt
##horn
##trum
logam
Inst
tro
##mpet
coro
reso
##nato
mouth
##piece
dibandingkan
Umum
march
brass
ens
sejenis
bar
##iton
eu
##phon
trombone
##ndar
##anc
sp
##fik
dy
##bone
##maan
##ida
##enn
British
Brass
##juk
orkest
fungsi
##gant
concert
bersifat
##sti
##tuti
Coro
dihasilkan
##low
middle
voice
katalog
corn
soprano
##ingkat
pat
dica
##tat
bern
kat
model
Denmark
##nder
##dura
terminal
bis
##ama
Web
##ule
Gent
##jos
##nies
##ngin
Tas
##ikh
##argo
##L
348
374
##5
042
046
996
Bog
Tun
02
##son
One
Million
##IA
pertandingan
RM
##juan
artis
##iang
Distrik
Pahang
##loh
##ugu
Feld
##uch
Chem
Suku
Cina
India
##ayo
##maya
Daftar
##sel
Federal
Swiss
<
only
##clu
>
##rikut
daftar
894
##ato
terlihat
Sec
Un
##garan
sisi
##ropa
##eros
runt
##eis
Aki
##presi
naik
##daraan
Terdapat
##erus
sin
##yal
radio
##IC
Guo
Information
Company
Limited
Tiongkok
komputer
informasi
konst
operasi
kabel
satelit
integra
tambahan
tele
Co
Ltd
Group
Bursa
Shen
##zhen
##lka
GM
##KA
zi
Pela
##rdo
Terminal
Raw
##ib
Les
##ehan
taman
Uma
##oki
Yusuf
Bruder
##rega
##posto
##nata
kong
Pembangunan
Guru
Putri
asr
##teran
Lourdes
Brasil
kabinet
Commerce
App
##lian
Nanjing
Jiang
Shanghai
Beijing
Guangdong
Zhejiang
Anh
##xi
Fujian
Hun
Profile
##ggal
basis
##gua
tunggal
tega
sir
saluran
##itor
kole
##ktor
mungkin
ground
cat
trans
##ET
Ao
Medicine
##nh
RR
oba
farm
##gum
tol
Ik
Tor
spp
syn
Lab
##eo
##bus
suku
Cyprinidae
Neo
##chi
ikan
Nama
##cra
Sunda
##å
##rå
bio
##bra
##bro
##ides
##lk
##oti
dome
##stik
Bio
##versi
195
ih
##rong
blog
##tak
mah
##see
juru
mas
##sum
do
##uro
##nesi
boda
1916
Fishes
Australian
##ipelago
Ost
##ario
##ph
##ys
##noi
##dea
##pod
Syn
##bran
Leiden
Brill
Dit
Radar
Ed
Diakses
maksimum
deras
akibat
##rle
ukuran
##tri
##apo
##hak
Beni
iko
Dinas
##lau
##iaan
##anju
##bud
darin
06
Padang
##iam
teknologi
##mbia
##mija
adat
zona
Spesies
kolam
##gap
memakan
##rema
##mal
##oka
Jaya
##ram
genus
Nazi
##rito
##knya
1982
##eer
Fish
Rec
Zoological
Survey
##cca
##sional
##omi
mar
##mua
##skan
1993
Sulawesi
Edition
HK
##yek
EM
##DI
KM
##NK
Nam
waters
##hed
basin
Laos
description
species
##ffle
Bulletin
Zoology
225
FishBase
Kot
##tela
fishes
inland
Southeast
catalogue
core
bibliography
known
occur
freshwater
##rove
est
##uari
Supplement
Genus
##rub
Mind
Mem
##yai
Kwa
##yuan
##ht
##uri
Kuba
Driver
##rco
##cok
kwa
menemukan
CB
Central
##tric
perto
food
court
lez
harga
kanton
teh
poc
ena
##kalan
travel
##layan
rute
JA
##RT
##EG
tujuan
Grand
Opera
##tone
Robert
##ington
Instruments
Music
pp
##11
##3
ff
Family
Bug
2nd
Met
1962
sil
##ind
ok
##amaan
##lkan
##mula
bore
##toe
##oni
cela
rap
fi
##sik
##baliknya
menyebabkan
solid
fl
##lho
##rn
##ton
just
##ru
seks
low
Musik
##lef
tre
##sua
konser
March
##kate
Dom
##ža
Gore
##nj
##ska
Ljubljana
Slovenia
ring
##erk
##ais
##ans
Alpen
##mnik
dili
##mn
##ška
##trica
##hul
##kab
##umi
dicir
##kit
beroperasi
fr
medium
diterima
Sakura
Vers
##lem
poster
AKB48
Theater
Café
foto
Post
dibagi
ac
Festival
Musim
Semi
##ST
##AR
##nyata
tipe
##rans
##emen
##me
##moto
NHK
dela
Oricon
sempat
total
indie
semasa
##tra
mayor
Ō
Diamond
429
pintu
Austria
##owo
Nasional
##gla
Klub
es
HC
##cro
##cet
bekas
Yugoslavia
##juaraan
##lej
##va
Hr
##ši
##vor
##ški
##ov
##čna
Bela
##pce
pod
Gol
##ico
Pla
Pod
Potok
##hod
##love
##nski
##nik
Ski
##rt
##uncu
##hab
UD
##X
##onton
path
major
DVD
##taka
##tta
First
edition
Station
Fighter
panas
Fuji
##zora
it
varie
##ake
kartu
pos
609
kira
Gigi
##ilis
Facebook
Arbor
##etum
##č
##meran
tumbuhan
##runt
##til
Abad
##jarah
26
##če
##lpa
Gott
##sche
Habsburg
##jska
kuno
##rua
en
##tur
##lek
Bayern
##eris
##rny
Joseph
Gottlieb
##öl
##reut
Kohl
bot
ik
##tio
profesor
Karlsruhe
##mpe
liter
##anin
##ško
PL
Luz
Lao
##jia
##uman
##lko
Min
kadar
alkohol
jer
##nih
gel
karbon
dio
##oma
taj
##fer
##menta
##quo
diproduksi
Sichuan
Mia
##nz
##qu
##gye
##gate
595
Statistical
Republic
Basic
population
groups
sex
municipalities
248
##oj
Trieste
581
##vka
1909
##nska
##evan
##usk
##vne
na
##škem
Gus
##zers
1952
baja
380
##aria
1919
Stuart
Š
Lok
##nio
Julius
##dov
##lje
##kov
Vrh
nad
##ezni
##bni
Brod
##kovic
##š
##čica
##gro
Dorf
Flor
##cem
Form
##br
Gora
##eš
##ič
vas
##te
Host
##nap
##vski
##žna
##šo
##pica
##nica
##vno
##fr
##zir
##rot
##unge
##šta
v
##lini
Sp
##od
##ša
Stan
##še
Stara
##rmi
Sveti
Andrej
Sv
Barbara
##ž
##bol
Petra
##ev
Toma
Trata
Val
Ve
##šte
Vi
Vir
##log
##oko
pri
##mine
Pt
##uj
973
1511
##stru
1987
##vol
Slovenska
##vska
Marburg
der
##roen
285
##leta
Sava
cada
bara
listrik
cero
360
tr
##bov
##elj
##skih
št
##uden
##tov
##gani
##sas
Tore
André
Fl
##weg
Sogn
Tromsø
##ann
Rangers
Sunderland
##ål
##eren
Leeds
United
Milton
Keynes
76
gol
Péter
Med
##ssy
Perdana
Viktor
##bán
Katalin
##ár
Vasa
divisi
Liga
Did
1911
Budapest
Stadion
Rudolf
Ill
##sz
##ky
##pasi
berwarna
##ef
##inis
dens
atom
##oid
##rva
##rias
##ks
##sika
kimia
sifat
zat
##vei
rak
sai
##sita
g
##kut
batang
tem
plat
1809
aluminium
##tani
gali
##tris
ese
##balt
##nium
##cun
##mium
##ac
limba
kerja
##gawe
##kter
##isasi
##fida
##sten
nat
##rium
##lium
ska
##gkat
golf
anti
##pti
ove
pla
panel
gen
parti
def
bed
##fini
kecuali
blok
f
arti
hin
92
uranium
##krit
##alny
golongan
kolo
tabel
periodi
532
amb
States
Ph
##arma
##cope
Stephen
Hawk
diru
##anka
##rman
Lan
##jela
akt
##ini
mapa
##kimi
asam
Lewis
##ptor
pasangan
elektron
ion
##uta
##atik
garis
sk
dono
oksigen
nitrogen
##erang
##ival
##sin
##ega
##tivi
ika
##kali
##vale
##posal
##psi
faktor
##okan
kasus
##leni
##ivi
##klas
##lent
menciptakan
or
##namen
##ont
##iso
##mik
##vens
##ional
Sara
##bai
non
dijela
1817
Leopold
Gmelin
##loga
860
308
##anti
nuk
##ee
##cata
mewakili
Sea
##borg
##sert
astronomi
hidrogen
hel
##olog
##kot
##landia
Duff
##yi
efektif
alasan
r
os
##pert
##anya
ilmiah
##raba
Mineral
Materials
Society
lit
534
54
##jum
ren
diperlukan
transport
meta
##bolism
manga
enzim
##luk
##rodu
##tumbuhan
##eniu
##oks
##idan
##rmon
Periode
##ras
mol
##aksi
##tom
ark
##ea
##teri
70
kg
~
eki
polo
##isie
keren
##tanan
ef
Gal
german
mens
##ulas
ditemui
merk
kerusakan
penggunaan
##baran
ua
af
tio
##ju
##buru
fatal
##sino
##rati
##tami
Tin
##air
##ira
##ponen
##eti
bens
1930
1970
##sent
##tian
kor
##elas
statistik
##imin
usia
kur
polu
site
gang
##guan
end
##inan
organisme
organo
##tima
##ngar
Vana
##dium
##tok
##sida
##geni
DNA
Ion
##anat
liver
gram
##tung
##dosi
##aca
Nike
##fas
organ
mil
##ig
45
mg
##kibatkan
paral
##iti
Papa
##mane
resp
##iras
Gara
##lati
radi
##runk
##tam
gas
batera
##pla
##uder
##kini
risiko
Mina
##mata
1932
##tuta
##dungan
Bento
Rodrigues
Brazil
Flint
Michigan
##leo
bintang
##ikon
fu
cahaya
int
energi
##intes
neu
##tron
moda
##rul
stabil
beta
rapid
Oleh
jelas
##bom
##bard
bebas
seme
116
##ses
asta
##ksta
th
planet
evo
##lusi
Bintang
massa
##lon
gravi
mater
95
keseluruhan
##kst
erosi
##of
##cend
##erung
##fil
mineral
afin
sider
##ert
##nse
##hen
pala
tapi
##nsen
##tras
##toni
##net
bij
##pero
##leh
ment
malah
bakar
PG
campuran
Bij
lea
##ching
##idu
##ulin
mur
maha
##nida
##iano
##aur
##mpur
##ele
##siste
kekuatan
struktura
##mp
##lekt
##sny
orbital
euro
thu
aplikasi
high
electron
density
atomic
number
mesin
##taan
ball
kuda
ca
##cat
bob
##ot
kin
##uang
club
fair
fly
fishing
um
lalat
PV
event
##ntar
mart
tola
minimum
peraturan
##gste
meningkat
1981
Mart
pesawat
##tor
roda
##haft
giro
##skop
bal
kop
ruang
##loji
proyek
##aat
tant
##bili
tentara
##unis
##bakan
##agu
##eden
##mus
sina
##sele
##rator
linie
##mbuatan
arte
kereta
kun
##mbok
kis
fur
##nit
monet
main
lema
##ceg
##osi
pati
ata
gal
##vani
##sir
kale
##mbahan
##dol
##iniu
Anti
##zoa
art
malaria
formula
Berg
##rok
##imia
##teti
kontrol
##ware
##geri
fungi
amo
##laz
##amik
neo
##dim
er
##biu
tatt
##oo
##rmin
pre
##lektor
##tula
tipi
##kt
##roda
##kond
isola
papan
Ano
##list
Perak
tomb
off
kot
##oran
tel
##nsel
Alessandro
Volta
volta
1800
##meti
nic
##dri
##sium
starter
motor
window
laser
light
##itti
LED
##pila
##uo
##cent
Laser
platinum
organik
nich
##cit
##raan
ano
tab
salut
va
target
##alas
##top
##tine
Origins
Wolverine
Marvel
Comics
Gavin
Hood
David
##off
Woods
dibintangi
Hugh
Jack
##bin
Schreiber
Danny
Huston
Dominic
Mona
Ryan
Reynolds
spin
##jam
tir
Victor
Creed
Rin
plot
##lett
Troy
##van
##ryk
Team
adam
##apon
lokasi
berlangsung
##duksi
##sala
##enario
Los
Angeles
fotografi
konflik
##uti
Fox
cet
bo
##cor
Internet
box
$
179
373
##itis
rancangan
Matthew
Vaughn
##eln
ul
kritik
##her
##wali
##oth
##tem
balas
semula
##las
mengetahui
inga
nera
Professor
fonda
Class
##firma
##uita
##roa
##pool
##bank
Rebecca
Rom
##ijn
Last
Stand
California
Ryu
##nei
Ho
Andy
karate
kick
##box
Prix
runner
up
##uke
##mia
Mai
Aceh
1948
Bangladesh
Argentina
##bala
Cut
Hai
##num
##unia
Koning
##inne
lib
##llen
Ar
##uba
Ming
saam
##hor
##igheid
Tra
##disi
1885
Wilhelmina
Juliana
Beatrix
vrij
##markt
##ehkan
pero
Mala
##innen
##acht
Amsterdam
Dans
##dans
Rotterdam
Huis
Oranje
Nassau
ora
##nye
##nje
##kte
Het
##door
Suzuki
Swift
##kend
Tate
parade
mon
##umen
##dera
Misy
Ars
##nia
lewat
Ding
##pta
Bud
##iono
##gd
Humor
Johannes
##want
##post
##10
##100
##64
##0
##41
siri
##juna
##hana
Angel
##gust
##cek
##news
article
##code
##00
_
row
##set
51
Kami
pukul
00
##UD
Mikhail
Vas
##ily
pol
##ym
##ath
Satu
Venus
filosofi
op
Mr
##nalis
poli
bank
1937
reda
ketua
Persatuan
senator
##lop
Monet
Internasional
senior
##chta
##ward
Ros
Anwar
##dom
1908
Rechts
##chool
Hukum
##esia
tempel
##ahu
##misi
prop
##eler
jet
##udi
diesel
pemilihan
Mercury
##vin
##rude
Yamaha
Honda
Argo
##kring
##leman
PT
Hus
sl
Has
hasi
pasi
Kawasan
sekunder
##rto
##toa
cand
Hindu
Cam
Pendidikan
##mendi
##mend
##ag
##hun
413
##lung
1202
602
##gy
Sin
##dua
burung
Ham
He
Tiga
##tangan
selo
matar
Sar
##dono
##agan
##rada
##empatan
##wart
Had
##dum
##arta
##mom
##bent
##edo
##bina
##ngu
302
746
1700
336
420
72
412
915
Ola
8000
625
680
leta
mir
##º
##pent
h
##land
926
056
689
367
304
622
53
167
106
##holl
mengenai
##caria
##rst
##atus
tumbuh
684
757
ratio
##amh
Gant
##rno
PD
##bik
orde
##kura
##ure
Cat
702
108
49
kiri
gap
Kang
##bor
Dal
Gan
##ml
##leben
Malang
##isen
KB
##voli
KO
##SE
##sama
SK
PB
##SI
PS
##uw
##mol
Tempel
Mol
##odon
##oke
##rso
##dog
Mar
##gore
##bea
##ilu
##ison
##dran
##owa
Jl
Moro
##del
##dur
bermula
##ujo
##sad
##hal
Menge
Pantai
##buhan
SAD
SO
##NG
##NY
##aras
##dha
##langan
Juara
##msa
##nde
Pemerintahan
##gurus
PR
NK
Arizona
Coach
##ella
festival
Official
##F
banner
held
Ana
road
##rec
##ord
##rre
has
announced
signing
EL
##YS
based
out
composed
Vargas
vocals
Underwood
guitar
Steven
##sler
drums
Lemon
##sque
##eze
Jeremy
##vez
backing
formed
four
years
ago
##omu
##sic
net
meet
qui
##ntet
who
have
released
##sing
Dev
##our
Internal
Icon
Ant
##agon
Acacia
##rain
Through
Eyes
Job
Cowboy
Band
Attila
Maya
Born
Osiris
progressive
ala
Seperti
Gera
sq
##ue
##als
##ll
##ish
Oceano
##ision
NYC
##hem
Nick
Terry
majalah
Kita
##gado
##aud
December
Move
page
Eternal
##body
Rain
Endless
Prayer
Doug
Van
HM
Magazine
##ibe
##80
Belgia
Ark
##ange
Rep
##ence
pelo
##por
Lawson
Hammer
Bassi
Derek
Boyer
gr
##ve
Watch
Dawn
Chor
artists
EP
##lust
##cari
##peri
sei
Lim
##zki
Here
##aken
##rial
Make
##ffer
Wind
##foni
Bet
##ray
Marty
##rs
##bru
##talan
sand
khas
##kritik
law
##pura
Vincent
Sung
Long
ya
sic
seg
boca
##yce
Lucien
Texas
##mond
##hang
AK
Kimi
1959
##ust
anal
##demi
Industri
##budayaan
278
1816
lembaga
Diploma
bog
unit
##dust
##lisi
memerlukan
segi
##sara
##mbina
##jeri
Lulu
Ahli
BA
005
VII
ISO
Mana
1702
laboratorium
Disk
##rimi
dum
elas
|
produs
komo
##dita
##CH
##ER
149
##ikka
laba
##sume
berkaitan
##fikasi
disk
Apocalypse
En
Sabah
fik
Louise
Simons
Jackson
Oscar
Isaac
IGN
Greatest
Comic
Villa
09
##cl
##pse
tahap
can
##ggi
pintar
superior
ob
##hn
##hya
##dali
Mesir
##eki
bay
fir
tewas
China
Alien
Zi
Horse
##kutu
Half
ditayangkan
CBS
137
epi
##sio
Charlie
She
Jon
Cry
Marin
##nk
Taylor
Chuck
Lee
Aron
Lund
##gren
aktor
sut
Rocky
Drago
Masters
universe
Tokyo
Brandon
Universal
Soldier
Jean
Claude
Damm
Joshua
Tree
Kristian
Alfonso
Sega
Johnny
##nem
##onic
Reeves
portrayed
Universe
early
1990s
appeared
films
such
opposite
alongside
##ender
##chan
Mission
Command
memegang
DA
turn
##amen
judo
ry
tae
##kwondo
Eu
au
ph
fon
puta
rota
##ry
valve
##ist
##phis
##eri
Model
action
kanan
Jang
diameter
trumpet
agak
ideal
vi
##bras
ing
##gris
berlaku
menghadapi
##sson
Prestige
##vereign
290
Wilson
295
Steve
Mead
Brian
Bowman
842
Custom
meraih
Frey
Demon
Thu
Mira
##phone
Ambassador
505
##ffet
Kei
##wert
dag
642
405
##brunn
Standard
Exclusive
##eal
Sterling
Mein
Weston
451
551
321
dilengkapi
Holt
##pes
##ating
Tip
##pensa
including
##wise
##mens
ciri
##poser
##hic
##lei
##sance
lub
##isme
Ferdinand
Sommer
Weimar
1843
Moritz
1838
Adolphe
##linder
fundamental
##rdia
##meter
##imu
Harry
##tier
Patrick
Gilmore
Harold
1939
1950
1960
##cant
##aly
wind
orchestra
##klus
king
instruments
cello
##eru
peranan
##figur
##sty
##ote
quart
ensemble
##jakan
##dowa
Pre
Berta
berakhir
##jera
bilang
iki
wit
we
##kas
kamu
Nom
##pore
Baron
##gong
Sami
##rtar
##rgo
##kih
minyak
##bos
Menor
cel
##sius
##kao
pin
##rug
ek
Musa
##mau
##jek
View
Sima
##klo
partis
##sana
##truktur
##IP
##NP
MP
Karya
415
turi
##mosi
##ede
##pasa
##prese
gerakan
Jr
73
230
##lapa
##tila
##ula
Krista
##sata
##col
Sim
mari
AN
##TO
SU
##PR
##ON
##RA
##VI
##Z
##kretaris
##E
##KS
##GO
##RO
##WA
##TI
##para
SI
##NI
AS
##IH
IR
##NT
AH
##MA
##HA
##Q
##TA
AG
SAR
##RS
##lande
##ID
##AT
##rona
MA
ABD
##UL
KA
UP
##AD
Kemp
##US
##lings
##OL
##UN
##MI
##UE
##LA
##RD
Ton
##ogo
SR
RE
AMD
domina
dur
nag
##olo
##sat
geri
##lya
Pangeran
##pone
279
864
856
##send
fakt
mito
##riat
Ay
##kwa
Beliau
Polo
tira
##ahun
##hli
w
mua
##sal
mala
song
rai
seek
ular
angin
must
kening
##saka
mental
##aku
pertahanan
bron
##jong
##ulun
mun
ky
bun
##tut
##teg
pertempuran
dibina
wujud
hanc
Susan
Prat
##nyo
##rano
##gay
##bond
##alem
##yanan
##mek
Laut
##ped
157
1050
342
62
359
022
raw
longs
##tja
##omos
##wand
##jon
Alban
##iant
ana
##bb
##dij
##ojo
##wr
##itted
By
##jr
##gint
Pasar
##ean
Sy
##ongo
Batu
##rl
##uban
##onal
##garah
ds
Congo
##duta
Natura
Garden
Tur
integrated
farming
##dun
sala
##anak
Ett
##minat
loro
observa
yon
send
##gos
##tura
##ME
NE
##UB
IN
##DO
##NE
nome
##ane
##ntia
##ome
Panda
##kg
389
892
WEB
##TE
##SM
##ly
##igu
##emos
##etik
##kisan
##pito
##ejar
profil
##hmi
Profil
##tard
Anton
Yun
MM
##stas
##pustakaan
Mister
##ister
Nathaniel
Essex
##can
##ny
221
Chris
Clare
##mont
Marc
##lves
villa
Victoria
##manu
gene
##pekt
molekul
rege
##nera
##kine
Cour
##ier
##mbit
vol
Force
##port
Beast
mark
##sser
##act
##ius
##oning
##ator
mempertahankan
##bad
Sebastian
Shaw
##egan
##edit
darah
##duse
Simon
##nberg
komen
Bryan
Singer
##gold
Laura
##igen
cinema
news
1628
##9
##49
##pris
connection
between
log
x
##cal
been
revealed
kode
340
##200
Data
Maj
##8
##eret
moderni
##git
Culture
kilometer
areal
##nami
Len
##rme
##forma
Dag
##ansa
Kraj
Nos
##iren
ir
Rand
##ning
mini
##mara
##NS
lulus
SM
SMK
Por
##hot
beton
##pasang
operator
GSM
WC
##ose
huruf
Dasar
##adar
TK
##tini
##siya
##fal
ABA
##pres
IX
murid
Quran
TP
hu
##bant
48
tomba
##udu
##song
legi
##stal
##yed
##gau
indo
##nesia
##PO
*
##OD
##NO
EK
##sens
Struktur
MO
##SF
##ept
##nter
kanal
##dete
single
nucleo
##tide
##ymo
##his
##quen
det
##ekti
##aro
##one
Bone
138
33
##tala
penghargaan
Tata
##lla
metropolitan
Rai
Piala
Today
##kung
his
##tori
uk
way
##ota
315
112
84
##ninga
Rudi
##upu
##mian
Bai
Good
Corporate
Govern
GC
prinsip
##rland
##askan
##undan
undang
et
##vestor
stake
##holder
intern
##pora
dug
Prins
##jib
##isari
##esu
paj
##etara
##adilan
perjanjian
##ness
komunitas
MB
##erti
##essa
##taron
##pali
Pavia
Itali
Lombard
Milan
351
demographics
other
statistics
Italian
statistical
institute
Istat
Randy
##rud
##idi
##dil
Ok
Alice
Mey
##fir
##ddy
Ni
##niek
Karim
Pete
Habib
El
Shi
##raz
##urus
Din
##ams
Slam
Mani
novel
best
selle
##lling
Films
##rup
##gaan
##hair
##zam
Kairo
jo
ajaran
##gna
876
Dor
##sco
##rome
##llo
Vale
##ggio
Alba
##redo
##bold
Regione
Bar
##bian
##ello
Belgio
##ioso
Bron
Campos
##pino
Casanova
##nati
Lina
##rol
##zza
##nino
##ano
regione
492
Borgo
##lave
Mort
Nico
##rvo
##ona
##zzano
##gnano
##lig
##hera
Valle
Salim
##bene
Vista
##rino
Arena
Bosna
Castel
Giovanni
Pie
Porto
Portal
Zen
##rade
##ves
435
Monti
##celli
Cristina
e
##gnar
640
##rem
##ias
Ponte
Nizza
Var
##zi
##ava
##lle
##iul
##etta
##OK
Thessaloniki
##umba
701
##tida
Castell
##etto
Brand
##uz
##zo
Rabat
Som
##tud
339
borders
##ign
##ago
##nano
##zio
##rov
##zzo
Bellini
Bere
##guard
Visconti
Torre
Isola
##geva
##ò
Borg
##rtos
Gene
ed
Uniti
399
Mor
Cal
##vig
Cast
##egg
##io
Fortuna
Mont
##alt
Monte
##bello
della
Battaglia
Montes
Rocca
##za
Cost
##mbol
Rui
##asco
881
Lac
##chia
##rella
Sant
##ssio
con
Via
##ziano
Vid
##lf
##cco
616
##ù
Damian
Colle
##allo
832
46
Bob
##rig
##nale
Corte
##ug
##nate
Margherita
Staff
##eme
889
##mell
Fra
##ssin
##eto
##tira
Piet
##ior
800
639
Casa
##ferrato
Conti
##tism
##vino
Qui
##rico
Oliva
##essi
Rob
##ec
Ver
##rett
##nove
##tto
Robb
Rosas
Angelo
Italia
228
Castello
##fie
667
##lino
Gran
##oz
##cello
Pale
Ves
##pola
##glio
421
##rop
Cairo
##big
##nol
Burg
##ond
##ald
##aso
407
##lno
##ceto
Ceci
Riva
385
277
Carbon
Ticino
##nova
##rve
Giants
stadion
East
Rutherford
741
FIFA
1994
Phoenix
Glen
##dale
NFL
Cardinals
BC
Bowl
Fiesta
NHL
##yote
##dahkan
XL
WrestleMania
XXV
National
Championship
Kardinal
sponsor
##leti
Sydney
83
##è
630
##aden
##ongan
##sore
##alo
##OS
##ami
##not
##pada
##kod
##uwe
tergolong
##hm
Akt
organi
Tek
HP
Dina
Mika
Production
Og
ave
mode
Janet
Annie
toku
##sats
Club
Kod
##ink
Jun
Ninja
Tai
Ina
##zuma
anime
##kona
Mod
×
##×
##mem
pop
ani
aktif
Kari
Cape
Ami
##zu
##ino
##tsu
##suki
##kki
Online
Guide
Tibet
bras
l
##zong
Demo
Nepal
i
Region
##kim
##rach
1884
Himalaya
##tono
Bhutan
alpine
##chen
##kara
haya
Buddha
##poche
Buddhism
##arki
1642
serangan
##tora
referendum
1975
lingua
franc
1977
Manga
dok
Va
Gang
Ruby
Lin
AL
AU
Udara
Armed
how
##itze
morti
rok
##imen
101
105
##mm
155
Singapura
AM
Mk
Rok
rud
Rap
embargo
##ruda
han
RB
##fors
57
Rhein
##meta
Giant
Bow
china
##lny
##tral
mat
SA
Uni
Soviet
##vet
Parc
##him
##imet
M1
61
Korps
LG
122
##38
Vita
##entu
musuh
MK
120
BM
##sk
Angkatan
Wing
##ops
pokok
##dau
##latan
Det
Bandar
##edu
##pea
061
Batang
iklim
°
cabang
Roda
##rdy
##hier
Element
side
project
##unk
Gil
##26
stream
format
264
MPEG
AV
pasa
Lise
GNU
Laurent
Merr
##itt
Jason
Garrett
Petit
OS
Chen
##w
Clay
##ån
##ull
##gård
##zy
Christian
Heine
Alex
Iz
Wright
##UI
##ax
##AC
##CL
framework
code
Kaya
Mali
##nau
bandar
Bulls
Major
League
Soccer
NJ
Harrison
Jersey
Bull
background
##50
color
FF
##FF
border
scope
col
Lake
##cali
Arthur
member
Merlin
Lance
##lot
Human
Cass
TO
##etan
220
D2
##PA
##istan
##line
pdf
transfer
internal
##olas
##bum
##suke
Ito
##bór
Rat
##ibo
##ř
Silesia
sebesar
352
74
765
Nokia
736
Pons
Amour
series
kulit
128
##16
triple
MHz
##45
##18
hands
speaker
standar
##edia
installed
image
tone
thema
##yoshi
Hay
##kama
plasma
termo
##nu
##kli
то
##рои
##дал
##ьная
кам
##ера
в
ма
##г
##ни
##тных
ка
##ту
##шка
##х
##roi
nay
kamera
##ush
Ruang
Igor
Ye
##yev
##ich
Andrei
ori
##sini
Oleg
##vre
##nty
Papua
259
703
sensu
teren
Chu
##ave
2400
Eli
Bangsa
Lutheran
1934
1935
distrik
ep
mura
##ED
##EC
Out
Pack
Case
Style
##eke
##ips
Seri
##inte
Arie
Macht
Santi
Nas
##bali
Er
Kinos
##hita
Promotion
##bay
penumpang
plus
Stasiun
820
Maharaja
Mapa
##bh
##hus
##udan
##rising
##gade
1135
1157
1961
Usa
##ket
grafik
##sian
##jas
##13
##27
##70
##turi
##35
##40
##60
##dw
Gap
##jl
##nego
455
##ews
##edi
type
ap
##ando
##ingkatan
Type
##saba
##kawa
69
1938
1947
RI
OM
##odor
##kert
##rk
##sma
##aba
Matti
##ete
Barr
Cine
##kko
Till
##ppa
##dare
Tom
AR
##IF
##IM
##jao
##eni
Cum
##reng
##ppen
##sse
##cie
Las
##lab
Gare
##ssi
Cop
Website
Mange
Sia
##kos
##all
nel
##udd
##uha
pace
##klik
##paksa
##cepatan
##mpre
Development
Agency
resto
Rest
Coastal
Live
##ood
RC
ab
daging
ramai
manual
##market
prior
##ptasi
sid
##llan
Mall
City
Ne
94
Arap
Poe
trial
SS
Khu
ara
##field
liga
Kupa
##uja
##nant
##app
DM
Made
##lora
##iati
alih
##fan
Manu
Gas
##mene
Nan
penerbangan
##roe
keem
Airlines
905
##stu
Cessna
##fast
##IB
Twin
Otte
##BU
Pilot
School
Aviation
Training
diren
Abd
psi
september
mask
Wings
##baru
ATR
1x
transit
sura
estate
##cim
proper
Delta
Pearl
River
##tze
##hai
Rim
##visi
##vest
Resources
Jen
Cirebon
Astana
Hub
Jenis
212
Johor
Aga
##sang
Mat
om
Pasir
##krat
##gre
Bos
Madras
##bt
MI
##iiy
##osu
663
3G
176
##20
beni
interface
Second
127
365
##out
##cin
##ons
natural
back
##light
##ghe
kone
##vitas
Bluetooth
##pik
NO
##KI
gambar
##ult
catatan
##MM
771
horizontal
##32
##ser
virtual
207
erg
##onom
hori
##tal
##get
SMS
175
blue
port
Kamera
##48
VG
memory
64
512
Visual
head
##GE
##lain
Documents
Presenta
##tions
##pli
file
PC
Word
Excel
Power
##point
instal
##ens
Sporting
Uruguay
Primera
1913
Montevideo
Luis
Franz
Dome
Honour
##wim
##seri
Foto
Amanda
Utama
Wan
Fanny
##bria
klip
brand
dokument
founder
CEO
Pictures
furniture
interior
Try
##liv
Wood
##chef
##may
##ungi
product
designer
##iss
firma
strategic
consultant
Communication
Partner
Green
Foundation
Glenn
Fred
Save
tsunami
center
Map
Tá
Fútbol
Venezuela
1974
Cristóbal
Estadio
##ide
##portivo
Pueblo
Nuevo
Caracas
1967
Olimpiade
Siberia
##lite
##padno
##sky
##ches
rayon
Oblast
Ty
Om
##zne
##ts
Basin
##elek
Vos
##chn
##noy
graf
Russia
Columbia
Encyclopedia
Sixth
07
##nev
##osto
##chny
##udra
Pasifik
##som
##ols
##vs
Vlad
##ivos
##burua
##vern
Abi
Hit
Cher
##zem
##dn
Hy
Gao
##ranger
vs
##tay
Teluk
kupa
mor
enda
##peli
Pisa
cita
Tal
##klat
dra
##stis
Tenerife
Segunda
División
1922
Cruz
##lio
Rodríguez
López
##koro
Storm
##ree
Kris
##tof
##bori
Administrasi
DKI
1400
shoulder
lab
Warren
Kenneth
Worth
Kirby
1963
sayap
Industries
play
##boy
ego
peso
##tomi
normal
##mbra
sari
anima
Foster
Hardy
dena
Kentucky
flights
##tats
Airport
airport
##ils
##ode
TJ
html
##lici
850
##mig
1983
Tenggara
##upat
Hercules
gradi
##basan
over
##lay
park
take
landing
##ck
tax
##ywa
carte
CAS
Premi
CE
##NA
Karin
seat
##gana
runway
pagar
##gada
Ray
prose
##cla
250
Run
Safety
Area
650
##kare
##cle
navi
VF
visual
flight
rules
Stage
265
Ilmu
IPA
IP
##haa
armada
##kutan
akademik
##auta
AT
1951
white
list
Maritime
Organization
IM
Studi
Engineer
Inter
##oan
ST
Convention
1978
##ende
##menn
moral
kuri
363
Basa
##fasi
AA
##torium
Gun
Let
Hakim
##fu
##ddin
engine
##ulator
Integrated
Navigation
Dynamic
Position
Center
##TC
Wave
##gth
Michael
Snow
Movie
Camera
##zig
Vert
Chantal
##erman
ima
##jina
Hollywood
##inas
Beta
##uara
Riau
Omega
##dell
##ady
Rosso
##vich
##ijen
KGB
Captain
simbol
omega
Ω
brutal
ninja
Hand
melebihi
fer
##aling
tenta
##bona
lent
ent
##luan
##gata
##ogen
##thes
sebab
comic
##book
##ces
791
Global
##etro
season
OK
##lug
##tya
boy
polos
Oda
Ismail
sok
Ol
HR
Marlon
##jer
gala
##sch
Hen
heb
Sao
##jai
shift
oda
##try
memakai
kora
dijo
ming
IQ
Manager
Bila
push
jump
pura
Shift
staff
otorite
Playboy
##ror
nor
alias
trend
teman
##teris
manager
##aris
##lp
Baby
Sitt
sens
lac
##cel
Kevin
##rca
Kebanyakan
figura
##parte
##bby
##long
clean
service
Bil
1953
perdu
SL
SG
Moe
##dig
1B
calon
Del
Pero
##yes
laporan
##park
##ilm
makala
##nal
acu
##rska
perso
##suna
Than
Maharashtra
Police
Kantoni
ging
cha
Benny
Alan
Jackie
Nicholas
Daniel
Charlene
Choi
Dave
##boot
##film
Golden
Chang
##urities
pinyin
divide
kust
##iba
Exit
##nture
##zh
Petro
##chemical
##sid
Sino
listing
2020
Sidi
taxi
173
Boeing
737
##lez
##lands
##che
Journalist
##puter
Marco
Siti
##enda
Organ
Berger
##ole
##joen
##jio
del
suri
##ulat
837
##tti
Castella
PK
Mater
alumni
dictionary
bro
##ws
car
##pente
kurs
mando
##fon
pal
sud
fokus
##det
##ail
artisti
County
1754
orientalis
num
##isma
studi
Dublin
##olen
1771
1779
1783
1795
pangkat
£
1807
£1
1831
1812
##bitkan
Grammar
Dictionary
Malay
Language
Il
##ione
Proceedings
Lear
##ned
Soc
##ieties
Philosophical
1806
267
Royal
1834
##tent
Museum
oriental
College
Catalogue
##ction
##aries
##ries
Alpha
1796
orientali
1823
1825
Transactions
##ael
##ogia
Charles
Wilkins
FR
##ksia
Cemetery
Canon
Lea
Stanley
Tong
Michelle
Maggie
Che
Crazy
Thing
Called
Queen
1979
Freddie
Hot
##burn
Joel
##obert
Singles
Guinness
doc
rhythm
Jul
live
Montreal
Wembley
Allmusic
##ive
Ultimate
Plant
Tribute
Concert
Cory
Bass
Player
##rama
##abi
##lly
Melody
Maker
Elvis
Presley
interview
Absolute
Roger
Bayerische
Hof
Hotel
München
SP
CO
##ESS
Deacon
Mack
Studios
993
##sca
##cos
temat
##gnan
América
Cali
Futbol
Profesional
Colombia
Santiago
Pascual
Guerrero
Antonio
Bobby
Fritz
Roy
Marte
Irma
nek
##ad
sada
Mans
Ima
Ferrer
##gnon
Gallia
##vola
Strike
laga
Greg
Mello
##tt
Elliot
Bill
fuel
aviation
turbine
av
##rmes
##stand
##ardi
##fta
Kira
Jamal
##az
##mail
Otto
##asy
Dick
Zu
##aen
dokter
Aur
Ivo
cili
mab
campu
bahagi
Giorgio
Taiwan
256
113
##rg
Ole
##vano
769
##ulis
Tionghoa
Sans
Dai
Italy
##ppio
desember
52
Dos
##ero
Silva
##nuo
##via
dei
##curo
732
Dass
##ault
##stère
MD
452
div
Kobe
+
##oya
Staat
##orwegen
##oom
Maa
##tschappij
1893
Jalur
79
##boga
Tema
##ebes
langs
elektrik
via
ON
##ct
##yl
##otu
bicolor
rain
grass
##hop
Madagaskar
subsp
##esie
about
810
fra
caput
##vise
##quest
##wana
st
사
##랑
##따
##윈
필
##요
##없
##어
parle
parliamentary
##reshold
minimal
partai
##lisme
Gram
##usta
Marija
par
##mentar
publications
843
##14
ID
##mali
presiden
##etu
peserta
##jaka
presidential
##tip
##arty
Undang
sah
##ugat
##kamah
##nst
##itus
##iada
Kabul
##onan
##pol
read
1250
##52
##91
Advanced
Mobile
Phone
Service
##PS
cell
##ular
systems
features
stand
channels
fraud
aut
##tica
procedures
Fr
##lok
666
spectrum
facilitate
frequency
824
849
##link
869
down
providers
types
dedicated
control
mobile
telephone
tune
access
mk
channel
identification
information
wala
rate
kb
##ps
messages
effective
sm
##plex
signal
phone
classes
maximum
output
class
dB
Watts
units
##justed
milli
Are
Smart
5th
Grade
kui
##stan
##ntes
pertany
babak
bonus
##bek
che
##ats
sal
##peda
##uso
konsep
AC
##tudo
fase
##otas
##form
##tub
magnitudo
Karte
o
Oliver
##avi
1886
Science
Electric
##rd
reprinted
Electrical
Papers
##tore
821
346
##nell
##enne
IEEE
##mita
##ubt
Oh
##ics
##udo
domain
##ese
##aci
phase
relationships
Yoko
analisi
teorema
##veni
Norton
Euler
Faso
fa
##sor
Tekst
Rektor
##tte
Text
##iel
##richt
##oen
tekst
##imon
Shin
##kens
##tit
Institut
IT
UN
TN
dikeluarkan
##visa
402
pribadi
727
website
##OM
S1
##tex
GT
##tes
##asia
Tora
group
bra
buy
trading
company
##idas
industries
holl
tal
##bot
##vis
##ruch
sau
##rer
##cano
##star
##polis
515
AB
##oco
robot
##elen
Shu
##lga
Latvia
Kristen
Orthodox
Extra
##ganza
São
Bahia
Pernambuco
##goa
Minas
Gerais
160
Mongolia
Persekutuan
mengalahkan
Guam
Macau
Fischer
Statistik
Praha
Mate
##matik
matematika
Yahudi
Holocaust
##žel
##vy
##pad
##á
ale
##ný
ř
##ík
žena
nového
premi
##éra
##ovi
hr
##í
##čí
hl
##íd
rod
##inu
ministra
##casa
Partai
##zim
Jakub
Profesor
##rgi
##zs
Fed
##dek
AFC
##kent
Uzbekistan
Turn
kalah
called
friendly
match
against
Iran
goals
updated
after
Ural
##nito
##burg
Tag
##vero
Rostov
Krasnodar
##zny
Novo
##ross
##iy
Volga
484
Petersburg
##ū
##kija
##nog
Lituania
Belarus
Vilnius
Gard
##yda
##yt
##lob
Ukraina
Slavia
Status
slo
##ssa
##tet
suburban
##ids
##ods
##chy
##tsa
1835
Governor
Vor
##my
Donetsk
Bel
##ubi
county
Győr
##pron
Pole
Polis
##pya
Kumbang
##chel
##horus
gira
serangga
ende
kumbang
##yn
##chus
##bic
Brunei
Mukim
Ram
Liang
Segun
Lama
berjaya
kuru
mase
##jaan
1920
ler
arc
Amar
pecahan
gran
##merk
Mahmud
##sak
##dhi
##satt
seu
pit
##tum
##wer
chat
aksara
Kuno
682
Tala
##lter
##ying
Some
Chinese
Writings
kitab
Sul
##udia
##enan
Malaya
Kuala
Sarawak
Lima
Island
Illinois
Census
Bureau
442
1242
Mississippi
459
radius
Nm
Network
tool
Gordon
Lyon
##dor
##dit
host
feature
Linux
nm
org
option
help
tools
##how
##sper
Wolff
##hoe
##maker
rektor
Technische
##oge
##school
Josephine
Charlotte
##oon
##lijk
##heden
het
Koninkrijk
Nederlanden
woord
beeld
##zan
Arnold
1880
Leonard
##oer
zo
naar
trop
Perang
Aa
##lbe
Henri
##laine
Pont
Katedra
Beth
##anger
##ië
##teit
Concordia
HB
##vie
ingen
##ieur
1905
##nin
##jk
##dische
Darat
##imi
berpindah
Nederlandse
leger
1907
let
Welt
##reden
##OW
1917
##epe
##een
Ingenieur
##cte
##eau
1924
cut
bouw
##kunde
Delft
1940
##erd
##oor
Scientific
Institution
Research
Workers
Netherlands
Indies
Hon
Scientists
425
460
1928
Voor
##zit
##kaj
##EL
##EF
##GI
##DS
januari
1936
sta
##isin
##eveld
Jej
169
Myanmar
Marta
97
Tomo
##kaz
Yoshida
##rea
Mori
##uster
marker
##fos
##haru
1500
HIV
##mh
##anna
##dir
##mta
Mahal
Persia
Urdu
م
##متاز
محل
##afa
##mt
##ɑ
##ː
##ɛ
1593
1631
##juma
Banu
##mais
Taj
Hasan
Khan
##canti
1612
Mehr
Uz
##urin
1630
##ndas
Lodi
nap
ajal
##yet
##vus
Armenia
##jeva
##rmen
121
963
704
##yot
##zor
Armenian
Dara
##lage
##lag
Province
komuniti
##oos
Uri
Cynthia
Oct
##avia
dau
##jike
1931
FC
Barcelona
Bà
basket
Asociación
Clubs
##once
##sto
Euro
##lea
Palau
Blau
Pau
Anderson
##ej
##ão
Juan
Carlos
Navarro
##ūnas
##čius
Gregor
Fu
##čka
Tony
Masse
##nburg
##ça
Sol
Baix
##ingu
##vesse
##sol
Catalonia
General
##imo
1958
dor
fans
Real
103
##fano
Nach
##zá
##cho
##any
pia
Winners
##lgi
Kaunas
77
##avo
86
##prem
Andres
##ene
Audi
Norris
Rodrigo
Fuente
Roberto
Due
##ñas
##rac
##unas
##cius
Treviso
Final
Jordi
ABC
eli
Ricky
Rubio
Fran
##quez
Mick
Catalan
ACB
Olympia
Paris
1976
##ait
bande
##chal
Isla
Juventud
Sens
Cuba
Population
table
Palacio
##fs
Turin
Lenny
##lina
Faro
Af
##hra
mint
##meras
##ern
Aten
##using
Too
Poland
##nel
##disch
grana
Bonaparte
1810
Antwerpen
1813
##kuma
##rbar
Brussel
Lille
##òt
Napoleon
Elba
infant
1814
##rdin
Brigade
Indian
Pertempuran
Quatre
1815
##meu
Krieger
1824
hur
Cele
Borneo
##jn
Frans
##haw
1829
##itaire
Willem
Orde
ajuda
Dominique
Jacques
Andreas
##chie
1833
kapten
1845
1849
##sam
1853
titul
kerk
##hof
##lac
roman
Johan
Fabricius
onder
##enz
Buku
Waterloo
Union
alfabet
ae
word
Oxford
plural
name
letter
itself
##ruf
Α
alfa
hier
##lif
Proto
Sinai
1600
linear
erat
Ibrani
##zah
##bari
varias
Et
##zira
Romawi
##bangkan
father
##ft
Vokal
Alfa
##onet
SAM
68
‹
›
##ages
Letter
Thousand
words
Trinity
wi
##ktion
Buenos
Aires
Alexander
Philip
Milne
Barry
##ley
eni
##gma
grand
##master
FIDE
Hastings
Chess
##base
remis
298
##entas
c4
d4
bid
Caro
OBE
KC
##VO
Enigma
##ale
ditebang
##inda
##anik
418
##moni
Gut
##pop
##uler
When
Wish
Upon
Andrew
Lloyd
Webber
Aria
Prague
Philharmonic
Orchestra
Hip
parasit
##agi
MTV
Spot
##jie
##tama
##rten
##hom
Sophia
Sit
sik
DJ
##kek
##hany
gereja
##zal
Yen
Yes
Jenny
nak
ting
Nina
##rdos
##daki
asing
Mustafa
##awan
##rly
##het
Amor
##ms
Arm
##ffen
##dy
##andi
bod
##uas
Ing
Luka
soundtrack
Key
##board
##tz
Strings
##ement
Iwan
##bla
##oq
Female
Vocal
##nke
Zambia
Copper
##belt
Lai
Emil
Athena
Fan
##naut
jug
ज
##ग
##्न
##ा
##थ
##āt
reference
##issa
relief
##ât
##ntaa
##ville
##mot
##inja
pani
##dari
##tive
##dant
Swami
##ab
Toronto
##atta
Matt
##ark
cinci
orbit
delo
##hle
##tici
Editorial
Chemical
Reviews
111
1118
DOI
1021
##01
##21
Abs
##tract
##ze
##rock
Robinson
Six
##tic
Ele
##rons
343
344
Introduction
##liz
##ation
π
σ
##30
##utar
##bri
##zena
##clo
##xa
##trie
Benz
##ena
Mur
##abb
Alma
testi
##monia
##lmi
Amin
##elis
##yid
##zat
Brun
##dle
reporter
##tato
ITV
BBC
Formula
start
158
McLaren
Adama
##uny
Windsor
Smith
Avengers
##stri
lenga
Osman
397
Mau
JP
kontak
aw
##walk
komunikasi
Kategori
sine
Episode
Rossa
Feat
Pasha
##tw
##right
Luna
Bell
ay
##timi
Gustav
Ibn
seda
Elm
sein
Josh
Hoffman
##luna
Andre
aja
##nek
##tria
Vicky
Lil
anca
rent
Mirza
Hamid
##mit
##izi
##paka
hart
##lal
Exchange
##quence
Systems
node
##ien
server
valid
Code
##ear
##cade
Technologies
##phi
Douglas
Tod
Nielsen
Islamic
##verte
##reg
##oria
Hij
Dates
Irak
##zid
Khalifa
##yy
Ever
##lasti
1427
##fektur
Ring
Lingua
##many
##onik
##ilo
Sint
130
Dio
Myth
shu
Wang
Hui
Kim
Hee
sun
Tunisia
dele
925
Darin
hali
vu
Zona
##minence
primer
owa
Mike
Arte
Arsenal
Sociedad
elect
##nes
wire
fos
##for
##urat
##hel
##lit
##lub
##nai
##gangan
konden
##sato
##rode
diel
Os
transforma
osi
##lato
LC
Gian
##luca
##lli
##remo
##nese
##doria
Juventus
59
##ident
新
宿
イン
##シ
##デン
##ト
Chun
Take
Xu
Jing
626
##she
work
camera
full
screen
casi
##xel
antena
stereo
MP3
761
card
##banyakan
PTT
Talk
hand
talk
half
TCP
##lement
software
view
##oint
battery
BL
760
built
quality
What
Lies
##cki
##hant
Ford
Pfeiffer
Norman
Claire
Spencer
##nsul
##kia
Miranda
tika
##rila
911
##gide
##psis
Col
##formes
famili
##bidae
##hidae
Pig
##eon
Dove
##dos
Francis
Animal
Life
Eds
##chin
Dennis
##oney
Melissa
Birds
Detroit
Gale
241
vols
313
Curry
Orders
Bird
##Net
Nov
Smithsonian
Aug
OR
##DE
##inkin
Behavior
Mouse
##birds
Desert
Southern
Africa
##wald
Au
January
Lorenz
Deutsch
Zool
Suppl
102
##idae
##grou
Sand
Ernest
##ough
##lean
Discovery
isolated
bones
##latus
Aves
Mauritius
cave
shelter
##lights
human
comment
family
##more
Annales
##éon
##tol
##ogie
91
French
abstract
HTML
##piro
Dean
##baut
Austin
Graham
Olaf
Patricia
Cooper
Flight
1683
##dega
##nting
##rya
##mant
##aban
##rns
wol
##fram
gant
Walther
##etting
##cut
ultra
##vio
##ioni
Mae
Mini
##arse
mae
mare
##ature
dati
##rci
mei
##sd
blogspot
##mii
dala
museum
Sra
fosil
UNESCO
Pit
##hro
ere
##ctus
taxon
Homo
Von
ut
##tija
##iah
1802
##mena
venti
##emi
##iat
kant
##jub
Kant
Rus
Sedan
AI
deo
trap
Stal
Pilar
Tian
##agt
Dino
Tourism
Perl
##raden
##dian
Zürich
197
nau
Total
194
847
464
##lifi
##und
Frankfurt
CONCACAF
}
##BOL
##ering
OF
poi
tie
##break
Chili
Paraguay
##ā
Head
Chief
Batman
editor
Schwartz
Neil
Neal
Adams
232
Daughter
Superman
Assassin
Detective
411
Editor
Note
Arabic
Liter
##ally
signifie
maker
appears
Arabian
Nights
Secret
Files
Arrow
true
lost
Knight
##oes
##lates
perhaps
most
dangerous
Sense
Wayne
Lazarus
Warner
Liam
Nees
##logy
Dee
Bradley
Baker
##verse
Gotham
List
Begin
Bruce
##iona
##eje
##lase
trauma
iron
##dami
##uss
##tili
3000
##TP
Pia
visi
##gn
Politik
##OP
Blok
##sla
agenda
##klar
upaya
##krasi
forum
##veno
nota
menentukan
##isal
Basis
proposal
citizen
policy
issue
Nel
Swasta
LGBT
Dias
##seh
##anut
##antas
Bir
Reforma
security
Nun
inter
##person
Television
##tsi
Networks
Pax
Communications
Lowell
itt
Doc
Simpsons
Grace
ET
Miracle
show
Picture
Woman
Highway
Heaven
Lucy
Hogan
Touch
##rship
##aise
info
##cial
platform
##dicat
digital
Guyana
##yana
Guiana
383
297
458
Esse
##qui
##erar
##oli
Georgetown
Circle
##kip
Ciudad
##ivar
##ó
Islandia
Rey
##kja
##vik
Beograd
##zona
Kandidat
##rch
Elo
1616
1665
1666
1781
1782
##inat
Barbados
Update
##ial
##gede
un
##uen
marketing
communication
rit
##group
organize
Expo
Finance
Award
CS
##rins
universal
riba
corporate
culture
spirit
property
##lant
Economic
##iz
##llah
MBA
Republika
za
##hali
Mohammad
##chs
1000
##bana
Atlantik
pseudo
algo
varia
notas
mate
##dok
##ument
##ets
##elet
programs
##gram
teks
numeri
Knut
Computer
Programming
assembly
sistema
Pascal
BASIC
Java
cor
Bert
Fredrik
Johanna
Gerhard
Rei
##alis
Braga
kura
Elisabeth
Philipp
##oel
premiu
Premium
Jak
140
CW
##gari
PJ
patas
##oar
##atar
##villa
Joker
Lex
##yant
##pere
##kant
##cm
WR
##LE
1350
protein
rot
kent
pasta
##jena
eso
Dam
Tara
Traffic
Control
ATC
010
UTC
Pay
pilot
Clifford
Watt
Salmon
alde
##hida
fe
pelbagai
Sumatera
Comparative
ass
fish
##arias
##pinus
smoke
##coa
hus
three
different
smo
##king
Journal
Food
Technology
este
ali
polis
Sm
##oking
Meat
Products
Clermont
Ferrand
Ellis
##wood
165
205
##loss
##pare
under
contract
Fisheries
Agriculture
Nations
Processing
Boca
CRC
lk
##aram
Seminar
##ovas
978
961
##99
bet
Artikel
Mara
##tane
##irn
##thy
##nnu
affinis
##ridae
little
mac
false
alba
FL
length
dada
corse
gur
FAO
Species
Identification
Living
Marine
Rome
insan
Siri
XIV
##aps
fin
dub
como
Somalia
Merah
Aust
##rail
Marques
ner
##care
Kat
Aux
kumpulan
mangsa
ud
cum
world
anno
##tated
illustrated
bon
##itos
related
Seychelles
Pakistan
987
428
045
##pern
##kale
rupa
fils
ex
hot
##esis
hiru
##dine
classis
ina
mama
##brata
##uine
familia
##nidae
##venta
cai
Aero
##atia
Charter
JK
charter
##lti
typical
tekanan
temperatur
layer
##pp
marks
##ista
##resa
##chis
pense
ura
bukti
Greenland
Iso
mill
Samba
1200
tumba
samba
DH
Mask
##wing
Timor
##press
F1
Circuit
Catalunya
Jens
Button
##awn
Plata
541
733
816
Penn
589
##inar
rating
##yasa
##nten
##cera
##mera
##hja
##ektrum
xe
Benedetto
##ront
Marche
##coli
Pic
833
862
Awards
##bini
##lev
##isia
Robin
Yuan
##rie
Ying
##ibu
Ente
##musik
##rab
##andu
bone
##eles
Mama
Firma
Ira
Billy
Ani
##tie
##leda
##kola
329
##jal
lik
##etek
Lego
Haus
##smann
Georges
Eugène
Alsace
Nicolas
Valentin
##vatori
sous
préfet
Né
1830
##igny
Seine
1870
Place
Étoile
Trio
##mphe
Garnier
1857
1867
Légion
honneur
1862
##ère
Père
Boulevard
Mémoires
1890
Mann
##eken
白
茶
seus
Came
##llia
sinensis
##cup
PubMed
Institute
Biochemistry
Taipei
vegetal
Bank
Tower
305
ft
Centre
Plaza
heter
##agen
CH
##inam
−
981
509
448
##bahan
##65
molekula
deb
##rena
##nil
##eny
##race
##cene
ster
##ores
##cence
##rker
##phen
##hren
Prima
##dot
Description
West
307
Biol
755
750
##ege
io
##sby
##nating
Engineering
734
##pens
Wei
Philips
Technical
Fun
home
ej
##cov
Wolfram
##ener
Edwards
Light
Dum
Dinasti
##bhar
##lid
Wim
##pakt
270
4500
##upi
Fans
##ury
hela
##etes
McDonald
Maurice
saj
Manchester
Hampshire
Bernardino
Raymond
##oc
Corporation
##hien
Naga
sido
Mason
Dixon
##buda
Oregon
Nevada
1864
Kansas
1861
Fort
##mter
Virginia
1863
prêt
à
porter
##vek
haute
##uture
Chanel
##roix
Ida
Instituut
voor
1778
Sachsen
Prusia
##fel
##krieg
##eim
##ului
Happy
Denny
Chandra
##zali
##iola
##lado
dilantik
Helsinki
Finlandia
Amalia
Christina
Lorraine
Böhmen
Transilvania
Mantova
##eria
Parma
Toscana
##rani
1740
Sancti
Prag
##matica
1713
##cura
Savoie
Turki
1735
1739
Friedrich
Schlesien
Stephan
Antoinette
Karolina
Napoli
keen
##tla
Wenzel
##iet
##berg
Graf
Wilhelm
##witz
Gerard
##wie
##omba
1717
Christine
Braunschweig
Wolfe
##büttel
##ptis
Amalie
Lüneburg
##onor
Magda
##lene
Pfalz
Neu
##cce
##ssion
Perjanjian
1731
Osten
Sardinia
1724
sede
Margarita
Felipe
Mariana
opera
##uit
Gräfin
Karol
Fuchs
Moll
##ard
##ike
Léopold
Clément
1723
vari
1725
Isabel
Far
1729
1736
Stanisław
Gaston
Medici
pose
##sif
##kset
1737
1738
Porta
Gall
Firenze
Serbia
Wall
##achi
Bosnia
guld
##plin
##lema
##dama
Westfalen
##schen
Grafschaft
Falk
##enstein
Ritter
tad
Albrecht
Carlo
Emanuele
##rc
Nei
##pper
1741
##ähren
##latz
Lombardia
Belle
Isle
##ütz
Martinus
intera
##keta
dama
Georg
István
##lega
kans
##nsky
##adku
teka
##dny
1742
1440
Ludwig
##ven
##üller
Breslau
1743
1744
1745
Dresden
Aachen
1756
dut
Versailles
1750
1753
Westminster
Diplomat
pound
1757
Maximilian
Browne
Seus
Lobo
##sitz
##rung
Ernst
Gideon
Lau
##lín
##mila
##kirch
1758
##dorf
Brandenburg
1759
Landes
1760
András
Berlin
##bach
##haja
1761
diplomatik
Hubert
1763
Bourbon
Tol
##ae
fan
##hay
us
Jansen
##nara
dos
sulu
##lemen
paus
##gato
##kina
##tisme
1777
ras
tipu
sung
Johann
Fries
##ort
##inta
1748
das
##bada
Abraham
##isten
1762
pastor
iu
1764
Gori
##zia
Vorarlberg
##vati
Direktor
Director
public
##lib
1749
Kreis
##amt
dir
##mmer
##srat
otok
imam
1775
1780
Wiener
Medizin
##ischen
Schule
##gien
##gino
##kula
1767
##oku
##hön
1770
Codex
1769
Criminal
kod
##usion
##heit
##skom
##mission
1752
homo
##seks
##uali
##zina
cit
##porta
1776
Baroque
absolut
diplomat
##bija
teologi
1746
Neustadt
1751
Oriental
##rax
Voltaire
Rousseau
Iron
tercera
##lda
##eja
1772
manor
Robot
1789
Reno
Nikolaus
##ass
##zend
##orf
Innsbruck
1766
1773
1765
teater
falsa
##fah
##nut
##dai
##ndal
1768
1774
##üç
##ük
Moldavia
perda
Inn
##viertel
##gida
ede
marta
##eder
##dern
rasi
Jena
Kaiser
##gru
##sef
##itz
Antonia
Ferdinando
##egu
##bron
##ony
watak
Este
##lavo
Steiermark
Kärnten
##gr
##ä
##fin
Brabant
Limburg
##mburg
##uel
##ders
Württemberg
Piacenza
Auschwitz
Zato
##and
Tirol
##lt
Namur
Gottes
##naden
Heilige
##ö
##mische
Königin
zu
Ungarn
Kroatien
##nien
##erien
usw
##erz
Österreich
Herzog
##eyer
und
Groß
##fürst
Sie
##ür
Luxemburg
Geld
Ober
Nie
Fürst
##ander
##nega
Heiligen
##mischen
Reiches
Frau
auf
Lot
##hringen
##zog
bad
Yin
##hino
From
1st
Ace
Sora
Net
Swan
Ook
Apr
slot
A3
MAX
##DB
AFI
Walk
through
##ector
##held
Nurse
Commando
Genera
KV
AFL
Flood
##sii
##vey
Belt
Digital
Running
LCD
Wheel
##ctor
Rota
toile
##menu
Kid
Zone
Free
counter
check
zero
incident
accident
##place
Progress
sig
Dow
Jones
Kumpulan
##xt
##ulla
sinema
asi
still
photography
bou
##nchi
##lki
Tv
##sku
##warta
##elli
##tty
##nama
gul
mest
##nir
##pida
Seoul
Eros
Teater
Henk
Walt
Disney
around
##pari
146
2x
IATA
LL
Lion
Airbus
##vac
med
1640
Wade
##nina
##cina
##unte
Weber
Beaufort
spotted
common
Achille
Valenciennes
1842
Barbus
##selt
##ulatus
##inti
##meria
Syst
Capo
100m
170
dorsal
##½
945
##97
abu
##vora
plan
larva
pH
°F
##raya
##arium
Sana
Maluku
petit
##gl
##dt
293
##nud
##amo
##kk
Dharma
##oza
196
dali
213
Saturn
Jupiter
Uranus
##ptunus
nasa
gov
mission
pages
cassini
##hea
NASA
Also
Have
Rings
##plane
Roche
cinc
##tea
##bruk
Voyager
bong
Gala
Pluto
astronom
Horizons
##pred
##iksi
##ürt
Das
Sonne
##ystem
Barth
335
002
##lco
Yunnan
##ming
##elt
stock
moves
past
pays
Claudio
Pizarro
Munich
Senegal
junior
##nome
Havre
##ile
##rouge
Rouen
Bundesliga
TS
1899
##fen
##heim
##deg
##radas
Newcastle
Sèvres
Hauts
Saint
##llar
Châtillon
Olympique
##nais
Auxerre
Barn
##sley
Alain
Michel
€
klase
hatt
Stuttgart
##dahan
menor
general
Stoke
Premier
Robbie
Keane
Birmingham
Bro
##wich
Albion
finishing
##grada
Wigan
Athletic
##aus
gratis
##pou
Everton
hat
trick
Blackburn
Rovers
ESPN
Monaco
Lands
Lech
Trophy
Tottenham
voli
fant
##asti
Reading
tend
sensa
Southampton
FA
##ssé
##ick
Rama
Liverpool
Paulo
Ferreira
Ved
##vić
Herzegovina
##tha
Chicago
Germain
Dijon
BS
VfB
Köln
Fabian
Lust
##enberg
Helm
Sport
##unde
Siegen
480
620
##Pa
1090
WM
##mida
Nana
1972
##tory
Beer
##dou
Broadcasting
Wonderful
･
Rose
Tat
##oed
Kamen
Rider
Tea
##gle
age
ml
internet
vos
Sr
##ondo
##sim
##amas
ye
ono
jeneng
502
##jom
##osis
##tales
duy
haren
mit
maiden
##sme
two
distinct
##och
Brief
Testament
Hebrew
Bible
Its
Conte
France
vingt
quatre
##î
Française
Internationale
Sentinel
Danger
Panthera
hy
##etar
habitat
Mile
mile
Viking
Iberia
Jin
Yamato
##amerika
Ohio
Monk
Mound
Kale
1001
Huang
Xi
黄
现
璠
黃
現
Zhu
people
cn
minori
editorial
ISSN
454
Normal
magister
Qi
##xia
Fang
Morgan
Boa
143
144
Kongres
##uil
1450
##torio
Jis
##heng
Yao
Dong
##xiu
Ping
##guo
##oche
1957
##xin
Feng
##shan
Shang
Mao
##lao
Chong
Yi
##gui
691
folk
Patriot
##graf
positiv
##žek
ˈ
##ʒ
##ɔ
edi
##kó
Ž
##čar
FK
##plice
Ústí
Labem
##rinus
VfL
Wolfsburg
assist
UEFA
##zda
perform
##lesa
Hannover
assists
scorer
##klub
duet
DFB
Champions
##fford
Ball
##eca
##owicz
##bica
Mancini
pounds
Wolverhampton
Wanderers
Primer
Bolton
rival
Community
Shield
Swansea
Hotspur
Safe
##šić
Sergio
##üe
Queens
titel
Fulham
Lag
comeback
Norwich
##gol
Rooney
Theo
##ović
Liechtenstein
##vir
##ić
Sarajevo
SFR
multi
Ces
UNICEF
Orlando
Grass
Nacional
Bee
Mathias
Much
smart
styl
independent
##kole
##ksu
##ök
Basel
Zurich
agree
summer
switch
Udine
report
Goal
Rapid
Sturm
Graz
Salzburg
Wien
Hala
persone
##hib
Brothers
Sisters
Charity
Eure
Springs
Arkansas
##nding
rund
##puls
konstant
Nancy
Florida
##nesian
Cornell
Writing
##sc
##tue
##phe
Colonial
##afat
Connecticut
##mma
PhD
Rady
##yaning
las
administrator
survey
Liv
bada
eva
Master
##eso
kandidat
##ologist
Illusion
Classic
Artist
##zier
Rafael
##meno
##ason
##fend
##smo
magic
force
voting
gai
tri
##nton
perde
awam
##kta
##17
##23
##cti
Report
CNN
Risk
Amelia
##vesti
Twitter
tap
##rez
Nova
closing
##sed
##born
magazine
dual
Pam
Und
Jump
informa
##tev
Halo
relay
##guda
STAR
Lens
Rather
Doris
Goodwin
Mario
##dole
##ez
Rice
Irving
Walter
Tesla
Motors
Eberhard
JB
Palo
Alto
##hium
1865
USD
kW
Roads
rusa
interpreta
legal
klar
##inn
##ivas
online
Partners
##quity
##tage
Google
Sergey
Larry
Jeff
##att
VC
firms
##aper
Fisher
Management
Fund
187
Marks
ev
sport
EPA
356
201
cover
##vention
Transportation
##cars
##ric
##view
roads
BB
Dash
RPM
charge
Face
##lift
trim
jp
sedan
##enal
BMW
A6
Road
Schwarz
##orne
Off
touch
240
volt
reservas
##mesa
##motor
Blue
solar
photo
##volta
Panel
Solar
##bani
Lotus
Cars
##uksi
Motor
Deal
Mexico
Vehicle
Manufacturing
Energy
Independence
Security
Act
136
##enti
ATV
deal
Monica
##ryl
Marketing
oli
brak
##gere
bergig
##lier
##pulsion
##vente
prototype
Design
Elise
Barney
##tert
Think
Daimler
##sker
##motive
Henrik
hybrid
Magna
speed
##riti
##hre
Libya
Georgi
Henley
Helen
Chronicles
##rnia
Idea
Windows
XP
Intel
ME
Pablo
Picasso
##cs
picture
Wine
Shot
##well
Labs
##risi
Olga
##ffi
Ariel
##koba
##ece
Variety
Special
Events
##lec
special
Fel
##icy
1441
Indonesian
Figur
award
2500
Sada
##jde
Tome
foot
##note
Asian
Educational
Services
Delhi
hul
##ngo
Burung
126
hil
Oost
##tsch
154
654
##ceu
Christopher
##olin
Paradise
Valley
Montana
##kins
Angela
Home
school
##dens
##dence
LLC
##romos
135
##assen
Alfred
Knopf
##yor
Essai
##dest
##ising
Darren
##ugh
Saga
Limerick
Ei
fel
meu
##marca
Orion
##rz
Process
Snake
Vera
##óc
Géza
Rufus
##reat
##ild
Stevenson
1878
1929
Becker
##tse
Notes
Winter
Encyclopaedia
##cks
##eses
Frederick
Yates
##äm
##isch
Max
Edgar
Luftwaffe
Ea
##fum
Cologne
eau
eta
nero
lave
ros
##mari
##nus
##ymus
##ln
gegenüber
471
##uwen
Marius
##jnen
##ndering
Gedurende
Meta
Zijn
Aan
##selen
##soma
##cola
1915
zoo
Burger
gall
##bios
flora
##iten
Klinik
Koninklijke
Akademie
##chappen
Universiteit
Empire
Faith
Kings
Mongol
Collins
Henrietta
Gibson
Anthony
Apple
##wany
Alexis
More
Carr
Dexter
Rowan
Dynasty
Leste
##ilia
CIA
Factbook
923
NS
747
547
582
tau
Austro
##ines
Portugal
##ugis
1903
##ō
地
蔵
通
り
Kuwait
##WD
fil
##upe
Cleopatra
##kiewicz
20th
##patra
imperial
##die
##jiem
1873
##ussa
ibukota
1879
##eu
Darul
Kamal
Mohd
Ibrahim
Abt
##ppo
alue
panorama
##sy
##dr
##ós
Levante
##que
Málaga
Mallorca
Ajax
JR
##sei
Tone
##iden
afdeling
##dena
##mael
Ara
Albacete
Vigo
Salamanca
Espanyol
Bilbao
##dani
1912
ug
##uis
beter
Campo
Dona
takes
Football
Scout
sight
Reuters
jugadores
seguir
##án
##brar
##reo
Gallego
Der
##sg
Summer
Hathaway
Nickelodeon
Drake
Sparks
Fly
dry
née
Casey
Jude
Children
Hospital
Memphis
Tennessee
Education
Night
homes
People
Son
Thailand
แ
##ม
##่
##ฮ
##่อ
##ง
##ส
##อน
Chiang
##pia
nominal
IB
##eks
##UP
##uted
##hart
uni
##dira
##lta
Isa
Ι
##σα
##ά
##κι
##ος
Β
Ά
##γ
##γε
##λος
1156
1204
##tium
1185
1203
##ronik
##yne
1155
##mals
##aio
Μ
##ι
##χα
##ήλ
Η
##΄
Π
##α
##λα
##ιο
##λό
##γος
##ē
1223
1282
1259
Konstantinopel
1453
Nice
##aq
1234
А
##ба
##га
##agh
khan
Encyclopædia
1265
ع
##لاء
##ال
##دين
محمد
ʿ
##lā
##īn
##ḥ
##amma
1220
vice
##roy
##riz
1205
##lju
1212
##tlu
Khi
##xar
Baghdad
Nasir
1218
1221
Khorasan
rada
Bland
Most
Evil
Nigel
##roc
##ities
Eurovision
##yba
Fairy
##tale
Slow
Marino
Georgia
Mimi
##eus
1240
Campania
930
ATP
ferme
gli
##koli
teori
Mitchell
##tase
##enos
sito
difusi
##riks
proton
sit
vital
manakala
ender
##oron
hip
hep
##atos
Gli
##DH
koe
##nzi
##pid
##zok
##uin
##fus
ubi
##nden
kuin
##fur
amino
siste
##antum
Rang
##kari
Mito
##mona
##ginal
nit
##ored
##zano
##nch
##liff
Structure
hyd
##hilic
##irat
##ory
complex
##philus
311
1430
1436
##uak
genom
tiro
promote
##NH
Esch
coli
pne
##umon
##iae
##pling
EC
##enin
##roth
Byrne
##cchi
Architecture
##cci
##active
oxygen
299
modu
##lci
fotos
##toma
##lise
UC
Atom
##etor
##sero
##rost
635
ve
loading
##hr
##bok
##media
##sigen
proti
rende
##organ
##otes
##aea
##ktat
dk
##dona
##DP
iso
##vari
##aks
##tana
α
β
γ
##rota
##rosa
stato
binding
change
mechanism
diagram
Protein
long
##ococcus
##oten
pars
##cora
##cou
vitamin
diabetes
chronic
##ctive
##lm
##onar
disease
Domain
intermedia
##gande
##hibe
##rnas
Katherine
Dende
iris
##jene
Laba
##tae
##ach
Jozef
Tobias
ante
Pieter
Louisa
komanda
Care
Pitt
Zo
##pani
Bomb
Bajo
sejam
sultan
Thai
พ
##ะ
##เ
##ยา
chan
##rae
##bou
##phoe
632
Senior
##brun
Futsal
Zola
bilik
ML
##loj
444
alun
Marka
##urua
1875
engineering
design
make
##uben
sky
##bridge
Uttar
99
848
Tamás
##jna
Ferenc
##város
Duna
##ác
Schalke
##rui
Kaiserslautern
##sut
Ö
##zil
Werder
Bremen
##42
763
Transfer
Jose
##dane
##elsen
##kirchen
Rot
Weiss
Essen
Lincoln
##pokal
Bayer
Leverkusen
Next
starting
line
##bere
Pokal
##sey
##art
##ká
Ángel
María
crossing
Gonzalo
Berna
##béu
Copa
##ásico
leg
Supercopa
España
Europe
##ć
Cristiano
Ronaldo
##usia
89
Borussia
Dortmund
Valladolid
Oz
bos
Olivier
Giro
Marseille
Aaron
Ramsey
Emirates
##acker
Match
penal
Ghana
Müller
Miroslav
##lose
##sberg
Horst
##ube
Messi
Joachim
##eland
Alonso
José
Hans
Dieter
##uu
Gull
Raven
##ervo
neue
German
Nem
##fish
Finding
##öt
duo
North
Turkish
Bismarck
Beverly
Hills
Gast
tren
sich
Berater
Faz
Kick
##feld
ido
kebangsaan
naturali
türk
##ischer
##bürger
mehr
derzeit
nicht
für
Türkei
##chtigt
##ox
Februar
Druck
rechts
Tages
##iegel
##dhan
Mandy
##risto
##ship
logo
##ezi
Miss
Bochum
Nuremberg
Tennis
Indoor
Sena
Ruben
poll
##aft
Planet
minor
1801
asteroid
become
planets
Hilton
Astronomical
Naval
Observatory
Accessed
case
study
nomen
##ture
Hughes
Heritage
Asteroid
MSN
Astronom
release
IAU
Assembly
Resolution
votes
##dros
##pso
states
may
generally
small
body
will
preferred
Questions
##wers
Planets
additional
##gitar
Pallas
Full
Action
Sheila
Pinang
##sori
Herr
VV
183
226
Taxi
Generation
Fokker
##nul
Tweede
Kamer
fotograf
##week
##dla
Onder
##aar
##nemen
hoofd
Communist
##ische
Party
Nederland
CP
##rri
##gig
sind
##riot
Dei
##zuki
datu
##ikin
##eul
710
Richter
410
figur
figure
##bie
Joe
fem
##inin
gelang
##hman
goal
1391
league
676
Sale
##ups
M2
RJ
Gelo
suport
Steel
Banda
##IG
Terme
Solid
##arity
Corps
CA
Lamb
##gati
271
##zard
##cud
Lampung
Ricardo
Bit
GR
Chairman
Jerry
##inud
Personal
Event
Legal
191
131
Ode
Darwin
Emilia
##dly
LM
##tban
Reporter
Kore
##onde
Alf
##lfa
##dli
##lista
Bau
##zky
Poet
##orat
MH
Malik
040
312
Fax
##12
##ere
##69
##53
##44
##71
##85
##19
##59
Must
##33
##51
##55
129
501
031
546
##36
Anime
Friends
##ndra
Yuri
Mari
Gold
##old
Urban
##vi
##tter
##eton
##ispa
Andra
Back
walk
tip
##uje
##blo
##ussen
##arm
##sena
##rmed
##asto
178
A4
Caesar
McCain
##veri
Barack
Obama
victory
winning
campaign
ray
prese
ilegal
##ster
Member
rise
door
Cinema
##rapher
Photography
bagaimanapun
##iko
Samo
Wide
get
HTTP
##nala
##xy
Unix
porta
Open
##MS
Amiga
##wg
##ktop
URL
##voje
##kles
Abbott
Mauro
##tones
##utor
##TH
##OR
##terio
Browning
419
Sistema
##ôt
Israel
Yer
##emia
ei
##èn
Haji
Resort
Casino
hotel
Vegas
Strip
MGM
Mirage
Seasons
Lux
309
m²
93
UFC
Beach
Moore
Pool
Shark
Reef
Aqua
Blues
café
Palmer
Keller
Wolfgang
Sue
Milli
##nig
##ales
1420
suite
Towers
ASEAN
Hacienda
sol
##yd
Goodman
Harley
Davidson
##room
THE
117
Baldwin
Tales
##edik
Ethan
Spa
##uld
Writers
Esto
Wahl
Gary
Lauren
Katie
Ridge
Giancarlo
Avatar
Legend
##ares
Frank
Exploration
Azul
sec
Alone
Writer
Welch
##ife
Returns
##loni
Dante
##arti
##nie
Ice
Zhao
State
wis
##wamp
Work
Cross
##roads
Destiny
Joaquim
Santos
Brien
Roku
Part
Eclipse
##cik
seca
Temple
Pai
##roll
Cave
Lovers
Hamilton
Tribe
apre
##ill
##stice
Siege
jin
kila
pull
##rtier
Municipal
Oviedo
Palmas
Partizan
Emilio
Llano
##ción
Manual
Nueva
sold
derby
Asturias
Gijón
Tercera
214
##ones
Est
##uv
##ieron
el
Diario
Marca
##donia
Zaragoza
Román
Suárez
Puerta
##és
##kad
##landse
Rijk
1956
laude
Local
##ization
within
Matter
##rvi
Laboratorium
Acad
Zie
##huis
##jabat
Lecture
Lumpur
##jaa
brevet
generi
Mengen
Sylvia
Julie
Amir
##print
##toso
K2
##ZA
Aman
Qin
Zhou
##sna
Zheng
hits
ira
##sli
Child
Spice
Girls
Shakira
NBA
Celebrity
Basketball
Dent
##perate
Newton
Annual
395
##lv
South
891
Slot
Circus
role
black
Subway
Noble
Romans
##rond
gra
donat
Wie
##izio
##ffin
##usz
##quin
Publishing
Forbes
billion
##aires
382
diversi
##ikus
Treasure
Kui
##utz
Look
Farewell
Egypt
##lank
##olu
##dka
##arra
Enterprises
##ston
Liz
shaped
shed
Egyptian
375
675
Nil
RA
Theatre
Hair
Isis
Sacred
LA
Britney
Spears
##riss
##rque
Soleil
##vak
belang
bom
##colo
##ldo
Simpson
350
##iza
481
porte
coche
275
440
Beatty
Hoover
kup
lume
m³
##AX
##nima
##lha
Search
##oot
Fantasy
revue
Pirates
Carter
Believe
##club
Nicky
4000
Aguilera
Ventura
##ggy
##oyer
##ouse
Attack
Hotels
##zz
澳
滌
娛
樂
集
團
Label
Riviera
##iv
Winchester
Holdings
##cq
##ition
estat
Stern
##licht
1955
Mafia
Marx
##umm
Liber
##ace
##lash
814
450
banque
258
Mono
Jubilee
##anza
Kirk
Kerk
Marina
Eddie
吳
國
敬
吴
国
Tau
大
頭
Canto
玩
火
EMI
何
卓
瑩
莹
Gundam
Dy
##names
##cque
莊
思
敏
##uline
Ch
Models
Polytechnic
##maga
move
##able
楊
玉
環
719
756
高
志
辰
杨
贵
妃
黑
龙
江
人
民
出
版
社
Others
Selected
Short
Stories
Dynastie
190
Foreign
四
美
女
##town
##anz
郭
漫
）
Five
中
华
上
下
五
午
前
年
Gong
航
空
工
业
##indo
dies
##mberontakan
Hua
Beau
##ties
Cheng
##tiu
iste
##zen
Tao
745
##xu
Wen
##jele
752
lec
笑
##wei
tiada
koko
居
易
长
恨
歌
酗
酒
Qing
清
池
Kyoto
泉
涌
寺
观
音
Yamaguchi
##hd
##ndeki
IA
##haga
##diq
唐
麒
历
史
故
事
卷
##chu
时
代
文
艺
任
浩
之
284
287
第
页
北
京
厉
学
会
二
册
海
燕
jak
Liu
##shu
##ulus
Jong
##pini
##mpong
kerana
CV
NT
Tato
##gonal
Stab
E1
##nard
##tead
isolation
structures
crown
salt
free
Marilyn
107
217
##HF
##ratu
145
NM
Simple
Method
##servation
•
##lopen
##iena
vin
##ilen
Palazzo
Sands
##tago
elevato
068
##cier
##polita
mening
Clark
Tintin
##gé
Stéphane
##vana
Philippe
Toby
Ronde
##aux
Bros
##sole
Aube
Denise
Boo
3D
##py
Sovyet
Alp
canon
##dock
humor
interna
##piti
Milo
##aros
wine
setting
Bord
##uria
nai
jeb
nur
Native
Amerikan
Smile
##ography
##cze
##sni
Studio
Channel
Canada
Quebec
HBO
Sky
Kids
segment
Cartoon
Zee
Bengali
Bulgaria
global
##mier
una
run
Éditions
Atlas
book
Moser
Hitchcock
Abu
##omia
Harta
##asis
##ght
S2
##anja
esa
Freedom
Pato
Cell
tenis
Bangkok
##hz
Bush
Strategic
Studies
CSI
##lil
##alla
##ddle
liberal
##stem
##nok
duca
If
there
SB
Goethe
##haus
##edio
teria
huu
kritika
Lebanon
##kow
Trump
##val
Noah
tesis
##ican
Bab
871
Tiffany
##olie
Avenue
Gaming
Commission
Vega
Natal
Titanic
##cts
Exhibition
Magic
Dirk
##dies
044
890
##enic
Platform
Dorado
1530
conquista
Jiménez
1537
##marka
ritual
Quito
##lca
##zar
##laki
rey
##nero
Rodriguez
sami
Bogotá
1636
golden
cities
laguna
1580
lagen
Eropah
##iasa
##ellan
1541
Amazon
delta
1545
1549
Raleigh
1595
England
Humboldt
1859
left
Martinez
1531
##niti
##ué
##bc
408
ch
vers
Allan
##etengah
Ah
932
##ström
Falun
##TM
Timo
##heid
WRC
##voor
Brno
Mercedes
Bernd
Schneider
##nen
NASCAR
Hamas
##hima
Bridges
motors
##ghing
FIA
MotoGP
Stone
Michelin
Parry
RP
president
Jaguar
Racing
##umnus
mechanical
maga
development
Small
executive
professor
Lou
##borough
##urne
##fort
Jordan
GO
terme
XVII
D1
591
Kors
Ship
##building
Mal
##gist
portal
gaz
boom
##yeng
Fat
1170
##ise
hos
##jim
##kori
Pain
##shin
right
Non
054
283
025
827
199
##ester
regional
manca
937
627
ela
aren
##yau
Handel
##laya
##ujas
Monument
##IE
Site
##stek
Salon
##qua
camp
kontrakt
##TD
Hindi
##fand
231
Forest
Ela
##θ
##κη
Homer
##iad
Od
##onia
ski
##áin
Ulster
Northern
Ireland
##mea
Lei
Reilly
Enn
##iski
##hlon
##lls
Main
##edra
Cathedral
Saints
Royale
mot
times
##aina
Restaurant
Joey
Yorker
Hill
Travel
Kitab
insula
774
ako
##ground
Sign
Midway
Diamonds
Forever
Hunter
Thompson
Reich
##zoo
Adventure
roller
coast
Canyon
##world
##own
Pocket
Johnson
helikopter
Vanessa
Theme
Mitch
##els
Baile
##té
Cork
stark
##wirtschaft
##lich
geprägt
##wn
1820
Kingston
1798
Castle
Irish
Trevor
Bella
##gio
podium
##rden
##tec
Pierre
Koch
Works
##ckey
##deko
370
Associates
##chner
Deutsche
##VE
saved
pair
aid
Marathon
Ass
##sure
Barra
Tomb
duel
Anas
shall
##pening
kabi
bond
##kka
Ash
##ddi
##zd
##abia
##rima
Khalid
##asu
##jed
rad
anh
##dza
gent
saking
Pepe
doan
1429
عبد
الرحمن
بن
أبي
بكر
Qur
ayat
qu
islam
##EE
##taa
##lien
Jill
Gladys
##fina
##tno
reality
trio
##normal
sales
##leve
casting
##ggen
poco
##ntan
bene
supra
##jant
##alin
Clube
##ight
##ies
##ery
Peso
Esa
Julio
##sha
Yuki
Derry
##ajat
Julia
Perez
##grid
##djan
##rini
Alvin
Mach
pub
##atin
##ratos
##phere
Properties
Estate
##nec
##ott
Smoke
Utah
Sahara
##emon
Experience
##nma
##nn
deaths
separate
hotels
Tragedy
follows
Norm
exposure
Atlantic
Teen
cousin
Keith
Rogers
Problem
accessed
##ckle
##usal
honor
##pired
ticket
gives
sports
books
another
eye
dispute
Money
##boj
Vic
028
013
MT
##yas
Argos
Turkmenistan
Shea
##aming
patron
320
470
846
Round
Vince
##rü
tato
Charleston
Target
beer
Tina
##koja
986
##blica
##lope
©
Rua
1641
Luís
Martins
Sousa
##kers
##cht
047
974
020
943
Bertrand
##ë
Tunis
##BB
NEWS
ps
##ych
tests
attack
descendant
mars
Chant
##eurs
##bles
Croix
Bois
##zer
##teht
nouvel
articles
les
mét
##hos
amoureux
##vel
##vate
Rode
Aveyron
Toulouse
Who
##cri
262
##its
n°
##tre
informations
##dent
##ielle
Emmanuel
1881
Jules
##mé
##éa
Théodore
##ous
Léon
Bey
1882
1898
Île
Cité
##yg
urban
oa
métro
##EB
##Ω
Space
##toon
Teatr
##ikal
Cid
##aun
##loa
##erm
##combe
Transformers
cool
##sect
Syndrome
Lago
##rust
Prime
Lord
##timus
Astro
Blitz
G1
Faces
Darkness
cameo
Cliff
Supreme
Seas
##bee
##cept
Cosmos
##itra
##wave
Rumble
Thief
##sion
Chip
##atte
Cyber
##rgu
##rson
##soni
##rr
##cons
##rim
##lock
Everything
Fair
##sons
Warriors
Come
Revenge
##cus
Stars
Ultra
Magnus
##vat
Turbo
pistol
950
##pua
Ora
##mere
domestic
destination
##47
magas
##liu
henta
ilmus
##koj
aki
Rudy
Chin
##pory
Boss
##ution
##matu
Els
##tó
##dat
Syria
##kob
431
illa
##osta
Mother
802
##nisme
Luther
Θ
##ε
##ός
τ
##ό
##κος
##fia
Jaroslav
##ή
##τη
##ρ
##ού
##ēt
##ēr
##ο
##μή
##τω
##mē
##η
##τ
##ρό
##θε
##eos
##risti
##ερ
##φ
##αν
##ῶ
##ς
ἡ
ἱ
##ὰ
θ
ἐ
##ξε
##έ
##λει
109
##κ
##τι
##ώ
##τα
##τά
σε
##ὴ
##ν
##τό
##κο
##ρο
##ση
##μα
##ίνου
##σαν
Speech
Simeon
day
Holy
Genet
##rix
Бог
##оро
##дица
ós
والد
##ة
الله
##āli
ღ
##ვ
##თის
##მ
##შ
##ო
##ბელი
##hv
##obe
Ա
##ստ
##ված
##ամ
##այր
##tva
##tza
##ած
##ին
Romania
##ă
##scă
##toare
##nez
##nului
##hian
##jel
Inca
recognize
Virgin
mother
observe
festivals
accord
honour
among
saints
Christ
Anglican
Catholic
##CI
Aleksandr
330
Gregorius
##inus
him
PlayStation
aparte
item
square
meeting
pool
bowling
komuna
##rdan
dans
wall
##oft
Sony
##char
##ted
Fortune
##hawk
pelos
heads
USB
keyboard
##tarian
##ième
##dei
##trin
Kristus
Stella
##ibil
##fora
Petrus
Siria
##giu
687
Duffy
Sinne
Yale
Reader
Church
TX
##ex
Byzantine
Greek
Pope
Lexington
739
perkataan
Tot
motto
##vosi
Montfort
Rosa
vat
holy
pau
ii
letters
documents
rosa
vir
tot
sunt
##nari
##stol
persona
Christi
Imam
##ually
##hee
Ava
Bertram
Grant
simply
flash
Eminem
Hanna
Adventures
Craig
##ld
Stig
teatri
Satellite
Franco
Tristan
Nature
Doctor
##time
Eye
Bride
Phi
##nea
Colin
Firth
Valerio
Massimo
Manfred
Legion
Pino
##kio
CG
Spielberg
Eno
eno
OH
##CC
##roni
ol
##OH
##øn
##sted
##tona
aras
Gift
Shop
Airways
suv
Large
PBS
Places
Canal
##ndola
Ann
Growth
776
##ako
##gni
mengikut
##odo
##reta
sensor
motori
##cience
##roch
##str
Beginning
European
##hav
##iou
##iol
termina
verte
##ifer
##urai
Department
Health
##geon
Chapter
##amentals
##tany
##rose
##rite
##tens
input
som
##mitter
regionali
##sona
##ology
##nology
##eur
Passage
Commander
Orleans
RF
Holding
facade
patio
Forum
634
gros
Drive
Pier
dikt
##ublik
##ctat
##ude
##jit
##riy
business
##rgan
##gri
Pulo
aula
021
1366
404
Januar
Fin
Wrestling
WWE
SmackDown
WCW
Belfast
##uise
ECW
Heavyweight
Orton
Randall
eran
Benoit
Enter
##ack
Holly
RAW
Stevie
Richards
ort
Evolution
Triple
Batista
##ddon
Nash
Jericho
Goldberg
Killer
RK
##cone
##ntal
Champion
Stacy
##bler
Undertaker
Draft
Lotte
##icap
Survivor
Shawn
Michaels
dr
##uid
pasu
##sterio
Theodore
Kurt
Angle
Rate
Cena
##given
Mercy
McMahon
##cede
Standing
XXIV
Fatal
Brad
##shaw
##gment
Cage
CM
Ted
Cody
Rhodes
Legacy
Shane
Extreme
Rules
Breaking
Point
##aggi
Rights
##mination
Chamber
##iade
##wag
Limit
dobe
rookie
NXT
Nexus
Barrett
Fast
##lane
Rollins
roll
Monday
Stephanie
Authority
Reign
Jamie
Nobel
Seth
##rest
cash
##stone
##back
Ambrose
finish
##dder
Neville
##igan
Battle
Summers
Wyatt
feu
story
##eig
Braun
##wm
Luke
Harper
##yuki
Tanaka
perfil
Corpus
##nita
Putih
##kud
##tako
Darah
##owi
##iot
matin
Rosario
His
##lines
Updated
Treasury
True
##otion
maternal
tender
Register
ensi
##mpt
##oris
##rio
Istituto
dello
Stato
ص
##ك
##liga
fat
margin
fee
##itel
Mint
Printing
lift
standard
491
seis
##VA
Heat
##lation
##dition
##yir
Building
Marcello
##oe
kapital
median
mean
metro
##tors
Metropolitan
Price
##aa
##yri
##ichi
iza
Budget
Numbers
拉
斯
维
加
城
##ās
##wé
##iji
##hé
strip
Spring
Mountain
Kenny
tai
##jeni
##rout
Newman
Aerospace
##iks
##aut
Administration
Suite
##gly
Games
Westwood
Arts
EA
RTS
##lue
##quer
##rili
Iris
潼
普
欣
Yellow
梁
雪
湄
電
波
少
TVB
##bei
san
##ismen
##iek
##kley
country
Anita
陳
穎
妍
陈
颖
Year
Beauty
##ants
Runner
chip
BD
##ordination
Brussels
BK
ll
Baird
##bson
Wichita
Springfield
Missouri
partner
Colorado
Indiana
Nebraska
Oklahoma
318
##jahr
##anie
AJ
Massa
Hassan
Him
##jeg
##ttage
representa
steel
bow
tied
arch
Gate
slogan
Benton
Runt
tribu
##MP
##von
vert
script
publication
nana
●
Malo
##pret
##iban
Unicode
Miscellaneous
Symbol
Nagar
Tuo
##pita
##WN
##bagan
##ajan
##arna
##tna
##SD
Clement
Manor
Middlesex
Benedict
Lancaster
monumental
ranking
Premiere
Rise
##lae
Academy
argument
Motion
Sciences
Return
Crow
##zek
##esse
Public
Account
Thornton
limited
##ability
partnership
Russell
Davies
Sherlock
BAFTA
Hugo
Thorn
Johnston
##hire
Sandra
##ovan
##žić
Р
##ад
##ован
Кара
##џ
##ић
Tribunal
former
##dzi
Srpska
##ebre
017
Conseil
##én
##éraux
maj
1848
Napoléon
##vai
##gnac
##hone
Morbihan
晋
朝
Cao
291
306
316
317
Devi
##ologia
Walls
##tree
Kaplan
##cis
##oros
##isku
Assisi
##nity
htm
stations
cross
##ute
Herbert
katolik
Champ
Lig
Publications
##43
679
Medi
##tation
Colo
Friday
##mate
##ript
##ural
XVI
Petri
Satan
Alejandro
##anisme
##citus
Maximus
Annals
Twelve
Nero
Vest
Cassius
##telli
Titus
##fix
##xus
##rese
korpus
Ruf
##berger
Gallery
##mns
Ancient
##umption
##viv
Ukraine
denomina
Our
Sanctuary
Chapel
KS
Altar
##skap
rood
altar
Missa
Eden
Kate
KG
377
416
417
Augustine
Tradition
Theology
929
Conference
Lui
##éi
##ES
Volume
XXX
Nr
1037
Orange
529
##ndaki
GS
Bundes
##poli
##zei
##renz
##schutz
##gruppe
##rate
SAS
Boat
SBS
##onnaissance
Regiment
Forces
Support
SF
##fronta
Bravo
Thunder
Seattle
Milwaukee
Bucks
shared
draft
Sonic
dead
inden
Marshall
heading
level
nos
care
##taker
soccer
817
1387
##28
##24
Tiger
UE
sounds
Mediterranean
##tiv
Sarkozy
Turkey
are
ready
create
Figaro
##medi
##terra
Partnership
bloc
makes
waves
Herald
Tribune
Malta
##pr
Moss
merger
SEC
val
##lad
Block
1548
##enu
##rtas
Parti
##aard
Sina
##eas
tempi
##wes
Rao
319
##undhuh
##èr
piani
##yler
Goldwyn
Mayer
Charlton
remake
Lew
Wallace
Maxwell
Vidal
Fry
##tà
##tees
tank
##lver
Miklós
##óz
Loew
Gone
Griffith
Globe
Drama
Boyd
Miriam
Martha
##rza
Cathy
Donnell
##telle
##schi
##ffe
Esther
Mess
##tega
##rius
Nazareth
##zare
Quintus
Hawkins
##ladi
elu
Tiberius
Balthasar
Currie
qua
usa
##dili
Ride
Again
Stewart
Granger
##duce
Suit
Sidney
Franklin
##sier
Market
Analysis
Paramount
334
##ments
Vogel
##tiva
ij
Murray
Still
Novel
550
482
Frei
primit
Herman
394
##minata
Cesare
##ova
Around
Debbie
393
Holiday
559
Cecil
##ille
##dge
morali
Madsen
Quo
##aia
441
445
Morris
##idd
##erot
Close
##uire
##tivas
motiv
##versa
##cate
Kritik
401
##aik
Screen
Guild
Credit
superiori
Parish
Solomon
##dien
Burt
##lex
Hudson
Geoffrey
Horne
Leslie
##jiny
396
##etz
##liste
324
lens
Actor
Israeli
Actress
Pratt
Cannes
Bridge
296
Vienna
406
sto
pr
##color
114
##yman
333
individual
153
Cyr
photos
Catalog
Feature
Observations
Scene
5000
##tman
Schiffe
##fet
403
560
Meksiko
##tling
##visor
##bord
Piedmont
Romano
409
Dunn
253
lai
studios
##odas
vila
Question
##udio
##otis
Race
Minutes
255
Walton
Archives
Symphony
Track
Winkler
leit
##vina
##sima
Disco
entire
MacDonald
Williams
Raiders
Capitol
Chorus
Decca
Score
Monthly
##ower
##utt
216
252
Leone
##yli
251
Brown
oval
210
kol
##umna
carcere
398
##alus
vet
##erina
Dane
##rei
Giuseppe
gir
##inger
263
Powell
254
Ferrari
##take
Sandy
selon
Nichols
Secrets
Doherty
##dling
bare
Ramon
##rro
Spy
##kou
Adolph
Notable
##zin
Macdonald
##ther
##bust
berbanding
##ios
##ecta
##nificent
Ronald
Holloway
##arten
Hours
Dwight
##teur
Rotten
Tomatoes
151
Nomination
Critics
Weiler
Audrey
Hepburn
Directors
##nett
289
##owment
Movies
##rill
Lawrence
##wley
Broadcast
##grave
##nock
Record
Kramer
Deluxe
Favorite
Format
Release
##ttes
234
##ún
##úin
##illa
##uter
##onika
##σου
dab
Gaon
##eget
az
chi
##keld
##zmu
##kee
Alexandria
Guillaume
Phillip
##bii
Chr
##graphy
##lace
##istic
##bli
Átha
Welles
Wellington
##hau
##hna
town
##ranno
##lí
Leinster
Galway
##common
Bloom
Shannon
Allen
É
##adan
888
Fidel
##ful
##lach
##ór
medal
##com
##bka
Medal
Viva
santo
Bern
Guadalupe
nove
##rling
##úil
##úd
##aire
038
Barrow
##rú
Mayo
##tikus
Spanish
literature
my
##stica
writings
Britannica
retrieved
Spiritual
##kret
1575
1629
Toda
Γεώργιος
Ρ
##ου
##μ
##π
##άν
##ης
Melbourne
UCLA
corda
##phora
Dialog
##poly
vo
##cum
tuo
##bem
##inum
aga
Domino
Methodist
##ulte
##jou
journalism
##reate
Own
प
##्र
##ेम
##च
##ंद
##anas
Anand
##dras
##wl
1906
##vra
##ém
##wki
##iru
virus
Self
##īm
##ēma
##mei
mimo
Fourth
1904
Die
##pf
##ungen
ihren
Beziehungen
Original
meaning
copy
self
genetic
Cope
##rni
##met
##rack
Blog
Cameron
##lowe
Osborne
##evo
##ionar
network
Unity
Knowledge
Plato
Aristoteles
propaganda
Marais
Everett
innovation
##bert
metodo
##ourt
Quentin
Yvelines
##une
village
Anglo
Saxon
##viers
##roux
Lec
##ois
614
##ét
##ilien
Défense
##nasse
Breton
Essonne
Oise
Gaulle
Vaud
##pole
Concorde
##iers
Villeneuve
##éri
##nières
##rés
##illon
Isabelle
##rge
lès
##celles
##etni
Dama
etnik
Coca
Cola
Fiat
Visa
Neuilly
##voie
Vallée
1837
161
163
164
272
358
378
##uvel
Belgique
##bourg
1910
dépend
Champs
place
boulevard
1869
##éna
Marne
##esen
Franc
papal
1152
##êne
Antony
497
Plessis
##chard
##fim
ש
##ׂ
##ר
##ף
##פים
lat
TU
494
##onne
Nord
Gros
crede
##Â
381
##tr
##maat
Mt
Ignatius
successi
bd
##icus
nema
##menti
Magister
saksa
qualified
##stat
IK
q
1364
282
##onali
##nomen
940
rele
##goko
micro
teaching
##dito
##kreta
##CA
Alumni
##ktan
##risk
1337
institut
1850
Barre
##ratie
##isy
##ncy
Bains
Ville
葉
輝
叶
辉
啤
梨
Él
##rière
##pelo
##tola
Cafe
##NC
uma
Rita
AP
DIN
##caq
1860
##erse
##osan
##iste
Link
Novi
##mans
Tanto
Yahya
##fiq
Axel
personi
##cuum
orbita
618
553
332
hol
##tiku
##ltura
Belo
093
##illo
Org
##MC
Mee
thriller
Bonn
##yra
1698
##tress
Country
Brennan
Carolina
Providence
Read
raz
1720
Jonathan
##aika
anjing
1721
##igh
##kle
##skar
Gerd
Ingrid
Manuel
##armaceutical
Wiley
Wein
1002
1435
754
##zov
great
contribution
science
##dice
Side
##roka
##rato
##niki
OL
Comte
Cristo
Piece
##uve
château
Foi
zones
##iser
##ité
##LM
##är
##cher
hop
##zee
##heimer
Prost
hero
##vas
stati
Oba
nye
##lys
ator
CoA
Roth
##pate
##stab
plak
##oner
uri
Stati
nef
Nye
##psia
##like
FDA
##valo
novo
##ein
LDL
HD
SNP
mio
rs
崑
曲
##ǔ
Giles
ü
chu
##vil
##zhou
Yong
Melo
Martín
Mato
##rra
Corrientes
Doña
Chaco
1786
Seminario
Murcia
1808
##lén
1811
##cala
Río
##vr
##dise
préfecture
comte
957
1136
Canterbury
Gothic
Elijah
Innocent
1258
1326
Burgundia
1418
1562
1590
Farnese
mairie
##ulos
Esso
Moulin
Energie
Mandarin
Bender
Emir
Afganistan
##lans
Honor
Pardo
national
##eller
Haut
Jolie
Бу
##ран
Blizzard
Forêt
Département
##osse
##sso
Mairie
Duc
Orléans
434
banlieue
Denis
601
Evans
Harvard
Opfer
Vergangenheit
Hitler
##itische
Amt
Erich
Wilde
##nha
Baden
egen
eut
Heidelberg
##sburg
1891
Freiburg
Breisgau
Schloss
Jakob
memorial
##gabe
##nich
Lebens
##werte
Brooklyn
Cie
Downs
##tate
Krim
Betty
Boston
Wilkes
Minds
323
Psychology
863
439
Thought
Reform
Study
thought
##amar
bas
Kanton
Roi
##intas
##ré
##teil
##iais
Prairie
Grande
Armée
##court
##rou
berne
##elma
##él
##dron
##oit
##bella
kenek
##epen
Sarah
Crist
Sanat
##vt
Thor
idi
##ēs
##dde
Lexicon
entries
Words
entry
##lles
Porte
##illet
1821
Lublin
##ivo
##ds
##hip
##anten
Chat
##ési
Maison
Auguste
Renoir
Phillips
Collection
##blin
ein
Tode
##slag
Aktion
Reinhard
Juden
##gou
Bogdan
Osnabrück
257
281
##gne
TGV
##tab
##sement
Industrie
##tena
##enay
##bry
vallée
aux
Butte
Rouge
Jardin
École
Centrale
Farm
Atlantique
##ulé
Communauté
agglomération
##èvre
castell
##anum
##eaux
##rent
##rcy
##nnes
##ée
Bristol
Noi
##pé
##chent
##chant
cap
Vu
##lgar
##ueil
##vitch
borough
twin
617
literal
##byn
##neau
Bez
##uille
##ières
##reuil
Romain
Mons
Sein
plateau
Vie
615
##été
radar
Conway
fighting
ships
##lanan
agency
year
##vert
MCA
Federation
Fame
Volvo
Saab
Express
##nkin
##uts
Barton
##stin
Osborn
Worldwide
Gunn
Esta
esta
##ranti
##400
Start
दे
##वत
##voda
Khmer
##nade
Deep
Guides
Messenger
Three
Rivers
Heinz
##erden
Werner
##iate
Leipzig
##muth
##erbe
##hnen
Dre
##ė
Pomerania
NSDAP
Leiter
##ell
##vertreter
##AP
Elbe
##eld
Wuppertal
Lev
##ffre
##nte
Nota
##dry
185
##raja
##jd
839
1671
##90
152
Insurance
bench
##mack
optimal
1119
##cen
##veu
Léo
Lagrange
Vai
##llant
Camille
Lois
##ô
##pital
##usse
Afghan
Afghanistan
reas
##spor
♠
Archaeological
trust
fund
porto
Julian
##rod
##rad
Namo
rest
Investment
private
equity
ATM
Advisory
##pre
##writer
##ntra
finance
Direct
Creation
Financial
Private
Early
Consumer
Index
Outlook
Weekly
##rren
##pace
François
conservato
Alla
Gauss
##dotte
##beri
Thriller
Single
Maia
Esti
Pink
blant
##sart
sartu
##baki
Kelly
Rowland
Beyoncé
Knowles
BMG
555
UB
Ain
MS
##rupt
Samurai
Fool
Cool
4°
Hung
Bei
##hsil
##vata
##enna
azul
##tid
##ash
##sot
asas
##gala
Path
ny
Terra
Comet
##lera
##erin
Blind
maji
Pass
Chase
##pata
Arno
##legen
legend
##lana
Umm
##tuna
kim
##unn
loop
fashion
sabit
supply
Kanal
ruas
ig
Yon
##inen
Step
##bling
##ernal
siblings
Marcel
step
Cultural
966
##oci
traditional
##wne
views
cf
daily
##mna
##paper
##max
archives
1126
##amer
columns
content
FS
Columbus
Opus
Incorporated
Raider
Milk
##nick
##tese
Galaxy
Fruit
##risme
##rrell
obyekti
##pac
Bryant
shooting
guard
forward
Mode
Eagle
##cker
loyal
##lke
Combat
##mobil
##aven
Armada
Terminator
##vage
Shock
Luc
Animated
BE
##lten
Kader
##mons
##ril
2022
got
add
Asya
Transport
Romeo
Megan
drummer
provider
##yrics
##qe
Dickens
Archibald
Duo
Ime
mondo
##lua
##iai
Suba
Chair
##cili
Felder
##cilla
Donna
Transit
wet
lor
##tice
##fii
##nad
Unis
554
Akira
布
施
晃
##ifolia
##mele
Univ
##var
lore
124
아
##리
##titel
Vietnam
Korean
##uring
lt
late
Euphorbia
##ceae
Any
Silver
pole
Heikki
##vala
##çao
##mentu
Klein
##stad
766
##gebied
##sula
Sweet
1634
Antilles
veg
##ktu
##raca
142
Missing
##mki
Х
##им
##ки
impresa
Kit
Petar
bol
##ido
Hancock
ash
relations
ime
##jny
trailer
##plot
##gt
modeli
singer
Image
751
Seul
##uary
franchise
Double
##cena
hole
##iei
##ead
modi
Horror
Pred
##ators
Destruction
Construction
Toy
##loc
Speed
Jungle
##nibus
V8
Watson
Very
Apart
##nila
##mare
retail
minima
Nippon
Corp
##FC
Phil
##adel
##iner
Eleven
Shopping
Hist
diagnosis
Teddy
##kaat
links
##polo
ports
tapo
Rolling
##cken
Nelson
##quet
##zus
producer
screenwriter
Butler
##hiro
pied
noir
Rubin
Kazan
Stadium
133
Hamm
IF
##boll
Allsvenskan
##öd
##erst
Lopez
striker
Elaine
##bola
##idar
Akbar
frase
##tego
Fernando
Rene
admiral
##eel
Papilio
##blu
Kingdom
Butterfly
##rint
Logo
Lopes
skill
pese
Hector
Vela
Ou
##iard
Tha
Cristian
##hasa
Stop
enerji
talent
gadang
Derby
##porte
Erwin
PSV
Eindhoven
##dula
##etin
coach
fini
veri
playoff
##rean
plu
sont
Maji
Pegasus
Muse
Abdel
LE
##ipo
Moto
##bec
##oog
##uche
Église
Chemin
print
bine
coa
fiber
##LS
##eem
##ania
supporter
##lnu
##yers
Magnum
1492
Meadows
##nl
Newfoundland
Kirsten
Frozen
Echo
chapter
Nine
fauna
##lanti
slave
trade
bourg
##eois
Villiers
1224
1266
1316
parlement
1376
1648
##llius
##nius
acum
Boulogne
##ndr
Celtic
1790
##éen
Château
174
Knox
Biblical
Teaching
Fellowship
kristen
Berlim
##ndant
Bishop
Yves
##sle
##iven
Veterinary
1841
##darmerie
Nationale
Mansion
##nche
Halle
Buffalo
Rhine
Stade
##ums
√
rein
Asti
##lben
Punta
##hog
ا
##قبال
##لام
##ہ
شاعر
مشرق
Sage
##āl
##āh
لا
##هور
##ی
Lahore
ی
##وم
ولا
##دت
bunda
##dda
574
653
123
##lul
dizi
hafa
##jta
##dru
##uy
##bban
Qu
##qin
##ladan
##banda
##mid
hasa
##ith
ann
585
##cture
Understanding
race
weekend
Valencia
Jerez
Toyota
Renault
Toro
##kajima
Bahrain
TF1
Council
†
‡
Brest
##stre
##xo
Lotto
Bernhard
##lst
Florence
trad
dance
Е
##кат
##ери
##нин
##ский
дворец
tsar
##sko
Bartolomeo
Francesco
Ф
##че
##́
##ско
Ба
##рто
##лом
##е
##о
##аст
##ре
##лли
baroque
stronger
anniversary
Daily
Fact
one
##bollah
ז
##רוע
ה
##או
##יר
ו
##החל
##ל
חיל
האוויר
Base
Defense
Cobra
##lico
##pter
Makes
280
##2011
707
##eling
Squadron
Hungary
Palestina
Flying
##onas
##lova
Bf
Operation
##esh
Mustang
Haifa
Focus
Phantom
237
##ppur
##ptive
Doo
Phan
##hawks
235
242
Yet
##zuka
Mosque
##aktor
Gaza
sv
Bom
Istanbul
##ün
##ören
Ahmed
##abad
toll
rises
Gujarat
Bangalore
strikes
killed
injured
nine
wounded
Bengal
several
552
303
206
392
##rakat
##а
##мен
##ское
074
##lono
##elem
##kea
allo
Kolonia
##lov
К
##ис
##лов
##д
##ск
##av
788
414
Una
Adult
open
##nzo
Number
##ギ
##リ
##モ
##ザ
ナ
##ンバー
##ワ
##ンス
##タ
##イル
##zet
ハ
##イ
##パー
##イク
Aida
Reina
Mats
cream
##pie
ene
ア
##ッ
##カー
##ズ
Lesbian
Soft
Platinum
##vu
Yokohama
Durban
CR
XML
bit
Use
Hands
Server
CPU
x86
Gilman
Wende
Gill
Voice
Rio
Antonius
Seda
prema
bolo
Panther
inn
##ocent
##deo
Coco
Village
##erre
1822
##chet
champ
Noël
1866
Citroën
Ile
##éc
île
##LL
##RE
##iac
##buri
latin
##tien
##lman
Joyce
Lucia
Samuel
Beckett
Curie
Bibliothèque
gampong
Michaela
Venice
Biennale
Casablanca
Moreno
Herrera
Nolan
##oven
Emma
Cain
Heath
##haal
Freeman
review
Harvey
alia
Rachel
mafia
Roberts
Ritchie
Loeb
sidan
Garcia
Nestor
##voi
Coleman
Reese
sona
Lucius
Nathan
Gamble
Signal
Penny
##worth
326
Metacritic
858
469
004
483
Parigi
##uton
##riff
##inci
versus
lb
·
Following
##oper
Memento
##eption
fiction
##stellar
personal
facto
##timas
##trina
Industrial
##msky
##quire
traveling
MR
Baza
Electronics
##play
Lucky
Leicester
AE
Cricket
##tle
Rugby
Sharks
note
##late
Shine
Cook
##ifier
storage
monitor
proyecto
DL
audio
theater
player
recorde
mix
works
##tations
mixing
effect
processing
powered
##power
letu
##zon
Psycho
##tics
Dhaka
##dore
ngan
mayu
mam
##alog
##mers
ٹ
##کا
خان
Punjabi
##md
Beatles
Sgt
Pepper
Lonely
McCartney
Lennon
piano
Ringo
Starr
gadu
paper
Travis
ঢাকা
বিশ্ববিদ্যালয়
Đ
##eek
##azi
MC
##tingen
Abbey
##lb
Grove
##ometer
Bose
Anatomy
Violence
Civil
Military
Political
Articles
Bihar
Assam
Singh
Aurora
front
##tni
Sikh
##rore
Lanka
diet
Heart
##ikt
##hini
Fram
##shed
##hry
##zada
##qat
لیا
##قت
علی
Boys
Rod
Rosenberg
633
606
خ
##واج
ن
##اظ
##م
الدین
খা
##জা
না
##জি
##ম
##ু
##দ
##্দ
##ীন
##eed
##wami
Fork
Township
Pennsylvania
##hig
Edwin
##ney
##mark
##tista
Task
Xinjiang
Everest
Austen
##psa
##metri
##osen
Quest
Manila
Linda
Bohemia
##mone
Savoia
##lav
Omar
##rijos
##ín
Panama
Panamá
Krishna
Titans
Nadine
Rush
Isabella
укр
##ї
##нці
ukr
##ints
Kazakhstan
Italiano
##rá
Kerry
##arne
Siam
##ír
Landmark
Memorial
tire
Munster
svenska
##cia
##ici
Core
Loch
##nc
suom
##iset
Có
##rth
##aid
964
##lare
generator
stop
##eker
##upas
MW
ES
##DM
«
»
##oin
Down
Hartford
##cout
Deux
##uaire
##tä
Tampere
Finn
artificial
nord
ラ
##イダー
##チ
##ップ
##ス
Tamil
Ritual
Maar
Hussein
arab
##raq
1826
1828
araka
##lisia
tasa
juba
Juba
gana
##zur
zal
hoy
Hoya
##wd
faj
riu
centimeter
laten
souvenir
Hamburg
Middleton
003
Niger
2025
Baku
##giene
Spike
##plu
monster
alien
##bulo
Corey
Burton
Fortress
Call
##imus
##acon
serem
##hall
boards
transform
##mov
Chevrolet
Mikael
Trent
bias
##asta
dollar
384
##46
kacamatan
Sheppard
dien
shi
1238
friend
tena
Shining
Bright
Kelvin
Anastasia
artist
star
XX
XXII
XXIII
Xbox
##vator
##eva
বাংলাদেশ
আ
##ওয়া
##মী
ল
##ী
##গ
Sheikh
##pendium
স
##ো
##হ
##রা
##র
উ
##্যান
##idat
Junta
Fonte
##nay
Font
font
Webster
Hop
##æ
æ
##crat
##table
##fiti
writing
Bronx
Afro
Flash
##rious
##ggins
1520
party
Jimmy
Babe
Root
Cela
sue
Souls
track
electronic
synthesizer
Herb
Jazz
Funk
Coast
NWA
mainstream
Cent
tech
hard
##smith
License
Zeppelin
Feet
High
Rising
Linkin
Hybrid
Theory
Like
Crew
JJ
Squad
nua
##nsa
Clan
Chambers
Trip
##mental
funk
jazz
Merriam
Mix
Reptile
Window
781
Poor
Standards
Miles
venue
Lower
Ground
CC
tenant
Tonga
Tā
Silvio
Pio
Lazio
Torino
Novara
text
align
nước
##ắm
thơ
##mpia
bánh
##áng
##ấm
##ở
cuốn
bò
##ế
cao
##iau
khoa
##èo
##etaria
##ả
saut
##ldu
##uet
lait
##áo
gà
Hanoi
tương
ớ
sendo
nang
##goda
aura
miss
Distance
app
distance
transition
state
Organic
Chemistry
8th
Sons
SN
Stereo
##tere
##orial
##lucose
##ecule
mano
##nosa
##ected
analysis
##IV
energie
uns
##roca
method
Hirsch
Miller
Irene
##mins
577
578
##ὐ
Deutschland
Allemagne
español
castellano
Taliban
elan
##vende
Eat
Como
Natural
##ists
Zoo
##mania
Tasmania
Eileen
##kull
Conservation
##tach
##zation
##ions
Role
Surface
##inosa
##gidae
##cine
##vica
Linz
RN
Split
VS
##ölte
##mira
Duisburg
Nagoya
Eight
hai
鲜
酱
##ǎ
##àng
Peking
Portuguese
fut
##anta
Singing
singing
##vent
rua
fest
Regina
Bachelor
##lila
901
##flower
Morning
Singapore
contributo
FIS
Roja
##ining
Kebangsaan
Padua
nights
Solanum
plant
profile
Flora
Propaganda
many
Formation
Darius
##esche
##ál
##ltu
stem
Vishnu
##mman
congregation
##lic
##zka
Kraków
1290
ł
##dz
##واجه
شمس
##الدین
حافظ
ال
##شير
##از
##ي
1310
gh
sure
##fahan
##tch
Amer
##india
Handball
Penal
Field
handball
outdoor
indoor
homi
Wrocław
1336
##slav
Josef
Wagner
##ław
##weit
Eis
##erne
Kreuz
Male
##czyński
327
kapel
Nicolaus
Dmitri
##dele
Bolesław
##dere
##wski
Jacob
##owski
##jt
##ył
Clinton
##aic
##usha
count
Minister
##taja
Order
Expedition
Army
Yamamoto
Burma
Seis
Mount
조선
鮮
##ŏ
Tada
##jima
##dyo
##dini
Minh
Inde
extra
territorial
Nihon
##jach
Select
Fotos
##obu
Response
##logical
Cycle
2100
540
970
##lou
oz
utan
##toi
deciso
Eliza
1827
far
Fate
##صر
##ت
فتح
SW
Emperor
USA
Amérique
Fukuoka
Legends
Voices
NP
ans
Hum
interval
260
granite
##onos
##trat
##huda
Naam
Amon
Edo
Etiopia
Commentary
Flavius
§
##quita
##icae
922
931
913
Thiele
Macmillan
Rapids
3rd
825
##82
##57
##hale
##hdi
Balkan
Kiba
Naruto
geni
##sain
##gent
minus
Sheldon
Broadway
Patty
Midnight
Rage
Angels
##chte
Northwestern
Merry
##xer
pk
##teka
Naked
Mystery
Author
Associated
mediu
Curt
Alexandra
##stoff
Sox
Emmy
NBC
##vid
Pavilion
##−
##isson
310
##eter
Chapman
UV
teki
Brewer
Gardiner
Bernadette
Greenberg
461
##teli
372
Loir
offs
plano
##graphic
Champagne
Ardenne
162
565
229
##â
##lons
Reims
619
Ardennes
Meuse
Haute
Vienne
Limousin
Limoges
Charente
Creuse
Corrèze
Dordogne
Indre
Irwin
Lorenzo
Oil
Penguin
##guin
Ange
1177
1180
##pei
Klan
powiat
woj
##ództwo
gmina
Powiat
Warsaw
1390
1622
##laus
##ovia
1294
##cella
nam
kanggo
kutha
nalika
taun
liyané
##vic
uga
##aké
Loire
Alpes
lig
##érien
1793
##KP
##umont
873
arrondissement
432
Montenegro
Vosges
952
Yonne
Bourgogne
О
Loiret
##rne
Belfort
Franche
1871
##ḏ
Judaism
##ofa
tanduk
bando
daha
pale
pag
Gers
##hole
eman
##zana
Leonor
##trine
##bba
Zion
##trag
##ramm
Saba
דוד
Dale
Δ
##łę
##harf
##wies
##zeg
Brie
Opole
637
rural
Gmina
##ę
##dzie
##rzy
##ź
##dé
##né
##ndia
496
Elias
##etti
##ousse
##ñ
##dino
Anschluss
##cz
Murdoch
Nada
##ishi
Guns
##eik
##retta
metr
bai
##ibi
##ów
##iec
##wia
##woli
##ost
##yni
##zis
##wiec
990
##zien
768
239
928
Ł
##Ł
936
##ń
139
##ława
438
Nowy
##wór
742
##rów
288
##two
##czno
919
579
Góra
##zyn
886
##ło
067
584
##ków
##zas
##nys
168
Przy
##ł
050
Sied
##lce
566
467
##łów
314
##ża
586
##ęg
Ż
##Ż
697
##aków
658
##ró
524
##ało
545
##oce
Hradec
Králové
##eth
Princeton
215
Presbyterian
Jana
##oče
##nský
Woo
bayan
paras
Baltimore
Maryland
##brella
Jonas
1712
1852
millimeter
Zhang
張
郃
Chao
##anski
jezik
##hto
Andrzej
Rumania
Medical
Mill
McGill
Houston
Veterans
VA
##ipe
Guillem
##lyn
peer
originali
##łu
##zyce
722
Datuk
Queensland
Universiti
##ekom
Dat
DK
federal
##zak
Dato
Bhd
Syarikat
selepas
iaitu
##ertu
Wars
Jedi
Namibia
Nauk
Angola
##witsch
mira
##bilis
##ssus
##vle
regular
##hoek
851
935
Rural
##ały
##wein
##furt
any
##fts
wheel
ferro
##gnet
camps
Patterson
ilha
Amy
sad
##unce
passing
our
##ove
condition
##mps
sef
590
AOL
##foot
##oum
##ieu
##lein
jong
Guinea
IUCN
Mets
Baseball
Yankees
Dodgers
Continental
Bees
Burr
Jets
1883
1887
stadium
##tig
##isk
##σι
##λ
##ί
##σκο
basi
kada
##cka
##trice
##egen
dier
##bue
Ihr
Stanford
Mainz
##rije
Polish
##sea
Jung
##ʊ
##ŋ
Biography
##fte
##sbury
Dorset
773
##lito
Cambridge
Philosophy
{
Collected
Transformation
Routledge
Emilie
##werk
Sigmund
Freud
international
Beyond
##city
Pauli
##tical
728
##rry
avant
garde
conservative
Springer
##cious
Mine
Dover
486
424
Wand
##lungen
##bido
Letters
looking
revolutionary
Sabina
Spiel
Gross
birth
##ivity
Politics
261
Yard
048
contra
lectures
theory
##ador
033
psychologie
applied
education
behavior
prepared
019
Sede
mutual
Ego
Olson
498
Stevens
Intro
##strom
mind
beyond
immediate
awareness
cognitive
models
657
Complex
insting
##adow
Person
approaches
identity
Relations
Shadow
extraordinary
527
McKenzie
gender
emerge
##vidu
familiar
##ijo
tenu
##lée
ʒ
##ˈ
z
old
prints
Botswana
terutamanya
##rij
##staat
Heinrich
##nstein
##juana
##bell
Boot
##rche
bahawa
Lukas
301
Poll
##ock
1594
Richelieu
Sanchez
Sánchez
Puerto
Rico
##gano
nom
1621
1098
##istra
##fert
aun
##hotep
##fern
##efer
##uate
Alte
##mose
Xiao
孝
庄
皇
后
1613
1688
木
泰
##igi
god
1643
##tikai
absent
1661
1669
三
藩
乱
1673
秘
康
熙
帝
Sword
##ained
碧
血
剑
##unu
Deer
鹿
鼎
记
770
##dre
##taba
610
barangay
multimedia
##ndri
stay
##rir
processor
Multi
DOS
Macintosh
UNIX
##RC
IBM
##fect
R2
Explorer
att
##achment
mail
Filipino
Hilagang
Mindanao
Lana
Bukid
##vao
008
##mpes
Eurasia
##OX
Software
##cter
Proc
lot
alb
Hokkaido
vive
nok
##rnis
think
Sorbonne
lycée
##ème
objets
lui
même
Université
Recherche
##cono
##mique
##hine
Innovation
Sociale
Sci
##fique
Collège
##hys
##rida
Fou
depression
Nietzsche
Saussure
Levi
Strauss
historian
historical
perception
events
would
reading
them
history
narrative
which
Ehren
Fonda
##geo
Gandhi
##edet
Aviv
##zama
Friedman
Sources
tekstu
Nara
Priest
Version
920
link
quo
Babel
Exodus
Mesopotamia
cierta
1646
1626
##isht
##game
Babylon
##bius
##hru
jim
##lion
##stria
Elia
Torah
Jewish
Augustin
354
430
Classics
##here
Hier
347
##IX
182
hasta
peak
956
1229
see
sections
Mid
##sher
deu
iş
eri
reed
##yrian
ξ
##ύ
##λων
##τρα
##γών
##ων
Brent
pitch
consensus
Hasta
siku
Wyoming
ship
steam
pump
limits
size
wooden
object
too
big
timber
frame
construction
##eding
##stada
loc
tany
##neous
Justus
1547
1606
Kirche
1601
1680
1627
1705
##elin
Haven
024
Geographic
##tjes
ado
Minnesota
Urbana
Low
Clara
chief
##zaki
##anus
##PM
pleno
Roland
Garros
Wimbledon
Nadal
Justine
Foods
Frida
##hl
Rivera
Magdalena
Carmen
Calder
Norma
discours
Andrea
##tten
pain
passion
Guillermo
Henriette
Kaufmann
Matilde
Calderón
Gonzalez
##toria
Gómez
Arias
rus
##obil
tempore
##gest
drawing
Louvre
##rots
Stalin
##xica
##nismo
##lg
##uera
##tros
##otti
##lve
Manhattan
naturaleza
viva
Medina
Hayden
vida
abierta
translation
Eleanor
826
Conde
Jorge
Alberto
##rique
Xavier
Philadelphia
Audio
##ues
##ledge
##hammer
Hispan
MX
##ól
Edinburgh
##inge
Humberto
Excellence
Brighton
##chester
Sussex
Bellas
Artes
Minneapolis
Monterrey
León
Walker
##pect
##jwa
Chung
hui
1394
1428
1901
Gymnasium
##watan
tj
BR
Ask
ask
posterior
albumin
##rben
Zum
Manson
Tropical
Diseases
Saunders
##fekt
Effect
Temperatur
##onat
Egg
Larva
ven
inferior
##veo
##drom
eo
##tge
##eum
abdomen
leva
##rante
##xan
1308
dal
##dbe
##stuu
##odd
##hda
##cente
vis
##aben
fede
##zul
##ı
##porus
Mehmet
mandat
514
facilities
enterprise
Labrador
Scotia
Banks
Outer
##lets
Prensa
##bero
##cion
source
##ppet
Mehmed
ث
##ان
##ى
1432
1481
##فات
##ح
1444
1446
1451
##şir
##irne
Murad
##üm
ş
##zade
##üra
Anatolia
Ç
János
Szeged
Władysław
Mircea
Konstantin
##fy
##cima
##rusade
Restoration
Constantinople
##bart
Oaks
##plos
1261
Illustrated
Kosovo
Anadolu
##arı
Genova
Lowry
Ottoman
Albany
##éo
##ride
674
678
##yü
##lân
##ş
##ṭ
ق
##س
##طن
##ية
##stant
##ğlu
İstanbul
##ları
names
##ünden
##üne
Türkiye
##ültür
Bakanlığı
1703
1389
##lja
##novi
Branko
##đ
1454
Brdo
1456
Stefan
Helena
Stjepan
1459
Mihail
##yle
##sos
δε
##σ
##της
##mill
##rios
Albania
1460
##meni
##rait
##stel
##gree
##rave
##lako
##imos
apod
MAN
236
journal
##ciu
1458
Theodor
##unes
##nene
Uzun
1461
Byzantium
Hacı
1357
1475
1468
Radu
##umos
Vladislav
##ăn
##eş
Niko
1462
Donau
Danube
Dracula
Prince
faces
147
##âr
##ște
##oğlu
Má
##tyás
1463
##ovac
##vou
İ
Ancona
##nth
##iye
249
1464
##mondo
1465
1466
##ttore
##olis
##rido
Istoria
Negro
##pont
1467
1470
##rnoj
##ević
1474
1478
1479
##rës
Conflict
Conquest
##dze
917
Turks
throughout
maintained
upper
raid
##rts
Treaty
gave
Albanian
well
Then
paid
annual
tribute
permission
Ankara
1402
1424
Konya
##ğ
##rende
Kasım
1473
Petru
Moldova
##ân
##ım
##lui
Ş
Mare
capa
ver
contemporary
1476
##escu
Hitchins
Teodor
României
##int
Bucharest
în
##ști
artillery
larger
armies
Valea
##bă
Național
iulie
Moment
istoric
##iver
moment
##cea
##ț
ı
1477
##dna
mille
##nadi
Scholar
Patria
Renaissance
Reformation
Mille
Otra
1480
Abbas
Hey
Aquila
è
morta
Turk
Minor
destruction
tür
##û
Ioannes
##zel
##ü
##şa
پادشاه
Selim
Eski
Yeni
1421
##ātu
Orta
1449
##uze
##nos
1353
##ntz
Chronicle
Portrait
1471
API
ze
Lester
Wire
act
##zzy
Commons
Less
Massachusetts
author
plans
##urrection
BY
machine
##cens
##mie
##away
##tje
fri
royal
Goldstein
##kler
##anic
Boyle
##festo
future
intellectual
duke
journals
##dl
##000
copyright
protection
license
ownership
impact
academic
libraries
Yahoo
creative
571
sample
share
listen
songs
legally
##ryn
NC
Turun
Bray
##aring
蘇
東
Soo
##resta
alter
##fier
½
##gid
##raft
IL
##eak
blade
##yst
ose
TER
##EM
##ING
ice
she
1025
metri
USC
208
USS
Glacier
##desi
glas
juli
##eska
##gono
Immanuel
##eun
Robertson
##isko
Titan
RMS
##reck
##marine
Spectrum
Harbor
954
喬
小
Hermann
Bertha
Waffen
nieder
Frieden
##warte
##sgesellschaft
Esperanto
徐
庶
Jie
Marriage
Liberia
PSD
Oilers
René
Aix
Provence
fiskal
Roosevelt
Declaration
novela
##ento
Imre
##tés
Buch
Vila
##ág
nem
született
##ért
##dish
##ső
angol
##gó
##álya
##ló
Literatur
##preis
Leipziger
zur
Europa
##igung
Jerusalem
Parkinson
conference
Thank
##iving
Chiefs
Lamar
Hunt
Canton
bowl
Pasadena
Packers
Colts
Vikings
NFC
##oze
1404
مراد
##ād
Murat
1410
##üz
veteran
Beyaz
Adriano
##orno
1422
##ppi
##mano
1439
Worlds
1448
##orum
1413
Ș
1386
1398
##lais
Panzer
Bernard
Montgomery
bassist
fusion
Süleyman
1691
سليمان
##ül
##mā
1620
1687
##öp
##lü
1690
1494
1566
Belgrade
1529
Trabzon
1534
Barber
Damaskus
1521
Lajos
Levant
1522
1526
1506
##há
##nku
580
##mbre
1532
1540
1519
##áp
1533
Sick
1553
Erzurum
stal
1554
Aden
Yemen
1538
1839
economic
social
Reis
Ez
1564
atlas
warfare
revolution
1792
Doria
Barbarossa
1535
1571
##rber
Tripoli
Algeria
227
1515
Naples
Toulon
1543
1544
##blatt
Moses
blood
211
##ref
ش
##ه
##زاده
##لر
گ
##زيد
##هسی
سلطان
Muhammed
üm
995
##zuli
Gibb
##uten
Russ
##zie
Hare
İbrahim
1523
##kende
1536
1550
1552
1559
##radi
##keskus
1561
##ltan
1592
1639
مصطفى
الأول
1617
1618
1623
1603
##arda
Mohammed
الرابع
1693
احمد
1695
##ṣ
yi
usan
عثمان
##ث
1699
1730
Sunset
Lucas
##ntino
Cohen
##kowa
Welfare
##state
##BS
nata
##mach
fast
##uos
toto
##gami
##endix
##roma
##babil
Planck
##zmann
Birth
Cheryl
##iere
certificate
children
changed
##name
##urno
Ulf
##varo
PAN
Universität
attitude
reaction
magnetic
coi
menyertai
store
handling
##tish
A2
Timog
Norte
Occidental
836
##vaca
Mining
##zara
681
599
##malar
##rant
Rhin
Strasbourg
##tatu
animali
##logica
nova
1804
Ravi
Shankar
sita
instrumental
AND
سه
##تار
ṣ
##īt
##ār
स
##िता
##र
##urd
621
suit
celem
zit
अ
##श
##्व
##िन
##ś
win
##aty
##zawa
Fujiwara
Mickey
##uff
hir
##aam
minister
##sere
7000
Janssen
Cornelis
Indie
Stamford
Crawford
Admiral
Gillespie
ultima
##itiek
Contra
Indianapolis
acre
##avor
Aid
276
Geary
965
Peoples
Fresno
##ि
biri
व
##ुण
var
म
##गर
cele
dugo
##wel
##ṛ
##ṇ
##vam
##made
depi
tala
##ānas
##āra
Lino
##leu
oil
##ार
##vad
##vais
Vall
Dwa
taka
Fils
1192
##مس
##تن
با
##لل
1226
##rilla
##ظ
##اهر
ب
##أم
##ر
1225
##rlar
##adh
##ض
##ئ
##دى
1075
Lilla
##طا
##ئع
991
Qara
##isce
975
ole
1375
1417
Malaysian
Asiatic
1409
δ
##ιά
##νος
##ák
##inius
##tius
Filip
sida
Ethiopia
Beck
Reginald
536
##jinal
toga
##iassa
Ante
##rion
proprio
##cona
Ordine
Directory
Ministry
Permanent
##dud
##rys
Women
##gical
Historical
898
Phyllis
debat
Saturday
Herder
1832
Evangelical
Sister
servant
leadership
dea
sebahagian
Elder
vest
pastoral
Regular
Baptist
Churches
Cove
sacra
offering
bishop
ministry
leader
team
##ια
council
##cole
Hyde
Strange
पण
##्ड
##ित
##ḍ
##hik
gia
##tui
148
Shakespeare
##didae
Connor
##zag
snake
Database
Habita
ovo
Pastor
ר
##עה
##οι
##μη
sino
Christianity
Pater
Calvin
Ulrich
##biter
Affairs
Officer
Ezra
tumor
Ruiz
Ortiz
Oaxaca
##icias
##OC
jornada
mx
vand
noticias
##culo
eje
388
Obra
##uela
##tao
Benito
Juárez
1343
grupo
##reform
utile
##dse
##cios
reform
006
##86
palabra
##ruga
Asamblea
Popular
near
570
Indy
##coma
Marcos
México
lead
##sht
primera
386
Freddy
Gerrit
Miguel
Amadeus
Jacobi
Kamerun
penn
silver
##chea
##ame
Luciano
##saur
##osaurus
Myself
##scu
coll
##oren
bear
Richmond
##ogical
##uno
Baptiste
Kolkata
##puri
Margaret
Higgins
##hood
Purcell
Stein
##aver
Plains
suburb
##stock
Rebel
Wells
Havel
Peggy
Browns
Every
Should
Know
Stod
Ese
Sierra
##31
159
Reale
1844
artistic
##uida
fluid
Coventry
Riga
Konrad
##auer
Tallinn
ICAO
1184
1189
1190
1198
1199
##ogu
##rii
##kken
##jō
1206
Melanie
##sholm
##dne
Cheshire
Olivia
Caroline
1207
1210
Junto
##tief
Sudan
Seinen
##rens
saka
##prano
1211
1213
1219
利
尻
島
##rits
1227
1228
1231
##HT
##endo
##nesische
Nationaal
##vind
##bres
##pard
Tarn
saa
Lager
##leiding
nun
##roep
Assistant
##kundige
##jik
Ned
##dic
##iging
Eerste
Europese
leider
##erij
##ieti
##deling
##bull
##liwa
##bore
##resi
Dad
Maas
##ulen
##kind
Karma
##uur
##siden
sant
##manto
##rton
PIB
Polar
##teta
SOS
688
##ifu
leaf
Gender
advokat
##wani
853
855
##icum
Nikola
Bibliotheca
##fica
##ifica
Trap
Marian
##otus
isn
Joanna
Metz
##onica
1099
historic
liber
vita
pont
hac
##tenus
duce
fue
##ccio
mulieri
clar
Duomo
##abel
Anglia
1415
Pape
##ès
Dominik
Later
Test
##icu
habe
pendent
nomi
Frances
1304
1374
##fici
##dori
Romani
1675
525
Tomasz
Bydgoszcz
Brit
Pembroke
Rupert
##sze
Jerzy
fellow
Initiative
Jarosław
defense
##baum
Tadeusz
##preso
##presso
express
Coffee
##ewing
Luigi
##zera
Passion
##iderio
##vona
##pedia
Wikipedia
##water
Eun
Wikimedia
##ical
Evening
Sioux
Wiki
##vins
Mahler
##arte
concerto
Boleslav
##ovich
##vatorium
##grad
Piano
dirige
##tins
TR
seua
Macbeth
About
##self
##rigo
Plate
Angus
##burgh
Publishers
Square
Workshop
##agne
Late
Oak
Grange
Yorkshire
Alphonse
##enter
Southwest
Dallas
predator
Hannes
Olof
##östa
##vén
Uppsala
Félix
Navy
##lition
Qua
##cation
wing
##kopf
Committee
横
井
軍
平
Nintendo
吐
鲁
番
区
##ì
ت
##ۇ
##پا
##ن
##idh
Salvador
Yoga
Kumar
Nadu
##lma
##vara
1317
##mulakan
##bird
##dma
1518
Telugu
Andhra
Pradesh
Cai
1486
Sally
medio
Eva
Sexy
##uren
Princess
1235
1237
##adle
Genetics
Advance
ō
1239
1243
1247
1248
Boulder
aa
1249
1255
##neta
1256
1257
1260
1263
喀
什
Pinyin
##hí
713
1264
1274
##ook
Martial
Philippine
1275
1277
1278
1287
Ich
##ij
052
soy
Dorothy
reconstruction
##nom
1605
1635
kao
##parti
##tma
filo
wood
##wind
##inet
##♭
Vive
##্ব
##াম
ব
##ি
##বে
##কা
##ন
##ন্দ
##anon
##rend
ন
##রে
##্র
##না
##থ
দ
##ত
##্ত
##ôr
Dot
Shri
Parliament
Religion
later
came
visited
##opp
temple
heard
##kunta
started
wearing
Poul
##vait
##zhi
says
disc
##iple
learned
vid
##eche
further
taught
these
arrived
this
##yasi
Adolf
Overseas
Territory
##zima
##cussion
Thomson
string
##iker
pitched
##ched
anv
Haydn
Mozart
triangle
swing
kultura
soul
Sachs
arno
##ldi
Moral
PM
012
007
014
द
##ु
##प
##द
य
##ज्ञ
##से
##न
##roman
##tada
##lada
##dab
اب
##را
##يم
א
##ַ
##ב
##ְ
##ָ
##ה
##ם
##tei
##herent
ortodox
##ezer
Kenya
##theon
Kosmos
aq
Arabia
Bibel
##ads
arriba
Cyril
Glass
claim
Schumann
unu
177
probably
origin
trace
earliest
latter
being
Christians
Muslims
##onte
##سم
##او
##ات
أرض
##uza
##uus
##nni
凌
統
公
績
Romance
Quan
Warrior
stick
Orson
voo
Citizen
Achievement
marginal
Wisconsin
Beatrice
Bernstein
Todd
Woodstock
##liny
Kawasaki
bili
prima
##katu
##tike
##inka
Jahn
Werk
Dani
Garonne
Ò
Garona
Aquitaine
Gironde
canton
##thur
Landschaft
Roca
dad
Ми
##ха
##и
##л
Фёдорович
##ома
##́н
##ов
1596
1645
Niki
##tich
##roit
##jale
1633
Salt
##yk
Vladimir
##ovna
##uko
1624
##hne
1608
Valdemar
##orto
##rica
##iken
河
Beethoven
أم
درمان
##vodi
##уто
##ном
##на
По
##к
##ра
##ји
Во
##ј
##води
##krajina
##zaba
Spartak
Material
593
materiali
onto
##material
##drat
primordial
946
##uros
##reti
homme
plante
##lba
Feuer
##esch
##eck
thing
Randolph
Hear
Gregg
Glory
Sonny
Wise
##neva
okrug
oblast
941
Senat
Phoebe
##erson
Berlusconi
##nov
811
Samara
Mord
RAF
Chocolate
Factory
Matilda
Witch
BF
Kiss
Cardiff
Harald
Oslo
Hesse
##lberg
##undsen
Christiania
##dbu
Photo
##grapher
Hawker
Shell
Tanzania
African
Rifle
Nairobi
Havilland
Iraq
##rdon
##lost
##gora
Well
Hurricane
Junkers
hurricane
Stephenson
Axis
records
cerebral
##sm
##cc
Literary
##ried
Clifton
Libanon
##glo
Greenwood
kn
Independent
mye
##enden
Buck
parish
bil
##yard
Buckingham
##shire
##bury
Messe
TNT
10th
Anniversary
VHS
Sapporo
Sato
Japanese
Railways
olim
Lyndon
Humanities
Pick
Conservatory
和
田
##ián
##hota
##FS
Louisiana
Miki
##ίκη
##δ
##ω
##ρά
##κης
junta
##tile
##llon
Kreta
##pico
##titi
Eugene
##gone
##klad
##xion
##usen
##itano
##nnis
Allende
Gama
Nasser
Tito
Mitterrand
Palm
Constantine
NATO
##igia
Aprilis
##akte
Nicht
##axe
##xe
til
Lorca
Quarter
Dion
##lass
##uto
Sharon
ved
Dva
##acha
Catania
Serie
Palermo
Filippo
##citi
Stefano
local
##istrat
assure
responsibility
supporters
Luca
Livorno
Giulia
Milano
Decreto
##phin
Gardens
Bears
##arter
Pittsburgh
Steelers
Rams
definition
##yton
Manning
##uable
yard
touchdown
passer
specialist
yards
##yw
bomb
init
##iato
Nagano
Mitsubishi
Zero
Osa
zag
robe
test
##zut
Potsdam
Truman
Winston
Churchill
Bath
##nada
436
453
##ody
473
474
Patton
brain
DOM
Ona
##slu
ملك
سب
##أ
Eritrea
##ckie
academy
fortune
squad
Associate
marco
Breakfast
Zach
director
commerce
Vice
##corn
♯
Lista
ballad
##uing
Coll
##aboration
##kust
##nsan
##nosi
Lynn
altered
debate
more
nothing
Contemporary
Kobayashi
focus
specific
Clinical
Theorie
##gination
##entia
Definition
Psychological
##raid
Sleep
##jekt
##rates
##erita
##osoma
##ibility
Scale
##SS
pupil
verbal
suggest
Hippolyte
permis
##limi
Carpenter
Hull
##yse
Rossi
##roise
Liebe
Davis
##lander
##tzen
##hoff
##fens
Emily
Orne
##GS
##HS
disso
termin
etc
Historically
Phys
##iological
##endi
1846
Body
##teria
##SR
Based
lock
Kitchen
##sede
Musica
Willy
Duncan
Sheridan
Dodd
Level
##amental
Ako
doktora
socio
experiment
six
degrees
separation
##cient
Experimental
563
829
##hes
flute
Liberal
Justice
Companion
editors
Blackwell
##cita
##ened
Liberty
Property
values
Locke
##bbe
Delia
1588
1679
1632
1704
##ital
##itarian
anar
Essay
Poems
Document
Right
Diane
Abigail
##āri
##وار
##ج
245
ك
##ِ
##لا
##َ
##ب
##ُ
##َّ
##ار
##ّ
##ْ
##ل
##ً
أ
##د
##ِي
##َا
##ء
##وه
355
ل
##ا
##وس
##ز
##ق
ف
##ص
د
##ش
ج
##و
ر
##آ
##مْ
##ع
##ٍ
ه
##ؤ
##وا
و
##خ
##ذ
إ
##ِن
##إ
##ٌ
س
##ول
غ
##َّة
##ًا
##rase
648
##lats
Sean
ط
##ف
ح
##اب
##ط
##غ
ذ
##ون
ي
##وق
##وب
##اس
ض
##ين
##ّه
##ود
dahin
##hoz
##jda
##far
Oman
Zanzibar
Playa
##zani
concours
Telecom
##ncia
Chaplin
Keys
Essa
##tual
Artists
Lights
FBI
Monsieur
##elig
Countess
Hannah
Harriet
Lily
Wheeler
Dry
##house
District
Prevention
##rue
##lty
Lancashire
Holmes
##ette
juvenil
Coliseum
##riate
terras
Making
Mabel
##ught
##unct
##ured
Paddy
Armstrong
Edna
##vian
##graph
##egos
670
Campbell
Floor
Bergman
Behind
Easy
Cure
##rumu
##rbus
##ske
##kultur
##itors
Dog
Dell
Famous
Players
##banks
Mildred
Harris
Sunny
Pleasure
##yeti
Hale
Truck
Rolls
Grey
stat
##etre
Vance
Goddard
##mesi
Investigation
statut
Carole
Hopper
Neill
Gerald
Leigh
Annette
amor
Activities
Buster
Keaton
##rane
posti
##oir
Nikita
##chev
Revue
tram
Durham
##nico
Jerome
Epstein
Freak
Gentleman
Gazette
supplement
Clair
Lane
Unknown
auteur
##tata
bok
##meyer
Constance
Mussolini
McCarthy
problema
##aff
Jeffrey
Turner
Parsons
Cole
##ularis
Hennes
Catch
Cousin
Federico
Fell
Wilder
Vittorio
##vsky
Raj
Kapoor
Actors
Doubleday
Moving
mural
##perto
362
Export
##bble
Montreux
##teca
Bologna
Musée
Lausanne
Downey
##ow
Clive
##hodu
Curtis
Playhouse
Musical
Svenska
##over
Rue
Northampton
##vera
Erasmus
Seu
Fellow
##алу
Grab
##jí
Guanajuato
Savannah
510
Oceania
##HI
nin
domo
##cii
mai
##atak
##gales
Sonora
fibre
editing
Tommy
Partit
Constant
旅
順
攻
囲
戦
##zed
EV
##2000
wireless
broad
##wid
Multiple
multiple
devices
##vers
Protocol
cable
##llet
train
##fter
##ivali
##ovy
McGraw
Companies
Fashion
##nny
Journey
umro
##taro
Shire
Lynch
##oul
495
references
##pson
Sparta
##cias
Hellas
446
Really
streaming
##ify
##γός
##ate
##isto
##cles
##stide
1602
##igde
Compagnie
Nacht
##wacht
Ronda
Rembrandt
##smus
Lithuania
##hme
##orus
Acting
Learning
796
801
865
Snyder
##gasy
##dati
Amiens
Novgorod
##cón
166
municipal
INE
1208
palm
tos
Universities
##rance
Gloucestershire
Until
##ference
order
required
some
institutions
placing
##lica
##nts
often
give
thus
use
pick
courses
Application
price
HS
##hance
EU
##ications
technical
purpose
improve
performance
increase
capacity
delay
enhanced
adaptation
schedule
request
grant
scheduled
initiated
reduced
MAC
modes
##just
flows
independently
each
call
absolute
relative
##lative
##dicated
Physical
##DC
download
update
##lege
ACT
##NL
##INE
##unsel
Principles
Practice
##quist
##tude
reason
Assessment
ms
Reserve
Hofmann
ami
amin
Wallis
806
##nimi
Diaz
unde
DB
549
Article
Alter
Stimme
Loud
132
grada
##voy
Io
Gwynedd
##ɡ
##ɪ
##ð
##ices
Yn
Môn
foundations
pg
1382
1342
1370
Károly
##ób
##ż
##bieta
1338
Kazimierz
1339
Calabria
Giovanna
1345
1347
##giorno
1351
1358
##écs
1367
##szy
##lacht
##azzo
László
1329
tuto
Drug
##icia
##áh
1330
Luce
##rsk
##ý
Margit
Aldo
Erzsébet
##ługo
Sejm
Pommern
1340
##ád
##egd
##zte
##zé
##rv
##lmos
##ényi
##ković
##só
testa
Moravia
##üll
1344
Nicolae
Alexandru
Brașov
Hainaut
##ség
Zadar
Taranto
Anjou
1346
Martel
flor
##ás
##ári
Nitra
Verona
Modena
Urbino
Perugia
1348
Domenico
Puglia
##stil
Nuovo
##zos
##inos
kardinal
Wolf
##hardt
1349
Matteo
##bile
medias
##ęs
Dušan
Niccolò
##ccia
Salerno
1352
##olia
##beta
Gyula
##ő
1354
Iván
nego
lord
Jelena
##laden
1356
Giuliano
Bald
##franco
Veneto
##iben
Antwerp
Fine
Pál
Engel
##oš
1359
1360
##ș
##dă
##inde
##ești
##eș
voi
##vode
Lega
Nagy
patria
1361
1363
##sé
##čín
##hers
##ké
##ště
##nó
##sig
##vár
Timișoara
##rats
bana
Severin
1368
##ița
##ded
1372
1369
Bratislava
##recht
Witte
##czy
##zno
##ksen
1371
Carrara
Padova
1373
##mune
##szág
##bí
1377
Zagreb
##ggere
##kowo
partisan
pretende
##edor
Boris
1378
1380
1381
##liku
##lő
Sigismund
Blanche
Valois
1335
Trento
Sándor
separat
##őr
##arius
391
##heer
Gaia
##reus
##date
134
##pato
Sulla
##ր
##տա
##վա
##զ
##դ
Առաջին
##teni
degli
927
Gonzaga
##vall
793
071
576
##glia
Monza
721
Motte
##ggia
910
037
##ngen
Virgil
##tinent
286
Serra
##valle
720
comune
serra
##mide
533
Martino
dall
##gine
026
Giacomo
delle
607
##dett
##bbi
867
Rover
australis
##atum
##sico
##org
sapiens
ida
##hode
##sien
##wig
##laar
##cesso
Castro
##gaster
##ensis
780
857
cm³
##pue
##nensis
Italo
##ttu
##none
sist
Fontana
487
6000
##tton
##ect
##thal
##ulden
##politik
Dios
##dado
15th
Session
Trust
##ees
Territories
18th
880
Agreement
relating
implementation
##quiry
##ropus
##key
Counter
Warcraft
C3
C4
Alexa
张
巡
709
Puy
Shandong
Linh
##jeru
双
庙
王
祠
##player
Source
zom
##fected
Christmas
##through
LAN
Zombie
##beck
Zoe
##nzu
Fairfield
gero
Riverside
Alle
Northeast
salon
Lili
branch
Nes
Selva
##dae
APG
Magnoliopsida
Viola
##aceae
##caceae
##lidae
##lida
Rosaceae
Brassicaceae
##eae
##aster
##logen
##iales
Phylogeny
##tant
##hmann
Garry
##cales
Linn
##naceae
Valeria
##teral
##rales
##folia
##nial
Matthews
Endre
structure
systematic
##hyl
##iaceae
##burger
##jona
##laceae
Cary
##hylla
##hill
##odia
##odio
##idea
##haceae
##eral
genera
##nun
Magno
##oja
Cueva
##dón
Natale
Arenas
Silla
Diablo
comme
Liliopsida
##nae
kana
Comme
##cidae
Ú
Esperanza
Magallanes
##árt
##eci
##poda
Cretaceous
Orchidaceae
##tidae
cal
##amus
Provincia
Chile
Piper
##noli
Magnolia
Hahn
Bavaria
##tiary
Oskar
Cincinnati
##ithe
aust
##cines
##cile
##ər
ə
nə
##ift
volumen
flat
##gers
##hane
##θη
Emile
kilometres
west
Wesley
Bart
university
Jesus
Bentley
443
Virus
xx
##anne
Mozilla
Firefox
tribe
##genen
circa
Ms
Kiev
Veliki
1125
##yth
Wessex
1088
1095
1093
1111
Estonia
1130
1096
Inge
##otte
Britannia
1399
Lincolnshire
Complete
Peer
Medieval
1066
Duchess
##uce
Beaumont
Maud
Lindsey
Ralph
Berkshire
1362
##oissa
Geneva
lines
942
Staffordshire
revision
traditionally
supposed
evidence
before
now
widely
accepted
scholars
1403
Une
tres
##riche
chant
Monuments
Lock
##sters
Adel
Alta
427
##ncies
internationally
recognized
listed
GB
Asteroids
Atari
vek
vector
Crystal
Bear
arcade
Bailey
##vita
Missile
##pest
shoot
##nait
##eit
##ني
##طرة
Marion
Utrecht
familie
##ön
Terence
##urm
Stichting
König
Zack
Rick
##ett
intra
##brio
Vanderbilt
Cox
##iella
##rnet
Gamma
##rook
Derrick
Burn
USAF
STS
Platt
Willie
Dundee
iga
##tagen
##zino
Cosimo
Addison
1855
Even
Atlantis
stad
##eid
##ppe
Λ
##υ
##πη
##eron
Parallel
Table
##ems
##lyi
Wisdom
trainer
manage
Mortimer
Adler
##vena
Rowe
Malcolm
##ield
##rel
2300
3500
shop
##mern
Meer
##aisen
Witt
##kill
##öhm
ary
rear
##ritz
##eep
##ated
Sven
Issue
Pages
rete
enter
flag
##elos
1872
647
##nki
##yck
Zao
mansion
Canary
##stial
regi
transformation
gelen
Kruger
Sprint
Finch
football
Volunteer
Paula
##wide
Dodge
Darling
Sports
Gibbs
Dollar
Daytona
Madison
Speedway
Rich
Holz
##hausen
Carlson
##duc
rubber
duc
Photos
government
Weg
Interview
Busch
Lowe
Gerry
Reise
Tall
##eve
##euse
Atlanta
Elliott
Rookie
##ingham
Motorsport
Kahn
001
Drew
Blick
##rott
dro
easy
COM
##stop
JG
Depot
##ict
Nicola
touring
##ball
Miley
##mora
jau
Kelley
##ewski
Reference
Ova
tej
Hello
Row
Haas
NB
1656
flying
##resu
1555
912
recenti
Charlemagne
Friuli
924
962
Katy
Perry
Cold
Thinking
##lbum
##mui
##cot
##done
##file
Poaceae
##inae
Palma
##vial
Saar
Doyle
Briggs
identified
base
##ylogenetic
tree
##yx
RNA
##ranja
influenza
WWF
falls
##falls
Only
fall
angle
Brock
Revolution
TNA
Styles
##father
Sting
Steiner
Booker
Thorne
Cabo
Classification
instead
sexual
taxa
Tax
Centro
Flower
Plants
Botanical
press
water
##lies
##mous
tende
Prata
Sharp
##bund
##necht
##gic
##tki
##xis
Working
Movement
Osaka
##±
Andromeda
Messier
NGC
spiral
Vaucouleurs
ESA
Observatorium
##isit
Hubble
##☉
##lens
Pure
##opia
ise
UMP
Gud
Bloody
Wonder
##plugged
Desire
Enough
fresh
##āk
Sinh
Ceylon
1186
1074
1285
1276
##dox
##dō
1262
##quista
Moor
Languedoc
Montpellier
Jaume
Tarragona
Pallars
##à
Urgell
corte
Álvaro
1268
Pedro
##cada
Cécile
1280
##guer
Lleida
1281
1284
Conrad
Guglielmo
Ramón
##ngue
jure
Messina
1283
Bordeaux
Lauri
##cí
Núñez
Sancho
Navarra
##vile
Roussillon
##ño
Girona
##igues
##renia
prosa
##bado
##yron
Bernat
##iron
##franca
Sante
Creu
País
discovery
##mmy
Monastery
1296
Mendes
##eiro
Petite
Divine
Comedy
ogni
valor
##atori
beats
talle
building
Japan
Guangzhou
Railway
terrestrial
Demokratik
##dman
Neue
1868
Zukunft
1874
Oldenburg
Reichstag
Frankfurter
Zeitung
##aag
SPD
##szeit
Prussia
Fitzgerald
##sne
##cript
available
Lenin
##PD
KPD
Alison
Kraus
##grass
Shoot
Alliance
##ckor
computer
233
457
Produkt
Interior
740
hardware
##ndum
##vili
Found
##ency
Cham
강
##화
참
##성
##단
engl
visit
##korea
Luxembourg
##wano
temas
Russian
Democracy
##HP
libera
privat
##inek
Jour
Hess
Orden
##some
Acta
MIT
662
siano
Malawi
##zili
##amaa
387
##deva
##pach
##oeste
Schiff
NH
##etat
1524
##stituted
Acid
##reer
Name
##action
##aile
##isms
Published
xan
##CS
Monat
Recent
developments
synthesis
applications
##rist
##drich
##thesis
##nson
Siegel
Marisa
Evan
Cassidy
arter
diving
Butch
Mean
Nate
Killing
Powers
Cesar
Sweeney
##ndig
Papp
Santana
243
465
714
Knows
Erica
##rieg
##llige
##nka
Collective
478
PDF
Bamberg
Eugen
748
##eil
##iede
##dola
##rmal
##mino
349
heat
malo
Flynn
##veau
Blanc
forma
##jano
Nikolai
##yano
##bino
##ilina
Bao
ʾ
##posito
Need
##Ā
##ām
##yka
##ٰ
##olla
##oud
##yyat
decade
corona
##xes
KBS
##deu
##ication
TB
TV3
river
##CT
Ferry
ferry
trip
Kyle
##ress
Terbang
Uganda
Benjamin
Liberation
Palestine
Revolutionary
Wilfried
##öse
Brigitte
##okon
Ramírez
Brigadier
kende
Tentera
MiG
Dora
Bloch
##okie
come
simple
message
proud
what
done
because
demonstrated
circumstances
freedom
##stitute
highest
lives
hundred
women
significance
cause
##nore
milita
##itation
Wert
521
##83
Prison
Imperial
Essays
Economy
##ination
Broad
determina
##hti
##part
room
##vista
Marcus
semifinal
Janeiro
MBC
1230
kHz
Nagasaki
790
792
Hause
##cris
Devon
Nissan
Pearce
Fuentes
pink
Challenger
holder
Basket
Badminton
Tae
Multimedia
##listi
##SU
##craft
Diesel
Brewster
Civic
Tanner
Levine
Jesse
Lindberg
Volkswagen
Schulze
shot
##front
drive
##rger
Herodotus
reports
Histories
asks
stone
learns
Đồng
##ới
Quang
Trung
988
##eert
##lance
##erland
Nieuwe
##js
programa
Twee
Soest
Etienne
Arnhem
brigade
Bronze
Kongo
Kinshasa
Gouden
##umente
maar
een
zou
gaan
##rere
##nation
##aal
##FA
##oase
##ioa
polar
CL
files
##full
##uzi
##lala
Because
Rihanna
##fait
Away
Remember
Whitney
Bleu
Enrique
Iglesias
exploitation
거
##슬
##한
西
干
瑟
邯
##lge
양
##산
##촌
山
村
고
##허
墟
진
##지
珍
支
대
##수
樹
가
Goya
##야
耶
나
##정
蘿
Seo
서
##나
##벌
那
伐
알
##영
英
propos
記
1146
金
富
軾
1145
gwo
Operator
Schulz
337
698
Bye
edited
Bahn
Bora
1128
compounds
##zot
##ilt
##rime
Léger
##sity
Into
Porsche
Carrera
Crash
Sheriff
nebula
Emanuel
Sweden
planete
Resident
GE
##fig
Diana
Rule
Sex
##iest
##⊕
⊕
1024
055
815
Jovi
##vec
planeta
CN
GMT
GSC
Yupiter
authority
##pele
Syed
Alfredo
449
361
classification
radial
Faculty
##watch
##wall
EF
ilang
##uns
Uno
##zze
fires
police
find
students
Brendan
suspect
named
fire
##lake
dark
Tex
tipo
Mass
##ünde
Calais
##illy
Montagne
##astic
##fic
saving
Iceland
##fana
##nthe
photographer
GA
OST
Além
Algarve
##tej
##nou
##arie
moci
hans
##rantes
Alpi
Carta
##ância
##ã
##vater
Torres
Franca
Lisbon
Extremadura
1788
Madame
Poco
##dija
Navarre
1715
Bien
##smine
Vivian
Jeanne
Marquis
Barnes
##zey
##ctors
##ńska
##cure
present
jung
1684
Madeleine
général
##vitt
Images
Hooper
Reine
Avril
##vigne
Leona
Without
you
sleep
##give
Better
Cedric
Adelaide
Dickson
877
##come
1434
1298
1279
##rava
##nna
thai
##rick
878
Colt
Hamlet
citizens
ie
categories
379
##emlin
census
designated
872
alle
Camus
Youtube
##pm
verse
A5
Terre
353
VH1
##AF
##urt
TM
foron
##hner
Micro
##scope
##chine
political
##ater
526
##ochia
##meo
Magyar
##tenia
##racht
indica
Shiva
##hosa
##raj
##rā
Vijay
1490
1686
Waldemar
Hansen
468
wilaya
1433
##rze
1504
şi
Sf
##ânt
1457
teolog
Welle
Liban
Kappa
##bahn
364
Meredith
##pado
Gertrude
##stici
##konda
Mumbai
269
1528
1510
1565
1574
1619
Karnataka
Kerala
##TER
Government
station
details
search
cache
hoge
flood
cd
client
##plan
district
corporation
location
cited
Niagara
कृष्णा
नदी
Kannada
ಕ
##ೃ
##ಷ್
##ಣಾ
ನ
##ದಿ
క
##ృ
##ష్ణ
##ా
నది
1300
##tade
##ames
##mla
1482
1527
1542
##oden
##centra
##rical
##tele
##tner
Ulm
Mora
##yme
##phylla
##pte
##onale
##lenia
##idaceae
##oste
Primul
′
844
ತ
##ಾಳಿ
##ಕ
##ೋ
##ಟ
##ೆ
530
##dez
##vous
##ль
Moscow
##liko
Aircraft
load
sharing
1309
Waters
Cornwall
Atkinson
Morley
##icher
Hyun
badminton
ronde
Hyderabad
1591
గ
##ో
##ల్
##క
##ొండ
1512
Persian
expansion
periods
published
entirely
cultural
circles
during
reign
language
retained
##qan
until
Ḥ
encouraged
literary
every
possible
especially
poetry
occupied
central
process
assim
elite
commissioned
612
studies
##luq
##zm
Hera
Fars
Kurdistan
1393
XVIII
##ú
##ím
##úr
Tú
Edited
Historia
Period
posted
Packard
Texts
Translation
Title
1395
Sivas
1401
Aleppo
1405
##aj
1447
1452
1469
1507
##anse
Blois
Chartres
Troyes
Étienne
##igne
##rete
Kimberly
Raoul
##mando
Abel
##ïs
##baud
Mathilde
493
511
##σιο
Α΄
ο
##γα
##ianus
390
Challenge
##vab
bord
belt
##hei
bizi
##ize
biti
##inii
##heme
Wenn
circular
##landi
coat
##iens
filum
##ules
##idir
##yta
##llata
##cke
##rista
Über
Verbindungen
Chemie
##SC
##syn
Hg
Ḫ
##šā
485
##niya
##ossa
depot
##reme
Ester
479
Nisan
Hundred
172
commander
thousand
1311
Vytautas
Witold
Vito
##ysis
##šti
Perrin
##fication
Laboratory
##odik
NR
##olina
##bald
969
1030
Poitiers
Gaius
##cenas
1006
Angoulême
1020
##sale
1010
Bourg
Hugues
1007
Agnès
Geoffroy
##ête
Renaud
##ïde
##llis
Comté
Besançon
daughter
Adalbert
##jay
subsequently
made
##qual
##ified
encore
##tique
Occident
medieval
eds
##riana
##htar
بـ
##ـ
five
minutes
##ezh
Punjab
##cations
Scouts
Calcutta
Rally
Olav
Rainbow
Leader
##finder
808
##traf
##lena
##load
Hidrogen
##quette
HF
Já
##jada
##daceae
##okk
##ensa
relativ
Einstein
561
##child
##dington
Walsh
Peak
CCD
##tional
Experiment
##GL
##odes
##alar
angular
Cosmic
VL
Telescope
Compact
GHz
##fero
Juliette
Daisy
Mackay
Boer
Laurel
##dno
##male
##monds
##hamn
##rox
##xon
##yga
1787
##ijs
##wijk
1876
zen
marin
marec
##ioca
Typ
##chid
Rubiaceae
1558
##dku
Johannesburg
Teheran
Majlis
Iranian
cyn
##gesi
##culus
##clops
##onga
domini
field
form
##reste
##gile
gigante
##nham
##ceum
##ense
gracilis
##iff
##gner
##diad
##onu
ici
##uana
jap
##xta
jos
know
##lesi
##sci
##cular
genome
doi
1038
nature
##lele
##uco
##ious
bbc
threat
PCR
large
naturally
acquired
infection
1017
1016
S0
673
1583
lago
##gte
##laas
##pido
lion
lover
##idge
luce
grey
neck
rail
##mides
caja
##rush
##ados
Pacheco
ly
##uia
##kie
maior
##lano
##lani
##pher
mich
##ikoa
minas
modest
##tropical
od
##cta
##vul
##tii
quel
reichen
pessoa
县
豆
瓣
map
mia
##SH
sodium
Lt
deriva
##tives
Lá
##ává
##gyi
##ánt
##sce
male
##jón
##jonen
##66
##arin
##oval
simplex
##uth
short
Present
##ulance
##ulare
##lava
##gale
Franse
Vries
torre
tou
##cani
##zania
tenue
ty
##arre
##dios
Largo
##doni
##ingen
uilen
uzun
vaut
##ieri
zon
vasta
young
##utus
##pose
burua
Francisca
Christy
##hidi
hae
SAP
##listen
practice
Intelligence
expected
income
implement
##ception
農
exchange
Oriente
giving
Ende
toward
使
命
指
向
型
教
育
研
究
しい
球
持
続
のための
全
的
努
力
person
生
活
協
同
組
合
Gina
504
692
322
resort
Dolores
MacArthur
##uiu
649
804
Karel
538
##lore
011
907
##dolo
##onda
787
##cedo
690
095
Vizcaya
376
668
266
023
##verde
623
Luzon
629
994
918
775
Sylvain
060
Pedra
Díaz
Genetic
humans
spor
belli
Wanda
regnum
##efa
Fam
##avu
447
426
Reid
Vancouver
Ferrara
696
883
Coma
##cchio
Coppa
999
##34
Lagos
Agostino
357
Tres
##atic
762
##sola
331
Romagna
ICC
##éré
mans
Peu
Moyen
âge
1496
1502
Orient
##diat
Geographical
Economics
Anno
Venezia
##agna
Maggiore
##valli
897
015
983
##gitt
695
##esso
939
##oss
562
##ruar
903
951
955
Nove
507
##novo
567
575
730
Michele
##mento
##vette
range
Something
Nobody
Feel
Spin
Varese
##zzate
508
##zate
Jared
Follow
tour
693
218
##sano
##chio
794
009
##ebb
705
984
None
Partido
##enza
##ück
sulla
Brunswick
Inés
Nirvana
##bain
556
Bernardo
hamlet
Estrella
Tierra
Fuego
Dyke
1097
506
##vedo
Monate
Superiore
874
teme
##emente
##ncio
948
Married
UHF
ITU
MF
Medium
EHF
repeat
##AA
Iowa
Omaha
WB
tercer
Midland
##ulation
##ulse
allow
players
Oggi
777
831
345
##onn
Lombardo
597
032
##cell
##mota
##omen
layout
CAD
Sagan
saga
##tado
Sandoval
##fall
Primo
##senza
1253
812
Nottingham
extreme
841
##vira
##alen
mesi
##liano
##tello
569
##lme
Groningen
##omis
##omy
apan
lung
##nno
##tuse
##esino
##lz
960
##pione
789
##veg
Loyola
604
##mez
659
548
##lione
916
Croatian
Osijek
Bastia
Chávez
autori
acciones
##cción
presidencial
través
##mien
Gobierno
Mundial
744
dell
049
##ciano
Costa
##pena
Address
686
Panic
##raneo
##berry
##cents
##avour
Quant
##ification
##atile
components
varieties
cult
##ivated
C2
IUPAC
kati
Pedersen
##garo
##domo
799
603
520
016
##giano
725
##dendal
Tomas
##år
##gst
##röm
##öv
guitars
##ffs
##ovat
underground
Jabal
Gibraltar
Granada
Sevilla
Lisboa
Genoa
##arii
khu
arma
Città
366
##terna
181
219
783
866
759
##iglia
539
Kino
Avalon
##geln
##cide
Apiaceae
##belli
##fera
##phyllum
##wort
Europaea
Guard
822
749
##viet
Abe
Parra
Store
Foot
Hava
##pies
Guardian
Samsung
##fone
##toku
XXI
Corner
Pizza
Uncle
JC
Gemini
665
##raa
Å
##jord
Schleswig
Holstein
Flensburg
Himmel
##bjerg
1847
##ø
##øj
9°
kommune
##jylland
##tland
##ved
##staden
##jælland
Syd
Silk
##eborg
371
Aarhus
672
##djur
Viborg
##øb
##kjer
368
644
Odd
661
##mics
Lennox
542
##bild
628
753
utility
resource
dona
##jø
Frederik
##shavn
##ønder
Aalborg
##ød
Copenhagen
518
##ør
##æk
##oun
##elde
ancient
gods
speak
guide
religion
parte
##enes
##maz
Lyn
##gby
eru
lateral
basal
##inia
wer
andro
WP
##mler
Facts
File
means
ways
##tava
sahaja
unique
stress
Peters
management
moderate
severe
random
##ized
controlled
##ocha
Gupta
##ked
potential
contrast
##vity
##ptic
bring
changes
responses
studied
patients
EE
Cochrane
Systematic
realizat
sans
क
##ल
##िनी
روح
道
limbi
##rise
Asteraceae
Als
##phia
##yna
##posit
203
##onder
##wijs
##nede
google
Revival
19th
1784
##page
156
##putat
##vido
568
Hals
##værk
Hund
##ested
##enko
ill
Acre
##ilea
dun
Mandat
Bassa
##assa
Ayn
Welcome
opinion
objekt
Fighting
Contest
##GB
##יל
##ê
##êl
hay
φ
##φο
##ρος
reported
They
noted
centered
they
might
seconds
less
than
masses
fact
lower
limit
Neptune
##aze
ל
##ע
##ֲ
##ז
##אז
##ֵ
azaz
away
aver
Strong
ע
ez
Talmud
naj
פ
##לא
##קת
##ן
##ρα
Κ
##β
כ
##וכב
##אל
χ
##βα
Jews
sacred
texts
Fallen
Entry
Congress
Evelyn
##ible
##מי
##ח
##זה
Σε
##μια
##ζ
##êm
##eza
Heller
##æg
Kopenhagen
Ø
Zealand
##unden
029
##ssu
Perspective
estima
Estimation
Choice
truly
##borgs
583
##lund
598
743
##øge
##lland
##æst
Roskilde
Slag
##else
herb
subfamilia
##llio
##pfer
quer
##hyllum
Justicia
笙
suo
##مان
##كي
##ceo
##laria
##emann
##neria
##iata
soil
suppression
Odense
##ags
Advances
Culham
Families
Thom
##chon
Stil
##wnia
##fyn
Henrique
ova
##ecu
tribus
274
Lange
##orp
##efe
notes
Basilica
Campus
##eber
##ifera
513
##lding
Mills
##jle
933
2600
##jes
RPG
Color
EX
Plays
##laze
dung
Soundtrack
Apollon
Trade
Nickel
Yourself
Angry
Pieces
Loi
concept
Chance
##cati
Heavy
Wait
Heroes
Boom
Since
Ranger
Wolves
Suche
Dear
performing
formerly
Held
490
apartheid
sank
Ignacio
##ón
Michoacán
##icom
Trek
Quintana
Pérez
##mosa
PAL
lao
烙
餅
476
Deutscher
Piedra
Negra
Coahuila
##gido
##mediate
Framework
Common
CT
Extension
Message
RFC
##dean
ASCII
browser
email
Content
##type
##coding
pipe
WHO
##rics
##ktas
induced
kort
Fase
demand
milk
##uris
voye
##ehn
##doğan
Ahmet
##viy
Exeter
Türk
Birliği
Büyük
Doğu
##ıl
Partisi
##ın
##rün
##üb
Beşiktaş
##şk
üçüncü
##lı
ruling
##unces
candidate
secular
Kepler
pollution
lack
safe
supplies
##aches
Deadly
##nite
Protection
Quality
Inventory
reservoir
shore
mengebor
##face
Supporting
making
equipment
##illing
##aves
block
Hook
travelling
pressure
surface
Shake
cutting
blow
Blow
breaking
strength
Katalog
Jahre
Odin
found
support
ESO
##nomy
##ssel
Astrophysics
Could
##shino
Veracruz
##כ
##י
Noel
##hez
Brady
##entat
##yti
##venir
##ajo
Nad
##iq
DD
##bare
##gadering
##iteit
Salem
Centrum
Trading
Adolfo
Mateo
##strado
Mexique
Aeropuerto
Internacional
##jet
ER
972
Márquez
Paz
##dila
Dangerous
##lanta
Trees
Lorena
Nadia
##biet
hidden
##wiek
Hatch
Singers
Klaus
Meine
##oms
Boxing
洪
武
朱
元
璋
重
八
锦
衣
卫
，
殊
dai
歹
秃
明
律
bem
1392
Zij
传
奇
Dragon
倚
天
屠
Karate
Bahari
wel
##mmi
OP
Adrian
firm
startu
##IO
##bedded
ROM
ekonomik
return
##ply
profit
oriented
proprie
##tary
##PC
chain
##pping
##eering
Groups
Classe
library
Build
##piler
Active
##mante
console
Environment
native
managed
##dá
Puebla
##mies
médecine
prix
Académie
française
Academie
nationale
medicine
technology
western
cultures
Same
Telegraph
Mariano
Morelos
Hidalgo
Servicio
Mexicana
##xico
##zeera
Doha
Editors
arrives
Porter
dropped
satellite
Opening
theme
title
Dirección
##ná
##utica
##ulco
Agua
##scal
##ientes
##cán
Guadalajara
Steen
##holen
456
Males
Rada
aur
##onge
sistemi
959
Cargo
त
##ुर
##ह
##्य
##mista
##rala
Eucalyptus
##veda
##vart
reti
921
Tako
Á
Iglesia
Acción
##tante
Deus
wiwit
nul
##gando
kay
##krona
##joy
##eye
##aje
Loan
##sene
##joni
jog
ato
Lockheed
bost
globe
ideas
section
RAM
turbo
##cision
guided
bombs
##iega
Range
exige
1333
1341
##ulle
visible
PHP
database
##SQL
board
CSS
styles
mod
##iva
haver
meses
##iled
Fabaceae
##gea
Allium
##tler
ramo
##kkia
##ài
boga
Loki
scho
Fach
##sja
Sofia
##nue
Cada
Patti
##kje
Want
Clayton
Thames
Egipto
##dson
##dorff
Seele
Librairie
Fayard
##logie
règne
conséquences
royale
leurs
##ép
##cution
développement
Karen
Ramos
##ldes
##tka
Nile
Houten
##ehr
##cott
Lieutenant
Practical
Everybody
1514
Civilization
Reality
##isu
##III
Course
##ви
##ак
##ом
##пания
Т
##са
##эр
ان
َ
،
Alicante
Brescia
Dubrovnik
##ader
uz
##ctic
manufacture
trouble
色
の
##ガ
##ッシュ
##ベル
##ōnen
Makoto
spell
##amine
Seit
肉
処
倉
な
##ん
##ば
##クス
店
717
Uit
Kuna
##ains
kung
##mede
##erde
##fying
agents
##ogy
##ients
##ogist
tendo
physical
disabled
occupation
therapy
Disease
Drugs
##ners
##grip
##ripta
##dub
knowledge
kang
religious
Kamil
coma
##vro
hoa
437
clear
##vement
##mitting
mentor
##Base
Ethernet
3a
upgrade
Category
Twist
##plitude
codi
##hert
automatic
copper
noise
875
Chicken
Takes
Maureen
##oben
pape
B1
##flora
##isty
Modell
Fresh
advertising
Cornelius
Meiji
Oni
##wach
Ike
Chiba
##shima
##zane
##kane
##mits
1187
##tō
##rō
1194
B2
##agawa
Prema
Operación
Turing
##lne
##ility
worm
user
patch
operating
##bé
Española
Rhapsody
Alben
Paco
Lucía
Flame
Clapton
Guitar
import
Jesús
Jess
##ritos
noche
##erte
##äu
##mte
Vengeance
princesse
é
Vampire
Frauen
##äng
einer
##esischen
Oasis
Slave
Crime
##FM
Correa
##°C
elev
nektar
wil
deles
##omosom
regio
##leto
Pasteur
linked
discovered
##utati
syna
associated
disorders
##YP
##TION
flores
##shing
##ète
femmes
##riko
kongen
##erten
##later
##upil
Wonderland
##orie
##koak
Mens
1856
ofta
##WS
家
太
心
FOR
##brand
Binnen
##chten
##ijd
Gestapo
##nost
##raat
Maestro
visiting
writer
sort
karo
asko
Labour
drop
##pski
César
Boxer
##aler
Muriel
##hisky
##ngton
Saddam
Augusto
##odan
Miloš
##fiant
##ully
PSP
Leandro
libero
Dinamo
monitoring
##kamen
##nkar
##spel
Apollo
Katz
Courage
Outstanding
Individual
Drosophila
Muller
##heritance
##led
Banner
UFO
then
deep
should
happen
Sergei
##nikov
##zata
Rana
Robbins
##şi
##nă
Nowhere
happy
Shirley
Meets
Invisible
##bidden
##plant
minute
Weather
##ogs
Scarecrow
Mondo
Beaver
##tski
Farmer
Monster
##tting
Hidden
##makers
##baret
##rath
Perfect
CBE
Compton
Radcliffe
Potter
Rowling
Tail
Frankenstein
Now
Imperium
##quus
Hero
Marcia
##nine
Jacobs
Inspector
##steries
##cliffe
Details
##ows
Erin
bottom
##lighted
column
flowers
strict
lato
##huri
時
を
##か
##ける
##kushima
sense
筒
隆
、
アニメ
「
」
語
る
talks
Animation
Results
6th
Willd
kino
##omes
##onin
##anen
##trition
Why
Traditional
Gustave
Eiffel
Alexandre
Exposition
Côte
Lycée
##yte
##chnique
##érie
Galerie
Conservatoire
##gier
Société
##énie
Edouard
980
##unod
Temps
Monde
landmark
Playoffs
Eastern
Loreto
dadi
Bayan
##clave
6°
##dagi
##aren
##gain
mbi
wong
wonten
luwih
ngaran
##erto
##aine
##cato
iku
jaren
nganti
Iki
capital
begin
oma
lage
##quel
##sante
rede
kultur
##ekte
mense
1637
duda
kids
1443
##biy
nurse
SUA
##PER
592
DEM
sabagai
heritage
##undo
blu
##dlo
##simo
##lagen
##emble
tuy
Pohl
Tuy
##iatt
##teko
##mendu
Banca
##mde
lod
655
bona
##oju
##ektor
CAN
##jenja
lege
##boat
##ples
##cini
Korn
##elius
Meg
voll
##lă
Benin
Cover
##şen
malalui
Astrid
##phine
GAD
Einar
Dopo
nt
Marsh
Oval
Hansa
Clear
##beth
Angelina
theories
Belmont
##ikas
Lynx
rerum
##rski
Rein
Hamar
##øy
##mse
Naomi
tempatan
1431
##angen
samana
vya
338
##obia
chart
Noise
##miş
Quercus
##ocarpus
argent
##iflora
##tein
symptoms
syndrome
implications
PMID
1654
Basse
##hiu
Psychiatry
1586
vel
face
##ymi
probe
##blad
Memoria
Elsa
Manon
##ritu
Edith
Dumas
##maid
Natasha
Selma
##oby
juni
ethnic
##venti
##riu
claims
Aosta
##tow
batalion
momentum
Kemal
Campaign
Thị
Phúc
Trang
Pulitzer
Huy
Ontario
##stus
##tene
Ultima
##kiem
##osus
tetor
##lj
integral
##odu
519
##thus
Mazda
Religious
aan
636
Bombay
Publisher
Denver
Normandy
ou
Trend
##NB
Elektra
Nazwa
##tanto
##elor
Gustavo
Nag
Basso
Joint
Stock
Дон
##ави
##он
##так
##ты
а
##пании
##дре
##с
г
Ростов
на
Дону
пр
Ш
##оло
##хов
##kovo
mRNA
Allied
student
separa
hospital
Situation
MG
Reagan
Zbigniew
Judith
Gregory
##eita
##ohn
3A
##neb
##oster
##ptera
##cino
episodes
economy
Dub
##ţ
##şti
Cooperation
##CP
Quarterly
Wilmington
1674
##rede
##leigh
Burke
Senator
##croft
0°
7°
944
illegal
Daha
Hautes
Études
Sociales
##ūs
##aille
Canis
quasi
soli
##ismus
Ecclesiae
1215
##RN
NSA
##pheus
##oses
Cassini
eyes
##tn
Lola
##koms
GPS
convention
hall
##rih
feed
feedback
modelli
error
WBC
WBA
Takashi
TKO
స
##త్య
##ాయి
బ
##బ
##ief
Ideas
Theologie
664
Cult
573
love
heart
cast
humanity
823
cards
##gative
revised
868
##hio
##graphical
radios
covers
ss
##smin
august
india
##vine
week
Weise
spre
teda
##lere
Comprehensive
introduction
Speak
However
confine
failing
health
forced
fewer
appearances
Organisation
distributed
669
refuge
millions
##times
second
projects
praise
stories
Chennai
##bna
Programme
experience
##moor
birthday
celebration
Kennedy
calendar
##ugo
nagara
2030
904
suma
##mediata
##gler
Marvin
RD
advanced
aircraft
avion
##chang
display
660
shopping
sente
Trainer
##trainer
##ccanica
Ehe
Kunth
shield
surveillance
##BC
##force
initial
renamed
taking
국
공
##격
##기
2011년
실
##전
배
##치
M6
AIM
##eby
##hold
##jus
instant
messa
##fine
Damon
IMDb
Shepard
Daniele
Boone
ers
Sawyer
Desmond
Hume
Penelope
Linus
fail
Juliet
Hurley
Commonwealth
Cromwell
Worcester
##byl
Rayon
Artemisia
vulgaris
ч
##орно
##бил
##ь
cho
##erno
##ор
##ний
byl
бил
##ля
Rabbi
##ache
RSS
maps
##ivne
mammals
returned
##ză
Alaska
##ngere
##ф
##лот
Но
##рд
Contact
address
Архангельск
##оп
##орт
##ră
##steria
##fino
MJ
Cotton
Bowen
Danielle
##yf
Rex
Gabrielle
Celia
Moonlight
Pierce
Shepherd
##reau
##jien
Hoa
Gesang
Avon
##rmann
Wege
Antoni
Else
##korps
Mecklenburg
##öss
Ils
Volker
Führer
Infanterie
Goebbels
Krebs
Artur
##hrte
patrol
Gilbert
Richie
##pne
titled
Spider
lineup
Size
##fant
##oxy
Presents
##dicate
greatest
Hold
toma
salsa
sou
Eugenia
Nicole
##aldi
Frederic
Lorentz
campaigns
Newark
##tern
##psilon
Please
Triumph
rpm
Lone
##sine
Brother
Cloud
Rosemary
Democrat
Third
Critical
Future
嘉
庆
圆
园
爱
觉
罗
永
琰
令
1803
Diva
##ante
##ç
##üt
Leopoldo
М
##сти
##сла
##в
Ле
##льд
##ович
##ост
##ро
##по
##вич
pronuncia
##wicz
Azerbaijan
Leningrad
Britten
##chat
repertoire
Cello
Concerto
Sonata
Sofía
1711
Putin
éd
##hì
盘
古
氏
盤
##ǐ
始
尊
燧
韩
非
子
##inea
zua
钻
取
##ŭ
華
網
陵
風
景
區
拾
遗
萧
绮
Taip
御
览
##rell
虎
义
礼
含
尸
伏
羲
牺
犧
##ào
昊
水
##iyang
Jepun
##lgare
telo
##rigen
pulo
##nko
pine
##andre
##apte
##poste
Lepidoptera
Medicinal
ble
gray
mosaik
##oof
##ptica
spons
dado
لو
##oides
composition
biological
properties
Former
Product
##iance
alcohol
##bolic
mult
Blume
##mou
trees
Lesser
rara
Cando
##vogel
banda
##unter
Guatemala
Ficus
religiosa
Jain
Tahiti
beach
##itung
1312
1314
Rocha
##gence
pie
liquid
##tography
##LC
##sione
Cruise
wagon
Prado
2700
cc
chassis
##HD
466
hp
filter
UDP
##ables
route
##bound
rule
static
dynamic
User
troubles
broadcast
crash
konge
##vide
ザ
##☆
##ド
##ラ
##え
##も
##dora
##bn
Gia
##arf
stable
amar
##rew
##unta
Episoden
##rand
Gunnar
##ær
Molde
Claus
injury
##ñez
##ymas
##ovo
##enburg
##viat
Districts
Дом
##оде
##дов
##ские
##али
##нии
##nion
767
Peninsula
1722
Concise
##citation
1718
י
##ג
אלו
Terengganu
##UF
Красноярск
##ие
coupe
##ēm
Partia
Libia
##ilir
##bility
##uras
efekt
comparison
evaluation
divisio
Pinus
cun
Collections
##tnie
tape
Botafogo
Estádio
Ní
##lton
##nho
Campeonato
Carioca
Flamengo
Corinthians
distribution
shirt
##bbit
Tolkien
Elf
##TB
pris
tida
energy
##rafo
traf
##vá
##enis
servi
Ericsson
WTA
ITF
Virginie
Championships
Tatiana
Hobart
##veta
Lindsay
Davenport
Tier
##yder
Francesca
##bourne
Svetlana
Nathalie
Petrov
Tracy
Jae
Jennifer
Martina
Daniela
##chov
##liana
Ivanov
##quera
Elena
Lucie
Serena
##style
##Wh
cars
decades
##berley
holding
Esprit
Loved
official
Goku
##ndor
growing
##mmen
born
Shore
##ustris
##hado
copa
cour
##cosa
##arri
Belize
Cedar
Sinaloa
Biodiversity
##choa
##oral
C1
verb
##ndre
##pine
isole
##dene
##relli
Composition
Biological
Mexican
Molecules
molecules
##itat
leaving
Prentice
Upper
Saddle
Crescent
manj
Geonames
Ella
Köppen
Geiger
523
##قل
##قال
chess
champion
##laub
##erit
Cherbourg
Rochefort
Affair
composer
aged
nda
##glas
glass
##forced
plastic
Drummond
Owens
##оря
##кс
##кий
##вт
##м
##ный
о
##руг
rich
##ection
vend
detection
signature
positive
##rds
ISS
Cisco
Monitor
ASP
Apache
roster
naman
Maxi
Finals
MVP
points
originally
owned
operated
largest
operates
located
coastal
alliance
restaurants
beauty
operate
retreat
##erald
\
transmission
Fragment
fragment
circuit
##ptation
byte
Route
DF
capture
45°
##keten
Maan
Алма
##з
##бек
##ар
##шено
Ата
##мба
##ев
##äcker
Freiherr
Kiel
##zsa
##ecker
Göttingen
Niels
Suns
Atomic
##ött
Bundeswehr
##spreis
Deutschen
##handel
Pour
Mérite
##tedt
Hongkong
Dust
baby
FOX
902
Newport
Theresa
doctor
estatal
##tli
crisis
estudi
##radu
defensor
Check
Sometimes
U2
Coldplay
Gwen
↑
imdb
wenn
##ición
dentro
los
programas
más
visto
Estados
Unidos
numbers
television
audience
ratings
figures
Stad
##verband
##lijke
##zicht
##mberg
diz
vro
DO
Digest
Surgery
##DK
VIP
PCI
holte
worker
outcome
Dubois
##PG
Greenwich
##enger
Lists
EN
ancestry
nyt
##imes
ail
og
##plar
Frente
##ación
##úa
##ekin
Kirchner
##celi
Lebanese
Dhabi
Maynard
boli
Folk
Banja
Guthrie
Ballard
rat
tailed
green
checklist
Print
ov
cos
##inak
chaos
Watanabe
timer
Corona
combat
##lazi
2200
##loop
Matrix
battle
justice
frontal
cent
muro
Ricci
Strada
Labor
##smu
Edmond
session
##tiek
Buta
Isto
Timothy
vocal
##jenu
menm
amit
Valentino
##erum
ns
934
Gustaf
Julien
992
Dubai
Rashid
##ahe
emir
Itt
Hewitt
Ghost
Maxim
##seksi
Sullivan
##sais
##tainer
Jebel
Morton
828
Latino
″
Fourier
1854
##twa
##thers
##ours
hija
Falcon
Wadi
##ool
viral
alternate
tea
screening
Stahl
Jessica
department
militar
bomber
bombing
credit
Help
##jee
##ার
##্জ
##িল
##িং
##्ज
##िल
##ङ
Train
##kool
श
##िम
##ला
Ś
વ
##ડ
##ો
##દ
##રા
1726
IOC
VM
##GC
Solutions
Bombardier
launch
Pune
1701
1708
##niche
Creek
Golf
Municipality
شارع
٣
##١
##wain
Ranch
Silicon
Gulf
Oud
٤
##٤
##weer
million
UAE
##رق
##ّة
Commercial
##teen
Pandora
Pepsi
parking
completed
##nfo
designs
##houd
##ynt
moc
bars
##drome
baza
Historic
barco
plants
comes
closer
Consortium
Points
##gais
1331
##toga
##akas
##raria
##kami
1334
Hiroshima
Duarte
colonial
Dancer
warm
poor
Avery
Lori
SJ
shifted
Crane
##iary
Vivaldi
quattro
stagioni
konsert
violin
arm
invention
basso
continuo
son
Allegro
molto
forte
##erende
Hannibal
Elephant
Indus
##sov
Aleksander
##uint
Sandro
##kott
##ndros
africana
maxim
Bello
Numm
nº
##culum
antiga
Syrian
Horace
Claudius
Liste
##ādi
##lins
##haf
Majesty
Cremona
1214
##hora
##deros
galt
ibn
Colombo
971
Dies
Slim
##gging
С
##лон
##جو
##ʾ
ג
##וג
##מ
##גו
khai
Berge
##ogh
Aus
##estan
Tie
938
ona
Slade
##ige
369
1292
1289
1293
moh
Mg
abundant
Ursula
##stos
##loos
川
郷
箇
掌
造
Geography
Romana
##rsus
Markus
##unum
##nosti
Lyons
Simone
Weil
##ligere
##zinger
Christen
Built
Saksen
##banus
Ages
##quina
1054
##llin
Riley
##oken
kez
##alim
##vaux
Domingo
Guzmán
hoc
Spain
Avignon
Konstanz
##etera
##ruce
Johansen
Bartolomé
Casas
spanyol
Burgos
Vitoria
Owen
##hã
deus
Savage
##jects
Xaver
Michelangelo
Leonardo
Vinci
1509
##ider
Borgia
1517
##gens
##lder
1589
Wald
##guen
1598
Nantes
Catalina
Aragón
Lambert
##aigh
Revised
1563
Chemnitz
Sales
Neri
1597
Expansion
menn
##trix
1716
1727
##ocke
##gkeit
1685
##roga
328
Forgotten
Kalifornia
##stola
1577
Lato
Background
Phase
462
Nineteenth
republika
1040
Protestant
nation
recognition
Barnett
Harri
##oux
Laws
##asse
Dreyfus
Émile
society
politics
since
1851
##äume
##maculata
Bauer
729
##ttel
Rerum
##drag
Bosco
Rennes
Katharine
Mystic
corpo
##át
Calle
Never
veto
lua
abbia
bisogno
Doll
Himmler
Nazis
##spolitik
Literature
Glauben
Sicherheit
##sdienst
Nationalsozialismus
Historische
Jahrbuch
##aye
á
##rran
Ferguson
Gutiérrez
Óscar
Romero
##dota
Dimitri
##ωμα
##ϊκό
##ει
##του
##γικό
Ravenna
Gospel
##ibus
Willi
##luat
TIME
Castillo
cardinal
Rail
1216
##stein
1217
Wilkinson
1271
1644
封
初
Midi
官
桀
Sugar
abil
Defence
21st
Nino
Pakistani
Gray
Otis
Carrier
##iger
Schweizer
acquisition
Kidd
Rocket
##dyn
##ipper
Gets
aims
acquire
remaining
interest
saman
Download
Venom
Gravity
Düsseldorf
mi²
jugu
Tank
503
Tactical
##irt
Seventh
Fleet
Landing
##koi
Kao
##ates
Eliot
Philippines
Hopkins
Munro
Lightning
Whitehead
Patrol
Brisbane
##genes
strain
fever
##ccus
##zzle
##ente
Hangul
Mimo
##dica
姬
耳
春
秋
霸
##uchen
656
651
主
Agatha
Clyde
##sdale
longest
tunnel
≥
≠
##عم
##ارة
Mais
708
governor
557
Statistics
nah
ده
##ۆ
##وك
Pioneer
Ferris
##zma
Comes
##aniu
Stones
##former
Berry
Warfare
Lyman
##hler
##worm
##valence
Battlefield
Sirius
Random
voyage
##حلة
##كو
infrastructure
##سل
##انية
##ûr
##dista
mall
Funny
Rodgers
Billie
Heather
Sinatra
Crosby
Vaughan
Buddy
Sammy
stanza
fun
sweet
vale
##رد
##بیل
Kurz
##vader
Dakota
Nguyen
task
##holz
Eisenhower
##itur
##stellation
pass
Virtual
och
##azu
moto
oni
##kich
##ĩ
##ũ
Larsen
##ologue
Nilo
Distribution
##ogue
Ethnologue
Languages
Mohamed
disco
clip
##क
ک
##ھ
##ک
Luck
##now
645
Protected
Gianni
##eres
ambassador
З
##ени
##ца
499
Peel
poles
Hole
dragon
六
安
ā
##qing
أبو
أحمد
##حسين
علي
عبدالله
##بي
##قي
khi
crop
reactions
##erance
mechanisms
partial
root
seed
concentration
##pukan
Agricultural
Principal
Scientist
Nigeria
Alley
Swedish
cz
##midae
exact
rei
ore
Garrison
Father
##ffy
Astra
9000
Victorian
##eries
movie
##woman
phi
##pist
##nur
Lydia
enten
##ikk
Tonight
##brate
央
廣
播
台
##àn
##tá
（
organic
##xide
jungle
##صف
##مر
##وة
##عى
Getting
Sigma
operations
architecture
portfolio
navy
Archie
caps
Glasgow
Bergen
##team
Scotland
Dawson
##oll
Doch
##ï
##Leod
Suas
Só
##lc
##regat
Vogt
##rley
McGregor
Fletcher
Griffiths
mirror
Aberdeen
Easter
Tyne
rugby
Tuesday
prim
##elik
Baxter
##acher
Larsson
Rough
Scottish
Blatt
；
2D
Samantha
Kark
rasmi
filem
manjadi
tuberculosis
##losa
##idos
Duran
Calgary
workers
rights
##portation
##ihin
##plom
natura
lika
1819
##iyat
##hung
secret
jih
grammar
preliminary
disse
083
gada
433
949
citizenship
island
belonging
hinter
encyclopedia
Polen
##ranu
Melaka
gama
Dach
PWI
guidance
complement
behaviour
Strategy
##rior
roles
responsibilities
Fernandez
Guest
1110
##brica
governance
##bane
Medvedev
Д
##ми
##трий
Ана
##то
##евич
##ед
##ве
##де
##ovie
##vna
Herz
##ievi
Purple
##lts
##slas
soft
Peace
Nikon
FX
IEC
##ván
immigration
##ration
##cei
Americans
##lva
Discov
##erer
4th
Schuster
Demographic
facts
Brittany
947
Midwest
Quincy
Senate
##dici
hold
##eady
latest
paint
complicated
portrait
Middle
respond
##aida
tudi
teha
Alabama
779
Raúl
Reyes
Nest
##lé
Launch
goes
Features
Ernie
workshop
standards
잡
雜
채
菜
bomba
##acia
병
##조
##판
##서
兵
曹
判
書
##okat
Byron
Sherwood
##xton
1491
1437
1438
Gutenberg
Bruges
printing
horror
Sinclair
regia
Plantae
vertical
ware
##vali
##pija
##ulli
Fontainebleau
volo
laisse
faire
##ppes
Animals
Friend
1805
##brook
423
##itari
Armand
Cable
Highland
LIVE
##mmar
##eco
Reunion
##case
Anders
Disaster
Forget
Gear
Town
Promise
##uele
futur
Bomber
Langley
716
Geoff
Muséum
Histoire
Pretoria
##gret
ibi
Eo
joc
techniques
Constantin
##loge
##ändern
##ögel
durch
Einfluss
Klima
##iges
##buch
Natur
##geschichte
gry
##phus
##iformes
forse
pelle
ovu
mouse
plana
brit
throw
growth
fault
frac
antic
seal
Romanian
stage
588
scala
flow
correct
reliable
default
gate
##ligen
application
services
wide
backup
archi
tier
celu
##trus
##ěn
粉
絲
口
丝
龍
sota
1940s
telle
Namen
##usso
Templo
##sée
Kirkwood
##lisch
613
guitarist
Bresse
##tilia
Battista
Spor
##lice
##edes
ook
parent
##stid
##vann
##aldo
##iani
ach
##kei
##pten
sci
##fied
AAA
##hout
ovat
Kort
##èk
nie
##ש
##ׁ
##ק
##לו
##ֹ
marina
1270
##ivat
##ִ
##ּ
##ת
Arad
ח
##ו
##hov
##kva
Ebro
##ymer
Goran
佐
々
功
kuras
uncertain
##catus
Newsletter
설
##날
舊
正
##력
##설
신
##tda
sech
새
##해
복
많이
받
##으
##세
##onsa
Oral
##يدة
##ید
چ
##كا
##مه
jail
Cornelia
kann
釧
路
庁
が
総
振
興
局
に
改
革
条
例
成
立
ord
reforma
passed
tabla
##holm
##luit
##dores
gut
##niques
세
##습
##무
世
襲
巫
##신
降
神
##bye
lunar
discover
Russo
Sien
##lory
ee
households
Wanted
Moran
Enzo
Riders
##nee
Machine
Bullock
Zeta
Fraser
##tims
Beautiful
sets
maintains
begins
allegations
violence
declared
winner
opposition
Democratic
##ozen
Election
bright
despite
##filiation
election
journey
Coalition
your
Cabinet
weight
behind
leaders
decide
Opposition
Presidential
fight
cleared
parties
nominations
ever
widow
Sessions
Instagram
Fender
##orse
##ennes
##caster
Tiny
##quier
rose
covered
passive
Patrice
Parade
Reprise
Teenage
Floyd
Nightmare
Bowie
Flesh
Smash
##izo
Wireless
##boken
Maine
hon
bungo
amis
587
Castile
Palencia
Segovia
Soria
Rioja
Cantabria
Rica
Heights
##dler
##ydi
suis
##arum
Mémoire
Avec
Loup
Levy
Etter
##beek
Monique
avec
Blanca
##say
##ppu
##raphy
##brane
##zing
factor
Kern
Alessandria
Soler
489
draw
##velt
Ribeiro
Almeida
Soares
Filho
Paolo
##echu
Dolly
##èt
##vien
##dós
Cervantes
Canaria
nacionales
españolas
conte
##mporánea
Balzac
Guerra
agn
##osti
Academia
Parque
##idad
Chain
##ñu
##idia
1707
1649
1660
Mountains
##jave
##kke
1734
1663
##sado
838
sabe
ngay
folklore
לו
##ד
##ydd
##yde
##urion
נ
##צרת
##ילי
פתח
ת
##קו
1150
gold
Brooke
##נ
##מל
labai
Tomé
century
##dano
Noord
##ians
##ppel
##zn
##rijving
gedeelte
Zuid
##deel
shows
pictures
east
fai
Stadio
terra
##ced
curve
along
running
score
northern
##isela
Sabrina
halt
polk
dot
mee
sporting
RTL
RAI
Rosenthal
Touring
##лица
Ј
##ово
##вић
##лла
Й
Andrews
girl
Fifth
Plastic
Memory
Secondary
Another
Month
Bridget
Diary
Being
##rnes
Reason
Amateur
Pride
Where
Calling
Pointe
Mariah
Juniors
Roller
##учно
##й
Про
##тив
##ота
##нко
##вый
Гран
##ат
##ёт
##čnoj
##tivo
##jë
##coil
##atz
##plosive
delayed
electric
Chandler
famous
Talking
Logic
speech
Things
Student
npr
bird
counts
reads
Terrace
ראשון
##ציון
Carmel
##umoto
##mó
1489
湘
潭
市
ega
##ร
##น
##คร
##ศ
##รี
##อย
##ุ
##ธ
##yria
##dao
开
624
李
靖
兴
##ande
##anche
计
##naca
पूर्ण
1269
##ến
Arne
1406
1295
1408
Vermont
Rhode
nominee
1035
##grama
1120
##endra
Colony
mach
##acea
Greater
##pterus
##tinen
##vier
##oky
Nashville
Fuel
Kitty
Hank
RCA
Cristal
Cuatro
Cobb
##ctura
##iente
Dolls
Talent
1241
WWW
entertainment
heel
Hulk
##ghter
owner
Bischof
financial
羽
Truth
～
日
守
約
束
##oru
snow
affair
還
覚
えて
##て
##いい
##よ
##tete
Shooting
冬
雫
き
##ゅ
##る
##で
##ジ
##ャン
##ボ
##♪
らず
##べ
##り
##ー
メ
##キング
映
像
##ビ
##ュー
##aby
『
TOUR
連
れて
来
た
君
聖
者
だ
』
Hoy
ಹ
##ೊ
##ಯ
##್
##ಸ
##ಳ
ಸ
##ಾ
##ಮ್
##ರ
##ಾಜ್ಯ
Hillary
Grave
Richardson
huy
##kalla
##lern
Metropolis
##final
##vaja
Álvarez
##oop
##ólico
##ciel
Caja
##sión
purchase
##strucciones
Deportiva
עוד
##הר
Unlimited
##ticus
Susanna
AZ
##rcia
Avenida
##ís
Raimundo
Fernández
Perón
pase
Ministerio
violencia
vue
Mundo
##ots
##ourg
opening
meets
destroy
evil
forces
robots
Medley
Goodbye
auge
Current
Anthropology
Sites
융
##문
##토
dt
즐
3200
##geu
testing
Competition
##historic
beam
##iting
MY
Punch
##lobus
##source
##égét
Afrique
tropical
Wagen
##ěli
seramai
grandi
ILDIS
Ponta
##kern
Nixon
Fay
Kommun
##aguna
thin
Thin
programme
McDonnell
military
##tender
misma
##nage
cargo
litt
M3
vorte
reverse
Balkans
##retik
##kry
haur
1516
##ciju
1677
##gde
##keun
##erek
##urst
nesta
##omas
Hien
##vado
##lagan
Christiaan
Nunavut
##ttin
Parks
##oak
##stod
hearing
wiki
wikipedia
Extended
Siemens
##ption
##flow
kernel
##sław
##zym
##bors
Poznań
słowa
Polski
Uniwersytet
##ński
##acki
##llu
Meter
Sims
2°
Ligue
paix
liberté
Oracle
##atories
platforms
relation
databases
Interface
protocol
Boots
hosts
SQL
##word
variable
##olio
atawa
rijk
vijf
##dige
##handeling
##gever
kings
##jke
inspiration
Caspar
Forst
κ
##ών
Arctic
codice
##imit
Gods
Anthology
Confederación
##bajo
Révolution
##fédération
Général
##naire
Socialist
##vrier
Pays
trots
lutte
première
République
1797
Alternative
##taire
praksis
gradual
##dende
Deeds
##tadt
Kultur
pare
Hegel
Engels
Oued
Groupe
Slater
Revenue
Futures
Housing
market
investment
Bloomberg
yield
##SL
##lated
##iation
##cket
Hilda
##pment
Programm
オ
##レンジ
##★
youtube
vidi
banned
fare
Luanda
Grupo
remote
command
Professional
notar
564
restricted
closed
shell
Hie
Collegiate
industria
Hora
Alger
Hayes
graphics
raste
##rices
##torial
##kell
##eritus
products
collision
##cite
##meister
Kelantan
Kedah
Houghton
##baren
bundan
marc
collapse
##RNA
delivery
settlement
##diti
underlying
spread
spot
conta
selling
##plain
##rage
##dity
##ives
Molecular
Computational
##aborative
Density
Valence
consistent
configuration
interaction
Møller
coupled
cluster
##zik
##arsi
Ottawa
Graduate
Cambodia
curva
driver
##irect
TD
##sl
Gateway
advocate
##bris
historie
##stag
Bengt
##demia
##име
Борис
Са
##ко
##бург
##го
##тски
tona
commune
Pyrénées
##éro
Atlantiques
ブ
##ル
##マ
Mrs
##nyt
##open
lake
3°
Plain
Salle
Corsica
Germany
Miquel
hed
##vesi
longitud
ili
##vika
敦
Browser
criteria
Objects
##rchy
Пётр
Алекс
##тки
##н
prince
Fields
Alexei
aide
attaché
Neuchâtel
Savoy
Survival
Huxley
##smen
Jungen
zion
Freie
Vereinigung
##werks
##chaften
Arbeit
Deutschlands
##national
Section
Ethel
Ridley
##bacher
essai
Chester
Coral
Harbour
GDP
Lionel
concentrated
##ploy
##fers
##astu
1570
dealing
Merrill
##sions
Marko
value
movement
Fairfax
TC
tome
##wy
##tawy
kabul
##sinin
Amendment
##cluded
participation
denied
benefits
subject
discrimination
activity
receiving
assistance
1681
resta
gallery
Together
Sve
##tke
##lick
Jennings
Pokémon
Sinn
revenu
strategies
##chas
decision
##ficial
Comédie
##ées
Voyage
Mondial
Duca
##elle
##olici
bulk
commercial
reke
##istas
Finger
Nicholson
Napier
Pine
grader
maestro
Gogh
##oek
Ugo
デ
##パ
##ペ
Instrumental
##ductor
inventor
risk
Flow
##pliance
reporting
operation
practices
function
threats
concepts
Additional
qualifications
ability
objective
issues
quickly
commun
##icate
effectively
wave
##street
torpedo
explore
Curtiss
##chod
##μός
##amos
##bination
Nouvelle
dinner
NTV
TBS
Memories
PS2
britannica
##ruz
834
##sein
##zami
Bahá
í
##spects
Leary
peoples
sees
##vald
##BSD
Schmitt
dynasty
clan
##basis
##arch
estimates
Meyer
nearly
Hanson
almost
possibly
Archaeology
##xos
Artemis
kune
##onology
##ikos
Isso
##deki
Depression
Polydor
##udes
##beau
Debussy
libretto
##érieur
mort
##tag
##iles
##ély
##sette
chansons
Ariane
##œ
Antoine
oiseau
bleu
vie
##eille
inconnu
##ites
Liège
Rockefeller
Louvain
##usel
chia
##bami
Siegfried
シ
##グ
##フ
##リー
・
##ュ
##ウ
##ェ
##ン
##īgu
##īd
##êd
ماده
##atra
syahan
Bagdad
##dius
##nú
##kene
##arz
##kasta
Rt
##nios
Wer
Publius
##zes
##tā
Hiroshi
Daar
ditubuhkan
مدرسة
##مع
##مين
دار
MMA
cerca
من
##قوم
فهو
منهم
##صول
##فق
##ît
##âm
##pili
##kku
tha
##yib
1501
Applied
Carleton
sao
##roft
##ered
^
##artu
646
civili
Greeks
companion
Macedonia
516
Publication
##zica
casu
Durant
##zde
##mero
##zna
##ám
Origin
Autumn
677
Wilaya
##cross
##jeli
##itant
Amerikani
Against
##posed
Tehran
مرکز
##عات
تحقیقات
جنگ
demands
##ression
Confessions
membre
plays
gameplay
##shment
Rooma
sitcom
airs
830
##kkel
Søren
Colour
Lose
##ernity
##vost
Alberta
##bergen
Svalbard
leksikon
assessment
##vacy
ICE
Evaluation
sound
engineer
##ière
Leuven
Gert
Sutherland
Regional
み
##な
##み
##け
気
ち
悪
い
Inoue
ending
Sono
##ative
zelf
Dutch
##hmen
lands
##adta
##uste
Superliga
##WF
##ères
Frédéric
camping
##ndro
visione
lettres
Suzanne
##euvre
##iques
Saison
##ôle
frère
vier
folle
époux
Nouveau
##nations
desert
##viti
##garten
Stiftung
##talt
##flege
Brandt
##zle
##ller
##straße
Kampf
Huntington
leben
Leben
##ission
##worthy
Erbe
Helmut
wissenschaftlichen
##fassung
##ingt
schwere
Linden
columna
##quent
Schutz
##ffel
Danzig
Gdańsk
Gdy
Coburg
Grafen
##eten
Lothar
##ssig
Paderborn
##feldt
Mittel
##nken
##dels
Bielefeld
Hoffnung
Göring
##haber
Clemens
Münster
##ösung
##frage
Alfons
Fevereiro
##presa
active
learning
doing
quantum
POP
Tee
bound
forming
Blake
Mercer
Monroe
Bollywood
Oosten
Petroleum
provinces
1297
Negri
1325
1650
verk
##tuur
##dje
ao
vent
##rike
brach
communis
sinistra
mese
Regan
Č
Gosse
Aleksandar
##čki
##ël
budget
ابو
##حسن
بنی
##صدر
Estudiantes
Newell
Colegio
Argentino
##osos
mein
Forza
Camillo
##vour
Università
Augusta
Marso
ear
605
Leave
variety
##isana
Many
Cinderella
Daddy
Vida
##fing
Kōh
Clin
##fari
##tano
##sumi
##ština
Brazzaville
Noire
مه
##سع
بار
##زان
Dakar
Lázaro
Cárdenas
##mán
##ños
Nelly
##olt
##istisk
Venstre
##ξ
triangular
ψ
Fuller
interpreted
Textus
manuscripts
##κα
##ὶ
μ
τις
##ύν
##ται
ἀ
##γο
ἢ
##ῆ
ε
##ἰ
ὁ
##ὸ
##άρα
##γμα
το
##ῦ
##ρίου
##ρι
##το
##φία
##στ
ν
##που
καὶ
##ioi
Irena
Latina
##hynchus
Overview
##nary
requires
##scription
Engl
romana
origins
Royce
##cultural
perspective
Sigurd
Ibsen
##jerne
##idt
##jorn
Fiji
Brett
##eville
Beim
ingkang
##inden
Wilderness
Zimbabwe
##weld
Burkina
reconnaissance
Sparrow
Hornet
fighter
mph
##cesse
inches
2A
kN
##stair
##NF
Fontaine
Hodgson
Burundi
Islands
Verde
Praia
العزيز
##يه
Cabral
##nier
ringkasnya
Iraqi
Zur
guardia
Charakter
Fiorentina
Qatar
##pire
Morse
##istei
trama
napr
##oksen
##hista
drug
##ufen
propio
presentation
803
升
Find
##ocht
Cullen
##luku
039
##iane
##nsis
##bl
1286
1318
1324
1327
1755
##iller
##jà
Armin
déjà
vécu
preko
Meaning
##vit
##ucha
Treatment
temporal
##rology
##works
tige
lige
##lige
Animalia
##ylum
Familia
Corse
Puma
leo
essay
##ised
##cave
moun
plane
celo
Members
Mundu
Feria
##jame
##خط
##وط
الجوية
##تش
##ادي
تو
##ما
Calcio
MLS
Categoria
Yaoundé
Lakes
grain
Monetary
spring
aspx
good
faith
novas
regulatory
organizations
##zew
##icz
Such
##itude
E0
domi
cabu
tog
##adou
Rossini
Mendelssohn
Liszt
##اعي
##لي
ī
اسم
##اع
##یلی
##lī
##mist
##zari
Nevers
Cours
##yczna
##lności
##green
##wska
##dnik
##ość
Towarzystwo
Waltz
##aret
989
Galeria
Libertadores
##culu
Peña
##cito
##tador
Independiente
Václav
##čan
##ské
fór
##dní
##ění
Olimpia
Asunción
Grêmio
Alegre
##otov
##isar
Sovet
м
##т
Sankt
##limen
journalist
wrote
intelligence
influence
tee
CAF
Internazionale
##lers
Auckland
Nesse
Josep
PSOE
Dalla
Beirut
Moun
cola
feeling
##AV
6667
Andrade
Constantino
1445
Yann
Té
Apertura
Postal
nekom
Armando
Vélez
Sá
##sfield
Linie
631
Lufthansa
Palestinian
Chamberlain
Thatcher
Hunting
Surrey
Maastricht
Wednesday
Blair
Hague
##riba
broadcasting
##penn
##zett
##chem
Coelho
##wiki
electo
Electoral
Oder
Whitaker
##īs
arī
##xen
##dning
BSD
agit
Hjalmar
Daniels
Sveriges
annum
Vickers
##fire
Viscount
Tage
Albin
Hansson
Abruzzo
Pescara
Corrado
Both
ANC
##wyn
Afrikaans
cylinder
Mandela
##zela
Aeroporto
Croton
CDU
##ringen
Thüringen
Landtag
Cuneo
Carsten
januar
Christiane
##frau
##nisch
Wissenschaften
Unter
Dolní
##jovice
##zial
Partei
Österreichs
SPÖ
##titut
ihre
soziale
Funktion
Ein
Beitrag
##lichen
##friedhof
Performing
Oper
Seitz
##Ö
provisional
##brück
Annelida
Polychaeta
Harmony
##sica
##pania
electoral
Delaware
Ziel
romane
2n
bien
##ennial
winter
autumn
Vuelta
##quis
##chmann
Oberst
##führer
##gruppen
laisser
abuse
document
899
Novak
Rolf
Günther
Dann
intero
package
developing
countries
windows
Harlem
compact
Vocals
##boards
Drums
feat
Yoon
Bonus
##gaard
##sling
##jonal
Akershus
Peder
##bjørn
Casimir
Fayette
Assemblée
Lafayette
##quia
1498
hiji
ESP
ð
Federer
Tomáš
Sebastián
Toni
handed
Cash
Delgado
##jean
teen
##ager
Artois
Kendrick
round
Davy
##ucci
Seat
##brice
trophy
985
##reiber
##zionali
##lias
##rile
Mathieu
katika
Björn
Gilles
Panorama
montana
savo
##raut
capita
##carpus
Weaver
cabo
Picard
viridis
won
seria
anterior
##pidae
baron
Wildlife
##lán
venture
ARD
1251
268
schema
030
##ntures
Fue
##ventura
awards
##iable
##nose
Regis
##cise
fleet
commission
house
Bono
vino
Directorate
Elmi
##cock
Aston
Christie
Preston
Engineers
Bradford
##ques
Millennium
034
eleven
Middlesbrough
##erra
Reds
Ashley
Didier
Peck
##émica
Avant
Sébastien
##kinen
Juha
Petter
Mikko
##vés
醫
學
##punkt
xin
內
經
素
問
Ching
望
聞
切
requirements
##tration
##punt
##ION
##stia
Impossible
Gestalt
Köhler
##pio
Elemente
##ysik
Observe
##pression
Personality
Sensa
##ences
Automobile
antal
LR
NED
chamber
ensembles
sept
none
clarinet
medley
piccolo
Jimi
##peche
Rekord
##kede
charts
Rochester
##lime
Enzyme
Odyssey
##tham
animal
kingdom
Synopsis
Systema
Carolus
Linnaeus
Ashton
Linnean
Rijeka
Birthday
Reservoir
Dogs
Fiction
comedy
Kung
##ghet
##ined
##ntial
Olympic
uniform
training
aquatic
##WC
Rune
Ü
ETA
follow
##ving
##linge
Liza
Tanz
fim
chica
gente
##cid
Safari
repair
##kaita
Portsmouth
##duction
teachers
improvement
lair
##uction
observer
nicknamed
##seller
Jeffries
NL
Payne
papers
nl
##rated
hou
promise
lady
romans
loser
##ït
enemy
##oß
principi
##iis
##sare
Mitte
##resse
##länder
##dienst
##mne
Éric
Nîmes
Tango
菖
蒲
尚
chim
Reggio
nell
1052
Stat
##weis
Azur
blues
##wehr
##kreis
Britt
Aubin
Sherman
Highlands
Leading
Tears
Veronica
Joana
Barnard
Emerson
Sloan
##rien
Reinhold
##vini
orgel
rank
Skinner
Orgel
Hazel
Neuen
pai
Diocese
dioses
##nze
Cockerell
hull
flexible
drag
duty
Honorary
Lions
Perkins
finger
Mansfield
Ladies
magna
Polly
Frost
Groot
##west
basement
JavaScript
Chrome
environment
Siden
tappa
todo
passa
dalle
reserva
belle
##ddo
Reserva
Python
Ardèche
région
##ML
786
##HL
Europees
##pelen
##bouw
1747
##wane
##raad
last
##grat
leraar
kunta
toy
verze
##leger
eens
##jden
kracht
arbeid
##briek
##kker
##kteur
Nieuw
##sblad
onderwijs
zaken
vereniging
boek
##veren
##boden
iemand
volle
##even
##zach
werk
##zaam
##rijk
leven
##schte
##liegen
vanwege
zijn
##dacht
ont
Heer
strijd
eerst
tegenstelling
worden
nog
straat
uit
worst
overwinning
alles
doet
geld
regel
als
goud
gaat
macht
wees
dat
eigen
Portable
Graphics
loss
compression
alpha
##gged
έ
##ον
##rner
##riven
Benson
Malacostraca
##lius
oko
##uchi
Honduras
teu
##ntale
##njen
flower
797
Marek
##ść
Elk
Lines
Idaho
Portland
Scandinavian
Hockey
543
726
##sliga
europea
##eague
vei
##uussa
##kkö
Lahti
##vä
##lä
##hden
Nemzeti
##jnokság
Rosenborg
1560
1578
1581
1584
1587
Tokugawa
Date
1614
yng
compatible
Henderson
acute
##ilus
1568
1576
1607
1662
1664
Gemeng
volgens
##schrift
1696
##zameling
oorspronkelijk
vertaald
##pects
Court
Holden
Opel
Vaux
Commodore
##ways
production
##petitor
Chrysler
Trinidad
Tobago
HQ
341
##kade
waiting
replacement
exactly
##ulated
losses
debt
beginning
insisted
split
Engine
activities
replacing
existing
sister
VR
VT
McKay
VY
1513
1546
##reu
##anes
Lodewijk
##issen
##rder
Christus
##yku
visa
##ssing
luni
##cota
Aquino
Rivas
Fleming
Bahamas
Caterina
##ور
Ṣ
צ
##ור
Τ
##ύρος
##ýr
##tyn
acting
tante
perioda
suba
Salvatore
Henning
##cado
Renato
Juno
forti
魏
征
徵
643
玄
门
变
游
隋
书
粱
齐
Franck
##life
##Millan
##uniu
Biographical
Memoirs
Lynne
##tali
##wder
Carthage
Written
upon
##ures
translations
Selection
topics
knows
Vintage
Given
testament
copies
Brody
Mouth
027
Howe
Approach
perspectives
conferences
##uvo
max
printed
reaches
miles
church
Morrison
Greta
Blanchard
Merit
Griffin
ناصر
Ariège
Foix
##yre
Aude
Orientales
Andorra
##ége
Aquitania
sharp
principal
diffuse
##ála
managing
##eie
##erei
Bremer
Ley
##igao
Okinawa
Sacramento
683
freguesia
896
1572
1625
Ingolstadt
Augsburg
##ffice
impression
matrix
Adobe
##ustrator
mezzo
##tint
##üre
Alois
##efeld
limestone
hom
Romane
Donatello
manner
stil
Warhol
dla
constant
functional
tango
JAV
GL
Dla
completion
void
array
String
pointe
##read
algorithm
albedo
健
剛
一
Riding
Rwanda
Frontier
##bour
vinta
choir
År
##mle
acoustic
Remix
featuring
progression
record
pioneer
Grau
Vom
##rania
##isor
Genocide
##rinde
##orce
##huld
Progressive
Requiem
Existen
Crowley
Clarendon
##mington
Warwick
##czyn
Somerset
Dramatic
Weir
Brave
##heart
Hutton
##lott
Ardagh
critic
interviewed
##É
Railroad
##roon
dental
Door
initially
said
proceeded
worked
closely
kind
asked
if
actor
##lied
homosexual
happens
Meet
Coming
negro
Chevalier
Lettres
Gallo
##inite
protest
nuclear
##onate
Nomina
grew
Archbishop
Twins
Connolly
Olympics
Athens
Diaries
leave
##lando
salary
##rkin
Jade
Región
Autónoma
Atlántico
##fields
##klich
Wahrheit
über
Filme
XIX
alus
Rhône
shock
Shoes
##haca
##icht
feudal
chargé
affaires
##orio
honoris
causa
Distinguished
Near
##otic
Argentine
rivers
Bacon
Ready
1267
1245
##nilla
Finland
pm
Piazza
Gomes
hockey
Arturo
##obra
Applications
Sector
negative
bind
compound
response
Erik
##ciation
##gression
technique
Islas
Bahía
Fonseca
Colón
Trujillo
hii
Cortés
Paraíso
##rán
Rescue
##tente
##zán
Gracias
##quito
Summit
Younger
Interstate
Kensington
cabinet
BMC
##books
illustrations
##museum
departments
research
Alberti
Rubens
transporte
##©
##2010
Sender
##üsse
ÖVP
generali
##diction
Digimon
Armor
##vice
Tento
Were
##rimo
towers
##nimo
Imperi
seen
##olc
##roia
evolution
##wem
##night
Minerva
Falco
reca
##jimo
Cannon
Rare
cop
##jis
##aste
Twilight
Generals
Superior
Clock
##deak
Fusion
##minent
Willis
Pico
##agem
##mite
Maiden
Judas
metall
##lhas
##nic
equal
Heidegger
Irvine
kimi
Edmund
bahari
Gazetteer
Constable
conquest
Asie
siècle
Editions
967
Cortes
1728
Straits
##chberg
Regions
16th
Verlag
Inga
1694
1557
poem
presenting
exile
centres
eastern
671
Mueller
Identity
8108
peninsula
17th
centuries
Ships
##ziu
containing
various
towns
Archive
friends
997
##elte
##komsten
##ghed
##dragen
taal
volk
##holt
2552
BRILL
Perspectives
constitution
revival
changing
colonies
archipel
Indien
##primerie
gouvernement
regent
olan
projection
1209
##وري
CBC
##cote
##ård
Faust
Eit
Lillehammer
Lords
Underground
##mortal
##öping
experimental
##ety
Esteban
Monika
Rosberg
##serie
Winkel
Mond
##zzi
penalty
##kkonen
Vettel
kit
beautiful
##familia
Related
Tyler
Handbook
##session
Udo
Addis
Ghosts
summary
##noma
weten
Saskatchewan
feet
Objekt
Mancha
##بن
##در
literally
slope
Farrell
Parlement
##iero
Rocco
Barros
##leva
##ötter
##erine
degre
inscrits
Marín
Spitze
##itzen
##stadt
##vé
##luse
Drôme
departement
procedure
Kind
Italiana
##ranie
##uuri
Asina
##tatus
463
cabe
1551
##runda
Pebruari
1582
##olutie
cila
##iin
##nac
Hektar
##rler
818
prosent
kundi
tenga
termen
deen
dee
marang
ati
nje
gare
nanging
blir
jina
mass
¼
¾
Ethnic
Carnival
ond
avo
##رز
إبراهيم
الحسن
##كر
##يت
##digan
##embro
stuk
balance
wise
motion
Celtics
Finistère
Bretagne
terres
bout
monde
Côtes
Ille
Vilaine
##ricain
Hérault
##ève
Isère
départ
Grenoble
094
##èra
Cantal
Truy
Vendée
Poitou
##öz
##ég
##ène
nagy
##bó
Benoît
##stream
##singen
B5
mounted
##tial
Carnegie
##sno
brata
##ijke
##bral
Vide
##lska
Københavns
Universitet
laurea
medical
prize
chemistry
Dansk
doe
##skab
##nger
electrical
researcher
##maire
Zeeland
boreal
##raus
##zent
##aday
rector
##ficu
##ě
##ĕ
sola
planten
bahagian
##anke
acid
Bárbara
##cao
Rote
##lmen
درد
##ائي
Jasper
Cats
Trouble
owners
varying
cartoon
select
MV
Object
assignment
##uridae
##etet
Oorlog
Tien
##gulo
Pilipinas
Quinta
Sabadell
comarca
Vallès
Ibiza
Toledo
Vicente
Dirty
Ebert
guns
Sharif
##kerk
##ceram
brothers
gross
reader
Buena
Lasse
##reep
Allison
Fight
##niu
Monkey
Damien
Polk
Aladin
Bosch
tableau
dage
Roach
Myers
Carrie
##arach
Fantastic
Ioan
Reed
##klis
Grimm
Frankie
Laurence
##loaded
##acho
Marge
Vernon
Fiona
Bandera
##Works
Lillian
##erie
filial
دا
##بة
الأرض
##qiy
daba
nid
Verband
##خت
##نصر
quoted
Cyrus
572
##samt
##cension
Príncipe
Ballad
겨
##울
##연
##가
戀
##rì
季
Bản
tình
mùa
Đông
##dles
##boru
napad
gabe
Pony
soo
KBS2
worldwide
element
سر
##فر
capella
##hiko
Boogie
##gie
##yū
Nakamura
Comets
##mic
Salinas
##גל
##סר
##ṯ
תל
##גת
##נא
##ə
##tructed
##vided
Eisen
##irli
מ
ך
אשר
רב
anna
Rainer
sixth
BCE
kê
Salman
##llus
715
##gbar
711
706
738
##chino
718
758
Verne
Osbourne
##כות
בית
דו
##יד
##riak
Biblia
##braica
Theological
Pleasant
##cated
gain
##vation
Harvest
##tores
##ridge
Saul
##ybos
##viated
commentary
##tne
Swimming
Break
Lounge
Meeting
Rooms
Takahashi
Weekend
indigenous
syd
##pide
1791
Concord
Aboriginal
Humphrey
vocalist
Pretty
##ports
##sport
##zeu
Showtime
volum
zinc
##reen
Illa
##been
##matta
596
Fest
##tely
Condor
##tures
Wife
Interactive
##فية
بنت
حي
##لى
عليه
وسلم
##rnu
dalar
##vania
Prussian
Madonna
##emma
NSV
suspected
stars
Combined
miz
yellow
سعد
ū
الملك
malik
##dote
labels
minority
Jesu
Benfica
##rela
mga
Representatives
Speaker
unika
unica
##sides
##htis
##نا
##̧
##rrido
Sucre
Romantic
designation
Invasion
games
Gallagher
##rián
Hispania
##lto
υ
##teed
Woodward
Blacks
##echa
plates
Cherokee
Calhoun
##kort
Constitution
Walters
##bber
Bones
##owe
Lande
##inski
giant
Kathleen
##γιο
Σ
##αρά
##ντα
##ër
mali
##tient
##ctory
prata
orange
الذي
að
š
ζ
Mannheim
##تا
##جر
tā
杵
##seen
陰
##zado
##üche
764
Fulda
B0
Lexikon
##ologie
##öne
##ntation
terre
Edda
##¹
左
更
##borne
##ذا
##رى
Marcelo
oca
##f3
##cendo
##veld
##ché
##dley
Reverend
1652
Cuvier
Mammal
Tarzan
Caballero
##غم
##اء
##hde
centra
##zoek
##hlen
##uds
##cchia
serie
Wesen
وزن
Auditorium
η
##ذر
According
Empty
asl
Duck
Isles
##spis
##nstvo
##pierre
##ouer
ロ
##の
黙
示
録
星
砂
私
才
！
あ
##や
##ム
レ
##イン
##ピ
##ンク
わ
##～
##erry
宝
箱
##ナ
##イト
モ
##ニング
娘
。
さ
##ゆ
今
夜
も
##♥
##う
##さ
##ちゃん
##ース
お
##じ
##ぎ
度
ガス
ONE
Auf
Auge
##ceau
##éd
##tains
Bailly
##liers
Scots
##acy
丸
Links
##course
1672
1567
gouf
Vasco
niz
maso
cas
koja
Ove
##lch
samo
##ddu
vad
nim
dood
goli
fenn
##جد
customers
signed
perfect
coming
trying
##nological
conventional
representative
Dels
Madness
##velle
Sunrise
##voir
##alles
Tours
Hôtel
Dieu
##ogiques
292
Boiss
##ettes
##égi
##onna
INSEE
Emiliano
##åg
##zioni
##ûn
##èi
##ôs
##leur
784
##valla
##lotte
Gòn
nazionale
##grafico
##ficie
territoriale
##edd
##dì
Towns
raka
##vici
vote
##ights
Cummings
ソ
##ニー
##ジン
##aker
伯
ミ
##ク
##ルク
##ロ
##ニ
マ
楽
##ヒ
##ロー
##た
##ち
伝
説
汐
nn
enters
##アー
##ティ
##スト
##ブ
##ック
にて
ends
Crossing
Ellie
Manny
##saurus
Bergamo
Pietro
##lating
using
##itch
Sanders
Leroy
Agent
Fantasia
Jurassic
Falling
produce
animation
effort
emotional
##fession
improving
safety
##euil
again
brev
høj
Danmarks
##lende
Friesland
Dual
oktober
##erling
##jell
Telemark
##rgie
♂
♀
livre
enseignement
supérieur
##gement
Léonard
nouvelle
##xido
karne
Arrondissement
##cée
Celle
699
‰
Pirenèus
594
##orre
Moselle
Charentes
##meralda
##rous
Slovak
Peppers
Elementary
##vah
Hendrix
Anthem
LSD
Bands
##usly
##èu
Breizh
##iselle
scopo
B3
##utes
sequence
dwa
arcs
Herschel
##بح
ρ
垣
Twenty
eight
十
紫
微
鼓
牛
郎
牵
##ations
execution
conflict
resolution
##lity
##dite
fully
##vested
approach
Chapelle
##pice
##icien
##ptes
Mozambique
Vanuatu
groupe
barra
##rette
ها
##مور
coral
Samoa
magnitude
صدر
ecc
partit
Mio
##tou
##mire
##fly
##lisen
OVA
Zoom
Candy
Listen
Soldiers
##auri
##aurus
1689
1714
1709
puntu
complete
1733
Graves
Williamson
Strand
##ristiani
Burnett
Herrn
quiet
##acle
Artillery
visita
##slid
##leet
Episcopal
##aching
Moody
Augustus
##lady
##olition
never
situation
Yr
##version
Molly
Ávila
Blaise
##tav
Appeal
Lover
##iros
electricity
principle
reception
##zaren
Burgess
Ryder
##ocie
##âtre
##stres
##umes
##mét
角
Flat
dà
##endas
##omme
進
賢
周
門
庫
樓
柱
衡
南
Entre
##neur
##bato
641
##culture
##πο
##νικά
##gmente
##όν
solution
ember
foi
##iler
##where
Biology
##massa
##ards
##oise
Disneyland
école
##nél
奎
##rais
Schultz
together
Quinto
Woody
Tyson
外
屏
土
司
##ridor
閣
附
良
策
##بط
##ير
parar
proof
weather
explosion
##opus
##posta
##lude
Rond
vorm
Chopin
##denza
Lied
##alna
##itative
Verdi
Puccini
Finale
Conan
woman
##mouth
Subaru
宮
野
保
灰
原
哀
prit
##RF
presidencia
bits
clock
亢
##öte
##rkt
period
##فرد
##رام
##ħ
##زار
iz
##fare
##nern
##writing
deux
##حمل
ħ
氐
乳
##kling
招
搖
梗
席
Chí
陣
車
Guards
騎
Cavalry
輻
將
##guse
尾
Elevation
Shuttle
##wolf
Gail
##lard
##érou
##éh
street
##dance
##icio
##rinos
Yuta
724
Condé
leve
##iese
##dering
Teachers
unusual
lov
appeal
serious
singers
##gregation
close
youth
sisters
Austrian
costumes
##ceed
##inted
Choir
Relief
Hedwig
##marie
Camden
appear
doubt
##rries
don
##logue
Mathematical
companies
insurance
hra
edo
##match
Kalle
Kopp
##itte
fet
resti
##mmes
852
Buzz
##cule
036
##ço
##çon
Joanne
##otta
Recordings
Poker
Telephone
iTunes
Designer
##raum
Wendy
Stream
releases
remix
Elton
Timberlake
Gypsy
rend
Anything
positions
Switzerland
Springsteen
##tella
##ueen
Sociology
boot
Vogue
Monsters
Bieber
Haiti
##cking
Reykjavík
##ynd
Dalai
Vox
##quality
tell
fie
##gender
##vated
Sheffield
Gould
minimo
lifetime
achievement
bill
taula
jaman
##arni
ι
##طور
##ssée
Goch
ups
Φ
Γ
##Σ
Welsh
broken
thick
Þ
sé
##birka
þ
thi
queen
quick
1160
iii
child
riche
cild
rice
processi
lance
mic
once
defence
advice
device
twice
hence
Ц
##âle
##vajo
hain
箕
糠
壁
Cagliari
frazione
##uì
##àl
##às
##lte
##lò
lager
##lever
brings
##edy
##lona
##ìa
dû
Croce
##nana
Quattro
##anno
##ła
##iera
##nado
Marlborough
Wiltshire
These
Madhya
Rajasthan
Jammu
Kashmir
kako
Kako
karon
بر
##یان
ब
##िर
##यान
##ी
##يان
Karachi
pistas
##من
घ
##ھی
ਘ
##ੋ
ग
##्या
##व
گیا
##ृत
Jakov
##kova
soms
##ggs
##ús
##ipes
Colonel
##tán
meat
cori
##má
##oked
twenty
##ças
dair
##ماً
کو
##رم
को
##मा
Cooke
Tafel
Tabelle
1732
##stes
##iju
##duct
Elements
##vois
Lippe
grego
slide
lente
##terns
Descartes
escape
##sdorf
orders
vessels
desta
##tend
婁
娄
##atie
hata
##groep
DSM
depende
Concept
2550
canto
不
死
傳
க
##ல்
##اش
##نى
ç
##reis
Hessen
##oine
1653
1670
1697
##omial
##bne
##nabis
Eduard
colours
Lys
fleurs
historique
##quilibrium
Yoo
##ële
Faye
1488
Marguerite
805
Mighty
Hierarchy
731
Reus
##bten
##zame
oldest
extant
manuscript
1397
##ér
rare
##bliotheek
##¬
Spur
##cky
津
奥
林
匹
克
体
场
奧
體
場
À
Imagine
Anaheim
##ritt
##muje
光
院
movies
Kathy
Johns
prayer
driving
Sasha
Valerie
attended
Pinto
##web
##ssandra
Burlington
##frica
brother
roots
cgi
db
Shields
Spiegel
##ões
Cyprus
communist
presidency
elections
##χ
##νική
##ρεία
του
##λη
##νι
##σμού
στην
##ρική
##liad
##gios
##σμός
##τί
##δα
##τισμού
##μματα
Νέα
Ζ
##cto
Οι
Ε
##νε
##يون
##اني
في
مصر
##φορά
της
στο
Β΄
Παγκόσμιο
##λε
##μο
##ρχαία
##τος
Eve
##ssis
Motiv
##ecken
Teacher
Hartley
##neg
Tulsa
Levin
Deborah
##nár
E2
Darstellung
##nsä
version
Patent
publicat
##uska
Paso
troch
##hore
П
##ээ
##кин
##nere
Да
##льне
##чен
Susana
##latura
span
Elite
Baltic
Senators
Señor
Gottfried
Bunker
Seal
##arle
Encore
Thorpe
Cheyenne
reprise
Done
##mick
##ulations
Yukon
Northwest
##heur
saber
Soto
Blut
theatrical
played
theaters
##izing
90°
Chihuahua
##agos
Pacífico
Amos
animated
extrem
assume
songwriter
taste
latim
Roses
Quartet
Swing
Sings
Hawaiian
losing
##ctural
watch
girls
Judy
Garland
Willow
Motown
Dancing
Marley
Beats
Sounds
Loop
Stick
Cream
magazines
Mackenzie
actual
plain
##asca
volunteer
##bros
##ostas
¹
##tendo
farmer
favorite
enjoy
days
Winnipeg
Malone
Halifax
Manitoba
服
部
半
鬼
槍
##lux
##copa
##yden
1682
##vallen
##gten
##ën
protesta
Catharina
##gegeven
##jf
haar
##lingen
altijd
zouden
bez
##eet
Nouvelles
##itati
Methods
2553
##fried
##forschung
Auflage
why
much
look
weak
Qaeda
Laden
##zzare
##ứng
vị
lộ
##ột
afro
##sts
hoch
##tteri
##llidae
##chste
followed
amount
percentage
Belgium
Located
providing
fields
founded
result
entities
tarp
##fond
→
##elling
Jobs
Melville
Alicia
Guggenheim
Mirror
reales
tells
officials
mln
Howell
Fenerbahçe
##iş
Buckley
Conservative
Kendall
##zell
Ranking
headquarters
Cleveland
##vela
kills
Connie
##into
saan
##nnen
brevi
viri
planta
acido
dne
Rothschild
##boek
##hauer
##р
##άριο
##ário
Stari
Б
##не
Књига
Становништво
у
##пор
пре
##глед
броја
становника
подаци
по
насељима
Републички
завод
за
статистику
Под
##гор
##ица
се
##п
##те
##мбар
COBISS
Ludovic
Sabha
##ndt
Rostock
Vorpommern
1323
##bahnhof
Flughafen
Mohr
鉄
雄
##laska
singular
10000
##eping
Prato
Melvin
Björk
##ckman
##olle
Dartmouth
Hanover
Ivy
Americana
Adele
compiled
##dams
##twie
Pamela
Borough
1980s
Brick
##erici
##nnie
Sundance
Hammond
Geological
Meteor
Jamaica
cappella
##sland
Transvaal
##heiro
##vim
FAA
##antes
Administrative
CFA
##oration
Pearson
##eson
Dominion
##ghton
Adrien
Clarkson
Monarchy
Insight
Officers
promotion
received
Cuando
Cuban
##amed
##bito
Biographie
Attorney
Rasmussen
638
António
##derd
Ginger
Nauru
1°
Eduardo
Ortega
##ги
##про
##vist
отдел
##тации
и
про
##па
##ган
##ды
Brecht
3166
elements
##LD
VP
Acoustic
canal
important
##quía
##pán
##ítulo
amended
dated
##izia
Dewey
043
surviving
odd
Dreams
Cappella
1472
##dotti
拳
##âu
racial
keyboards
Countdown
##pland
##äs
Olsson
##stiti
Rimini
popolo
##olus
##sans
1655
Sanz
Montserrat
##sting
inch
##poon
Burroughs
##cisa
##zine
Nell
##orter
Boden
Gallen
##rgau
##enau
province
territory
Border
422
agreed
originated
variant
argued
linguistic
terms
colour
centre
defensive
tyre
prac
Fowler
travelled
ballot
truck
##oline
petrol
Edit
Beginn
##kog
5°
stala
Cramer
##cih
Dylan
fé
Emperador
akik
##ôme
Reflections
ligne
##sible
filmin
Flags
Prieto
²
##éni
Togo
098
João
Brésil
##passe
##claves
##mico
planning
architect
##nini
##èis
##jst
##riam
##affe
rica
##atge
continued
listening
##gee
##izm
Prior
Wanna
Asylum
Keep
hosted
Plymouth
keeps
Estes
Horton
##tko
Quantum
##tee
Hunger
Quinn
##xpected
Buffy
garage
fill
##nks
Townshend
Halen
##ohet
##cna
Franken
Bonnie
GMA
Ulysses
Gouverneur
##lmer
Marines
Geneviève
Offenbach
Dále
Í
##pá
##ána
##áy
Há
##tail
Sterne
managers
clerk
toe
Antarctic
##cism
##kiz
possession
##cist
##mentali
Dalí
Gabriele
gift
##cover
##unted
##iration
Problems
disorder
treatment
gathering
tereny
Embassy
dreams
Sculpture
pride
couldn
##icas
boat
13th
LOVE
7th
11th
9th
city
alive
##biti
editions
egg
pieces
exhibition
restaurant
Intercontinental
##dess
Zeus
Hermes
##curio
Ares
statue
Consulta
plate
collection
contact
Remote
fera
FN
##nded
Ал
##да
mise
##µ
aerial
Fungi
##usto
Daly
859
Helene
Jameson
##нск
840
Coupe
bachelor
Witness
Reports
Nürnberg
Comment
Zimmer
anchor
wei
##tanti
register
sono
Danish
Fédération
##рный
##ely
##phalus
##hips
##fang
Laurie
CJ
tawo
Kanye
##orem
Value
##vā
Mathematics
##uchy
Rolle
∞
ƒ
punishment
##ssen
rankings
##bric
##uré
##stina
1046
Fluminense
Trail
trail
Marke
piso
##kii
resident
dramaturg
syne
Symposium
scholar
secretari
Paterson
Mesa
Ню
##рб
Banque
CK
狄
達
Schumacher
OECD
Amphibian
boa
Greene
spectacle
costa
Fauna
##phie
##toka
nostri
deki
posto
hann
##pelt
unico
1328
Usana
##leten
##gaben
pret
##isent
Ancak
##ERO
Bates
Trends
ich
##niec
Vinyl
##ometa
Carol
Does
investors
Sylvester
##cche
opens
today
sheet
Ivana
watu
Architects
##llino
romano
##uun
administrative
indicato
alternative
096
Falls
##galom
035
472
##lede
nde
##oons
Edmonton
Caldwell
BBS
##éral
##FL
##pulse
Hubbard
Gilmour
##ènement
##ège
communauté
Normandie
Clarence
Seminary
Méditerranée
##ération
Arras
urbaine
##unen
Orten
##èm
öz
œ
Bundestag
##nym
##viation
que
Centers
politically
Marjorie
Sexual
primary
third
Geschlecht
##mée
dritte
##phile
Twentieth
question
allies
##raven
##inio
same
##zyka
periodo
immune
attraction
entrepreneur
modules
오
##승
봉
##순
seun
Soon
syarikat
##tku
possibility
turning
violent
though
hope
does
supporting
conspiracy
muzik
##jini
##piya
##vare
Epic
##lante
##hrax
##ylus
میدان
امام
شاه
fram
Ensemble
Би
##је
##ло
##ље
Н
##ик
##ши
##ћ
Ул
##ци
##њ
pasur
bland
##odni
##śli
##tów
##ët
##skie
##hje
##ntre
##afdeling
Assistent
Acer
coffee
Elmer
Louisville
##prey
Ол
##ёк
##мин
Celsius
Prescott
Counties
##у
##льный
Мы
1785
Québec
Qué
##vereignty
Pariz
Dumont
Jessie
Español
##esto
##parecido
##este
breed
nest
Schmid
Papst
##schicht
neues
Zeit
##وح
الدم
Ιωάννης
##κή
##ês
##ên
Χ
##σο
##ας
895
Galileo
Galilei
1599
1585
##ellus
Collegium
1610
Barclay
Franciscus
1611
##lesia
1615
Catarina
citing
##alogy
1503
Chancellor
classic
Monmouth
1525
Worms
Martini
Actes
Acts
charity
Dialogue
##sies
##bibliothek
1539
kept
##eht
Belgian
Festivals
collect
Midlands
Jefferson
Heads
##lide
Orte
俊
濤
##diso
Carlton
##itto
Rancho
##coming
princes
##erated
frequently
questions
FAQ
autónoma
Canberra
Brasília
Distrito
Rojas
직
##할
##시
ŭ
특
##별
chemins
Perancis
##technik
##verkehr
Kapitel
##ulsion
##cked
vinyl
Herrmann
##mbling
Killers
##eski
Том
##мот
##JR
Lyle
##dach
У
##чный
Dne
##mile
##øder
##زم
772
##vde
##vom
##biq
ish
##gation
##nsk
В
##ил
##ю
Bliss
Hann
Brooks
Farbe
##wyd
Deportes
Bingham
Observer
soi
libr
bli
fala
##tenu
##sett
Sb
Arten
grade
##®
##iwal
##menade
Amnesty
Norwegian
Unidad
##cionar
##malt
Katrina
accuse
civilians
Haar
##posten
offensive
##skog
Kristiania
patent
##stående
opp
år
##styret
tale
dient
uitgezonden
politiek
##tings
Regel
crew
807
1647
exit
permit
borde
calling
##erda
kt
##BL
##kaa
Dessa
Alus
石
登
verbo
##rgen
dui
Kleine
##jne
ogen
sluit
vision
##putati
浅
長
政
1573
##ôg
Lage
nigra
vitro
##bamba
Oru
Potosí
517
gallo
##rija
Amazonas
Cartier
Junction
##itud
datum
Datum
altitud
##oksia
بي
##جم
##يل
Damascus
iam
Perth
##ienne
##vinen
Л
##уб
##ян
##ская
##ступ
##ная
групп
##иро
##вка
##chenko
Gazeta
mieli
Quick
jeg
##pler
##iples
cost
##ulata
488
##слав
##еше
##љ
Serbian
Radical
showing
##čilo
##tnik
estados
##partiet
##tles
Français
centrum
Associazione
Michal
##itet
##vd
Biografie
tegen
Elsevier
지
##아
##이
Karls
##bergs
Västra
Indians
Göteborg
gained
titles
independence
Morocco
narra
lana
rouge
##portant
Rojo
Seed
Leaf
venir
998
sangre
oral
##namn
vulnerable
Cities
Петър
Стефан
##янов
tension
Falkland
toa
##logische
Officier
Cea
Gaelic
Dunlop
republiken
IRA
Donovan
##lased
##uant
##sfeld
##gast
##خر
Buna
##brug
##backer
1659
alla
Appleton
infanterie
##ег
tweede
klasse
Confederation
Airborne
##nette
Bangor
joint
845
districts
##aron
tijdschrift
##dose
Headquarters
##ánu
##pion
Libertad
feel
pure
##alse
##rych
Warning
Dickinson
##dlem
##hique
Noir
éditions
3e
édition
Strom
Groove
##garde
Switch
Mundi
Crimson
Cowboys
##river
Cerro
Oswald
##eiz
##rál
Hungarian
hung
sababu
McLean
hee
soon
Gervais
Krone
##estas
Kraft
division
Faber
emerging
ties
sell
签
约
与
悔
Maple
Agence
Presse
885
Byrd
legislative
Grimaldi
novu
1651
##graphia
libri
##logia
##nelli
##oidea
Soyuz
名
探
偵
夢
件
ノ
##ート
##し
romani
723
klima
##nicu
forty
Barker
Liguria
Aeronautical
##gator
##yida
Đà
##ạt
Lâm
Tây
Nguyên
##sega
gola
##perator
##ומר
##ון
##ام
##ري
##لس
##رة
جبال
##reia
Elisa
##ukat
##aes
8°
##langer
Ilha
Ludvig
##diger
Pauly
Although
showed
referring
example
hag
Bild
Maps
1154
ô
ê
Matthias
##ckel
Dietrich
##عي
782
Prophet
proportion
clay
piece
missing
leaves
Evidence
slightly
damaged
ended
resulted
##initive
absence
however
：
##يا
Piotr
Bethlehem
735
##fanya
##פ
##agg
##א
##ḫ
propri
##χία
ὲ
##γή
##λου
Nowa
width
694
maniera
##wear
Waiting
##ipun
Lorient
##حر
##aniya
##غا
dust
##با
##ilib
1383
boarding
##jken
##tenant
##ieren
Ridder
Oko
1425
##baar
##loog
Jaan
##iem
scored
Brenda
Senna
##asure
Certificate
issu
##cable
documentary
Documentary
Tommaso
Physiology
sciences
Meyers
Elisabet
Egli
Alvarado
radiation
Thirty
Translated
Cassandra
##hael
Battery
Astor
Dalton
##nery
Joaquin
##inni
Pike
ABBA
Hydrogen
premiere
Cindy
Daryl
supports
778
한
##밭
transportation
Vicenza
Pressure
Genesis
Fighters
##zni
Staffel
Happiness
Closer
Changes
Direction
Bottom
Somebody
Petr
Čech
##deus
korte
gemeente
Drie
Drei
Trois
Vier
##toren
Sailor
##phorus
Verein
Evangelische
Gardner
moes
tanan
##arshi
##أس
أن
##سا
بني
##عب
تأليف
السيد
##شر
##يف
حسن
##اسي
##ها
##شم
1657
531
##سب
أسرة
آل
##وز
##اسية
##يد
ز
حسين
كما
ذكر
كتاب
تاريخ
##ضر
##موت
العام
##قاد
##طر
##kzij
Collier
translated
Classical
Booth
Essential
##dako
Ballet
Annotated
Nordisk
familj
Violet
##anos
Caucasus
pistola
IMDB
Operations
Derbyshire
images
##tette
##wice
Goldene
want
documenti
Cheney
favour
upcoming
Shortly
terrible
Sophie
##pted
Carlyle
##plus
##kl
voted
Silent
Pound
premier
Garda
Stadt
Vieux
Caribbean
Muñoz
##än
##andra
##hoven
internationale
recht
##inata
Praga
Estat
1794
1493
murs
##raaf
##kben
##lord
Marshal
Rommel
Somme
##chend
Typhoon
Ramsay
sorti
blocks
Goose
Wight
##ngene
M4
##شي
##بان
##يبا
arabes
indien
hafi
Rudolph
Acosta
Projekt
861
ਅ
##ੰ
##ਮ
##੍
##ਰ
##ਿਤ
##ਸਰ
##مز
##ّل
##في
##افق
##دي
870
র
##বী
##ং
##ীত
##rcio
Souza
##élio
##vares
##ιν
shut
marche
activist
##operative
principles
##bien
RSSSF
Phong
##ông
##vane
##sorte
disaster
prevention
warning
emergency
devine
berre
##jot
##moin
Leadership
solide
sociali
significant
participat
extended
##eben
##ttle
written
complet
##hologie
naturelle
générale
particulière
reptiles
roku
injection
export
rally
exterior
optional
exclusive
科
灣
印
尼
僑
聯
誼
會
歸
noin
##مت
##حن
##جا
##دلة
##مد
A7
pseudonym
excellent
performs
stands
dramatic
##bining
impressive
##onie
muscular
recalled
##laste
putting
interests
really
wanted
didn
##citing
epic
those
##fest
footage
Broken
Eagles
Almost
Duty
Carry
going
whole
pretty
overseas
seeing
everyone
else
playing
##wards
write
reveal
Brook
Streets
Wicked
Fountain
##raphic
##nition
breit
##riva
Android
亀
Piccolo
baseball
fille
unity
ordained
##owed
tien
racing
Bean
Alec
##cony
Jaén
Altenburg
##efficient
Selv
Steffen
##macher
##جمع
##نس
##حديد
##بر
##وج
##بل
Bound
interim
structural
Semana
Monumento
##ifs
Moderne
arts
fraction
crystal
unlike
##illes
Serrano
Cuenca
Escuela
Padre
##arja
Borja
##dero
Cantón
##اط
geus
##ék
meur
nende
jeung
##éka
Indonésia
téh
##jén
ogé
pikeun
éta
##réa
##sinde
##ysta
##blast
raio
sels
##odzi
##enska
##rodne
Minsk
294
##bij
##aos
HMS
Territorium
Boga
##nella
Emden
##grade
Divisione
Bianco
tracks
##latt
rapper
mastering
Mỹ
Đình
##rédit
Forte
MUSIC
publish
ACM
김
##민
##충
##갑
##방
##경
##rchen
1604
상
##락
##군
洛
충
忠
##pts
##pna
opis
##lades
##erea
Linha
Aérea
Baptista
Alves
Ayala
##mation
2000s
dle
NME
AllMusic
reviews
sorte
Stay
airline
served
own
##posti
##sday
anyone
##rrow
Wake
programming
spesie
##cae
segun
##celle
##ía
Basque
Wakefield
Smiths
bei
pairs
Hochschule
##önt
Almería
Unión
licence
chairman
##kyn
郑
筱
萸
sog
sui
insect
rode
##uir
Bourne
users
plc
Caledonia
##uelle
telenovela
grid
##NR
Kilometer
##³
simplified
##monie
Kunst
ward
credited
##verdi
Atkins
争
nazi
bairro
Peterborough
Neve
Maccabi
##lken
Representative
Ligi
##doen
Bezirk
##chaft
Barrio
Barangay
barrio
بلدية
بل
بخش
استان
##ھا
شهرستان
régional
##miglia
Arco
秦
叔
琼
胡
壮
##æt
##forening
##øster
##dahl
Jensen
Olsen
##iche
##véd
Nordrhein
Erie
Stockton
Peugeot
##lni
##gare
##gage
facility
Facility
backed
housing
loan
##edito
origina
Comune
##ances
FCC
hire
Fins
##gton
##wark
##sworth
##blem
boss
Theft
Forel
Umberto
##fio
García
Jenna
taip
Stark
storyline
armor
ponto
Quiet
Riot
GameSpot
##echte
judiciaire
él
township
županija
županije
##нт
##они
parroquia
jefe
político
alcalde
##cejo
pressi
municipios
presidente
authors
represent
vehicles
trucks
buses
motorcycle
608
rates
obtained
adding
vehicle
Summary
stored
##ponent
everything
better
defined
functions
module
Lungsod
##nect
Montero
mountain
V6
##dden
Meier
##FK
##tream
secondary
Impact
continu
recovery
discipline
Berne
Festa
##nele
yn
##utta
##ãs
##üp
mã
##avat
##tatt
##svar
doctrine
treat
Tibetan
##tsen
ś
1658
idea
Buddhist
1321
##āna
##ūt
##ālā
##ṃ
##āda
##nent
Poetry
bonds
##pene
##making
refugees
##rive
##tax
Solaris
DNS
themes
agent
conversation
tasks
Torpedo
Sander
T2
##macht
##vaart
##ticu
Blackmore
encounter
diverse
##sade
##म्
##ब
##िका
##ovanie
Dix
##coach
##bauer
Bonner
Republican
secretary
Primary
directors
steep
##lech
جعفر
ابن
طالب
##كة
Oakland
##cista
Giulio
##nemer
escort
cruise
During
Dienst
licht
klein
##esco
##ntic
##ruit
fine
##trici
##alle
##iness
##uada
noto
marine
gear
roka
##vida
Krieg
Jagger
moon
##reda
ван
##енко
##оле
Along
actors
##chau
##wimmer
Connell
##ugar
Judd
Simmons
##innon
##reich
Collette
Netflix
##éal
Petty
Javier
Mónica
González
##cutivo
Simón
Bolívar
PGA
##arcia
forms
##rupted
Hindenburg
##phila
francs
onde
##lette
機
動
士
ガ
##ダム
##gall
Durand
fred
Infinite
Fury
Renée
##wege
Maguire
##enze
Kjell
Kirke
##teten
Yeah
##friend
##ents
##ktet
1288
lever
strike
exercise
money
Línea
Erika
Vichy
Résistance
Comité
départemental
Libération
hiver
radical
##éry
Édouard
Tunnel
Resistance
armée
##rète
Auvergne
Fernanda
##erad
Laval
architectural
Corpo
##tito
##rine
jury
outra
##upen
Outra
Koblenz
pour
Mouvement
##ulaire
était
مسجد
Gales
1676
##nish
kareh
pide
##nici
fordi
##icular
8D
##iisi
sorta
Blanco
leste
##cted
##crit
protect
barrier
##ossen
##hanol
685
carrier
##station
acids
seco
cuisine
Schwerin
Hyundai
results
Egon
##ziali
##stische
Einheit
##spartei
##taine
Saarbrücken
Schröder
Merkel
Licht
developer
Cumberland
##bisch
monia
##lerin
##ldean
Hagen
078
Ministerpräsident
CSU
Huber
##ctica
Settlement
##grafisk
Uwe
Tiefe
##minister
Verkehr
##wicklung
##emmin
च
##ं
##जी
##वी
Katowice
##schule
Mechanical
TITAN
##edig
Gareth
Forrest
1668
1678
##liet
particle
尉
迟
德
恭
鄂
mica
linking
Connection
##anha
Policy
nationalist
understanding
compete
Internationalis
Higher
Countries
calls
schools
dobra
##mner
##usement
##show
906
altitude
##ڤ
##اتي
را
882
islands
##ekto
##mete
Wrong
##haven
वह
キ
##ディ
##ハ
##ウス
フ
##ルー
##ツ
##ックス
##ュース
##kkus
##ckt
カ
##テル
館
##neo
##ammen
##minente
送
仮
食
暮
れ
方
##direktor
##ministerium
Ruhr
##tl
joko
iria
Jugend
##uent
hostile
Jedan
##icie
USSR
KZ
tail
seven
liner
Climate
##ß
Allgemeine
Farben
Rosen
foren
##abteilung
##jä
Wehrmacht
Siedlung
Haupt
Standort
##arzt
##ths
##familien
##lager
Berthold
Scarlet
##romia
Forschung
##sgemeinschaft
labor
##zli
Stamm
##eiras
Fausto
##öcker
##graphs
Abteilung
Hauptmann
##schef
##loma
##éreo
≤
##spect
Christoph
##byli
travail
Würzburg
Speyer
809
Threatened
Eugenio
Hanau
1143
1303
##ühl
Innenstadt
Armee
Fraktion
##holders
##chter
Kinder
##dā
##→
tono
tais
dare
##bbed
communities
##pped
##ardo
kateri
Guadalcanal
Struggle
Offensive
soldiers
engagement
included
survivors
wound
whether
Clash
sources
tanks
[...]
