[PAD]
[unused1]
[unused2]
[unused3]
[unused4]
[unused5]
[unused6]
[unused7]
[unused8]
[unused9]
[unused10]
[unused11]
[unused12]
[unused13]
[unused14]
[unused15]
[unused16]
[unused17]
[unused18]
[unused19]
[unused20]
[unused21]
[unused22]
[unused23]
[unused24]
[unused25]
[unused26]
[unused27]
[unused28]
[unused29]
[unused30]
[unused31]
[unused32]
[unused33]
[unused34]
[unused35]
[unused36]
[unused37]
[unused38]
[unused39]
[unused40]
[unused41]
[unused42]
[unused43]
[unused44]
[unused45]
[unused46]
[unused47]
[unused48]
[unused49]
[unused50]
[unused51]
[unused52]
[unused53]
[unused54]
[unused55]
[unused56]
[unused57]
[unused58]
[unused59]
[unused60]
[unused61]
[unused62]
[unused63]
[unused64]
[unused65]
[unused66]
[unused67]
[unused68]
[unused69]
[unused70]
[unused71]
[unused72]
[unused73]
[unused74]
[unused75]
[unused76]
[unused77]
[unused78]
[unused79]
[unused80]
[unused81]
[unused82]
[unused83]
[unused84]
[unused85]
[unused86]
[unused87]
[unused88]
[unused89]
[unused90]
[unused91]
[unused92]
[unused93]
[unused94]
[unused95]
[unused96]
[unused97]
[unused98]
[unused99]
[UNK]
[CLS]
[SEP]
[MASK]
<S>
<T>
عبد
الملك
بن
م
##روان
أبو
ال
##ولي
##د
الحكم
أبي
##عا
##ص
أم
##ية
##قر
##شي
(
26
هـ
-
86
/
646
705
##م
)
##خل
##يفة
الخامس
من
خ
##لف
##اء
بني
و
##الم
##ؤسس
الثاني
ل
الدولة
##أم
##وية
.
##حلي
ع
##وي
##س
2002
بين
ا
##ق
##وط
والا
##نت
##ح
##ار
الطبعة
الأولى
القاهرة
مصر
سو
##بر
##لر
##نشر
صفحة
25
ولد
في
المدينة
##ت
##فق
ه
ها
علوم
الدين
،
كان
قبل
تو
##لي
##خلاف
##ة
اش
##ته
##ر
با
##ل
##علم
##ال
##عب
##ادة
أحد
ف
##قه
##أ
##رب
##عة
قال
##عم
##ش
عن
##زن
##اد
:
«
أربعة
سعيد
##مس
##يب
##عر
##وة
##ز
##بي
##قب
##ي
##صة
ذ
##ؤ
»
ابن
ق
##يم
##جو
##زية
تحقيق
أحمد
السلام
1418
1997
إ
##علام
الموقع
##ين
ر
##ب
العالمي
##ن
الجزء
الأول
بيروت
لبنان
شركة
دار
##رق
399
است
##لم
بعد
سنة
65
##مو
##افق
684
حكم
دولة
الإسلامية
واحد
##ًا
عشر
عام
ت
##سل
وقت
كانت
##فت
##ض
##طر
##ابات
##قسام
##ات
##ع
##صف
ب
##كو
##فة
أن
##صار
##حسين
ي
##ون
##قص
##ير
##ذ
معركة
ك
##لاء
عندما
##اض
##اب
أنحاء
بلاد
العالم
الإسلامي
موت
يزيد
مع
##اوية
##رج
ثورة
##تو
5
##بيع
منطقة
عين
##ورد
##طاع
##قضاء
على
هم
ما
إن
أ
##ُ
##خم
##دت
حتى
##ختار
##ث
##قف
##عار
يا
##ثار
##ا
##ط
##دم
أكثر
##قع
ان
##صر
لكن
##فى
##وا
##صلة
##تال
##است
قتل
##إ
##خ
##ضا
تحت
س
##لطة
##جاز
##قية
المسلمين
إلا
دمشق
##ج
##ء
الأردن
##دين
الله
أدى
ز
##وال
خطر
إلى
##من
##اف
##سة
##مة
##خرج
العراق
##ان
دي
##جا
##ثل
##يق
72
ثم
##رسال
جيش
قيادة
##جاج
يوسف
##واجه
##اصر
##كة
##ى
##قتل
##خول
سي
73
##ٰ
##ذا
##تهت
خلاف
##حد
ولاية
أصبح
##شر
##عي
##وحيد
1406
1985
الأحداث
التي
سب
##قت
##مه
ابتدا
##ً
##تن
عثمان
الثانية
سوريا
##فكر
202
##وار
##َّ
##لب
صفر
قائد
لم
##ارب
سلسلة
طويلة
##مع
##ارك
دا
##مت
ثلاث
سنوات
تم
##كن
##غلب
##زار
##قة
78
أمر
##بدأ
عمليات
##صد
##رية
وتم
عدة
علي
##تب
الأمر
لا
##بن
قامت
الرحمن
81
##مرت
83
بو
##جم
##اج
الثورة
هر
##وب
##ركة
##ستان
يكن
ن
##شا
كبير
##وح
جب
##هة
ظل
##حات
أما
##جب
##طية
قد
##نص
##مر
##دة
وب
##سبب
عقد
##مبر
##اطور
##طي
جس
##يان
##اه
79
689
##عو
##ام
حين
##فر
##يقية
##حور
##جد
##ِ
##ّ
إذ
##واعد
##سا
##حل
الشمالي
##قائد
ح
##سان
##نع
##مان
##غ
##يل
##رط
##نة
##كا
##هن
##ه
##يا
##ما
1987
الشام
صدر
الإسلام
طلا
208
مل
##يئة
##اعات
##ورات
##حر
##خذ
ج
##هد
الرغم
ذلك
##ذكر
كتب
التاريخ
عدد
أهم
##ك
أول
##نا
##هب
إس
##لام
77
##ست
##ناء
##افة
##صور
##رم
##وز
الملكية
الدينية
المسيحية
##حت
##مل
##دو
##اوي
##فا
##رس
العربية
##عد
بدأ
##ينة
حسين
##قوم
##أي
##لو
##جية
الاجتماعية
تونس
##طب
الرسمي
الجمهورية
##تون
##سية
35
##ضافة
##يام
##هود
كبيرة
##ارة
##بناء
قام
بناء
##عبة
##ري
مسجد
##بة
##خر
##تي
##اس
الشمال
##يقي
هو
شمس
كل
مرة
غ
##هر
##لك
##ضر
##نان
##زي
##در
إلي
##دن
را
##بع
##يع
##فوذ
ض
##عف
##اي
##عت
##قال
##ليف
##سيطرة
##دخل
##ول
العزيز
##شل
توفي
##ئش
بنت
##غير
##شية
لي
##في
بر
##وف
##نس
1982
##سب
الثالثة
##ارف
173
##اط
##حي
يوم
حياة
النبي
محمد
نحو
سن
##بق
##جة
##ود
##اع
ص
##ابة
رسول
وصل
8
أغسطس
2016
##فان
هي
ذات
السنة
ثاني
##مي
اسم
أبناء
##ظم
##دار
العسكرية
عصر
##ؤتمر
علم
د
صالح
حسن
##شم
1434
2013
كلية
##تربية
جامعة
##كر
##يت
4
الرجال
##قرب
##قصر
##سن
##انه
##شبكة
##ذهب
##ف
##وه
##فل
##نف
يد
##باب
راج
##اعد
1413
1993
##قاب
##أس
##ماء
##لق
##جلد
الرياض
السعودية
74
السيد
1990
##سماء
العرب
العلم
##لا
##يين
121
اللون
ليس
##لن
##بد
##بين
##عين
##قي
##حية
##زه
##ها
##از
##مين
المسجد
التالي
##آ
##افع
لقد
ش
##شد
كتاب
الشعب
جا
##لس
##فضل
ذا
حد
##يث
##ني
شعر
رو
الحديث
ومع
##يرة
##ولا
بكر
##ماع
التابع
##خار
الأدب
##فرد
##مام
خالد
##دان
##هم
حي
العربي
محمود
مه
##دي
##بول
##حب
##خط
1412
##صحاب
وفاة
السادس
مكتبة
262
263
كثير
##سم
الناس
##رو
##ثنين
العلماء
##صل
##جاب
عمر
##رير
##جري
##ليل
إبراهيم
1411
1991
##قد
93
##بو
##غو
##بار
عمرو
آ
##دب
هذا
##حسن
أمير
##خص
أربع
تر
##صال
إذا
حدث
##بشر
##ونة
##قول
##ذر
##طة
##ئ
مما
##حة
##وث
##قل
رقم
615
##4
##وس
##وعة
9
سياسي
منصب
##لى
عهد
عامل
##جر
##وان
##يد
ثابت
شارك
##جه
رأس
حمل
أرض
42
ضمن
الجيش
الذي
##زا
أفريقيا
##كل
فتح
##لول
علاقة
##لز
##سير
شكل
جي
يقول
الأرض
اليوم
1431
2010
دور
##كتب
العصر
16
فترة
أشهر
##ٍ
آخر
هذه
الفترة
بدأت
##حركات
##او
##ئة
تظهر
##طح
؛
ظهرت
##طالب
أعلن
استقلال
##تس
##حرك
##تم
##سو
##سر
##قوى
##قبل
##فس
##سكر
##يًا
الحزب
اليمن
##يلة
##ذة
##بل
##تش
##دد
##حف
##اظ
ام
انتقال
##سي
##أهل
##عيم
##ضح
##اك
##يس
##فه
مكان
السياسية
مركز
##تقدم
خلال
حيث
##اغ
صورة
غير
رسم
كما
##عوة
القوة
أي
##فرق
كلمة
آر
ثلاثة
##رش
##حين
وما
بعض
##قاد
##ساند
فريق
ث
##دا
##ظ
##وخ
##كب
##ره
##عظم
##خت
##رين
36
##تر
##ضية
##عهد
تكون
انتقل
##بيت
##اني
##روج
##غا
راه
هناك
##ضم
##شير
##الي
##زف
##يه
وأن
##فين
##وض
##لح
انه
##باء
إخراج
##علان
شهر
64
##قى
##جمع
به
فلم
جاء
##يو
فلسطين
##وق
1425
2005
##سياسة
##طل
##اسي
41
661
334
956
عمان
##الت
75
السياسي
والد
##مارة
نائب
روح
زن
##با
##بقى
##ريب
إدارة
ولم
##ساعدة
##وم
##خارج
عند
##هاب
##فتح
رمضان
##حقق
هدف
إعادة
سان
عدم
قدر
##عتبر
العهد
##رور
##ورة
الآن
سه
ط
##وش
تاريخ
السابع
##ئس
62
##و
##وضع
مختلف
كانوا
##لة
يعد
الذين
أو
##زل
##جتمع
##ختلف
اختلاف
حول
مثل
اب
##زم
##يعة
1429
2008
عوامل
##دها
##يار
##رفة
704
بداية
##قسم
فئة
الحركة
##عل
##جماعة
أكبر
موسم
68
##رت
##فع
لو
طالب
المعروف
باب
##حن
##فية
##امة
##قوب
الجزيرة
##تا
##تاب
##عمل
##يح
إقليم
##اً
##ضة
##لت
##تصل
البعض
وضع
خط
##عقد
##ئاسة
سليمان
##رد
دراسة
##سين
##سعودي
سعد
##مد
##ئن
##َ
قوة
##نش
##راد
##وج
##بط
##كشف
الوقت
أهل
البلاد
أثناء
##عداد
شخصية
##ثر
شد
##توجه
فرق
##تين
##ور
##أخذ
##اخ
##تل
##خبار
##حاولة
##قاء
##جيل
فكرة
##يك
##افية
الحرب
لأن
##فض
##حم
##اصل
نهر
##بعد
المناطق
##تج
##رفت
الطريق
مدينة
##ياء
عرض
##قات
##نو
##عرض
##زو
الغربي
##وع
##نية
##صالح
تعداد
ألف
##جي
آل
حرب
##اح
أيام
جن
##بال
الثالث
##فاع
##هور
حركة
17
18
##داً
تا
##لان
##سار
##طلب
وصف
##صول
تلك
##نصر
##ضي
قصة
أخرى
نسبت
##يز
##كم
رفع
##طور
##فرقة
ظهر
توجه
العمل
ضد
أساس
دون
يكون
أفضل
أعمال
##أمور
تكن
##ودة
العشرين
##راء
##بان
##جن
فعل
##ادي
##ادر
##ادات
شخص
##طلق
لقب
##قا
##قبائل
اليمنية
قبيلة
##شت
##رسل
##مار
##ينيا
##جان
##حكم
##اول
بالا
##انس
رغم
قم
سر
مهمة
##حرم
##يش
الكثير
##بت
##دأ
##حساس
##تها
##را
قدم
##اجة
##ضى
##جع
مجمع
خبر
نفس
حوالي
##ألف
مسلم
عقب
##مير
##كون
##اري
##هير
طريق
الشرقية
وقعت
أواخر
63
حل
##ريد
##قطع
##عيد
حسب
أوائل
##نج
14
##صرف
بل
##كين
##موت
19
أبريل
دان
##سع
##قليم
يؤدي
##قاط
النظام
كامل
##شار
##قيم
##شام
رجل
##إن
بيت
##خفض
بلدة
جعل
##قدمة
##كاتب
##يج
##بية
##عاء
##ئي
##ْ
رد
##غل
##اتب
##ضرب
فان
ثبت
رجال
ظ
##بيا
##مكان
قصر
##ماد
الآخر
بلغ
وار
##يمة
عاد
بشر
البداية
##نهاية
دخل
إحدى
##داء
29
سبب
##عيين
##امي
##خته
فن
##صب
قوم
##شة
##جعل
خمس
##بون
##مز
##جارة
تقع
##حو
##وك
جو
##بح
جميع
##له
عشرة
##بيب
##نه
أولاد
ساعة
حق
يلعب
##لمان
##عبد
كم
##ظر
فإن
وسلم
عمل
يبلغ
فرض
رضا
##جل
##كية
بي
##صير
ستة
692
##يات
##رف
##طول
الجامعة
158
##اعة
80
فرقة
##فاء
الاسم
الحسن
10
الإمام
حال
##ثبت
##هان
نظر
##ركات
##ورية
خارج
نطاق
حالة
##اسة
##حال
نتيجة
##راع
داخل
##عود
##شهر
##شأ
##دات
210
##زر
العسكري
نشر
##مال
اتفاق
أصبحت
قاعدة
##عاد
##أصبح
##شكل
##باشر
##ظهر
##دون
تن
نقطة
##طلاق
76
##خان
العراقية
قادر
##وى
##طار
شب
عبر
##قام
##حول
##ارية
طلب
البحرين
مناطق
##يط
الشرقي
##شبه
##اش
##ئر
الشكل
##قط
قائمة
##ند
الكبير
##كي
الخارجية
##ضاء
ملك
##اكم
##اقل
أمام
يتم
المنطقة
##جبل
##رة
مطار
مدن
##قرار
العمليات
قوات
##لوب
##درة
شيء
##خراج
##هما
##ستر
##اق
##كرة
82
##حمل
##راح
##اة
##طاء
##تبر
##عتمد
النفس
##ويل
##صاب
##نز
الفريق
##أتي
##طعام
فقد
##شان
##زات
فرد
تحمل
مجموعة
##عكس
##ضع
##ماني
##رر
##قيام
واحدة
##تيب
##كز
##جوم
##زام
نظام
##ترك
فوق
##رح
موقع
ـ
##عات
28
أكتوبر
الطب
حضور
ظهور
منذ
##لية
اس
##طا
##تبة
##برز
الرئيس
60
زيادة
##لد
##ختيار
##تور
##رضا
##تهم
بينما
##قرر
12
ولا
##بطال
##عودة
##دئ
##رض
##لات
##فاق
##صبح
مجلس
##جلس
المجلس
##ديو
##جلة
الآثار
50
70
670
679
2012
##حث
العدد
1
##عامل
##وات
##عادة
##فيذ
لذا
فقط
العاصمة
##ئل
##ِي
##لال
قطر
وزارة
359
##ئه
##رات
##وجه
##طرة
بطولة
الدفاع
وفي
##ازن
##انية
مسعود
##ائف
32
33
##سمح
##لاح
شرق
##تمام
##الجة
##ضايا
الداخلية
العام
المرحلة
خراسان
خاصة
تابع
11
جديد
الشرق
##بس
##أحد
##دهم
خمسة
##هداف
دفع
84
##لعة
##غي
##ائر
85
##سعة
123
آثار
##قارنة
316
العلاقات
جبال
##انو
##طات
حدود
الجغرافي
##ثير
جنوب
##شن
##ارات
##مرة
وفق
الحالي
جديدة
##لل
##شاكل
##قدر
قطع
##اث
##صيل
مقابل
الأراضي
الدول
##تان
##يري
الإمبراطورية
##طق
طور
آسيا
##صغر
##سور
71
نو
##ايا
##جاه
##رغ
##دل
##قود
جهة
##رع
##ونت
##اند
مرض
##يبا
##يلي
القوات
##نى
##امية
ذوي
##بنى
94
يقوم
##تائج
يمكن
الحدود
الغربية
الخامسة
مراحل
شمال
الحق
صاحب
الجديدة
##ران
69
688
##اهر
الكبرى
الرابع
##فات
##ائد
##طن
##طين
جزيرة
كثيرة
##ظيم
ساحل
در
##نمو
693
##وت
##ثلة
##راب
##لغ
##ٌ
##سه
عاصمة
القديمة
مصدر
##قاومة
السابق
خلق
البحر
يسمى
##ورا
##جميع
وادي
##داد
##حق
المغرب
الجزائر
مؤسسة
##زيع
21
تصل
##عى
تحدث
##صادر
التاريخية
##دعم
الشخص
##ثال
##اذ
رسالة
ذو
##قان
1426
الدراسات
العليا
الوطنية
##فعل
صوت
أجل
##زان
نصب
##ئم
تقدم
##ليم
مخالف
أيضًا
##زين
##رى
يقدر
##كامل
ذكر
نسل
##تى
البلدان
إسماعيل
حضرت
جمع
يعرف
##زة
##صدر
##رون
##قارب
##ارا
##روف
##احل
##رارة
##لين
##سد
##نين
جلد
##كذا
##يف
##ينا
فقال
العمر
1415
والستون
171
172
منتصف
الشيخ
##خضر
نصف
##سته
13
##زوج
خاص
##شؤون
الإدارة
نه
تطوير
##ؤسسات
##صلاح
الجهاز
##حركة
##كان
رئيس
دو
##ائل
##ده
##ساس
وجود
از
##هات
جانب
##به
1404
1983
الكتب
289
##خدم
##رتبط
##غط
##تطور
تنظيم
منصور
مستقل
الحكومية
الأمير
مدل
##صنع
##جات
المستوى
##اية
الدور
صناعة
نقل
##يال
الطرق
دل
##الة
تحديد
عديدة
طول
الأشخاص
منظمة
نظم
166
231
المالية
##غة
يقع
الأصليين
لغة
إب
##غال
##ائز
##جمة
مصطلح
##صاد
محل
##زد
اللغة
الكتاب
هؤلاء
الاطلاع
##مية
طبق
متن
عملية
##يون
منها
فارس
سجل
دفتر
امرأة
تسمى
87
124
7
سلطان
مجلة
##داب
##راف
66
شبكة
##قطاع
الاقتصادية
اقتصاد
##زراعة
أهمية
##وبة
إنتاج
%
##جمالي
##حليل
##روس
1992
##سات
القرى
##اون
46
مليون
##ولة
لدى
قيمة
فبلغ
تأثير
##تحدث
##ايات
135
##تقد
مدى
نقص
##يبة
##يدة
مقدار
##قصى
360
##0
720
متوسط
##اسب
250
300
1200
دره
الأوسط
1600
الأعلى
1800
686
التجارة
##صدار
تمت
##كيل
خدمات
##فن
##ادق
##اما
متعلق
##حلة
حجم
التجارية
دول
##عتماد
##راق
##برد
مرحلة
##جار
الخليج
نوع
##عزيز
الهند
إنشاء
##رخ
تستخدم
##شرف
الإنتاج
221
##فتتاح
##خصص
##صناعة
لازم
##طريقة
##بات
سكان
قناة
عامة
القرن
##جرة
تعد
##خة
الشخصية
قرار
##شكلة
##اطي
القدس
باللغة
قائم
دن
نقش
عرب
195
وزن
##رام
20
نسبة
96
يظهر
شريك
##نل
الصين
غرب
##حماية
##كات
مراد
37
أنواع
##نصف
السابقة
##ليد
مصطفى
2011
أمريكا
المعهد
أحداث
##دور
##رن
مختلفة
فوج
##دق
1407
العلمية
167
##رسة
##فصل
طريقة
مباشرة
##حكام
الخاصة
##كار
مايو
##اجد
أعلى
##حدد
115
118
فيما
##رجع
معروف
##خاص
النظر
##سوق
##طبيق
162
جهاز
الشرطة
##بش
##كس
##صوص
مارس
703
صلاح
واسعة
##عمال
الولايات
المدن
التابعة
##قسيم
169
175
196
201
عادة
الشعر
##شاعر
شاعر
##افر
الفن
##مثل
##عية
22
##ّه
##َّة
##عرف
##دية
##ونا
تعمل
##ظة
نزد
يعود
لعب
##غني
##أقل
الجديد
فإنه
##وني
للمعلومات
,
الهواء
2014
هند
149
النقل
##أفراد
التعليم
1428
2007
##الية
القرآن
الأسود
النقطة
علاج
البحث
##حياء
##نون
##اليا
##قياس
##ربة
النوع
نهاية
##اسية
##يدي
##اله
مجال
##اعي
##نات
120
133
جعفر
##ريم
##يخ
تل
##حيح
##زيد
##كد
6
بنا
685
691
##ندس
##صميم
العملية
##قدس
عالية
جائزة
##ضل
1421
جبل
213
صغيرة
##ذج
ضلع
الصغيرة
الرئيسي
يلي
مجموع
##ئرة
صنعت
##صاص
يوجد
مطلق
1432
44
جمال
وجه
##افت
زمان
ومن
##ساء
الثامن
309
694
المصري
آن
##ذاك
##ناصر
##قدم
تقوم
يحدث
وسط
بحث
واسع
الواقع
قرية
بات
أنها
ده
##شرة
الماضي
بغداد
معظم
702
355
##ائق
##فظ
العراقي
##دلة
##بيل
##تار
##جانب
##قابل
##خن
العالي
مساحة
مربع
##جامع
مساحت
سوق
##فقة
السكان
##حاد
الميلاد
##ئب
##حرية
الهجوم
المتوسط
##هدف
##قامة
##جتماعية
##دمة
##بطة
207
جزء
مهم
##ورو
1591
شبه
##احة
البحرية
##ماية
##ريق
##ارت
الفرنسي
##احية
باسم
##راضي
##يها
موارد
قسم
##ّل
##ِن
برنامج
بحيث
تمام
##تخدم
##غيل
##قنية
استخدام
يعمل
برامج
بأن
##ظمة
##تاد
##نيات
##شاركة
##ارد
"
##بيئة
Virtual
##ization
المعلومات
سبيل
المثال
القديم
موجود
##برامج
##وست
G
##h
os
##t
تعتبر
مناسب
##نظمة
المختلفة
الشركات
##خصصة
مواقع
##ترنت
##ياً
الشركة
تقديم
##وتر
##وري
##ئع
الألعاب
##لعاب
أجزاء
PV
##قبال
سواء
##شركة
Sun
##فتوحة
##x
##BSD
BT
##وام
X
##Y
##Z
2003
VM
##ware
تشير
انتشار
أقل
الكبيرة
##أجهزة
##زمة
##جراء
تتبع
المشروع
##سرعة
##فير
##سس
Machine
Manager
##M
VT
##يوم
##نائي
حاليا
بـ
P
T
LR
##D
|
]
Launch
Res
##ume
؟
Bit
##m
ap
##s
##CS
هنا
##تكون
معينة
حصل
##توقف
الطبيعية
##مكن
##ئية
##حويل
معلومات
##فيد
##ئمة
إضافة
حساب
##ابية
يعتبر
45
مرد
##ويت
##تعلق
النساء
علماء
تعرف
العلوم
##واج
درس
اصطلاح
##هـ
91
عباس
##يقة
##ميل
95
مدرسة
##ظار
حرف
##ريف
##حديد
##طلاب
##درس
##مات
الكريم
##محافظة
الجنوب
##طه
درجة
سالم
سابق
##ازل
##دف
بار
##قافة
##أة
##بلغ
الدكتور
عالم
الأكبر
##علاقة
المجال
الأخير
##اكن
##ساعد
##جين
الضغط
##وانين
##تعرض
السلطة
##حاكم
منزل
##مون
##حمد
أيضا
##سفر
##سنوات
##رجل
حقوق
يصل
الأخرى
150
قرى
##باط
سنت
##فسير
موسى
##قليل
نال
##أمين
54
شاه
27
##َا
معرف
2
56
492
324
##1
##6
299
253
##ليلة
المدرسة
##اسات
المجموعة
عبارة
##صنف
موضوع
أصل
750
الأصل
مسائل
وأربعون
140
شرح
1332
1914
امر
##حاق
سلطنة
1400
1980
##خوان
743
حفظ
##أثر
نور
##شته
##دعى
!
218
##7
##35
##أكثر
##علوم
##حدث
##ردو
تصنيف
##ؤلف
ناصر
1420
كذلك
الموجودة
وهي
يجب
الرواية
مشهور
عنوان
##نيف
توجد
نظرية
1396
295
296
مرات
##يني
نفر
##متاز
##ؤثر
##جرد
##عراض
طرف
##سام
##عدة
##حكمة
##شاء
55
بسبب
##مى
##انا
61
##دى
##فوس
##طان
الأمريكي
فرانس
يعني
بالإسبانية
40
أفراد
له
##شارك
الإسباني
10000
##زال
##هه
دائرة
##زواج
##رمز
المحيط
الشمس
الـ
الماء
الإنسان
الأوروبية
لويس
##ئات
##بدو
##غات
الجنوبية
##سون
روم
وله
1939
##عني
رمز
=
\
جمهورية
##نغ
Монгол
Ул
##с
Mongol
U
##ls
الوسطى
روسيا
##غرب
أيضاً
##وطن
٪
1206
خان
تأسيس
أسرة
نفت
##باً
الحكومة
30
نوفمبر
1911
ديسمبر
##تحرير
الوطني
220
عاماً
##اتي
الشعبية
1924
##وعية
أوروبا
1989
##قراطية
##ستور
تبلغ
564
116
كيلومتر
603
##90
##9
ميل
كثافة
نسمة
جدا
مثلاً
##انة
##ئدة
##تية
الغرب
يعيش
دولار
أمريكي
العالمية
حالياً
##غان
إيران
##بود
1966
98
565
000
مستوى
العديد
##ائية
الحياة
437
متر
##ريس
الموسم
الحرارة
##ريا
##اوح
100
500
¨
##C
##15
2700
##لاف
المياه
محدود
الطاقة
الأمم
المتحدة
الأمن
وسائل
##قليدية
الأكثر
ظاهر
##ئو
معدل
##ثة
##وريا
656
الأحمر
1644
1680
##تصال
1913
مقاطعة
##ينية
القانون
الروسية
1920
##صيب
##وعي
1921
الاتحاد
الحصول
انتخابات
يوليو
فاز
البرلمان
أعضاء
انتخاب
لما
1996
##تخب
##W
##or
##ld
History
Con
##nect
##ed
Vol
No
Timothy
May
The
Empire
in
World
الجمعية
الوزراء
##اور
##عبير
##زاب
حزب
عامي
حكومة
2000
2004
2006
##غيير
preliminary
results
issued
by
the
General
Election
Commission
of
Mongolia
June
Info
##ongo
##lia
com
News
and
information
about
##n
language
les
Democratic
party
leads
poll
F
##T
N
Alta
##nk
##hu
##ya
##g
Be
##come
##th
Prime
Minister
UB
Post
سفر
مواليد
##قالة
عضو
24
2009
يونيو
Elbe
##gd
##j
s
##wo
##rn
as
##i
a
'
president
_
E
ng
##lis
h
Xi
##nh
##ua
سوف
يستخدم
##رل
الانتخابات
العامة
Al
Mo
##qat
##el
##خدمة
##ائي
الجوية
##لعمل
##بشرية
##حافظ
اليابان
ألمانيا
الكويت
لندن
باريس
##لوم
نيويورك
192
مكتب
الإحصاء
ID
##B
Country
Summary
951
786
138
الأمريكية
##باس
629
للإحصاء
612
900
59
عاما
الفئة
1918
647
الكلي
الأخيرة
1970
1975
وقد
3
العرقي
المجموع
##تميز
تشمل
##كور
##جنس
Second
wave
Chinese
invasion
Business
sm
au
92
K
al
##kha
Uri
##ank
##hai
##ury
##ats
Factbook
##شترك
الفرد
العلاج
الطبيعي
##دير
1930s
1945
الشباب
R
eli
##gion
Sha
##mani
##sm
Bud
##dh
is
religions
through
history
المحلية
##رار
والده
O
##irat
##ic
##hamn
##igan
Tu
##van
البرنامج
1994
المدارس
استعمال
الأحيان
الإنجليزية
Ur
##ady
Bu
##lag
##ثقافية
الألمانية
##تلة
فرنسا
إيطاليا
##إشارة
##مول
##قصد
##كوين
##خدمات
##عتبار
جان
وارد
الدولي
$
310
1998
Statistical
Yearbook
National
Office
##laan
##ba
##atar
الأساسية
فبراير
آف
2050
##قيمة
336
406
الأعمال
88
##قرير
الدولية
IF
تي
Tol
##go
مشروع
2020
Ta
Erde
##nes
MG
##L
الهيئة
الأسر
فصل
##موز
الفنية
##باز
##وند
التاسع
مار
واقع
##وعات
##حداث
الألماني
##ورت
Ch
ul
##tem
16th
17th
GE
##R
الدرجة
C
##ثلاثة
##sa
##gaan
1654
Z
ana
##zar
مثال
Choi
##ling
La
##vr
##in
##ne
Zu
##u
##jing
Lam
##iin
سوم
1904
##تحف
##so
##chin
1938
Tibet
##o
##وسيقى
الموسيقى
##دوات
##وران
khu
##ur
##ليب
ur
##tyn
du
##أغنية
k
##ho
##ome
sh
##aman
##ing
So
##yo
##l
تأسست
1960
Mu
##ngu
##hre
##e
In
##eem
segle
Hara
##nga
##قيل
EN
##H
Man
##lai
التالية
1990s
طرح
Cho
##no
عناصر
المجتمع
##حافة
صحيفة
الإعلام
متعددة
قانون
##ظمات
يناير
1999
B
اساس
179
1st
##زون
##مساعدة
IC
الريفي
هوا
شائع
الوصول
##G
##كنولوجيا
##بنية
##تة
الإنترنت
##إذا
متعدد
ME
M
SC
##I
Er
##en
##hot
وهو
تركيا
MI
##AT
الجوي
Ez
##nis
Hun
##nu
بول
##طفال
2019
الثانوية
نقاط
383
##اءة
##دام
##تشاف
##ئلة
الأطفال
##هار
##مدار
##صت
مواد
##ؤسسة
الثقافة
##قافي
##اده
الكثافة
السكانية
Open
Quo
##tes
Close
##عليم
تصميم
##ثيل
الطريقة
داد
##ستطيع
##عاون
تأليف
دوم
##قصة
مدارس
##مور
وزير
##شرات
الصحة
الرئيسية
التهاب
##خيص
323
fel
##ds
##her
233
536
57
332
##3
682
788
780
##2
09
سباق
Nada
##am
S
aga
##a
##ظام
مهرجان
المركزي
##انات
الرياضية
##ضوء
aim
ag
كرة
السلة
القدم
Na
##idan
##gii
##ü
##vs
##hin
##bay
##ar
##ـ
اللعب
الدوري
##try
##ünde
aa
دورة
الأولمبية
bay
##bad
##rak
##hy
##ön
##kh
zu
باللاتينية
Ioannes
Paulus
PP
II
بابا
الكنيسة
1978
فوت
##ندا
##ندية
1946
1958
1967
##نيسة
##يطالي
1522
1523
##ندي
الاجتماعي
اليهود
##رال
129
##إيطالية
##ألمانية
##جليزي
##برت
##ستند
483
1340
بند
عائلة
أطفال
العائلة
Roman
Wo
##rono
##wy
##cz
Ky
##iv
Press
Bureau
;
Pope
John
Paul
has
Ukrainian
blood
on
his
moth
er
side
St
Mi
##ch
ae
Cat
oli
##c
Church
Grand
Rapids
had
relatives
family
who
were
##cs
Byzantine
##ite
1929
##نور
##باريات
##مشاركة
النار
##لحة
##سرحية
اند
الذكور
1941
1942
##يّة
1944
##علاج
لاحق
##تلال
ober
##ts
Gene
##vie
##ve
death
He
saved
my
life
with
tea
br
##ead
##ندن
A
pri
Retrieved
Cohen
Roger
Polish
Seminary
Student
Jewish
Girl
Save
##d
International
Herald
Tribune
أنه
1948
الأسرة
المرض
تضم
1954
1957
Edward
##ourt
##on
Ho
##dder
&
##ough
##ton
page
97
##قالات
##ّة
ليست
##jt
##ył
Karol
Love
##pon
##si
##bility
1981
سبتمبر
كأس
1962
مدير
##هام
##سوم
الخاص
##ادل
##اعية
##rac
##zyk
Cena
pr
##zet
##r
##wania
?
SB
wobec
Ty
##dnika
Po
##ws
##ze
nego
Warszawa
p
204
ISBN
978
770
015
##حصل
الثامنة
##فوز
##صوت
الأبيض
##شود
455
58
1846
الرابعة
وهم
##سائل
المرأة
##نيل
1979
##لندا
بريطانيا
##درية
2001
##ئط
##وجة
1700
##رومانية
1984
دوري
العائلات
1986
ممثل
Andrea
##card
pace
prevent
##iva
San
Paolo
إنجلترا
قبول
##وحدة
مطابق
550
##نر
31
284
1965
posto
##lic
pi
##lg
##rimage
to
Norway
Iceland
Finland
Denmark
Sweden
Vatican
va
##انيا
1054
1988
دقيقة
موجب
المصرية
اتحاد
إسرائيل
##نال
جمعية
دستور
##لها
سقوط
جورج
نوبل
##جائزة
1917
Year
Review
Assassin
##ation
t
##pt
الدم
Time
Magazine
Half
Alive
Page
Lo
Sc
##apo
##lare
del
Carmelo
Published
##lom
840
08
##erto
##rci
##sio
وبين
لجنة
##تحقيق
##يكل
##كالة
##باني
إسبانيا
1956
1995
##شكال
مقدس
الجنسي
##عدام
Mille
##nni
##al
Synopsis
Front
##line
1300
d
##dres
Diplomat
Corps
January
February
##أكاديمية
الصحية
1922
London
##إصابة
القدرة
rail
su
##ffers
heart
failure
##عتقد
Fra
##il
BBC
المحيطة
الساعة
15
po
##z
##w
##ól
##cie
mi
od
##ej
##ść
do
domu
##ca
القلب
Navarro
Valls
Joaquin
Holy
See
النهائي
##ياس
اسمه
##جمهور
##ثبات
440
461
590
604
858
867
##ثناء
الفرنسية
##ؤية
##فاظ
محطة
جزر
سمت
##لقد
5500
this
entry
online
September
b
m
f
n
l
g
j
q
x
z
ch
r
c
而
二
u
ü
o
##گ
##غم
中
华
人
民
共
和
国
##ō
##ng
##á
##én
##mí
Gòn
##gh
##ég
##ó
جون
é
##gu
黑
龍
江
省
H
##ē
##ón
##ji
##ān
##ěn
毛
澤
東
Má
##éd
Encyclopædia
Britannica
Kazakhstan
Introduction
##دوية
1936
##عديد
قاسم
Human
Rights
Watch
Report
2015
accessed
October
131
##راض
constitution
CO
##NS
##TI
##ION
OF
THE
RE
##P
##UB
##IC
KA
AK
AN
state
Republic
all
be
Ka
##zak
institutions
local
self
administrative
bodies
Russian
officially
used
equal
grounds
along
##O
Қазақстан
Q
##aza
##q
##stan
##بائية
##ɑ
##ˈ
st
الحديثة
##ök
##yi
Sándor
earliest
waves
domestic
horses
east
Europe
##كتشف
اغسطس
##راز
##حرير
بشكل
والذي
1907
1931
1933
الأوروبي
لـ
##ركز
39
##أعضاء
47
67
107
اللجنة
##فاعل
باك
38
الإمارات
هيئة
وحدة
##جهة
محافظة
az
##ak
##hs
##tan
3000
1460
980
380
2300
##زمن
ناحية
850
480
##00
234
##عادل
846
327
205
611
236
##رز
1760
##000
Mineral
We
##alt
homes
##tead
11th
##nter
##nati
na
Crisis
Group
Central
Asia
Energy
Risk
vai
##lab
##le
line
at
http
www
crisis
##group
org
160
540
245
M3
شغل
##E
Kara
##tau
650
##5
ili
##sai
kt
##yu
##bin
##sk
مورد
800
Ph
##osphate
Project
Or
Reserve
Update
SU
##NK
##AR
SO
##UR
##CE
##S
PL
NE
##RA
IN
D
USGS
Rock
##فاف
##IT
##ئد
accepted
Com
##pli
##ant
Petro
##pa
##v
2000s
J
##SC
بيانات
1546
##04
##8
1575
##34
##60
2018
491
470
280
population
increases
per
cent
over
year
##news
en
news
post
1538
48
51
23
[
Remember
Stalin
de
##porta
##tio
ns
1940s
##امج
الفضاء
روس
Special
report
ethnic
##erm
ans
IR
##IN
1930
##زيادة
##عريف
0
Inter
##gio
##us
Freedom
Embassy
Astana
Department
State
07
##mad
##iy
Muslim
Mosque
round
pg
143
Quran
##iyo
Ed
##ip
Yu
##kse
My
Norm
Para
##nor
dve
##ntures
March
99
180
جامع
252
##10
257
439
##حدة
7000
304
كندا
669
##كلفة
1756
183
##tion
Plan
DR
متحد
AB
ABA
##OL
Os
##kem
استان
Bau
##rz
##han
Bai
##bos
##yn
المواد
##بحاث
وكانت
##صوير
##شاه
##لوان
الأفلام
Eurasia
Film
Festival
##say
Kun
Do
Studios
فيلم
Artur
Platon
##ov
wins
Cannes
Corporate
Media
TV
ward
·
CC
Winners
كم²
##قلال
34
102
377
90
126
136
لعام
قلب
Study
Taj
##iki
Ethnic
Background
Library
Congress
Call
Number
DK
##85
nt
##meni
##an
Riot
##up
Soviet
##dz
##hik
##istan
latim
##es
Deeds
Har
##sha
Being
Cultural
ā
##ṇ
##sh
ach
ari
##ta
1969
199
Dr
Vas
##ude
##va
ara
##na
gra
##wala
Proceedings
Transactions
All
India
Oriental
Conference
Vid
##yal
##anka
Pr
##ā
##īn
##mbo
##ja
jan
aura
##apa
##da
##cient
people
country
Ji
##y
##ālā
##la
##ām
##boj
Sa
##tya
##vra
Ś
##ās
##tr
##ī
Pakistan
المملكة
141
مملكة
Hogan
Silk
Road
North
China
Mega
##lit
##hic
Portal
ed
##dy
Burn
##ham
trans
Burton
Watson
819
999
892
907
فعال
جذب
رود
Iran
Elton
L
Daniel
1864
1885
1870
تابعة
1910
1916
1927
1934
##صناعية
1937
##ويات
1926
1959
Groups
##gr
es
1961
260
6000
1530
المعيشية
1000
تشرين
##جلات
آباد
##جهزة
##غاني
400
المركز
##مائية
527
##اجات
مشغول
##ماً
810
680
420
1520
عبور
مدار
##طيران
278
734
##91
##45
##aji
##kis
Building
Democracy
video
United
Nations
https
youtube
watch
v
C1
##ey
##PO
##f
us
##sian
left
behind
Robert
Green
November
Source
388
##53
Germans
hl
Otto
New
##eur
##asia
De
##ploy
##ment
##ik
workers
gets
green
light
ra
##b
الإناث
تعيش
##web
loc
gov
fr
tj
##to
html
This
article
incorporates
text
from
source
which
Pe
Forum
Public
Chapter
ff
##ilia
retrieved
1940
للجماعات
I
freedom
survey
Service
for
Executive
ug
##ust
الطبية
104
##27
170
457
UN
ICE
##F
Education
uni
##ce
spending
education
total
GDP
Bank
لاعب
مسابقات
##ريك
ارتفاع
دوست
秋
田
kita
##امل
青
森
市
om
##ori
shi
139
1624
8000
1973
سكانه
قرن
‡
الشمالية
952
خطوط
##اقة
##صورة
555
473
1854
##اسر
1859
1923
السكنية
سجلت
761
753
برج
شارع
##كبات
آيت
ago
y
official
English
Name
258
908
那
古
野
1610
##وتا
1880
##طائرات
نادي
Türk
488
قابل
House
world
Turkmenistan
برد
اما
1740
1881
##نها
عشق
##gra
##nt
res
##ett
##lement
fede
##ration
re
##cons
##tru
##cting
home
##lands
Flynn
843
##31
117
89
TU
##K
Secret
police
break
up
comme
##mora
dead
ze
##ri
600
##غذية
وحيد
##ونات
##laya
Et
##rap
ً
نام
First
Fe
ale
Governor
Boo
##sts
Japan
##ulin
Party
Washington
1868
##دينة
829
148
大
阪
Ō
##saka
ill
transform
Osaka
government
jointly
submitted
Die
636
ten
##ka
no
dai
##tok
##oro
1583
1615
حافظ
1886
1949
912
##يدية
452
##²
Ex
ang
December
بلدية
114
札
幌
Sapporo
1876
معهد
1952
1950
区
1871
1972
1862
1943
##زياء
Reid
pp
also
notes
that
there
some
amb
##igu
##ity
exactly
where
Hilbert
was
born
himself
stated
he
Königsberg
da
##vid
il
##bert
1872
Fr
##ied
##ric
##sko
##lle
##gium
1879
العلمي
1882
##رمان
1900
1897
1770
##وجود
work
established
Tak
##agi
first
math
##ema
##tician
interna
stat
##ure
1777
1855
1798
1801
Technische
Universität
Braun
##sch
wei
1792
1795
1807
1831
1833
Mag
##net
##ischer
vere
الدراسة
بها
1492
1808
ولدت
1742
1838
جوان
1806
1873
آب
1840
1809
1810
1811
1896
1813
1816
1830
يتبع
1837
pauc
sed
mat
##ura
1828
جرم
##وتين
1892
1902
هنر
Henryk
Sien
##kiewicz
Gymnasium
##خصوص
##يض
اثر
اوت
اعمال
او
ს
##ა
##ქ
##არ
##თ
##ველო
Georgia
may
considered
or
classification
regions
places
Geographic
place
##verse
##ly
numerous
sources
such
Oxford
Reference
Online
Merriam
Webster
Collegiate
Dictionary
##at
##las
700
385
##صيرة
قدمت
ar
01
eil
##akas
vil
bitter
victory
open
##em
##oc
net
05
OS
CE
##U
##AM
##تطوير
Helsinki
Foreign
Policy
Strategy
Ministry
##air
06
السورية
eso
##lut
##ion
Parliament
##cla
##ring
##ia
South
##set
occupied
territories
August
Form
Dec
##cc
##upi
Territory
Civil
ქ
##ვე
##ლები
ქართული
##ლ
ი
##und
David
##iq
##uit
Col
##chis
Trans
##uca
Iberia
BC
AD
562
السامية
isto
##ry
Modern
Marsh
Lang
Complete
Works
##ies
Joseph
Book
Georgian
York
Frederick
##ae
##ger
Inc
hoe
##ni
Peoples
Hills
rara
Caucasus
Charles
Mars
Phoenix
edition
اول
##صه
##les
Lives
Legends
Saints
Vladimir
e
##ბ
##ერი
კ
##ო
##ხე
##თი
337
319
ri
##stia
##nity
early
web
##page
we
ge
001
##ket
Theodore
Dow
330
ارتباط
باغ
108
1125
645
813
باز
##ast
Dar
##ra
Goldstein
Literature
Culture
Howard
ro
##nson
##dona
Ki
##zir
119
112
1226
1236
1386
العثمانية
1555
1747
1762
1783
1785
##vos
##de
##A
val
1906
186
##ang
249
247
##ناب
1802
1805
An
##cha
1815
1803
1878
1857
البريطاني
1919
البريطانية
350
Social
##ism
Color
European
1883
Stephen
Jones
جام
##خورد
##اهرة
اطراف
155
اصل
انقلاب
##دوارد
واي
230
asi
Viola
##tions
laws
war
Russ
role
conflict
els
##ink
Russia
Ing
##ush
##ian
Pri
##gor
##od
##nyi
region
Heavy
fighting
ML
##RS
launched
rocket
##vali
Stock
ol
Peace
Research
Institute
##ma
##ments
Dis
##arma
Security
University
##01
##99
##66
2100
West
Begin
doubt
leader
Der
Sp
##ie
el
Cl
##ai
##ms
War
Called
Into
Question
شامل
##ولت
Ter
##حبت
Web
##ste
UK
Development
1730
520
1706
505
1657
سطح
507
1664
497
1631
496
1627
471
1545
1484
200
340
111
##55
##تضمن
1710
561
CA
##VE
##X
214
±
يحتوي
328
تخت
1500
984
تحتوي
1640
754
3500
##83
##أنواع
البيانات
501
4000
157
4500
177
Mk
are
მ
##ხა
##რე
53
Za
##za
##gha
##rka
Will
##sti
##tuti
Monarchy
Rest
##ored
Today
Issue
#
379
##ior
##gi
##msa
##dze
King
##Net
Society
##عدم
Korea
list
countries
whose
citizens
not
need
visa
enter
stay
territory
days
IPA
+
##ؤدي
Bush
Heads
Summit
Times
EU
Sign
مصرف
341
GA
الوحدات
factsheet
##ندوق
206
347
an
##k
Economic
##vert
Red
##uction
Program
progress
Economy
Rankings
##dicat
##ors
Data
composition
available
##bank
IM
Mission
##clusion
Staff
Vis
##it
Chief
Reports
Inf
##lation
Tbilisi
Release
276
Financial
Flat
taxes
could
flash
pan
research
says
##quent
Ask
Questions
Mac
##roe
##cono
##mic
Environment
##vesti
##nge
##org
TC
313
103
figure
includes
currently
out
govern
##men
control
estimated
Statistics
227
178
plus
49
Population
Table
Stati
Conflict
Region
Directory
Minor
##ities
Indigenous
Uzbekistan
Me
##het
Turks
إحصاء
Say
Th
ere
Place
Like
Home
52
minori
##ties
Federation
Internationale
des
Ligue
##oit
Homme
deporte
row
deep
##ens
mountains
poetry
3rd
rev
Nas
##my
Peter
Studies
medieval
##torio
##graphy
texts
context
Rap
##p
روستا
اور
pur
##ges
system
July
Molly
Corso
reform
rocks
02
Tem
##pus
العمرية
شهادة
##حان
Science
High
##lance
326
##ias
##ph
ore
dr
mon
brief
Orthodox
Christian
Word
##illing
حالات
Rom
erected
statue
##ars
##man
after
demonstrated
training
methods
during
visit
Rome
##IX
Willi
Douglas
Heart
1826
1866
##وسية
mare
##fa
index
php
Armenia
conversion
Christianity
probably
most
crucial
step
its
It
turned
sharp
away
Iranian
past
sta
##mpe
it
centuries
int
##rins
##cter
clear
native
those
outside
borders
identified
almost
once
adopt
301
Esti
##mated
dates
vary
314
Ga
##rso
##ïa
op
cit
following
nan
favour
latter
Constitution
Article
الآسيوية
Հայ
##կ
Ra
##zmi
Pan
##oss
##ans
From
Kings
And
Priest
Mer
ant
##missar
106
##ستون
515
476
border
south
التركيب
782
428
451
884
1071
والتي
##ppe
##ache
Re
##tra
Des
Dix
##bula
con
##spect
##um
ex
##hibe
##ns
##nium
qua
Cyrus
Junior
MD
##CC
1894
السلطان
القاطنين
##ça
Tan
##er
##me
##ful
Act
Genocide
Turkish
Metropolitan
Books
805
793
number
##dre
under
twelve
years
age
made
massacre
1895
mission
##aries
Fifty
Thousand
Massacre
1908
1915
Lukas
##ese
Dominik
aller
V
##ölker
##mord
den
Arm
##enie
und
die
oa
gen
##ocide
Chr
##onos
034
056
ou
##nci
Parliamentary
Assembly
Resolution
المنظمة
Rum
Holocaust
Comparative
Historical
Perspective
Journal
Issues
Vo
Wi
##ktion
##ary
definition
##tens
##ive
bibliography
Michigan
En
##cy
##clo
æ
##dia
Armenian
dispute
Events
1877
ona
James
Ni
ell
##lide
##rba
##ija
Federal
Division
##dian
so
##viet
##ique
1953
1955
Eastern
Im
##ogen
##lad
Taylor
Francis
دفاع
Notes
Baku
Black
Ruf
##med
##igh
توسط
That
Can
##ol
##ved
Nag
##orno
##bak
484
154
441
090
419
390
President
Ser
##zh
Sar
##gs
##yan
People
623
Turkey
sign
peace
deal
Yahoo
427
822
Canadian
Census
determined
persons
ancestry
living
Canada
However
th
ese
li
##able
low
numbers
since
mixed
very
common
meri
tend
counted
census
indicates
speak
esti
million
makes
similar
estimate
By
accounts
half
States
live
California
##قيادة
3200
##لار
##بلدية
915
866
##يفية
Le
##rman
Mirza
ani
Private
gr
##icu
##ltu
##re
Lexington
Lan
##stic
Yer
##evan
238
part
Union
Demo
##scope
ru
decision
Government
would
cultural
social
approved
adopted
contained
concept
البلدة
##zza
##ro
degli
Venice
##itors
ينتمي
1712
405
باند
اليد
الطفل
ok
##hle
##bki
Del
##ight
Cook
##book
متفاوت
##tis
Glenn
Ronald
public
domain
1307
608
لكل
##يرية
الصيفية
##اقات
مباراة
<
div
class
ref
##list
style
height
##flow
auto
pad
##ding
>
京
都
ky
794
466
163
1467
1477
الأمريكيين
درست
1397
1482
Protocol
Ad
##diti
Geneva
Convention
relating
Protection
Vic
##tims
Proto
col
##tic
1775
1365
1867
اهل
1889
1827
Alfred
Nobel
Encyclopedia
1789
Age
Industry
Thomson
Gale
1842
Who
Made
Ha
##ppen
1850
Carlisle
Rodney
Scientific
##can
##vention
Discov
i
256
Wiley
Songs
Jersey
244
1853
1856
1888
##خدام
1847
1863
1865
1875
gel
##ign
1887
ball
##isti
##te
1884
1893
1891
Norra
##vning
##sp
##lats
الأصول
1905
Nem
##esis
نسخة
ki
##uh
المادة
النادي
225
687
837
Ken
##uut
Marianne
tra
sl
##fre
biography
##cade
Publishing
559
##70
472
Prize
Math
##pes
ideal
##istisk
familie
tar
av
##stand
fra
økonomi
##prisen
أمريكية
642
211
537
##lau
##ea
البيض
1778
1898
لها
1791
1845
*
التركيبة
سعود
جريدة
2017
بوجود
منتخب
المباراة
استاد
ماه
##حجم
494
630
1097
##شعة
652
ورود
1379
1374
1377
1337
1237
1150
1417
1388
1399
1302
باشا
146
763
عبدالله
232
القرية
1351
1349
1280
##ديه
احمد
1110
1140
1333
1384
3166
山
口
Ya
ish
حاضر
142
1442
1550
1608
福
岡
Truth
##cent
Heaven
Yuki
Yoko
cc
##esse
##أفضل
1601
川
崎
Kawasaki
003
鎌
倉
##mak
575
1180
1192
عزلة
سكنية
1252
1314
##21
##and
##ppo
298
Ma
Di
##biy
Mal
##di
##ves
Xavier
Romero
ia
Islanders
Popular
Ancient
Ocean
Kingdom
احتمال
543
##pana
Ram
##kku
##var
Women
##qua
##rie
##إدارة
190
الترابية
960
ْ
127
1977
ei
##st
felt
perse
##cute
ويتم
460
1190
9000
185
300000
838
##نتج
ウ
##リ
##ハ
##ッ
##キ
##ョ
一
覧
Archive
Chong
596
رواية
ʿ
Abd
##āh
Ṣ
##āli
##ḥ
##here
##dge
Saudi
##bia
Yemen
137
##J
am
##vin
Up
##rising
What
Every
##one
Need
Know
1947
1963
##sale
ye
shown
##ews
##ct
1964
فصيلة
Fred
Hall
##ida
evolution
Case
Paris
AF
NES
Slam
##ck
Iraq
##ED
Dome
##bic
FBI
visited
Sana
can
testi
##fy
strongly
pro
Iraqi
sentiment
among
##is
then
evident
Gregory
##use
ela
Structure
##luence
Columbia
##aud
Coming
Storm
Du
##nbar
Uni
##fication
464
467
محسوب
محسن
1971
152
##46
##خرى
Derek
Miller
Dem
##pil
Control
Sm
Weapons
Graduate
##tud
publication
Survey
##cca
##sional
Paper
^
Earth
Space
Gulf
gate
##way
Persian
oil
03
04
future
terra
farming
development
dil
##emma
Agriculture
Value
Volume
الحالة
ali
##li
Sino
##lati
Asian
Aug
1968
678
690
الفلسطينية
##سودان
ab
##ab
##umi
##neen
Bel
##ievi
Youth
Deadly
bl
strikes
mosque
ad
##io
Free
Radio
Liberty
Death
toll
rising
latest
protest
violence
un
##world
doc
##id
4e
##aa
##80
##لامت
##اتها
##ty
Sale
ide
Un
##law
151
153
##خاطر
archive
##26
##12
##25
##19
google
hosted
af
AL
##LE
##SU
##lj
##Q
CN
##20
##13
##ef
##49
##36
##65
اواخر
whom
englisch
März
archi
##viert
vom
Original
Boden
##off
##ensive
im
Jemen
Ein
risk
##antes
Projekt
für
##bien
##24
April
##äsi
##dent
ford
##ert
Hut
##hi
Rebel
##len
zum
##ück
##zug
auf
Zeit
W
Fight
von
Bog
##heng
Chris
mic
Präsident
Ali
Sal
##ih
hat
Bürger
##krieg
##spartei
Frieden
##sg
##espräch
##ufen
frühere
je
##tische
gilt
als
einer
der
##tif
##ter
Vor
لصالح
##مند
inte
##nsi
##fies
between
former
rebel
allies
1439
الوسط
##مده
##لاند
الحيوانات
##ياه
1387
1820
##ئول
quant
جسم
1925
Area
Wolfram
##face
×
form
formula
dx
For
term
see
Ballard
Oceania
science
race
1750
6th
Composition
mac
##og
continental
##cal
sub
selected
economic
other
group
##ings
Revised
Date
Mod
##ified
##vard
bio
##geo
##graph
provinces
##tin
##ction
tropical
Pacific
birds
##cé
##anie
1812
ō
##kea
##nó
125
##ay
Elements
Geography
283
##ou
##glas
Ben
Finn
Other
One
Third
Globe
Fall
Current
IOC
members
لفظ
جدول
للمناطق
Regions
constituent
except
##pend
various
cited
below
641
732
##fat
##she
la
Botswana
##أفارقة
1951
##pare
##ncy
Cor
##ruption
Per
##ception
Index
الوسطي
Cent
##zi
##gala
##gad
##gat
##wen
##eng
west
Southern
##town
##boro
##wane
##bat
##se
Se
##lei
##bi
Pi
##we
370
##طيور
424
##فلام
574
النباتات
US
website
Note
صرف
fri
Tour
Fund
Land
##ID
una
##ids
Knowledge
##ent
HIV
##ata
Global
##ep
##ort
رخ
5000
WHO
Regional
##خاصة
241
الطائرة
##روند
Egg
##ers
Welt
##hung
##fe
##PR
##cer
Worldwide
Hunger
allen
##ge
##ilien
chi
##eve
Food
Nu
##trition
Bonn
Dublin
ll
Haifa
Huang
Shu
Wang
Distribution
##ppi
ss
Happiness
Richard
Lay
##ard
Jeffrey
Sachs
eds
Burundi
VA
##ND
Stones
##tur
##ned
law
transit
justice
##werp
Portland
##sent
##bu
##gab
##ire
##رغم
Collins
Burns
Sub
Cambridge
مفهوم
##ét
##ien
Jean
Pierre
Great
Lakes
Two
Years
Massa
use
##tt
MIT
IS
Pre
##venti
lessons
diploma
##rach
To
ms
UP
ON
Rwanda
##fuge
African
Quarterly
journal
Member
##mar
##chan
##hers
1976
##N
PAL
##tega
Mara
##ngar
FR
##BU
فرود
Pal
##ipe
##hut
Center
Transit
Justice
ac
##kg
##round
##اتور
Leader
1408
43
322
765
2400
235
047
⁄
067
130
Ce
##rti
##ficat
Fin
##udes
air
##ron
##mun
##pl
##ôme
Études
Seconda
##ir
Our
570
495
530
##نتيجة
523
589
مقام
##قامت
991
##تحديد
##عید
587
588
Peters
193
1909
Hartmann
arab
##ische
Frage
##oe
ks
nel
romanzo
di
Eli
##odor
Carlo
Conti
Rossini
Roma
Casa
edit
italiana
Guillaume
622
270
345
240
624
287
625
363
269
305
418
433
215
396
415
458
521
279
281
##عه
1257
1487
1344
820
580
##°
45°
856
1352
سال
746
716
Dat
##ierung
nach
Jürgen
Becker
##ath
hr
##ono
##logie
ph
##onis
##chen
Ägypten
Mainz
مراسم
730
مصري
740
712
655
745
بما
وليس
خدمت
ختم
##mm
##uno
##logical
##sy
##ogi
##its
rom
##era
##py
complement
alternative
##rapie
Information
support
Macmillan
Cancer
Support
الحالات
Mater
##adi
##éra
##pie
Les
Hui
##ssent
##ielle
##rmon
##égét
##ales
René
Maurice
##tte
##fos
##sé
دواء
hy
##cides
##yton
LC
MS
عنصر
##ssa
Han
##tman
##ici
Your
Memory
##ogy
§
الجسم
##vende
Cats
Essential
Oil
Safety
IT
##ER
LA
DE
##IL
NO
##EA
TR
##EE
CAN
BE
TO
BR
##ST
GR
##OW
##TH
YOU
##NG
##YS
TT
##utes
##yne
##com
asti
link
Eucalyptus
##IM
031
##met
##ali
##late
2500
Bronze
independently
discovered
mid
them
producers
oldest
known
bronze
##kop
culture
only
developed
associated
tech
##logy
different
periods
coin
French
Egypt
##ologist
Mas
##pero
somewhat
mis
##lea
Sea
##passes
et
##hn
##onym
Lu
##kka
She
##rden
##kel
##esh
##wes
Den
##yen
Si
##kil
##jek
##ker
Wes
Pel
##stin
Foot
##note
modern
refers
peoples
appear
several
Egyptian
origina
##ting
islands
tables
dam
volume
Drew
sum
ary
quota
marks
association
our
title
intended
draw
attention
problema
nature
commonly
note
##worthy
designation
sea
appears
concerning
Subsequently
applied
ind
##cri
##minat
##ely
add
##iti
##ony
including
portrayed
their
appearance
##vader
north
reign
##pta
Ill
Sand
##ford
243
recent
review
primary
secondary
literature
##ud
##huizen
Hen
##fort
will
without
End
Changes
Warfare
##rophe
Ca
esis
great
migration
occurred
ca
supposed
based
ins
##cript
one
another
III
Yet
inscriptions
themselves
now
ft
what
have
say
Wolfgang
##lc
recently
##marked
although
things
unclear
eins
ist
aber
sicher
Nach
##ptis
Texten
##ben
wir
Nicht
mit
Volker
##wand
##erung
tun
Thus
##pot
but
interpretation
315
Karin
##wad
Grave
Mediterranean
Old
Blois
van
##ek
268
Hansen
comparative
study
thirty
city
cultures
investigation
conducted
Cope
Polis
Centre
Det
Kong
##elike
Danske
Vide
##nska
##bern
##lska
1650
mar
Ke
Christoph
##eh
##linger
Gods
god
##desse
images
God
ancient
Is
cf
phase
Middle
runs
roughly
parallel
##welfth
Dynasty
Bruce
Tri
##gger
##mediate
Period
1292
خوزستان
Frank
Read
tre
##asure
##xus
With
objects
Persia
British
Museum
Mass
Dani
Va
##dim
civili
##zation
##wn
times
قسمت
395
610
1453
1185
1204
1261
1557
1648
Fox
If
nyt
##hing
Studi
##pist
##ula
145
Line
ή
τα
##πει
##νή
Γ
##ρα
##ι
##κία
έ
##ν
Α
##ρ
##με
##νία
κ
##α
##ί
##ish
court
longer
regarded
old
valid
claims
universal
instead
terme
Greeks
##perator
Romani
##æ
Romano
##rum
293
Theo
##dosi
408
450
453
##رداد
493
498
518
Evans
Justin
532
533
429
548
535
مقاومت
546
549
551
552
529
534
582
602
626
627
pass
##im
634
674
618
695
711
717
718
توماس
863
814
787
827
902
831
842
859
878
870
904
911
860
941
944
963
969
976
حلب
1025
1040
894
منه
896
917
923
927
968
101
1100
آنا
988
971
Mark
Battle
##zik
Italy
Western
1060
105
1074
1075
عهده
Ave
##ril
Cameron
Ob
##olen
##sky
منظور
شما
Ar
##oma
ِ
##ترونية
فيها
098
581
##روز
1825
1932
البيضاء
##NR
حالت
طائرة
1974
departamentos
ممثلة
706
351
110
436
710
1821
Peru
Bir
##ú
##úl
Por
##ras
Barre
##nec
ea
El
nombre
Perú
1529
Raúl
560
Lynch
Gillespie
Go
##wl
##dges
##onology
Guitar
##rero
Cave
Feb
Jonathan
Haas
Late
occupation
Norte
Chico
1021
Terence
Alt
##roy
Enrique
Mayer
arti
##cula
##ted
pe
##asan
Sacred
City
Cara
Su
##pe
Heritage
##want
##ins
##uy
Imperio
##ico
1524
1526
Rec
##op
##ila
##ción
leyes
los
Rey
##nos
las
Indias
vol
Ba
##ke
Mine
##rs
Mountain
181
Margarita
Suárez
Desa
##íos
##lán
##ti
Kenneth
##rien
decline
##rk
older
##ence
aut
ori
Scarlett
elan
Rebellion
revolt
eighteen
century
Upper
nn
fall
royal
237
Walker
##old
##ering
ash
##oten
##berg
Ima
##gini
Ulrich
##ücke
##tical
nineteenth
194
##lar
Palmer
eru
author
##itarian
tradition
George
rise
##vian
military
radi
165
##dlo
##ky
Juan
Julio
##cht
Anatomy
407
Fuji
##mori
prison
Reuters
Eco
ons
##titución
Política
N°
Constitución
122
Articles
Clark
quick
##san
الجولة
Oficina
Nacional
Proc
##esos
Ele
##ctor
ales
Segunda
##cción
Presiden
##cial
Congreso
República
Grupo
Parlament
io
روابط
Labor
Kevin
Boyle
Juliet
religion
belief
Routledge
144
foreign
policy
223
224
ile
escala
Ministerio
Defensa
Libro
Blanco
##cio
Ley
271
Servicio
Militar
regiones
Org
##ánica
Gobierno
Nº
285
226
676
222
nde
Handbook
Hua
##sca
##rán
Instituto
Estudios
Histórico
Mar
##ítimo
sus
recursos
##ográfico
económico
973
767
272
Estadística
##rmática
Esta
##dí
##stico
462
585
Barra
806
Programme
ose
Thor
Geoffrey
Bertram
1890
318
Shea
Search
better
society
Banco
Reserva
Product
##uto
interno
por
sectores
product
##ivos
figures
Memoria
203
Trade
Representative
Promotion
Rosemary
321
##nut
cotton
sq
##uas
farm
Mon
Look
section
Organic
Products
USD
##ltura
Network
José
##nom
economy
##ciones
Pro
##ye
##cciones
Población
##fil
socio
##dem
##con
##cted
Tribe
Fl
##gging
##row
##gge
1620
ob
Demographic
collapse
Indian
Mario
Vázquez
Immigration
mest
##iza
##je
Magnus
##örner
Race
mixture
Latin
presidente
Comisión
Ver
##dad
##cili
##ación
pag
قدرت
132
Fleet
Brian
Smith
democracy
Chile
Notre
Dame
417
707
048
ati
Internet
Usa
##AF
Transport
Jan
Víctor
##dr
##és
##unde
##ani
##uv
Alexander
Bailey
Art
colonial
Lucie
art
20th
Dam
##ián
Bay
425
Gerald
Martin
music
visual
arts
##erald
##rra
##tive
Jaime
Poetry
188
Tony
Cu
##ster
##isin
##ean
386
Dale
Olsen
Music
Dorado
Turin
##ngo
##قرية
música
trad
##icio
popular
265
tradicional
261
248
2550
1496
##ech
##rial
Chamber
bbc
co
uk
egy
##pti
##yramid
##ml
620
2600
311
##có
proto
aya
275
320
987
Ti
##kal
##ax
##act
##ún
Piedra
Negra
##cu
##há
##njo
Xu
##lt
Río
##ach
tú
Dos
##as
Mach
aqui
##lá
Agua
##teca
##co
##mon
Moral
##for
ma
##nque
##án
##í
Bon
##ampa
Qui
##rig
##lum
##zn
##kinto
##iba
##tú
Cop
##cana
Co
##bá
##dra
Ich
pa
Kant
##uni
##lk
##ín
Ku
anca
##ci
##zu
Las
ras
##cona
##lak
##xta
##nca
##ndio
##oni
##hku
Punta
##ája
##ros
Manuel
Claudio
Tor
##tu
##guer
ola
Tam
Hi
##guera
##pac
##lah
pak
##ban
##ché
Ko
##lich
736
hu
##mu
##xo
950
full
citation
end
660
1687
cal
##cala
918
1194
1441
1480
1250
Pop
Vu
aja
chan
##aka
Max
Hu
##su
ah
##au
محصول
bal
##che
##un
##court
logo
##graphic
##lla
##jal
Ski
##more
saw
table
containing
been
found
near
center
Lorenzo
Ten
##och
ti
##tl
dated
app
##rox
BCE
make
puta
Ol
script
Block
##amer
Ficus
منتشر
صفحات
##إنتاج
vi
##gesi
Thompson
Eric
Maya
Astronomy
recover
##stor
discover
2307
742
373
sid
##58
##51
##40
##47
Smile
##cision
view
articles
##bs
har
edu
##JR
##AS
0000
##22
##ayan
calculation
hold
point
WR
##AL
##alen
##dar
##lef
365
Priester
jp
Nun
##nery
Qua
##dran
##gle
##یبا
Ale
##ssi
##iano
Los
caminos
lo
sa
##grado
introducción
filosofía
religión
Cristian
##57
##59
##unti
##ku
Bol
##ont
##bes
fun
##erar
JP
##bal
##olo
##itz
##int
الفصيلة
613
1697
##سلة
البوابة
Google
##vista
037
Qatar
Living
best
cars
properties
buy
selling
rent
events
محفوظة
2022
《
》
مهر
بدن
##الله
632
633
Laura
##glie
Islam
ولكن
معه
##تنام
مدد
وبعض
وبلغ
نفسه
##ذلك
338
197
آزاد
وكان
339
228
229
364
##33
335
##ؤن
عنه
PCI
Mini
TX
NL
AT
IBM
mini
mother
##board
دوران
ada
##pter
cards
power
supply
Intel
ele
Soc
GP
##16
Dual
Channel
RAM
DD
R2
SD
266
333
667
1066
775
M2
AMD
double
data
rate
mode
بدون
Standard
##chi
##tec
##ture
era
component
inter
Mode
server
##eler
##ated
Graphics
Port
MH
1x
2x
Universal
سرعت
1394
USB
##iga
##bit
Ethernet
3G
##IO
Generation
##put
Out
bridge
Bridge
Communication
Rise
MR
ud
AC
dva
##nce
##ligen
Drive
Electronics
Advanced
Tech
##tach
A1
Primary
Secondary
Master
Slave
A3
TA
Serial
Parallel
PA
SA
A6
##GB
##undan
##ray
Independent
Disk
RAI
##opp
Basic
System
##يته
Only
##ple
##mentar
Metal
##xide
Semi
##ductor
مربوط
B2
Bus
B1
E1
IEEE
hot
plu
COM
LAN
PC
##WR
Power
##et
bit
##by
MHz
##vide
⅓
½
White
Brit
##ons
minority
##pat
##riate
جنس
صورت
Rich
needs
more
ويمكن
Bou
Lea
##lity
UCLA
Gast
##arbeit
##asta
##rb
##eite
مشابه
السوري
##yrian
refuge
tells
harr
##owi
story
journey
fell
thought
Hundred
mig
##rants
fear
week
Guardian
Hay
Euro
##stat
033
890
Presidential
Elections
375
how
built
Britain
795
immigrants
arrive
daily
Indians
largest
new
Pa
##drón
Municipal
enero
Datos
##visi
Dunn
Chan
640
Mail
010
Aust
alia
804
506
369
Past
Colo
##ssus
1157
1744
1818
1308
1319
تألفت
##lf
mann
Part
547
time
##car
##uff
politics
Reader
Irish
Watt
Dawn
##isation
Of
Ass
##yria
Georges
##rot
Professor
Faculty
Letters
Chip
##wil
Ibn
##ha
Sir
Ras
##ul
Allah
Divine
Demon
Fi
##fte
Rede
Op
##pressed
Just
##oi
##ript
##ural
Reason
1334
William
Face
Dir
##ʻ
##yy
##ah
113
1727
1213
1216
1218
##rece
##lius
relations
563
1227
1231
1819
Abdullah
Mohammad
Sin
Direct
Instruments
Shining
##amp
Sau
995
443
1427
1814
1229
409
1320
1321
1903
1341
Mad
##aw
##eed
England
1339
Gold
Dor
Hat
##red
Regne
Pub
ing
1328
1347
1373
1381
1383
1393
1395
1401
1402
1433
1436
dre
##sc
##V
##ass
##ili
##ev
Alexei
##qi
Wilson
830
1784
ho
htm
Em
##bar
Arnold
Patriot
Missile
Fa
##ilu
mathematics
application
Minnesota
last
modified
المغربية
2800
1438
##ks
Mona
##rch
ie
Tim
RT
ابو
##hon
##des
Arabia
Enter
Twenty
Century
Greenwood
″
حاصل
737
168
325
937
212
##nite
Sixth
Edition
##قناة
##عزلة
1035
توابع
028
024
986
1553
1331
1928
1358
631
366
EV
Factor
accounting
varia
achieving
##tim
sy
##mpt
##om
individual
patients
PDF
Care
##pira
##tory
Jour
147
PMID
doi
##rj
##BA
Scott
Golden
Anti
##leu
##kot
agents
treatment
lung
disease
Am
##pir
##rit
Med
538
##82
002
358
##lo
Disease
Coll
##abo
##rators
regio
national
##cide
pre
##valence
lived
disa
acute
chronic
diseases
injuries
systematic
analysis
##cet
PMC
456
1016
673
606
397
~
Anand
Nur
##mat
ay
Sheikh
##clin
Systematic
epi
##demi
##ological
studies
Alle
##rg
1111
1398
022
##44
ás
##let
como
conditions
897
906
##30
##lay
È
As
related
##idit
##pert
resp
##ory
medicine
217
##02
1586
ers
Br
##uton
##ffa
##eland
ps
##ych
dy
##fu
##nction
care
Practice
Airways
216
##41
410
RL
SM
Environmental
##gene
##tics
current
concepts
call
Critical
Medicine
567
573
##69
1511
hou
Sei
##bold
MA
Bo
##rr
Disse
complex
populations
latino
##eri
##ac
264
##23
1513
pats
029
Dieter
RR
##nal
##ood
factors
intera
##cti
##mi
Rep
##rodu
##ctive
##xico
Elm
##sford
Y
198
##14
rep
##ox
007
DJ
Walters
##ret
Lodge
CJ
Lowe
AJ
MC
arma
determina
##eno
##type
adults
meta
109
2558
Fu
##ss
JC
Air
pollution
Clinical
Experimental
##97
وبعد
شدت
Wright
dis
##pari
Ann
Rev
Health
1576
1146
ann
pub
##hea
021
1445
##28
Association
Urban
health
##qui
workshop
Perspectives
Suppl
357
1240
##38
1289
011
Brooks
Nancy
Seth
Raj
Poll
##ution
Community
Character
##istics
Expo
##sure
##xic
Economics
Management
1006
096
Elsevier
##win
Lie
##nert
Kennedy
alde
exposure
##71
##11
##43
##kko
Knight
alates
pol
##viny
##loride
products
##gies
##vir
Pers
##pect
845
##50
Born
CG
Nan
alat
andro
Mama
Bald
Te
##ssie
##ison
##vier
##upat
pes
##tici
306
##64
##17
Henderson
Shah
##een
Ace
##tami
##phen
##edia
##tric
Reviews
qui
##rv
004
Petersen
Jun
case
drug
causa
anti
##bio
para
##lini
##cology
209
##18
1007
012
1463
ee
Simpson
JA
Heinrich
pregnancy
Archives
Child
2542
1136
arch
##dis
303
Eye
Jeff
##ley
Apr
w
##hee
##zing
offs
##pri
482
##42
036
Geld
MM
##oel
##eveld
##kus
PJ
CM
##nata
maternal
##ogical
stress
jour
##52
##uwa
SK
Mats
##ui
EC
indoor
environment
effects
##inio
##ology
013
Ars
##had
SH
Does
##gens
contribute
##gy
009
008
##sto
##vic
alan
##gic
##ways
Investigation
##rgo
393
401
##iu
follow
alder
Moi
##ses
caused
house
dust
really
know
ja
##sey
CD
##dón
##giene
##mona
1559
1371
##fford
##ern
##isited
Clin
##ics
1587
005
Pearce
##uwe
update
Rao
Phi
##patan
Impact
environmental
controls
414
020
Mur
##ack
MB
##diat
1542
Neu
Rush
Cesare
versus
##ginal
delivery
long
infant
outcomes
perin
##ato
##lp
Von
Her
##tzen
tela
ato
price
1476
1046
GS
M1
L1
SP
NK
C4
IL
Ober
Hof
##jan
genetic
wind
road
gene
discovery
1639
1038
ala
##pi
##jorn
##sd
##otti
Overview
status
clinical
1752
699
Jen
##nette
Falk
Bacon
Chapel
Hill
##sens
Nomenclature
##cul
##hri
##he
1002
##uth
Recent
into
##esi
CP
##uin
##tz
##patrick
##xida
str
1152
jap
Wood
LG
Gibson
PG
##tary
lead
inn
##ate
immune
activation
##arm
##ther
##our
ST
##iang
##inal
actions
beta
##ren
##oce
##ptor
##agon
##ists
##uc
##48
1799
568
aj
##pet
##mist
Card
##ios
##ele
block
##ible
Cochrane
Database
1251
1465
Morales
Jackson
Li
##worth
Donna
PT
Guthrie
Nov
effect
random
##ized
controlled
trials
est
779
242
1378
1235
RA
##omb
BA
##ler
SJ
Medi
##cations
tri
Lai
Tian
Wu
Mind
Liu
Lulu
Xiao
Bin
Ying
Song
##min
Chen
hi
##hua
Wen
Shen
Acid
##pp
##ress
Drug
Use
During
##gnan
Meta
##بعض
##xi
SN
##aku
##gen
avoid
##ance
##oles
##ii
297
Bear
Thornton
CR
Hus
Osborne
NJ
Indoor
##gal
diversity
251
##lam
##mation
##ace
Brain
##hav
993
1749
##86
الخلايا
بأنه
Five
##sic
##ians
should
question
اطلع
ملل
Welsh
Bara
Bar
Emma
##ffe
##ine
D0
≥
Pin
##nock
BM
759
847
391
ولكنه
Moore
Pascual
032
##UP
##aco
##urt
##quences
bron
##ques
non
traité
##édia
##trie
Mai
##tre
Sim
##ilo
##wski
##enne
##sica
examination
adult
patient
inspection
pal
##pati
1584
857
Werner
Status
##mati
##cus
1596
607
PE
Shi
##ber
Santana
Dy
##nea
1647
##cna
006
≤
Salto
cut
severe
354
han
##cise
induced
bu
##esten
##feld
Wolf
##art
consideration
ado
athletic
##ess
Sports
387
##lsen
##rson
##jer
##mer
##ini
##usa
##sco
Canon
##ica
Cum
##mis
##key
Delgado
Gia
##cco
##ob
##nic
Larsson
##ange
##uwen
LE
Treatment
exercise
disorders
sports
relationship
##ping
Joint
Task
Force
ER
EA
##AC
cooperation
1839
016
Kinder
##nist
erg
potential
competitive
athletes
1724
Pl
Hon
##aal
Lim
##pens
Kui
##pers
Over
##beek
##wind
##ten
β
##₂
go
performance
Aa
##sen
Burg
Hee
##der
##neb
##erg
Mae
##str
##hl
##ün
##ssen
Van
##den
##pla
##lken
Work
management
guide
##lines
broad
perspective
AE
##RD
Simon
Stevenson
Stone
Boris
diagnosis
American
Rhin
510
reactions
##vera
Annals
##alle
##rgi
2543
McDonald
Marks
GB
Lance
376
974
803
014
##gre
##ave
##mes
##wara
##PD
just
components
1688
Allen
##ski
CS
Abrams
MJ
##inata
cat
dog
urban
longitud
1764
1155
hen
##hna
##pping
dogs
ij
##cott
SL
Tang
##tral
position
statement
prevention
Medical
182
Rowe
##cci
preventing
influenza
Strategic
dvi
##sor
extraordinary
meeting
##kl
##pide
##mio
Jul
Been
Cox
##wr
##ot
TS
Effect
smoke
free
legislation
992
1549
246
NC
Spears
influence
smo
##king
response
1564
0001
##ap
##leto
Hoover
RM
Self
##oking
Board
Fam
312
1001
Jasper
##øt
##zs
HK
Johansen
measures
Carson
KV
Chandra
##til
##lek
Pico
##inn
MP
Ester
Yang
Yao
hon
Mao
Yuan
Jin
Qi
Fang
Yin
Gao
Mei
Ling
Yoga
Sons
Ltd
cd
‚
بود
5°
روز
1858
pala
π
##λα
##ός
zo
ζωή
node
1652
carbon
##ifer
##rna
##ntia
دوار
kai
και
##νός
ζ
##ῷ
##ον
##Є
541
404
Geological
Geo
##logi
Scale
##rati
##cam
##bria
##mission
635
542
Scientists
foot
##print
southern
dating
back
071
mes
με
##σο
290
##vil
##mo
##dell
##quity
Bd
Nr
Dezember
##isen
Mond
##puter
astronomi
##sches
##age
##trum
Auf
sci
Februar
zuletzt
abgerufen
##ğa
##zka
##lima
Az
2560
Shaw
Levy
##لند
Edwards
##lins
454
Cole
lengths
##hner
Petri
bis
##ect
semi
circular
path
star
##acon
around
eles
##tial
Pole
day
dark
##ness
winter
evening
easily
provide
accurate
true
Nature
412
further
discussion
via
DI
Eine
##ätte
##wig
##keit
##weis
##ner
##ung
##sche
Orient
ä
##cher
′
Stade
##lman
gli
Rin
##aldi
Dell
##rami
Men
##fit
Verne
ben
Große
Königs
Che
##ops
zit
##iert
##yon
graf
##fiti
voyageurs
sur
grande
Kairo
VII
CL
##ramide
##eim
Geschichte
Augsburg
Leslie
Gloucester
Ludwig
##dt
Louis
##roon
Herbert
Rick
Länge
Richtung
vier
Grund
##kanten
grosse
bei
##ise
##inder
Temple
##ize
##ff
Juni
anderen
nga
siehe
##glio
Einige
zur
dritten
##periode
großen
Beiträge
##forschung
Alter
##tum
sk
وتوزع
##nol
Lexikon
##kunst
Düsseldorf
Field
Noel
Wheeler
purpose
IX
nuclear
em
##ulsion
films
##nti
##llat
hod
##os
##cope
##kson
Beyond
##gination
بواسطة
1765
##yse
Perrin
Operations
carried
account
voyage
##endix
خدا
János
Entwicklung
##utu
Toten
##fer
##raum
##ente
##ln
Alten
Reich
Rolf
Gun
##dla
Matt
Roc
Hrsg
Ä
Tempel
Struktur
Funktion
Raum
##programm
Akt
##ologischen
##tag
##ungen
Hildesheim
discovers
passage
Week
Januar
bg
##eru
##fen
Um
##fassung
##sma
##uer
##was
Discovery
Satellite
Khu
Honor
Boston
##enan
##lagen
Königin
##nen
Wien
##cker
Het
das
##ät
##sel
ihrer
Best
##attu
##kar
##sne
Tomb
here
Dynastie
##geschichte
##gung
Ne
##kro
##pole
Band
##taba
Kern
##fried
##öfe
Fel
##ä
1224
239
Yo
##shi
##mura
Kur
##oko
Schiff
Ah
##ram
##vation
boat
begins
án
##osi
##èle
fille
##éo
##ps
##ueil
travaux
relatif
à
##ologie
##ennes
ass
##yri
pour
servir
##llet
Française
Cai
751
##mne
travel
بالإنجليزية
Electronic
ED
vat
SEC
##ON
Tur
commerce
manager
##ial
networks
Cham
Springer
حذف
Wiki
Blog
Micro
blog
RSS
transaction
fees
model
##scription
affiliate
sales
digital
enterprise
Kind
book
Pet
##opia
apa
##cita
Conde
##nser
Engineering
Standards
##loss
Electrical
Lock
##wood
son
ε
تعلق
Bent
939
063
Planet
tom
##lio
##polis
Mata
##riy
##yah
664
525
Cité
##bn
##ub
##blo
##ibe
##bai
lb
Inside
aspx
le
##bane
##sena
##tional
word
##press
##éni
##stique
637
1098
1291
Comté
comtes
Toulouse
1516
936
416
605
²
##mini
##strat
##bei
Files
EK
lau
bare
##lias
##bano
juba
1860
pit
##hom
E3
##unt
##فينة
Conquest
2nd
fully
revised
##rib
NY
Liste
##obe
##rungen
Thu
osi
befindet
sich
monte
Bericht
Grab
Quelle
Fat
##tov
##ich
Harbor
##ara
##oh
Sonne
##nau
##gang
erfolgt
einem
Grad
zi
##muth
Norden
Osten
Süden
ZDF
Expedition
Lag
heutigen
Eritrea
mass
extinction
انواع
alla
##gn
##ctions
Their
became
widespread
pen
##rated
greater
land
reduced
run
off
nu
##nts
hence
marine
##cos
##ystem
diversi
##fied
less
likely
##rupted
Concise
##ymo
satu
##rda
{
Fighting
Falcon
Off
Top
AR
##plane
forum
Lockheed
deliver
fi
ter
##est
##rich
User
Rosen
##wald
Downs
##ide
Dom
##inan
Mart
Makes
Its
##eal
Jet
##ugh
##ll
updated
Company
Histories
Corporation
Vi
##per
##shire
xx
2025
164
天
安
門
廣
場
门
广
场
version
1651
امام
##ی
شود
書
道
1849
1788
1796
##لبوم
藤
広
重
1797
différentes
éditions
##kai
##dō
chez
Hiroshi
station
Shin
##agawa
##sur
hir
##hig
consulté
août
##do
##jus
Wer
1912
Saturn
雪
舟
等
楊
1506
1440
1486
墨
View
Tokyo
Show
Era
##mida
ga
##wa
芸
者
子
妓
ˈ
##ɡ
##ɪ
##ʃ
##ə
ɡ
##ː
##eis
pronounced
Japanese
##vo
pronuncia
dictionary
mai
##ko
舞
hang
半
玉
##uda
Auto
Row
1295
aku
御
酌
##kom
mina
##rai
kar
##yū
##buru
yo
##rab
##fus
##ū
##kak
遊
廓
、
郭
1617
##ogu
##nate
##jo
##iran
ka
##buk
##gawa
Gallagher
district
founded
profession
1753
hundred
##sig
licensed
fem
1761
174
Girls
184
Tau
Tradition
Bow
##has
gains
Trends
##aki
##gai
Pont
Kami
iken
##wel
fee
reported
Dal
her
impression
##eik
##gas
cho
Liza
said
you
called
registration
many
##isha
areas
like
##iya
##que
##gan
PR
697
##tori
mu
##sume
bun
san
oz
##ashi
##ki
お
座
敷
kim
##iko
oka
##out
##omo
oko
##bo
kan
##zas
miz
ware
##shino
ni
##hog
##ami
eri
159
Boy
Champ
##eon
##mach
花
街
柳
界
amis
Originally
Studie
##ino
Kyoto
##ama
Asa
##gura
Ata
ai
och
##aya
茶
屋
ry
##tei
sen
##dai
線
香
代
##oku
##hana
検
番
ken
Fiona
Graham
##uki
hun
##ichi
##mbu
opening
Iz
Naga
##oka
sai
Travel
Guide
Tea
##remo
##ny
Kita
gu
Shri
gardens
contact
ir
ker
##obi
jo
Down
Role
nom
artistes
Martha
##dman
Bonnie
Gordon
Court
##esa
Cross
##tura
517
Mask
Pain
##body
Essex
Okinawa
ko
tai
##TD
749
mach
pages
Meiji
##igi
##ugu
Nation
##bata
##suna
Snow
Though
##married
married
women
Sada
described
having
retired
example
dann
Some
man
always
sexual
before
sponsor
Sheridan
Dragon
Ladies
Fan
##tasi
##otic
586
Alan
Booth
Looking
Lost
Journey
Through
##ishing
Kod
Series
##oba
Life
Pages
Edo
##rih
##field
Berkeley
Head
dal
girl
bin
##tsu
abu
太
鼓
結
び
drum
kn
yana
##ow
##mada
taka
##bus
##iwa
##uku
Kat
##yama
##odo
##hid
##ane
Osa
445
موتور
##فورد
1935
ト
ヨ
ダ
G1
AA
Toyota
Concept
Toy
##ola
##nd
##evo
##his
KB
KC
Cruise
Coro
Phil
##oso
olla
GT
toy
##ota
##cars
##fors
##ale
##zine
##land
##eg
##pra
##UM
##MI
Echo
info
Da
##vao
##ex
##chang
Moving
Forward
←
pet
50th
##iver
##sar
##ope
Cars
NN
##OT
##view
##point
shock
china
jam
ut
##mmar
Way
Hand
Production
##orne
TP
production
usine
##eek
Car
Market
348
global
domina
shape
makers
Ford
improve
Fortune
Motor
Cut
Back
Truck
Big
Vehicle
Manufacturing
##oy
assembly
parts
plants
##HT
ging
range
hur
##oom
Nissan
Lead
Drop
Sales
ear
Low
ih
increasing
market
share
##pense
ak
eu
Jo
##ining
História
rasi
ve
Historia
Venezuela
Million
Hybrid
Cam
Site
Lex
Highland
2030
Ve
##cles
##400
##HS
FC
Fuel
planeta
##ug
Cal
Test
Pos
##sible
##vei
##cle
Alternative
Train
Rice
##lid
Door
bus
train
kind
##utom
##oti
ta
hybrid
##ndia
four
fuel
efficient
than
diesel
buses
##ycling
Initiative
Bio
##tech
##ores
##tation
##AP
Strange
Swing
Unit
PM
gi
##zma
Personal
Robot
Dev
##elo
Industrial
##pment
Material
V8
moja
##kies
blogspot
sky
##anes
##ING
VI
considers
entering
aircraft
industry
Honda
prepare
##fig
##ht
Marine
Boat
Epic
Find
##ari
enters
pl
##eas
craft
introduce
two
direct
drive
boats
##جامعة
Teacher
olar
Technical
EP
College
Educational
Services
Custom
Australia
Sr
##vice
F1
Rally
WRC
Super
Cel
Four
peu
rally
##but
##own
##club
616
##pies
Win
##kach
Hour
##mund
motors
##ports
TF1
test
car
Formula
Official
set
debut
##UC
MO
##TO
OR
##bc
NA
V6
البطولة
Fifth
Good
Dash
Title
Trend
Sport
##raft
##sman
Sprint
Cup
NASCAR
##wide
engine
remains
scrutin
ڤ
Ole
Valencia
FIFA
Club
Marketing
##riva
safety
##cola
##ris
achieve
stars
tests
uri
Mol
##ecule
Definition
Frost
##burg
Å
##حلول
ells
##ficial
Gal
##vani
More
##gative
Mg
##former
##ier
##rmo
generator
Solar
Systems
•
allow
Ground
Bed
Vert
##ical
Deep
Wells
##RO
##SI
##owa
Plastic
Def
Ela
##igue
##reng
##rack
Fast
##cture
##رئيس
Hip
Syn
##dication
HM
XML
小
sword
Kan
##zan
##tō
CH
##CH
C3
1357
1874
1303
628
161
##rup
##ru
pars
media
##ede
##cto
##ped
##oto
1603
libr
oss
##ibus
##sima
##ati
##ssima
comment
##aria
Dialog
med
##dat
##dit
##bek
##roc
##odi
##lop
##olis
Pio
943
1385
1759
966
1560
خون
893
1120
1780
1899
434
975
##chn
koe
layout
##chse
##eber
search
Buch
##seite
Kali
##day
##RE
AP
è
##GI
##ult
recherche
998
سرطان
Stanford
started
poor
riche
2021
globe
##rates
Mall
Microsoft
Medieval
Islamic
Civilization
Josef
Je
Bach
books
id
ot
sig
NG
NM
result
##num
Woodward
1267
1507
Hunt
eno
Bird
TM
Soyuz
°
##ord
##inate
Universe
Temps
##onné
T1
coordinate
##UT
temps
universe
UTC
Why
##rony
864
818
والسكنى
سيدي
casa
A5
A8
A7
Sarkozy
lance
France
Maroc
Monde
septembre
Als
##tom
dé
##voi
première
TGV
##oca
fait
##émique
É
##gent
mars
##ffice
aéroport
suis
Prof
##ession
##nel
##stiques
398
435
431
Marius
Boyer
Ja
Pier
##teti
François
Ze
##vac
الفيلم
chain
ina
##ctiva
Type
IP
##ibo
##some
##fi
bond
RCA
hem
##agg
##inin
RC
IV
##ety
gala
##ctos
##amine
binding
lec
Lec
##tins
##yla
##gly
growth
TN
alpha
##xin
ly
##mp
cell
##cin
vas
##cular
lea
syndrome
albumin
##bina
DNA
孫
兵
法
mio
##sis
tak
##sim
Main
continued
Cyprus
##ject
Maka
##rios
fact
implemented
quite
Non
implementation
sufficient
reason
##pel
resignation
me
Deutsche
Zeitung
alle
##gation
impossible
matter
good
ep
Website
order
face
situation
##UD
##stu
##dies
##pr
OK
##iec
trouble
island
##war
##aise
Leon
Had
##uo
Island
Brief
595
##YP
##ones
missing
une
##hed
##ıb
##rı
Fed
##ere
Devlet
##vi
##ş
##oğlu
Ulusal
##lik
Partisi
##rri
##yet
Right
##ning
northern
elections
##rito
ratings
Od
##DS
Documents
##fere
##nc
Northern
ama
GNU
agency
press
release
##cak
recognition
Kosovo
independence
##kı
Doğu
Üniversitesi
##irne
Avrupa
Uluslararası
kde
594
809
1056
286
392
tr
1254
1160
644
##imi
##plan
##wim
##cor
##kt
##emi
1841
Prince
duke
Edinburgh
1844
Biography
Windsor
1901
required
Clay
Rose
Sinclair
Vickers
enam
##ttage
Nicolson
##aro
Nico
dia
quoted
##col
Comment
##ose
مادر
Harold
Queens
Wei
rather
nothing
sit
look
Royal
Little
Brown
ordinary
##bby
collecting
does
personal
feelings
heavy
Gore
##arri
##son
Transformation
Politics
##ore
Mem
##oir
##anna
##dine
memory
1970s
B5
709
1304
725
756
1325
extensive
route
Bat
##tuta
##hru
record
rare
enough
today
##veni
any
event
must
amongst
##lers
1354
Gibb
Broadway
1326
930
##اره
1327
1255
727
مشهد
1330
1329
##jay
##rah
Career
Legend
Vasco
Gama
Roland
Oliver
##eret
Hunting
##lus
##yth
Extra
##cts
ark
##ēs
On
##rae
##klu
##yt
##nie
Iron
Clarendon
Said
Sama
##tar
Som
Cha
##pur
##uk
##kok
##wah
##ira
Left
##av
##rian
Prentice
Jerry
##cou
Contact
anges
André
13th
##uri
Making
Indo
LL
لكنه
##dura
##SH
##ig
##aad
red
att
##uta
false
14th
1345
##read
##nesi
cite
RAW
1346
1348
1350
1324
1353
1355
1368
1369
1666
margin
right
}
LSD
1101
1010
##ردن
##hry
##ock
Peak
Jordan
tribes
Gerard
948
gravi
lens
Multiple
image
Gravity
Lens
Moment
ABS
Brill
Hole
Horizons
How
They
Astronomical
Sept
1704
##100
##mol
measurements
distant
##xies
903
bout
1804
1503
1698
1528
##فترة
Byzantium
658
##زاس
657
##bian
862
یک
ک
##یر
##لی
ی
TNT
TJ
بلند
##Ş
Ö
##Ü
sites
##zım
##km
##ültür
Sanat
Merkezi
##iş
tarihi
Ocak
##ksu
Romantic
Communist
Nazi
Ans
##lope
##rita
Ci
Sf
##ım
##ız
yıl
İlk
Ş
##rler
##â
##kte
ö
##ğ
##cisi
1848
اخذ
##ür
ın
##anda
##lığı
KP
##ıldı
Rad
##ikal
Mayıs
iad
edi
##lec
وغيرها
1323
1416
1335
1364
1380
ya
##school
لأول
1419
باستخدام
energy
Chem
solar
utiliza
Flow
Charts
Clean
##hit
##tich
But
Perl
1699
##éna
##rd
eo
1832
##zem
##peli
##kos
255
##wari
368
371
Daniels
##kovic
1767
Anderson
468
##lett
394
Hala
##iot
##tw
Bolton
877
auxiliar
applications
cells
##sta
AG
##oof
Sky
##rock
##ets
524
Carr
653
SE
##RI
##qu
repeated
termin
Palestinian
##irect
cont
counter
agreements
according
Israel
Defense
Forces
referred
Israeli
settlements
label
colonies
references
imperial
##sah
أنثى
عراق
869
883
715
1253
##گل
1869
##زند
##مْ
Barker
Mesopotamia
Campaign
Enigma
originally
published
Bas
##tard
execution
claim
names
soldier
killed
##KI
Military
##tist
Stuart
NEWS
Not
bra
RAF
corporal
##oun
Sus
##pende
##dna
five
inside
Baghdad
finance
ministry
independent
guardia
##hdi
army
vo
revenge
troops
lu
Murder
Political
Eight
Tha
bd
##ulla
##eken
militia
forces
Barn
##aba
##cution
##شک
صفحه
##ٔ
449
produce
fines
1736
1769
Horse
1703
1755
1782
1751
1642
1734
##ورش
1757
1772
1779
1794
1790
1763
Fair
##bt
Collection
Ut
##ility
Consumer
##fair
Commercial
Contra
Commerce
##kr
Delhi
Taiwan
Law
##fect
Rim
CF
SF
1570
Fourth
Assessment
Working
Physical
Basis
389
RNA
Doc
277
##tiques
ej
##abat
tid
tu
micro
##organ
mono
##zy
##got
twin
Nuclear
som
##atic
transfer
##NT
Mito
ond
##ria
##eu
##loni
1277
Blast
##omy
##ép
##aration
pel
##lu
##hera
##uti
##plantation
##asto
human
stem
##bro
cum
##ulus
##hen
alb
##tende
Albin
##nun
##ciation
Tiet
Syndrome
##af
##tism
Associated
##heritance
##rics
ty
##inas
##inis
linked
##ces
##sive
Net
##tles
##hip
##sius
Eriksson
##CA
Boiss
Raymond
Lac
Express
Protein
RP
Mel
##ano
Individual
##culo
##tane
##ous
Class
Genetics
1145
Sep
Nord
##lund
##del
List
increased
##mel
skin
cancer
Sex
Chad
Hal
Hospital
##adel
##rea
Was
select
force
black
##gment
homi
##nin
Oct
##typ
content
1781
Hong
ES
Zee
issue
##centra
1471
Sur
##gical
Consulta
Tanz
nim
##lake
white
##rilla
Diamond
##tor
Telegraph
pos
anni
511
422
##pro
938
久
保
利
通
##alogy
鹿
児
島
西
郷
隆
盛
##zati
##elling
津
薩
摩
1585
1861
木
戸
孝
允
1852
Maxi
##dible
baby
milk
##cid
##mento
##ena
junction
Bi
##pid
teeth
Dent
notation
##DI
method
##don
##tia
##pod
شش
Clarke
Biology
##ition
##tino
##genes
Walton
##hm
##oud
Tora
##bine
##jad
Principles
##odon
Lab
Too
Texas
Branch
Kr
##anic
Ernst
Ant
##hro
##polo
##gie
##ziehung
##wis
Wald
##orf
dago
##gik
Reihe
Wein
##heim
citing
Il
##garten
Hist
##ium
Principal
fiber
periodo
##ntal
liga
Pennsylvania
##reate
Oral
Pla
dental
plaque
Leeds
Sugar
too
##cay
##hurst
##viti
Plus
Prior
your
##mb
down
electric
##lling
Prost
##hod
##edu
##plant
##llo
##geon
##ame
##IH
Sy
##cati
Mayo
Hy
Tee
Missouri
##ist
Ab
##fra
lives
stop
virus
ساعت
861
382
##اته
Forgotten
Prison
Observer
Ron
Kathleen
Rodgers
557
Walter
Opel
Portugal
Scarecrow
accused
##pion
When
Kill
Penal
Amnesty
Council
Meeting
##illo
##tine
##uil
##lot
Headquarters
sp
##³
conforme
Conform
Iso
##meri
C2
E2
ة
Maria
##onia
##ius
Giovanna
contes
Brand
Pietro
##stas
##bald
##nner
Leopoldo
Teresa
1768
##ames
##ailles
Mercy
##gente
##pina
Savoia
Madame
Barry
Artois
Pol
Moyen
1774
1793
OH
##OC
##OH
NH
##NB
##nation
HC
##ساز
ci
base
ao
wol
##inski
Gas
chemical
##quilibrium
dini
##tro
trio
te
water
pH
aC
Việt
##õ
Đạo
越
武
Henri
Mat
##isse
fa
##isme
Spur
Hilary
Unknown
Early
##marie
Liebe
##är
##bel
Küste
Arbeiten
niemand
hören
352
553
ABC
Nat
##smo
Marguerite
Nice
##eau
1824
1835
1758
1817
1786
Parker
Tin
##tero
##bee
Ari
Prat
##ix
1571
1592
Giovanni
ello
##tett
moderni
1672
forced
ne
##sity
services
##valier
Giuseppe
##pino
employed
paint
flowers
fruits
real
##istica
##lly
they
began
##ain
higher
beauty
love
much
##ribution
Robb
apparently
three
sou
##rc
Mancini
depi
##ggi
period
extreme
poverty
Peel
Fruit
Basket
Young
Sick
1594
1597
##lisi
##ggio
Long
night
fatal
Tomas
##soni
believes
Min
##niti
well
##aga
Vita
nota
ig
##nota
dei
vir
##theon
219
Sandro
##radi
Maurizio
Marin
Burlington
1604
1606
Flor
##aes
##jk
contemporary
Karel
translated
##bba
Player
Bitte
Pen
##iten
Magda
##lene
Saint
##ime
Mary
Judith
##head
##fern
##fice
Assisi
##tas
Flight
drawing
praise
colours
finds
naturali
offensive
sat
##isfied
invention
brain
Wing
argues
beginning
بدور
##پل
##پ
Natur
Mis
##cella
پل
plat
##τ
##ύ
##πους
Henry
##dde
Greek
Lexicon
##eus
##ύς
پ
##ούς
anatin
##nit
##hor
##nch
##hynchus
ole
duc
##bil
##ڤ
Colony
Wales
##گر
جهت
پر
##پر
##mann
nya
Evolution
ven
revealed
##ør
Zo
##fia
Kiel
##ska
Were
mam
##ologica
Polo
##nica
asa
##kaz
Masa
##hiro
##iz
##rini
Suzanne
##rania
mor
extinct
##eding
elect
##rore
loss
##nces
##32
1126
##ad
##پا
DM
Hop
Pamela
Gill
##rus
Sally
Rogers
Davidson
Steve
Morton
##fel
Pick
Karen
Flame
Sen
##stair
Barbara
##ags
Doris
##get
Villiers
Ian
##anne
Mus
##ser
Rebecca
Pia
Patricia
mand
##titi
Cretaceous
##trem
##leri
##inga
1080
SR
AH
ُ
Syd
Oz
آپ
Hate
You
گ
پا
دولت
Ernest
Rutherford
##ddy
موفق
1147
583
1187
1223
مشرق
ב
##ְ
##ּ
##א
##ֵ
##ר
ש
##ֶ
##ׁ
##ב
##ַ
##ע
Veneto
872
Venezia
Vene
##sia
Venedig
1189
1202
797
402
554
821
Sci
##bec
piazza
1683
1720
824
1717
افراد
##zani
##ghe
1478
1510
1488
1518
1547
1588
1485
1696
1449
1515
1707
1725
1616
1491
1525
1527
1562
1533
1612
1567
1643
1609
1517
1590
1637
1678
1741
1671
1686
1739
1693
1447
1470
1556
1822
760
176
983
346
486
905
513
ئ
##clu
752
776
881
1665
931
666
128
1024
356
342
481
044
499
189
254
448
981
307
273
598
##OR
##jr
Crown
Hotel
مطرح
833
##aron
Dol
##iche
Tel
Ida
##roix
Historie
##cro
##ption
tous
peuples
##ree
Creta
Cure
##res
961
1645
##rete
Evidence
Very
1851
##oan
Classical
985
instance
##lift
metres
western
earthquake
discussed
Stat
##iros
magnitude
Coastal
topo
##historic
signature
##terna
Homer
Odyssey
##main
fresco
##bri
Style
Painting
##ered
##cavations
##aani
Palace
##ail
EMI
Cold
##stream
Huxley
##duct
ens
Faber
LM
Arne
##ark
settlement
Ia
##lys
##gea
Opus
Lund
##ography
istoric
Ioan
Papa
##stod
##oul
Arch
888
٫
ى
##tant
1372
1423
1414
1422
Ye
##dio
##dei
agent
##ions
governing
resolution
wat
Monitor
##eles
IA
Phone
##pped
CNN
Interview
seen
yr
bomb
Twitter
alma
##sr
dynamic
stories
SI
##TE
##TION
##OM
##EM
##LA
##FA
##UL
CT
##zeera
Une
##dite
alleged
letter
interim
Vice
Mohamed
middle
Cisco
Live
##cast
Key
Speech
Arab
Spring
PS
Day
Faces
evolutionary
ways
##licy
Reform
##lap
ira
##qe
##yes
Siegel
Joe
Comics
DC
مسلسل
TD
##ez
Night
Rama
##dan
619
519
156
384
##ft
mountain
##cano
##cline
##siden
Dana
mobile
belt
##خانه
edges
elv
arcs
floating
balance
iso
ridge
mag
##zca
##gae
##gara
Falls
Geology
Facts
Figures
Niagara
Parks
Ontario
792
1829
##ried
##rge
1677
Jacob
##kopf
##hir
##ool
rank
##riff
posta
Editor
Gerhard
Princeton
Thought
##iane
Morgan
##pre
ensi
Munro
Hispano
##rgia
##uddin
##ving
Path
Marty
##rdo
Forte
Blas
##phe
Int
Gender
Alba
##yra
writes
Qur
regarding
apo
wrong
##lera
aimed
choose
leave
##bra
faith
contra
correct
punishment
##forced
when
##rante
if
becomes
##dien
disorder
526
aw
Criminal
##izing
##posta
قرآن
﴿
﴾
ء
رشد
بخش
##hale
##sque
Petra
##nth
9th
Springfield
508
Major
##tract
tourism
board
539
Photo
Nelson
##lue
Rivers
Desert
Sara
Kar
##taw
explore
temple
conclude
748
##dise
Architecture
##oration
trends
warning
Destruction
Weather
sand
##stone
architecture
influences
rates
Petr
##cken
Atlas
##ours
mile
walk
Treasury
447
446
1276
##é
Marie
##zer
cité
cara
##vane
Tintin
##heme
Indiana
Last
##rusade
Passion
versant
secrets
Friedrich
Nietzsche
اندر
العنوان
Hero
##iny
Bos
545
Connor
Robertson
Mile
##tus
Crawford
##ut
##ivat
##ives
##ision
Maker
##tle
1259
430
##صورت
Dia
##gora
##link
Wide
Consortium
HTML
tag
codi
##dic
DOM
##iler
##prav
engl
prav
main
##sse
##lve
00
alter
100m
##ill
##sat
bli
tv
##cen
##gli
camera
eastern
Libya
NBC
Let
##tice
922
عليها
##zell
Breaking
Video
international
arabe
canal
nouvelles
devenu
acteur
clé
dans
médias
mond
##iaux
Gustav
##els
Fallen
Entry
Catalog
Guru
Grant
##hib
Section
##ag
Gaur
##ee
##raa
##rush
ses
seeds
288
Kuwait
1390
1391
1646
1716
##thur
##ée
Mack
1695
Arie
##rber
1705
1690
##dolo
1714
1676
##ew
Wiener
1694
ƒ
فيه
ano
sac
##rif
##icia
1360
kg
TB
MT
##rol
B4
ازدواج
Link
DP
Mt
##rij
Ir
Hair
Wave
##moni
thi
mer
##inger
##itsch
Über
##dri
##uts
über
seine
##nst
##itu
##lv
Chi
785
ٍ
Hold
Biochemistry
homo
##poly
Chemistry
الأزواج
Density
°C
Sai
Processing
Marcel
##kker
2e
IUPAC
Albert
Cotton
Wilkinson
##organic
−
electron
pair
714
فما
757
762
766
768
772
353
Ny
##quist
anno
sam
##pling
theorem
Claude
Noise
kB
##druck
##ith
Theory
Mathematics
Digital
Ι
##ού
##λιο
##ς
Κ
##σα
VL
VS
Gaius
Julius
Caesar
1118
516
Growth
Set
Wisconsin
mo
1096
##abi
kr
982
1099
509
1263
اجرا
Piero
della
Francesca
Assistant
Ang
##hia
1430
##pu
##blished
1450
1451
1454
1452
1464
Three
1469
1474
1455
Alessandro
##latt
1660
Domenico
1685
Esse
Vintage
1709
1713
1719
1729
1738
امور
والأربعة
Coupe
##rin
1668
1733
1702
Rough
##aine
idées
heure
##uses
##quin
935
972
Général
Tunisie
Tome
274
Histoire
1052
294
362
996
374
وسجل
997
1017
1135
##حه
Kirk
Illustrated
##po
##cre
191
##lon
Eun
Cali
Sultan
Relations
Hebrew
485
1103
سلطنت
479
487
489
522
1128
1130
528
Gabriel
Francesco
531
1137
##éi
1138
1143
Irwin
Riley
Alex
Ina
544
Syrien
traduction
française
tome
texte
par
##roux
##sol
József
##lov
##sz
Orders
Thomas
##bridge
1156
1170
566
569
577
1211
1258
1154
1037
463
421
432
دهستان
771
790
1063
465
490
1359
329
459
דוד
בן
ג
##וריון
مدت
##dox
ju
##if
édition
724
اسلام
משה
שר
##ת
aby
Talmud
Jerusalem
Meg
##illa
differ
##lac
##terie
##zah
written
writing
nah
Dan
י
ו
ה
א
כ
##ִ
##יב
מ
##ָ
##ל
Wars
won
preparation
courage
alone
ؤ
##צ
##ח
##ק
ר
##ין
##sing
Palestine
Papp
Yi
##hak
Former
070
074
Village
Dei
##ssin
##yed
##rze
Mil
##stein
ويبلغ
Credit
Suisse
euro
wealth
size
Although
ranks
fourth
nations
aggregate
ahead
Germany
individuals
top
itself
quarter
##ingen
##ear
##pin
Roberts
xa
##logia
sive
origin
libri
VIII
partie
frontière
avec
Allemagne
correspond
néanmoins
cours
4°
8°
675
Terre
eaux
intérieur
rivière
lac
Organisation
Unie
significa
données
Guadeloupe
Martinique
Guy
Réunion
Mayotte
site
Ministère
Outre
juin
Barth
él
Miquel
Nouvelle
##onie
##ési
##ipper
Wallis
##tuna
perdu
près
cinquième
dix
Insee
Première
hors
déli
soit
île
##dam
archipel
Ker
##gue
Europa
moins
Bassa
Nova
îles
##lor
##ieu
##rome
##lin
aust
antar
##ctique
françaises
peuple
##ventaire
forest
février
##pent
dir
##brun
Alain
Tra
##noy
Élisabeth
pré
Jacques
Points
Seuil
coll
1r
éd
##ία
1270
1494
1539
1598
1715
industrial
##rius
aîné
##iss
##ovi
##ngi
drop
essay
Religion
until
Revolution
Cape
##tian
1209
##uera
##bor
Don
Joan
Arc
Siege
Orléans
##istor
anu
Roy
##dur
055
dynamics
why
states
1572
1766
##pé
##rouse
Jack
Lynn
##quality
##tern
##ploring
Park
Doyle
##uan
##neri
acque
##sene
##rui
Vendée
Reg
##ards
##roi
##sés
victimes
destruction
guerre
Roche
Yon
vend
##éen
historiques
Spencer
Tucker
##sci
851
##bell
Vichy
Pax
Trent
français
religieuse
##OP
Yann
Rai
##zio
senior
lecturer
political
Bordeaux
professor
##eritus
##nna
##ére
##ndum
##embre
Senate
bly
senator
Sénat
UMP
##ivet
États
gouvernement
monde
Franco
oni
officiel
##IF
##bas
##sies
consul
##ates
alliance
franco
allemande
puissance
européenne
Quand
Mitterrand
déjà
né
##cia
retour
Figaro
Royaume
empire
##istance
OECD
prior
fin
service
militaire
##liga
##toire
documentation
Trio
SMP
Document
Recherche
Pai
nucléaire
UC
##AV
A4
vendu
milli
dollars
équipements
milita
ce
met
troisième
rang
mondial
export
##ateurs
derrière
Unis
Russie
sold
billion
equipment
ranking
arms
##ations
demeure
##nisse
armes
premier
plan
biggest
##lier
express
##ème
arm
devant
##ël
selon
rapport
ministère
Défense
publié
dernier
4th
##ator
##plo
minutes
ail
##rowing
Franc
parade
Bloomberg
interest
graph
German
خاطر
##din
##oid
##bourg
Us
683
##œ
##nig
ran
panorama
agriculture
food
industries
##menta
##êche
alimentation
##ux
##roa
##limen
##taires
Panorama
Industries
##oa
contrat
##bau
##cence
##ît
##rise
études
##fond
##EP
##EC
Bologna
Lois
Ferry
École
publique
##tuit
##ïque
##bl
Nationale
grandes
écoles
tour
##mente
Cultura
stati
آلان
Louvre
Musée
##mai
barrier
bene
##lux
##rel
##iable
##tada
Sad
Ball
##oon
Rob
##rim
##mins
kitab
##ever
TIME
اعلام
sad
revival
struggle
Patrick
##burn
اغلب
##inte
ha
show
YouTube
##mir
محله
##מעון
פרס
فشار
Honorary
Doctor
Pere
receives
honorary
votes
award
Medal
873
Klein
Philosophy
##agan
Companion
Singh
Code
259
##tron
Dyke
Fort
##zim
##esch
##curso
Lev
Leiden
Lindberg
Theorie
Vision
Kepler
Chicago
Univ
Adams
Davies
Map
Mercury
423
Σ
##τί
##λ
##β
##ων
1737
Weiss
Gall
Picture
##orie
442
027
##cl
##ipse
mille
catalog
μ
Physics
815
777
042
MK
split
##יבור
##י
ישראל
##רוב
##עי
##טור
##ים
צ
##דק
##יס
receiving
##tago
regulations
medals
worn
uniform
Elise
Africa
edited
Keane
company
Morocco
##کش
134
Sergio
Della
Countries
Tunisia
Christians
pose
threat
Christ
##dja
##byli
Walt
Disney
Mouse
##eer
اصول
Story
##teller
Disneyland
Now
comes
Dubai
وقال
المسلسل
أغنية
##يتها
Xinjiang
649
934
1299
713
睦
月
初
夢
七
草
361
Sol
##mone
Kale
如
絹
更
衣
梅
見
目
hel
##mik
##uu
神
日
本
紀
事
記
万
葉
集
照
皇
鳥
居
明
治
時
着
物
浴
袴
甚
衛
平
十
単
帯
足
袋
地
下
履
駄
鞋
ガ
##ング
##ロ
ロ
##リー
##タ
・
フ
##ァ
##ッション
コ
##ス
##プ
##レ
主
食
五
穀
米
麦
粟
豆
黍
##か
##ず
##wai
可
愛
い
生
Ike
##bana
1490
nag
##eir
投
げ
入
れ
り
折
紙
kami
##hara
nos
foi
backed
##mpi
##sum
##kta
##gam
##zo
saa
##aca
kus
3D
盆
栽
##play
##zai
ban
風
mart
martial
Short
Martial
Clements
saga
shu
相
撲
Gould
横
綱
##IS
cai
##roda
Engine
چ
##zoo
feed
##ook
Yoo
فهرست
AND
BY
FA
algorithm
filter
Natural
Language
Meaning
##uid
##ues
##ingo
##fin
Compact
CDs
Transfer
##eves
Favorite
expert
##ral
Networks
826
Moro
Keep
Francisco
Chronicle
Raiders
Kim
Family
##tives
ages
encyclopedia
Allan
Fitzgerald
##erd
##ά
##βα
##ρος
bar
##bari
##zig
Λ
##η
##υ
##ες
##bye
Gardiner
introduction
##naire
historique
critique
##uze
##ict
##ionar
Writing
Bright
المندوبية
##گو
696
1296
hp
##gl
stan
publications
pdf
267
Pred
##omina
##ntly
Neo
Origin
##omos
Var
##iation
##redi
Este
Silvia
ini
Tatiana
##hman
##kre
##lou
Vincenzo
Pascal
Novel
##letto
Tyler
Hum
Genet
##rende
##dena
servi
Canary
Islands
male
pool
replacement
linea
1284
1260
nest
Monitoring
Committee
##meter
App
##rove
##ega
amended
effective
date
using
general
ane
##sthetic
seda
drugs
young
pregnant
##trici
##colo
##gist
Warning
##ardi
Seda
Drugs
##gnant
Lou
esi
Vers
##boot
consciousness
Daily
扁
鹊
Pie
1834
789
Recording
schedule
Dark
Side
Parsons
engineer
Moon
##usion
luna
astronom
تلاش
741
records
certified
units
albums
Light
Carolina
413
Marines
Diane
٬
Pablo
Honey
Computer
Kid
Allmusic
Hai
Thief
Rainbow
Jahr
مشين
second
855
Medicinal
Capitol
##inus
Pic
##cir
AS
##П
##І
##Г
##Ф
##Λ
##А
##С
Rosenberg
Schumacher
Len
##zen
##cq
Aid
DA
Cities
Provinces
Tell
##bed
Bei
Horne
Frederic
Hennes
##kad
Leave
Provincia
Francisca
Printing
##ina
Legion
Counter
Koch
##stru
##cks
##hum
bila
##lun
##mics
##form
Erich
##ckman
Biol
##brane
Fun
Dean
Blood
##igens
RB
##yte
ros
##tos
##bolism
Virginia
##ular
##take
Bridges
alas
##sem
##order
FL
##kum
Ost
mara
##tung
##ification
membrane
##dium
##lci
##par
infection
##sit
poi
sciences
Cell
Par
308
zero
null
1658
1674
1435
sv
##lug
BSD
ادب
##alla
منهم
Engineers
£1
Concorde
space
Profile
Ottawa
735
Larry
Brien
Bob
##welling
counts
freshwater
area
province
1613
Legal
Conte
##xt
Languages
bili
##alis
tab
##ulat
##onal
054
##may
Fraser
Toronto
Lori
reference
Jar
##vis
1787
answer
##AA
##ward
shift
corporate
Municipality
statistics
038
Climate
cluster
##versi
721
visible
Change
Twentieth
Metropolis
few
words
immigration
Star
Territories
reas
##glo
##mera
Sam
##lig
Various
##oken
tongue
Dave
worst
even
worse
Cleveland
##ront
##oli
rated
standing
##star
558
Greater
##isms
Crime
وفات
1306
كتابه
اجازت
##tivi
put
truth
standards
procedures
conventions
framework
assessment
authority
confine
giving
relativ
572
Blackburn
Keith
##ludes
papers
Ramsey
Russell
##rski
##wich
Hart
Fact
##dence
uses
def
correspondence
theory
substantial
responsible
widely
name
Bradley
##ying
Sem
##anti
##umption
Todd
Between
Foucault
##hus
Bali
Prag
Things
Words
Harvard
##posit
##teli
Supplement
Reprint
Papers
Hugh
Mello
Object
##ivity
Many
浜
あ
##ゆ
##み
BL
##UE
Prix
XX
Boys
Vinyl
kana
Hamas
yu
KO
##SE
duty
##pper
Seasons
vinyl
##ada
ave
WORLD
ke
##LL
##AD
BEST
##orial
address
##HI
united
chart
together
guilty
itu
Rule
##ball
Circus
hart
Virgin
songs
Schwartz
Dream
##ove
##ante
TOUR
##EL
queen
Well
Queen
Kei
##zawa
Nicolas
Cage
Body
##guard
Betty
Blue
Vegas
tank
Oviedo
942
621
Housing
##trine
ji
##vika
##ished
Mot
Ban
##arsi
Sanders
Alexis
Genesis
##tris
##oo
Partit
##smin
Khan
Penguin
##نده
970
848
1279
1343
1336
جهان
1273
1274
1275
1367
MAC
RS
Vega
##fusión
nes
##dles
Chart
##niques
##ita
nic
SS
RN
Eugene
##ffi
Capital
Finance
wa
Getting
Start
Resistance
##rada
Rate
##NY
abstract
paper
Christopher
Welle
Money
949
Elder
vs
Trading
Murphy
AOL
Kahn
Plain
Simple
Saddle
River
dies
East
##cada
##cadas
came
dalis
##mee
##گون
لوگ
##گان
##ima
##cera
##tidae
##cap
##ridae
##oidea
gracilis
##چ
828
825
Owen
##vores
Large
Size
Ecology
##دی
##یل
##تری
##مین
Get
Manor
للتخطيط
AM
informazio
medio
oriente
331
302
504
474
317
1221
1285
292
##KO
Salem
967
Host
1638
1073
654
1376
Somit
Spin
Gang
identification
Nielsen
Henrik
albo
Madsen
Heat
District
Meteor
##ec
Modell
heat
consumption
systems
grey
box
approach
##metric
Sunday
conde
##mn
parliament
NP
##ull
Together
Break
##oms
Shawn
Corey
Carter
Course
ella
animation
##éc
##anisme
##lucose
َ
storm
Yellow
nasa
Order
Ent
##raq
Coalition
1483
##iehen
##aren
##tly
##ery
##kins
##mption
##öd
##erbe
Nicolaus
##vald
tal
Basel
lar
187
Ministers
Hear
##vig
##ating
Complex
##eta
##sal
Opening
##marks
1630
1776
##makers
withdraw
headed
Alla
##wi
Cádiz
Nile
739
Mundu
##TC
##GS
EM
@
##SP
##OS
##GE
##HP
Organization
##ils
593
بهذه
generation
interface
eta
Mr
##abe
Lamb
##culus
Tree
Domain
specific
Programming
Inst
##ble
##tax
expression
bol
##gum
##ents
Communications
ACM
##urs
Symbol
##putation
Mike
Levin
oriented
##fo
##fix
Nota
Operator
Lists
tree
##ctors
Has
dot
Built
Tail
Common
loop
##کری
##یب
##بی
##کو
##سی
تفسیر
Sverige
##nung
Ren
Real
Estate
1361
format
##ð
##eo
Sv
##þ
##jó
##ots
Rootsi
Rus
##wed
Suède
Sui
Sue
##tid
Got
Inge
##gren
Gothic
Nordic
##nent
Sve
##alan
##öta
Sawyer
##git
##andi
##via
##version
##rca
816
1050
##rre
Scandinavian
Eds
Rosa
##mond
##itter
##ick
Swedish
expansion
led
conflicts
temporarily
brought
treaty
##iding
peninsula
Franklin
Minneapolis
##äl
##dom
Nordisk
familj
##eb
##ok
##gg
##lagan
Troms
##dal
1632
1655
1718
1721
##horn
Ulf
##bom
##jö
oblik
##raria
revolution
fundamental
importance
Throughout
##side
taken
unusual
important
comparison
usually
suggested
emerged
prim
##blik
##strom
attempted
maintain
least
sembla
neu
demands
##vai
prese
##rvi
count
##vereignty
generated
criticism
believed
serious
claimed
problems
powers
nei
bo
frequent
Tax
Welfare
Sven
Stein
344
twenty
host
pla
economie
present
crise
acted
##aly
bringing
Lennart
##hön
##qvist
##egu
##rp
##dner
##mployment
Indus
Gregg
empty
welfare
transition
Sociology
964
349
1634
512
##eniu
Stig
Nilsson
Gunnar
Sveriges
historia
vad
varje
svensk
##ör
vet
##rå
Kung
Maj
kung
else
anledning
konu
Gustaf
från
##fälle
##itie
##partementet
##iks
##dag
1544
Directorate
##qual
##port
##unit
employment
##aj
plans
mostly
rus
establish
Norwegian
port
##rvik
iron
mines
vital
efforts
neutral
ready
highly
militari
##zed
Switzerland
Emerson
Edwin
Reis
Dies
ord
coro
##llar
security
strong
defence
designed
disco
attack
pursued
next
decades
annual
average
making
defense
##redible
Spy
Found
alt
Less
Goran
Norman
Mit
creative
talent
##vest
Kraft
##läge
##tten
##uation
Vidal
##nda
Resource
##pects
5th
Session
##tain
Kick
way
Chang
Kate
Fredrik
Berg
##ström
capita
Ekonomi
bala
##ncing
institute
##rate
Economist
Liberal
##ising
Patent
291
##tati
##stik
samma
##ndra
##sut
##vec
##kling
född
död
##dring
gift
ski
##lda
663
##rike
efter
ålder
tio
##år
##lasse
År
Yugoslavia
terms
Count
Migration
##verket
specialist
engineers
labour
##mig
Svenska
blir
språk
1593
kyrkan
si
##ror
Members
Excel
document
##rship
Durant
Colin
Chor
practice
singing
interviewed
placed
folk
song
maintenance
identity
1230
Borg
Ek
##etor
##köping
##rip
funk
1541
##sell
fiction
authors
ois
##oned
Legacy
##ller
##zzle
EL
426
Tallinn
778
##mme
##äe
°F
CCD
Eesti
Energia
EE
##ela
928
##emble
bits
##RT
CX
initial
Titan
Luna
##vati
1673
##IV
Results
Observations
Hope
nl
otherwise
specified
609
ice
##uste
sun
##light
weather
cloud
Satu
moon
large
distance
thick
##mos
surface
percent
SAR
Infrared
##MS
Valerio
##ggia
Marco
##giu
Hayes
Roberto
Seu
Samuel
Birch
Ralph
Lorenz
Cyril
##rima
Jason
##gar
##tner
Liquid
filled
Canyon
##lib
##rary
wil
##GL
##kan
##of
##rva
ISS
##tola
Hot
##ei
cu
Colle
880
JPL
##SM
Jupiter
Mare
Explorer
##ME
##eria
situ
##borne
##onnaissance
Centro
Astro
##logía
Lake
##pelle
##cel
##adu
##ET
Inn
##ovat
scientists
possible
پول
چون
copy
PB
Serge
His
##reme
##mber
Hawk
politic
views
##rade
Think
Duck
Street
Basketball
NBA
mate
##leti
##leg
##iate
NCAA
League
basketball
fame
##ican
##game
Forrest
Miss
Sophie
##US
##sport
detail
Edmonton
prof
##essi
basket
Renaissance
Harlem
##tter
champions
##yclone
Team
game
six
players
team
tournament
##vita
Tournament
##avi
Wonder
vars
Associations
##steria
##nick
NB
merger
Dirk
##azen
Petrov
IB
WNBA
MLS
attendance
viewers
NHL
both
showing
Ara
##neta
Coliseum
Cuba
Manila
##gui
##jie
Ramon
Fernandez
##nai
At
dor
##nado
Alp
Patrimonio
osa
Fédération
##aže
##ić
Toni
##č
Val
Diva
##vy
##das
##bon
Š
##ūnas
##čiu
##mpf
Pero
Theodor
##kas
shot
high
possession
clock
traveling
##ib
##bling
carrying
key
throw
technique
##ote
Zone
pick
roll
brick
##over
goal
##tend
Gheorghe
##eş
##ggs
Earl
Wheel
Water
Beach
card
##vas
street
Around
##bson
Craig
1589
1623
##olio
api
##hoe
##baum
Chambers
Norton
Six
##teenth
Seven
Bert
##olin
945
1580
1681
1582
Gent
##lemen
Venom
comedy
Loves
Labour
1595
946
##mor
708
Luc
##slas
1599
1579
1514
1607
باعث
1605
947
Elizabeth
Theatre
1625
##yl
Spanish
Armada
Lancaster
Tudor
Roses
Seneca
Titus
##dron
##icus
Comedy
Verona
Mid
##lst
##aff
##uck
##nio
Merry
Ham
let
soli
aside
Desde
Lear
Cleopatra
Macbeth
1602
##iola
##nus
Timo
##ym
##beli
Winter
Tale
##pest
1611
##sper
Miranda
Beaumont
Fletcher
Noble
Chronicles
Scotland
Ireland
Thom
##utar
Romans
Stratford
collective
someone
wrote
plays
attributed
him
##trat
remained
ask
##ship
asking
##tol
##ogist
debate
creation
fossil
single
member
##pea
questions
within
difficult
hired
gain
tenure
never
anyone
academic
mine
##bli
##shment
##taine
body
##rean
sometimes
take
engage
give
##rant
There
noted
goes
camp
##mira
throughout
become
Carlyle
##bol
chief
Poet
hit
greatest
intel
recorded
notion
canon
represented
achievement
completely
##duc
combined
pers
Delia
successor
##limi
##nari
##bulo
##usly
elaborate
elevated
persona
distinctive
literary
traces
solid
gram
evidence
attended
favorite
code
hidden
essence
plot
familia
poli
vast
find
portraits
think
combination
fit
arguments
produced
rival
demonstrate
voi
##cing
##isfaction
apparent
lack
continu
certain
facts
spirit
output
reflect
Nei
nor
fellow
writers
operated
deri
idea
works
problem
particularly
multi
genre
drama
##esti
heter
ima
##gina
reaches
reasons
believing
poems
same
historic
poem
Apart
documentary
get
##front
attempts
dispose
##monie
player
own
absence
candidat
lifetime
expressed
##pic
mainly
humor
comments
controversy
taught
##room
exact
equivalent
intelligent
design
alongside
cases
elmi
consensus
hard
##ged
passion
fant
##asi
##herent
demand
Never
##ept
relatively
majority
##شش
1389
Carmel
##π
GPS
γ
σ
electronic
##vity
Petite
Wilaya
##jai
1574
mm
uma
##rzi
weg
##dud
jeunesse
sportive
##byl
##inat
##ulo
##bou
aq
##vu
##riga
Ways
Cause
Wire
Condé
##kes
Brendan
Tre
##mbat
mining
##ggere
Newcastle
Broadcasting
commence
speaker
Jr
Vietnam
Guard
Kris
##tof
aid
being
##rmous
scale
##nated
against
months
virtually
previous
Because
often
campaign
save
each
Heidi
Larson
mater
mortal
mean
fewer
dying
##rity
agrees
shut
nuk
programs
965
destination
1239
1199
Portuguesa
##stop
Bliss
Jorge
Braga
##edo
1249
Jenkins
Melvin
Penny
##nburg
##iam
Matthew
Brock
Anne
Morris
##sette
ante
##pass
##ados
dos
portugueses
Rádio
##evi
##são
Portuguese
868
اعظم
1498
proves
1663
Box
Lisbon
Colonial
Beth
##mant
Monday
1297
##aster
After
##rimi
##nali
Shows
##itive
##Wh
ort
617
##sten
sees
integration
são
maior
##ónia
##rang
##eira
##xada
##nia
##gana
mais
disc
##nada
Grande
Fundação
primeiras
motiv
##ações
Nos
anos
até
teve
lugar
provavelmente
rápido
período
crescimento
##uzi
##ização
expansão
turismo
comércio
EF
desenvolvimento
##eiro
project
estruturas
##quência
indicado
rend
##imentos
consumo
##pan
essa
evo
##lução
##çado
ainda
pelas
##messa
SED
##ES
OL
médio
anual
produtos
pela
população
portuguesa
estima
se
cerca
habitant
sendo
isso
##sumi
##dor
marin
##hos
um
quatro
países
nível
mundial
dieta
##hã
mont
##ião
agora
vendido
kit
##vora
##rova
ise
##nç
##ões
aos
##ário
Stab
##vance
topics
##vision
Sec
##urities
##ulation
Insurance
perder
poder
compra
entre
estão
Zona
Público
sick
displays
Miguel
##ulação
##gada
aumento
cinco
##tak
pt
Poor
##istic
##just
##iled
corruption
##ver
€
475
##prego
cento
segundo
trim
##estre
##cm
##aia
##uga
GC
Governo
##ven
##coe
##fiança
##sino
Superior
futuro
1290
##lights
889
##esia
1536
بتاريخ
ndan
##ças
viajes
1649
mot
##quio
1543
arra
Blu
##nders
Wrong
Sometimes
Carroll
Graf
Fino
iar
translation
##quis
judge
Galileo
suspect
did
necessarily
##ply
opinions
verdi
subject
cens
##rone
##bron
282
Drake
367
##varo
details
Brod
##rick
quo
##rmin
##cari
Translated
1633
##lder
Giants
father
indeed
##ney
##prache
Teilnehmer
##lver
##sam
##tlichen
kad
Wissen
Oktober
„
Aus
##lls
Nachrichten
Tag
Uhr
##tein
##position
arrived
pure
logic
means
regard
reality
##ised
because
scientific
alto
مسيرته
784
##break
Elvis
Come
##back
##oha
Hawaii
tender
falling
1356
1370
1375
##èque
##ât
Pretty
Pocket
##sul
##té
Sullivan
Playing
Hard
Baseball
Thinking
Outside
Bron
Zi
##mba
MLB
Powers
Burgos
González
##chev
##ría
Pride
Havana
Cuban
Base
Dominican
##éis
baseball
##toria
Japon
Fame
japonais
César
Gómez
Montana
llegada
Sonora
origen
Pine
Panamá
Bet
Villa
##base
Game
Wong
Korean
comité
##atique
geschiedenis
club
néerlandais
Bad
football
##quiert
statut
sport
##ga
traduit
décembre
Kraus
Recreation
major
tribu
##von
Mari
essentiel
Spa
##ldi
##nture
Josh
##twy
county
Jefferson
Nie
invented
##love
Lincoln
Tom
Jim
Safe
plate
caps
##klich
Reno
بأنها
##ərb
Azerbaijan
CIA
##efer
Р
##ез
##олю
##ция
С
##Б
ООН
№
от
апреля
года
##Р
853
июля
874
октября
ноября
Ship
##pm
Tadeusz
##wie
Border
Reinhard
Ā
arba
##yd
##jā
Encyclopaedia
Edited
##zel
##sla
##ature
Mina
amo
Francois
Hell
##enis
Blackwell
##nham
Fiction
##pedia
##ann
Maryland
8108
شهرستان
Mazda
Costa
Mesa
##ẕ
##ād
##yg
oda
آذربایجان
Â
##ây
##ân
##deg
گا
institution
landscape
Sciences
Humanities
##rani
1030
قاجار
##chow
ghost
Sandra
##alde
newly
hand
republic
Raja
Elena
##eva
##ogue
orientalis
Kemal
Ç
##çe
##cü
##jat
Göy
##ç
İ
##lbe
Orta
##ı
Karl
Meyer
##reen
Blair
##ys
Rein
Citation
Lenin
##quer
Turki
Garden
ЕС
не
приз
##нает
вы
##боры
в
На
##гор
##ном
Кара
##бах
##е
648
بازار
835
Creation
Army
XII
declared
755
В
##лас
##ти
Азербайджана
обе
##по
##кое
##ны
состояние
##м
исторических
памятников
Qarabağ
##ın
turi
##zm
##larını
edir
1278
users
060
Limit
Disc
##bet
Tal
nationalist
Kurdistan
aspects
formation
##hment
Integration
Problem
Better
Jews
Citizens
USC
Clifton
editor
languages
Petersburg
Hatch
Lyn
change
acts
januar
Stokes
##tarian
##sions
639
ISO
##fier
kl
Trees
Ethnologue
Pieter
##yske
##ual
##ologic
issues
areal
##uis
Via
##lav
##rik
##bund
Grenoble
1298
##led
Ching
##isk
Nikolai
##rub
##etz
478
##gate
Ay
##zade
Autumn
traditional
entered
Cavendish
Энциклопедический
музыкальный
словарь
е
изд
Москва
Moscow
##mov
legend
heard
ik
Florence
included
Cafe
##rog
##وی
##ğlu
##рды
игра
т
##ре
##бу
##ющая
с
##но
##ровки
и
у
##да
##чи
И
сто
##рия
##рд
Ш
##ах
##мат
##ы
Азербайджан
##efa
Futsal
Benfica
campione
sconfitto
##ù
##nse
quarto
1619
banco
giro
##trag
Wuppertal
##iste
suspension
railway
منابع
÷
885
##mede
671
832
744
##نطقة
##lva
للأسر
##viv
Deux
##pita
Rapid
##nam
usa
##ologique
Pit
Cast
ata
1836
0°
2°
##gé
n°
décret
relative
##onte
organisation
territoriale
wilaya
suivantes
584
Ora
internet
Cap
##sien
civilisation
##ienne
fl
##ville
##izi
2200
Straight
start
##bero
Mau
665
576
940
##INE
ET
##IE
##NE
ones
##ora
##end
##rous
910
##nian
Harz
##oz
##iner
##arium
##onin
augusti
##mid
##iae
Constantin
##beri
578
##mul
##zami
درمان
##gou
leg
##rid
Au
##zia
##quera
##gna
##chet
quae
##avia
##nae
1675
1843
solo
deo
##aur
Ves
##rau
##lane
عليه
##uvel
Baum
elle
Tous
##saint
Fonte
##nelle
##uel
Martel
##quette
##rou
##ncourt
##lli
##nier
##vale
Mons
##eig
##neur
Schneider
دواوير
loi
886
920
##lium
bou
##hat
Oued
##hmen
seg
Luce
zal
Sidi
Ain
tin
##ached
##rere
##br
Chat
##dun
##hme
ville
év
##êché
901
953
378
1212
1228
Carbon
UA
##sin
##yna
##PC
##zom
##uco
773
1622
فهي
##amo
1552
Elephant
Disaster
里
长
城
477
##اتی
##شی
##انی
سید
##team
1569
834
875
802
##bie
Aby
Afrique
orientale
Revue
Bot
##anique
##quée
Ezek
##iel
##issa
Leaf
Hare
Ethiopia
##ulis
ret
hab
soa
Kirby
NS
Letter
Horton
Dangerous
##diction
Fondation
che
##rst
nar
##cot
plant
Hassan
##GM
##aid
hall
FM
Murray
Lyon
##wing
leaves
volunteers
##arre
Broad
##rdia
##far
##una
anak
##lagi
##eid
##hou
##eso
gas
##cino
Hey
##pulan
Zur
##iek
Bom
##water
Giles
delay
DF
Gary
Distant
漢
Hàn
##ré
族
Copper
自
旗
##ì
鄂
伦
春
温
克
莫
力
达
瓦
斡
尔
Bury
##uge
فهو
668
##NP
##ceae
参
##nsen
洋
##onic
參
##udo
##stellar
刺
加
##ero
##ccus
sent
hin
Herb
Tina
##ESS
홍
##삼
紅
红
##NH
Steven
##onge
Gamble
##eter
##ites
990
Prescott
##mines
##rite
##rater
E0
ba
514
1771
مشتمل
٢
599
door
Leibniz
Hannover
##یہ
اردو
פ
״
codice
ھ
ħ
ð
xe
1305
Una
##rner
##ecta
ble
##nds
Hindu
styles
1653
Till
suggests
advisor
evaluation
PBS
Muhammad
##ght
Hindi
description
Brussels
ami
##haw
Nama
##bir
Din
super
##nden
Lee
Calcutta
##zda
##cut
ajan
##har
##ples
##tone
علت
##vili
##hta
Gardens
##the
fruit
trees
##jah
403
##oor
##hau
generally
principal
designer
ura
##igne
Harper
Lord
Brass
##tations
needed
cam
##lage
Rain
##fine
Trap
##ezi
taj
maha
trend
Going
carry
##mah
Ash
Baptiste
##vern
Moonlight
Warrior
Television
##inck
Ross
##elli
Imperial
Wind
Sussex
##urus
##tam
Oak
dismissed
##sade
ץ
Tong
##ue
##tah
dar
Qu
##tub
503
杉
光
921
blind
→
UV
##inar
##vent
##session
##hio
Ivan
Pavlovic
##dele
##yev
Dmitri
Korn
Niki
Ivanov
##ova
##bov
Blok
##dka
Reina
لهذه
##وله
##نی
تقسیم
علی
##کل
##وسی
Far
Kafka
Personality
##ffer
##ences
Prin
##pado
عليهم
1266
1220
محصولات
بمدينة
Eugène
Mackenzie
Compton
OCLC
728
##lanti
Dur
Rabbi
##cce
##ssion
بودن
Most
α
改
善
Tai
Oh
waste
##IR
Evaluation
Harri
Антон
##ов
Ан
М
##рія
Shuttle
Carrier
##craft
airline
Lot
##are
747
planes
##tri
##ift
atac
##pts
##edi
##acha
mix
Ana
##zee
Ensemble
Solo
Dias
##pora
Chant
##hla
##bey
##uz
##ife
close
eyes
Underground
Dub
##lil
dalt
antoi
##ost
atom
##amental
Constant
Nam
Compounds
km
##tue
pendant
neither
##gom
##ymer
whereas
yli
##dene
##dyn
substitute
pois
amor
glass
##mers
CRC
Interior
Devi
1184
دست
АН
##Т
##К
ім
##ова
Rot
Crash
025
momentum
##iff
supports
##gid
##izo
core
business
push
##uter
Су
##хой
##ika
map
Россия
ул
Пол
##ика
##р
##пов
##а
д
а
я
linear
dimension
pave
##rence
##each
Faith
pun
blow
come
late
afternoon
received
Oval
Congressional
leaders
coincide
aver
fifteen
Reagan
##omi
Biographie
Santa
Richter
##nating
##tou
##nding
Desire
##place
Hamilton
Dag
Nixon
Friedman
Levant
##rosse
منتقل
Matter
Materials
bigger
Bristol
celebrate
Hollywood
##gner
Sisters
Adrien
##dne
quantum
odd
Historic
Quantum
##vay
Phys
##icis
Helge
##agh
soul
takes
Isaac
Newton
drie
##cies
field
##sun
Quant
Sing
##roma
##gnet
Price
##ection
Magnetic
Mono
Cabrera
##ector
##ected
Mor
##nant
##rige
##lem
Castel
Moe
##zte
##rnas
##eris
##lob
Perry
Strings
Ice
Calder
##dus
akar
##nne
charge
magnetic
spin
Lecture
awards
##reti
Yale
Those
Print
Haven
##ttle
Harris
Starr
##mner
Holt
Curtis
##erste
##iological
##iol
commentary
selection
Crow
##ell
Tras
Pluto
##cra
Episcopal
Prayer
ordained
##ination
rit
truly
Protestant
Clarence
Kari
Ideas
Illinois
owa
Saul
Harry
Elmer
Barnes
Lor
Heath
Nor
Spain
Darwin
افغانستان
جنگ
##be
##βο
ku
meaning
verte
turn
ː
##Pa
Sung
Regular
##orum
##vol
Raya
##azi
1238
958
1269
729
Harding
McMahon
٩
##٤
Sykes
Representatives
##oran
##dum
Secretary
Halifax
ّ
مردم
وزارت
Still
##bing
Chu
Multi
observa
cos
inflation
short
calcul
famous
univers
Lewis
tò
DS
597
1210
Helden
Pt
##ole
Alma
##gest
##tated
1635
☉
paral
##lax
##eco
##phie
zoo
##logique
exposition
##sid
##ération
histoire
natur
animaux
##borough
##rer
##ussa
Selection
signal
drives
cha
##mele
colour
##ael
##inae
Brooke
##siin
##leo
##umm
Brady
##nyo
Nad
##zika
##mbia
lan
##jen
##ppel
Alvarez
Adventures
##icist
##cta
Chaos
Laws
Manfred
##eder
Dover
الكويكب
##rt
##ade
File
Incorporated
adventure
feel
Almost
consider
agn
##osti
talk
big
bang
Supreme
attractive
sure
isn
holy
Since
learn
done
operates
mathematical
complexity
unable
identify
creator
Jesus
grand
devoted
##wick
Simmons
Rioja
045
1456
zag
##lna
##gga
bank
Comunidad
Madrid
स
##ि
##द्ध
##ार
##्थ
ग
##ौ
##तम
##lesa
##bban
Bare
étapes
progressive
##nas
ancien
##VI
Lotus
Movement
##nir
##vā
##ūt
##idos
##sei
##bb
##āna
Hidden
##fr
##iar
Buddha
Sri
hak
##bh
##rth
Maharaja
Helen
Basse
Lights
##uida
á
í
Trust
502
##udd
##EF
Taxonomic
Slot
##mmen
2n
optical
chimie
université
var
polar
##imet
Hammond
##ffle
##ulate
##lton
##tere
##EN
##inaire
niin
##è
puis
rad
##toni
encore
##rés
Langue
##non
Ort
##jut
##ɔ
̃
Golf
##tons
Nouveau
Petit
##̃
complètement
sortie
usage
##even
1563
##kin
Random
Greatest
fever
##grapher
rich
Literary
Maxim
##rky
##rais
Н
К
Те
##лет
##eto
Leary
##pern
Grove
Opera
##רק
##וס
Ava
##ase
מת
إليه
##یج
1424
civil
recognized
head
Emanuel
1682
1746
vorte
Immanuel
Beck
##iede
Hegel
Leo
Strauss
##rop
Sturm
Menschen
Paderborn
Verlag
Point
Loud
##ehn
extent
##chte
actually
boundaries
critic
thus
##riti
Idea
discuss
Struggle
##ivi
Georg
Knox
mature
##hical
##zes
concerns
Wallace
Reality
explains
Logic
defend
going
beyond
finite
##atio
Hume
##enomena
Nou
##mena
Version
##rons
Griffiths
elementary
particles
##rks
##ctory
course
particle
##ran
Parti
suba
##tomi
##unda
##resa
Zoo
DIN
IEC
Demi
##tne
Quality
1090
##olu
department
shipping
##rany
Record
##usi
##yf
Than
##ao
##yos
##yid
Written
Es
##vari
saj
##ט
##כ
##ניו
##ן
##כון
ט
##נו
##לו
##גי
לישראל
##nion
Higher
broadcast
wider
far
ever
Football
Match
return
Foundation
##pton
Trophy
associations
Reyes
##ario
Olympia
Antwerp
soccer
Olympic
Present
##cans
Beat
##RN
##mbe
Stadium
##aci
Uruguay
##four
##two
##media
##adh
Classic
Stories
Ware
Molina
Lucien
Laurent
Goal
Score
CBC
##blatt
Round
##cis
##allo
Final
Sporting
Samba
##foot
##ã
stadium
samba
Brazilian
ellos
Fate
Rio
Jane
Futebol
##zil
##max
Soccer
##richten
Wan
##dorf
BS
Schweiz
Markus
##pok
gewonnen
ARD
##™
clip
##unn
moments
Miracle
Bern
announcement
##cup
Diego
voted
Kit
Aston
inventor
yellow
Santiago
039
finals
Theft
Jules
stolen
trophy
Dog
924
Alf
Engl
##pol
##xton
directed
Metro
##NC
##ube
Wembley
filmed
angle
##cem
Miles
##tones
Castro
Performance
Perfect
fare
##well
Brasil
Championship
Mexico
##lice
Brazil
trail
dream
winning
teams
Dietrich
Fußball
##welt
##meister
aus
Das
Deutschen
Gruppe
##los
##tria
cup
Algeria
Tales
##ijo
##hun
shirt
switch
Lawrence
spring
ultimate
upset
Glasgow
##zur
win
advantage
##zzo
master
retain
crown
##raz
Ficha
partido
display
competition
##vio
Details
##time
ida
pin
##nac
##lory
nation
Stage
planet
XI
##dane
exit
stage
##rnet
Rota
domination
Colombia
want
raz
confirmed
##oint
provider
euros
beat
Argentina
final
##öt
Numbers
##ump
##post
Where
ega
pra
rs
budget
nearly
doubles
sna
complete
seat
Luz
##ек
##он
##стр
##укция
Л
##у
##жни
##ков
образ
##ец
за
##бо
##ты
о
культур
нас
##ле
##дии
м
##эр
m2
assistant
referee
Premier
Atkinson
##zmann
secure
##ender
score
breaks
stub
##born
resistance
target
responsibility
##vade
Glen
Croatia
Victor
lift
classic
datos
más
Fiesta
Fútbol
##lan
qualifying
Treasure
tro
##nary
Competition
presented
slot
decided
temp
##lates
seed
Format
competitions
sets
parameters
Previously
due
ratio
finalist
occasions
Czech
##lova
##kia
installed
tournaments
played
match
perceived
knowing
earlier
subsequently
obtaining
ensure
advance
##hie
##rton
weight
cn
Kenya
sporting
mas
legacy
Quest
##idas
Fever
##nova
unveiled
bring
birth
releases
Mundial
Inglaterra
##UN
##DO
Rat
##tín
interview
Records
Bayern
notables
still
##ken
##éré
Mont
Benoît
Zoom
économie
qualifie
reprise
##cke
GL
technology
penalty
awarded
854
Équipe
spectateurs
bill
Gaulle
Mandela
apartheid
aged
Violence
##acki
murder
sentenced
jail
##ants
convicted
##vous
bod
##ily
harm
given
sentence
prix
##plos
pé
##nur
##oos
##ddin
rankings
wel
Hung
país
que
gol
jogos
Copa
Mundo
Thierry
##bul
##euse
719
scandal
Players
Coach
mia
##ains
casi
##llas
golden
Cameroon
CAF
Luis
Monti
brothers
serving
managers
UEFA
profile
Carlos
Alberto
##rei
##markt
Aufstieg
##elta
روش
1362
1363
colons
##ین
##غیر
Mess
Bernard
##ای
##ھا
وی
##ھ
##قای
بین
##می
##اری
##یون
##نیا
1317
Nous
Là
bas
Benjamin
Stora
##matta
dit
##ême
aren
regularly
##vise
techniques
##arat
organization
exhibit
regular
sec
##uring
ο
##ἶ
##κος
λ
##ο
##γία
##kol
##ogie
1723
1732
##eko
kolo
##relle
Organ
##ismen
Unter
vers
##tehen
##mte
Beziehungen
##ismus
umgeben
wo
weiteren
Sinne
Existenz
Bedingungen
##chnen
können
understand
organi
surrounding
include
sense
existence
##lb
Gross
##cological
##fold
Millennium
##system
##hibition
Sigma
Faro
Director
Matti
Shepard
soy
Camera
lake
##fur
scientist
##mei
Bible
Lion
Hudson
Sala
##bach
Focus
##WA
##vot
الدوّار
##tres
zona
user
##long
##ś
##î
##peri
arv
##rod
Ros
mira
Ravi
implications
##ccupy
wars
districts
rebels
##zards
Hague
hostile
Birthday
Honour
Gazette
Writers
Sinai
Salman
##die
##ries
##dma
grandfather
adam
either
touch
prayer
##mps
nose
##sso
earth
##eds
decides
again
bow
however
hole
inner
chamber
leaving
vu
##lne
able
fat
femme
understanding
##quet
Nina
##eath
Feet
579
Johor
Mines
Homepage
723
1301
##آباد
798
##nett
Reed
ʻ
681
Hans
Wild
##berger
Luck
556
Stephan
Schmid
##gree
Steiner
##ebre
Michel
Dum
##bre
##tai
672
1521
1208
1286
1309
##EG
1382
1405
Yr
Wall
1392
1437
733
791
##bilis
##º
##hd
Tas
hai
659
##stri
##ault
Administrative
Arabic
1316
Marvel
##uir
##aq
##dish
##tiga
##bot
wound
##afa
Salah
##uma
medium
radio
##wal
##mare
##xu
##rm
1656
，
##vel
Bahrain
##یث
سری
kora
##dras
Rodriguez
Herman
Plato
Merrill
este
Hermann
##lke
Dietmar
Roth
Intro
Gray
##fire
##fir
liber
property
Quentin
Skinner
contributo
Republican
Constitutional
Que
Philip
##tit
Niccolò
Disco
Liv
Harvey
Mansfield
Nathan
##rco
translator
Marx
Woods
philosophy
ny
##cended
therefore
interests
sacrifice
act
radical
communis
Writings
Madison
Gail
##lard
Howe
Changing
##itia
Om
argument
##vage
Essay
Kane
##ifica
Camp
##hood
Sartre
Nothing
##rint
Square
provides
claiming
bad
vel
Kad
alta
det
##cedent
##now
##ledge
Montgomery
Susan
##zien
Susanne
enn
Summer
Levi
XXI
subjects
##quiry
Understanding
Indianapolis
##cket
##hop
Wisdom
Rudolf
12th
Brick
Jon
Variety
Experience
##cience
Verbindungen
compounds
Anna
Chemie
GMT
Royals
Caroline
Aziz
operation
prince
1473
1095
##dity
Cluj
Kolozsvár
Klaus
##enburg
##rsk
Seal
Units
##jin
INE
##AN
GM
Sword
respect
Af
tribe
belonged
##coma
settled
Khorasan
##wer
distinct
speaking
dialect
spoken
quickly
learned
cities
grew
preferred
every
speech
unless
dealing
knew
Valentin
##iasa
##nov
Ural
Ú
Revival
Future
1731
1735
1722
1628
Naval
Expansion
Asiatic
1748
Kedah
Kelantan
ก
##ล
##ัน
##ต
Perak
Darul
Bro
614
KBS
601
592
591
nou
##meno
thing
Ding
ν
##έ
##ω
##μενα
ע
##ֲ
##זר
##ש
##ׂ
Gut
join
coalition
Haar
joined
Identity
apart
##uar
##ifa
AI
deeply
conflicte
Benny
##isit
##odu
##writing
##éro
##slar
others
Soldiers
##hoda
##aan
calls
quit
minister
##titude
##sle
Mans
##siste
Within
##rec
Villages
Pariz
Gaza
Beer
Another
##tini
Jérusalem
communities
comprise
##NO
villages
עמ
##וד
##portant
Heard
third
##מ
ס
על
##ייה
##שי
##עור
##ערב
##נר
##שמי
##ם
ל
##מוסד
##ות
##אק
##ד
##מיים
Leadership
נכון
##אר
מנת
##וני
##כה
המרכזי
##סט
##טי
##יקה
Mixed
נ
##צרת
##ילי
demo
fifth
column
league
trait
Evelyn
compared
Nazis
hope
executed
Uz
Benz
stability
##ming
##isten
conspiracy
destroy
Abi
Yn
accusations
##mitting
Mirage
Plans
##qa
HR
Weekly
Bennett
Zimmer
Roberta
Wise
##eca
Herz
##liya
Av
Ile
vote
Umm
residents
##thetic
enemy
Nazareth
##fers
UE
##OD
FOR
שלוש
בתי
החולים
בעיר
##אחד
##ו
students
cross
access
universities
move
##isch
Sharon
##venes
committee
Sector
Milne
##ingu
dala
Newsletter
Hawks
Move
Strip
Independence
##fn
Methods
Gol
bando
Rural
Lands
##roen
Lucas
Albany
##NF
lands
Are
Abu
##tock
##aring
lease
basis
owned
Valley
Wadi
orders
##ile
town
accept
couple
increase
discrimination
critics
Edmund
מי
##בת
הוועדה
##נייני
ביקורת
המדינה
Gen
Gan
appointed
Officer
viel
##nez
Nasser
Christiane
##dou
Turbo
Software
##ס
##זו
##ֹ
##ז
##ג
##עו
##נות
##פו
Bros
##CO
Lebanon
Syria
crime
film
capture
##rill
Dans
jours
Franck
##ahi
##lley
Terengganu
Negeri
##bilan
Pahang
##oum
##gin
##mari
##nadi
Sami
##dros
herb
treat
becoming
increasingly
variety
##plaints
Diseases
1070
vis
##pop
##imu
##lated
##glia
##romo
##lyn
sodium
##tagen
promu
typ
##him
ultra
therapy
##oral
##pos
##omes
tos
fields
##rody
##wet
1662
Stereo
##rali
926
Cie
##sni
##ewski
1268
##ième
Bound
##prem
##run
##cating
propos
nombres
##cend
Zurich
gradu
inde
Vall
برتر
##pia
##ร
##ุ
##ง
##เ
##ท
##พ
##ม
##ห
##าน
##คร
##ฯ
ป
##ะ
##ส
##ิ
##ธ
##ิ์
font
Bang
##vro
Dictionnaire
vieux
anglais
Khmer
Intelligence
##hem
Hussein
library
asko
oed
infrastructure
dt
mil
cgi
##cation
U2
bro
structure
Pak
posted
Rui
Región
Murcia
1636
usual
##gers
write
read
##gru
modul
divide
##idu
divided
later
little
consequence
element
proof
Euler
though
##rmat
inverse
exist
divisi
prime
mod
already
familiar
##cover
Weil
recognised
essentially
Eu
Ultra
##oth
##nard
roles
##nsul
levels
analog
##lari
##rdi
dun
upon
SG
1207
Hastings
فی
Derby
Crystal
##log
crystal
##rys
##tal
1177
1246
##2000
한국
##어
Hang
조선
##말
##ŏ
고
##려
Jae
Jung
Campbell
Mauricio
Mix
Linguistics
Utah
isola
belong
supported
speciali
believe
groups
Lingua
Register
tried
families
##ás
##óna
##onstruction
Genetic
Rams
heavily
criticised
totally
abandoned
Claus
Turk
seem
basic
type
linguistic
Sanchez
Lin
##사
##권
총
##설
국
##편
##찬
##위원회
##lden
största
##eci
##stedt
한
##글
Double
기
##역
아
##시
##야
야
간
##잎
대
##표
##자
##음
wiki
외
##래
Sohn
mentioned
1446
mana
『
朝
鮮
語
を
学
ぼ
##う
』
Sans
ū
Cantor
Irvine
éditeur
structural
stereo
##iso
##ois
##rase
##top
ena
bi
nap
conform
configuration
昭
迪
宮
Pac
iba
Mansion
Panel
##tch
##nah
##reat
##hah
##ucus
مسلمان
##hra
##kra
##vart
##pala
##cite
##hur
Brookings
Institution
##hwa
noble
##iples
Aga
moved
towards
associate
fir
Merchant
Pada
##mse
Rostock
rendered
Borbón
##plu
##tense
rey
elegido
español
وعدد
χ
##ρός
Ea
##rns
1823
Schmitt
VC
Boca
Florida
bundan
##rust
##hr
##buch
Ano
##rgan
##ischen
Gruyter
Berlin
017
KM
naturally
organo
##phere
Schmidt
##loch
Ursache
uns
##erer
##hli
Moderne
Verfahren
Groß
##chem
Frederik
Egon
Nils
Eagles
Brewer
GmbH
796
Manu
Arlington
##nde
030
##lte
##zona
Regent
nit
Hélène
##adas
Hervé
Emmanuel
##qué
##icht
##anno
##érie
##rug
Carole
Fritz
Julien
Gilles
##otte
decorated
Pale
##thi
cave
##uve
Ardèche
##NA
##gani
##schen
##etting
##meta
Acta
Cry
Müller
Stuttgart
##ö
##ieme
Reaktion
##sme
##smen
##ektrum
##scher
München
##dro
##uman
##immung
freie
Wasser
Hilfe
##eny
##lendi
##esen
Einführung
chemische
##akt
##iku
Suzuki
Mori
##moto
Diversity
Kai
Wiesbaden
##üs
##ching
##rce
gamma
prop
##yst
##ein
sul
##last
##xy
##oxy
##stag
##landi
##rom
##box
##yana
McKay
Dogs
Monthly
##qan
##די
אי
Yard
־
Mikael
tala
Rapport
Institutionen
för
##vist
vid
universitet
Plant
Allium
##ivu
##rli
Foods
849
898
Simone
##tti
Spice
True
Seed
©
##200
Ted
Meredith
Druck
##pis
##stica
Farm
##unk
Kada
vin
##race
##adense
##pha
gar
##pelo
Rosso
Bianco
##sano
##ghi
blanc
Loma
##gne
Drôme
Ai
rose
Laut
Ajo
Mora
Pedro
##ñera
Taxonomy
##roca
##mbol
strip
##cho
silver
##reole
Cult
forms
strange
##rling
stal
##dul
contain
Pink
Root
Oni
Farmer
Gil
Warren
Reporter
hol
Without
Single
##cil
thin
eman
clean
mild
##lick
gent
##icy
##itel
fresh
taste
Unlike
intense
##avor
mouth
veg
##ables
Melo
Outlook
Wayback
##gil
Producer
##ece
Kitchen
links
Tuo
toi
Vie
Laba
ajo
##bla
##nco
Met
Store
##joy
bot
##how
Fresh
Step
##bru
CSU
Friend
ii
egin
##cate
1548
Ellen
Tat
##tel
raw
##kler
ser
nur
Huy
##bid
Effects
##rrell
interactions
Woo
HD
Prevention
##bles
##state
cold
##pensa
Botanical
Sandy
Oregon
Publications
hasa
##roll
cm
1214
nema
Pest
##cum
##nja
##du
activity
temperature
preservation
fish
Dee
##psit
##ong
Tip
##por
##won
Medium
##liz
##BB
##pul
extra
##trus
##kaj
Temperatur
##ibi
Properties
Ginger
##nale
coat
meat
tur
1443
##inkin
##ene
Baru
781
##rty
##lm
Jennifer
novel
oral
antico
##agu
##lant
##tele
##ologists
surge
##quina
##chu
Veterinary
Dracula
Houghton
Mifflin
Cass
##stiti
Sterling
Seen
aan
Teaching
Prophet
Places
unit
##pher
##eie
##anger
##wana
Bande
Ei
##wang
SW
Pat
##tivat
##PA
929
018
##ient
receptor
##urio
pis
##quito
##ellen
Jump
##suke
Kao
Tomo
Saw
Model
Genera
Pig
852
Junge
blue
color
forming
amino
acids
Symposium
##ffs
##rious
vitro
concentration
curve
Primer
##lica
##cosa
gener
tissue
ova
hormone
##lpa
molecular
Updated
Saunders
##kine
##TM
receptors
signals
intra
##cell
dom
entire
repertoire
plasma
listed
##cept
##gos
##lott
##tta
continua
372
1217
##bala
tail
Truman
gave
told
Hasan
anna
Stewart
Moss
added
build
min
Nel
##sson
Mystery
wanted
terrorist
Terror
Behind
McLaughlin
##loa
dag
Whitaker
Elias
##bauer
location
Murad
##elma
##LM
Payne
Led
Also
##ئها
والأربعون
Operation
##ecu
launch
Mali
Natalie
Bomb
journalist
##thy
##idd
Alec
Fran
##wain
Locke
bombing
##CI
SAS
Walsh
terror
M4
##KA
##FF
1244
print
##900
María
##nament
created
tol
##erance
Ángeles
Gallego
Eve
sección
##rayal
##rese
##ntation
Muslims
Eleven
##gda
oud
##گا
444
##áv
##ides
Jacinto
Bosch
1086
oder
##aden
##RC
Titre
##iens
Occident
avril
num
##isma
##ié
##val
Vincent
##û
##évi
alus
société
Î
##âm
##âr
Espagne
Alger
1573
##ndor
Almería
musulmana
Barton
Catalan
Magna
León
Castile
Ponce
Minerva
examined
##erra
origines
établissement
protect
##orat
Casablanca
sans
##bide
Willis
Moraes
Bulletin
series
##bbi
Gram
##maire
##ère
##mpa
##ald
Messier
gold
currency
basin
époque
sociétés
XV
siècle
##uf
agar
##dere
communautés
##zara
pouvoir
studia
islam
##ccion
##òria
Catalunya
Barcelona
Maestro
Ju
##dios
##eni
Plaza
##uia
Ricardo
##quier
Benito
Palo
##mero
Toledo
Foto
##grafia
##eja
##sante
Gonzalo
##ayo
sobre
filosofia
nda
##xima
##cion
Sobre
Filosofia
Text
##loso
Jaume
##mbre
juifs
ibn
##anta
887
##anus
##aran
1468
##ï
rest
Stafford
1175
##veden
##esta
Benedict
##bati
Ultimate
Suite
Fry
دوره
1191
Abbott
mention
Poitou
##als
##kle
Brun
Run
##cim
Homo
##cima
##cens
##ingham
Brothers
pris
1198
variations
stor
disputed
person
Regis
Rica
##ccio
Drama
##fes
Westminster
1689
1701
Orange
Nassau
stad
Bill
##imes
Altar
Sailor
Brunswick
##bber
Marilyn
##erry
Derry
##lion
##usta
princes
named
Hannah
marriage
Charlotte
died
legal
jury
trial
##vini
daughter
##poste
Olivia
pretende
Princess
Olive
Cumberland
unan
##imo
certificate
Cannon
Hanover
Dimension
letters
defended
##irs
Butte
##rf
##ield
shared
Medley
Dudley
##uden
Manual
##etta
tax
##yer
pay
maximum
##pen
revenue
amount
cost
£
1773
##retta
Treaty
Purple
Madness
Weir
411
Linda
##ging
etter
Napoleon
Invasion
Lane
##dley
381
Duke
Georgi
Sid
979
##quita
019
Ala
Milan
##mas
##ked
##ression
Assad
Regime
Olivier
Gérard
Frères
Egypte
Syrie
Gallimard
638
ANC
Them
##vez
##tatu
Ng
##uben
akan
Fanny
Jong
##inta
##ind
Noen
##gla
Nom
Joy
##ibu
Eng
Wit
##lsk
Anton
Elo
811
Nasionale
Here
Moses
Kota
##cani
##nche
##gis
##mper
##czy
Scarlet
Kode
##rtus
Wet
Piet
Baden
Percy
##oza
racial
UD
Both
##boken
##SA
##kane
##erst
##weg
##lange
Tuy
##sie
##bok
SAD
Cour
##rier
rappelle
##voir
##vate
len
Zum
Give
##DE
Tie
wish
Town
Archbishop
Dla
##mbi
Groot
##nstein
##shan
aki
À
doit
protéger
Croix
##UI
##FS
BF
CSS
Berne
##posal
1960s
##SS
##ML
RFC
conte
DO
JavaScript
##name
input
##tiva
rights
Syrian
677
laisse
passer
קצר
1020
##noi
Diploma
##entu
mobil
1554
##ppur
Volk
Blues
##hof
##gado
lord
977
vision
1310
Soon
1288
1294
Ο
##θ
##δο
##ξ
3°
6°
##muda
##roje
NT
##otes
##vén
##orter
##rior
##rl
##jós
##já
Nga
##jeri
##mmer
##TP
Pike
viola
calendar
درد
##IP
بطور
RD
Multimedia
Interactive
Image
Sound
Author
laser
##show
##Works
dobe
photos
computing
Stand
Theater
holl
##yw
##porte
##LS
MPEG
VP
AV
Visual
Whitney
computer
Wayne
Carlson
Ohio
Rand
Commodore
φ
##ιλ
##φία
Garfield
##logo
achievements
##nalis
Descartes
##lmi
celebrated
depth
##ennial
questi
wide
supporting
cast
##kli
##rew
##hne
historical
Dewey
##nimo
Cooper
##bbe
fill
intellectual
##stitute
accompanying
narrative
convent
historie
##bod
university
courses
##books
create
asked
seven
connections
##ana
divisions
attempt
theo
##stem
##icien
briefly
##iciency
covers
##ols
stand
Jain
equally
##fying
##tual
##rett
1472
Rang
Plymouth
Native
american
entities
nas
files
##lama
##ete
azt
##tili
##zt
Webb
Hillary
Yan
##inti
##ément
aux
##naires
arabes
##hart
Nick
Theology
theology
##wright
refer
religious
expressions
feeling
Duran
Colleges
Universities
##vement
OP
1282
Rashid
lower
looks
manner
unge
##nero
pati
ability
handle
understood
ruled
fought
destroyer
Near
natural
Aleppo
sacred
Bere
Cosmic
Eisen
##uns
##tina
Johns
Hopkins
##hrt
##élie
rama
1271
Everything
Ik
yn
##tab
##jwa
Ayn
closed
lock
061
rescue
Cathedral
Hours
Before
Evan
##gel
damaged
damage
Patria
Sacha
Zion
Knopf
Publication
Lycée
Français
UDP
##nat
Katz
√
≠
partition
Δ
δ
θ
90°
##rem
##osu
≈
wikipedia
constant
##ission
##less
##rota
particular
equation
S2
Exposition
Syst
##lace
S0
##رزش
NGC
Holm
643
##kon
Pauli
Juha
mori
topon
Studia
original
Mercer
editors
783
722
957
##ὐ
##γ
Seminar
gospel
Alto
Luke
Gospel
Chain
verse
##gating
##ability
##preti
Scene
##arda
Contemporary
Brennan
Johnson
witness
Testament
Myth
Elle
##gard
rai
Genre
##phia
Fortress
Fire
Lei
Ignatius
secular
certainly
existed
compete
##obert
Rhodes
Eddy
venture
succeeded
##posing
stronger
abundant
Burr
##idge
argue
critical
Then
command
Herzog
##wers
Dominic
Watts
saying
Woman
deed
Empty
##ances
##cension
Metz
Commentary
witnesses
varies
Alexandria
versions
knowledge
##eza
☆
1287
1726
Mother
Speak
##itud
Eileen
Greene
Doubleday
Kathryn
Alpha
priests
Charity
Slavic
Louise
##oper
Tribute
Eternal
congregation
bishop
underwent
##cism
Houston
magazine
Cover
laurea
donat
prize
money
Gate
##riz
Something
Beautiful
Dying
Alpi
Pace
staff
Habita
receive
honor
Fondazione
Internazionale
Bal
Brotherhood
Alice
##posite
attract
Maxwell
Newport
Lydia
##mire
Person
Hit
Mira
##bate
CBS
Critics
Sophia
esa
Gian
##lui
##zzi
##ccato
##lette
##tza
libro
Madre
aveva
maxi
conto
allo
Io
##rrido
Deus
##itas
cure
woman
doctors
##epta
##ubt
Rohde
ידי
##עות
אחר
##ונות
Ottoman
##sieg
1566
1535
##ona
Vista
distinguished
Alumni
faces
closure
¼
895
##vereign
mbi
Publishers
Kati
Sega
nato
distribution
Govern
Thirty
##rker
Kot
Joel
Forbes
Poul
Viking
Settlement
Ó
##rá
Try
##iet
Viborg
##ndo
Unity
Siam
Honolulu
##aker
Pas
Phong
##pai
Sydney
962
1679
##dab
##aio
disk
OST
SMA
office
##gth
Starting
repeat
NR
Ž
##žka
Léonard
##ndi
Publié
Dumont
états
européens
Samson
fils
##station
1342
##II
âge
revue
livre
rule
mir
##zam
Jay
Kay
1338
Fisher
Syed
nm
fourteen
##hay
##ithe
Notice
##dier
##ûn
##mière
Editions
continent
##ricain
Jolly
Marc
Éditions
##graphe
1322
Essays
Kumar
##éri
1318
générale
Chine
pays
étrangers
hè
##ref
##urde
##raf
##dl
##asu
worth
vie
##nka
religieux
boud
iste
Jérôme
Duc
Maison
##rose
1315
Gupta
1313
1312
1311
Heinz
Nevada
Chance
##oner
Twain
didn
teach
Socialist
Mississippi
involvement
Blum
Deborah
Ghost
Hunter
##stock
##mot
Territorial
Enterprise
Dickson
Isa
##dora
Duncan
##ɛ
##ʁ
dj
Alexandre
Dumas
Théâtre
##nte
##ips
Play
##ahe
Soldier
Société
collaboration
##ppa
Ada
Nineteenth
##nan
cuisine
##udet
##פ
##נ
lie
vand
tomb
##laze
suspected
Hütte
##roth
Rhode
register
studied
Barr
XVI
Mills
Father
Terra
Padre
franc
##esca
cor
##aggio
locali
above
rural
כפר
##נא
##blu
913
1614
1509
Byron
Cervantes
Moor
##cock
1551
Italian
##rede
##esco
##giers
##mau
##rice
1577
1581
Calvo
##ruch
##rici
##jot
Hispanic
¿
##É
##Ñ
Dick
##pectations
##oline
##lles
##pue
##rique
familles
##stide
##gnar
Cinq
semaines
éducation
##réation
destinée
capitaine
##tera
Voyage
centre
flotta
quatre
vingt
Lune
lune
Gaston
##onnan
boulevard
Grimm
Forest
Pittsburgh
Carl
Ferdinand
Lotte
mali
Eduard
Jena
Ruth
Fairy
Deutsch
##örterbuch
##ucht
##crat
Folk
##lore
Conservation
Donald
##tales
fair
tales
Connecticut
Tata
##nder
Alte
deutsche
Lieder
Öl
##enberg
##osen
Vanessa
##tig
##heimer
##ners
Voices
Raven
Dove
##uke
Reading
Annotated
##rue
Basil
Connolly
sex
festival
MX
Deutsches
Exhibition
Humboldt
##iers
Monument
Goethe
Edit
Untersuchungen
Umfang
##tike
Erst
##bea
##eit
Trier
##stra
Full
Ever
Ella
Fashion
Zentrum
Bundes
neue
##noten
##serie
entsteht
##nap
Frankfurt
Brüder
Hanau
eines
035
Antoine
1684
Marne
Gala
##ntes
##werpen
1568
Historische
leven
Rubens
Erik
elk
Sint
##kerk
##steries
##ozen
##stère
##iende
##گار
Lao
##tile
##date
Lucius
##cini
##psi
##ceram
##tors
##bini
Paco
##efe
##ctus
ordo
##quest
##rion
##ipa
##eten
Dacia
##tesi
##phon
Cyr
בר
##וכב
Severus
XXII
##riana
Cassius
Dio
##חי
עצמו
##וז
Marcus
##elius
##oga
Daphne
##scus
vidi
##gri
##urion
Claudius
##ianus
Did
Julian
Local
coordination
committees
##dius
Irene
dama
841
731
##ocie
tele
Stick
Monkey
Fly
نوفوس
Novo
Nate
##smith
background
sketch
Alexa
##esto
##bica
meridional
##blica
##zioni
Oriente
Bees
##lating
662
Jam
inscription
##qli
straight
expedition
##ify
defeat
writings
bore
wealthy
quali
fight
typical
opinion
superiori
transferred
abitants
unor
custom
permitted
husband
provided
occur
soi
##uus
Museo
Tracks
Saba
##jd
Huntington
##itor
##elik
##wir
Nicolai
##ʼ
investigations
milieu
##zett
1708
Dél
##igny
##él
anciens
##ifs
##dela
##jou
Ray
Male
Total
##ement
##hina
♥
mab
amour
##zou
lag
Bien
##venu
align
variable
quantity
sto
Ω
experimental
modeli
##ntial
testing
prediction
corre
##gression
1444
Sahara
Mortal
Kom
Fatal
Baba
##liti
Xbox
Fighter
儿
经
وچ
##گه
quality
experienced
Browne
Janet
1093
puts
Species
special
significant
permanently
argued
singular
consiste
##oq
##uent
HMS
##yel
Shrewsbury
Susanna
née
Erasmus
Jos
##iah
##mons
Edmond
Gran
Firth
Lamar
ideas
Jameson
##unis
Trip
Stevens
##slow
Tenerife
Adam
brother
Jag
Tierra
Fuego
##mmy
Button
##áp
##agos
Coco
##eling
##eption
Cornwall
##eli
##dot
cap
##yba
Bab
propose
Friday
wi
gives
Harriet
Martine
usia
orang
##utan
Dalton
Hooker
##mut
Gull
Portrait
##table
deb
##gia
explain
##cei
Biological
Linnean
##ught
liberal
Spot
dwa
ds
Leonard
##yce
##puls
ster
##stadt
opens
##HA
Denis
##wit
ett
Feuer
##werker
1293
Held
Ist
15th
Osman
frères
depuis
jusqu
##rne
sous
règne
maison
##dé
##mie
belles
lettres
##primerie
impériale
1283
##CL
1281
slave
sultan
career
##ṣ
##idat
Franz
latin
Racine
##aven
1272
Rahman
Dead
##mael
consacré
étude
pensée
Dieu
##riers
march
##lno
1264
1262
##ju
Gers
##vitch
##haru
##aar
LLC
passé
##udia
##slim
premiers
1256
##IG
##osse
géographique
##graphique
##sad
Édouard
##īs
descendants
politique
##̲
arī
##fie
Félix
Hachette
##rtar
ista
Né
##pal
##eux
##mont
roi
Villeneuve
##gem
1248
##tien
1247
Malay
Peninsula
##roads
maritime
sil
Partie
1245
Aux
Pitt
1243
1242
1241
##lande
Humphrey
Traité
paix
documents
divers
concernant
chrétiens
septentrional
yer
1234
Noir
Presses
universitaires
Bowman
##amentals
##vle
##fik
##ulen
##duit
Sari
##rateur
lutte
pape
empereur
causes
effets
Cher
donne
edo
##nke
Download
##load
torre
##rent
##orren
µ
Doch
##ège
Catalogue
Sources
##eide
##OK
Lá
##rar
##RF
1225
1219
Est
Ouest
Frédéric
japonaise
1215
bataille
##rama
Institut
Resurrection
László
##őr
##ém
##iai
Kiadó
Learning
Plays
Stanley
Stanton
Sarah
Niger
disso
##lves
Commune
Route
##fish
starts
##pulsion
##alo
##uchen
##ala
Nigeria
Split
##fis
Nigerian
##veri
##shed
##sier
Sexual
Imam
entreprises
presse
privée
conference
##ced
Partners
##jn
##eel
Brad
##quo
Conseil
journaliste
refuse
mise
##telle
Ou
PAN
Journalist
Emergency
##inge
income
régions
alternatives
Québec
République
Senegal
agricultural
Dakar
Nouvelles
##ines
Anthony
Lonely
##arch
liter
##atur
Austin
##bun
Towards
ren
##ais
##sance
essays
##nak
Guides
Bleu
##vor
##ice
##nial
##lein
##LC
factory
ship
seized
illegal
fishing
newspaper
##SD
##ava
Agence
##ographie
Finding
région
##égi
Arrondissement
##vité
elected
officials
UAE
##anga
hospital
honour
etc
root
values
AU
numéro
##vue
socialiste
##gro
3e
Gambia
##wd
Bissau
##GC
região
regiões
sector
Iowa
Videos
Guinea
##uine
Diocese
Canal
026
Sierra
Leone
##ovo
1461
Maps
Liberia
Maggie
Montes
##inos
masculin
dek
##eye
debajo
Liber
909
##sley
##rime
##llah
Each
Enric
##culum
Soo
##zhou
##igen
##ituary
According
Togo
925
##frica
##ense
Direction
##bilité
##onnée
##logue
Benin
Cooperation
##sado
polo
##giz
FOX
Own
Ibrahim
ô
ɛ
ɔ
ŋ
##͡
communes
Burkina
Faso
Giant
Holmes
##wali
served
combat
phenomenon
banned
parties
tribal
organizations
unity
##onali
Electoral
Process
Oba
Burke
##یک
##shin
brass
##nici
Jeanne
##urd
Christine
perspectives
Cornelia
lega
Stefan
Goodwin
##mest
Oman
Resources
##bab
Sudan
experience
processes
Hoy
Berry
##power
Horn
Neville
##ldes
reader
Gates
##ssing
ait
Escape
succession
sixth
session
##ington
Grey
##dda
##lila
##ego
Response
Coast
pirates
Hartley
ehr
Lehmann
##hips
Mohammed
kings
Williams
Wilkins
Tanzania
America
citizenship
ancestral
dro
##xan
refugees
rainfall
##ional
Charter
aria
##boll
Somalia
CEO
##iras
horn
navy
Police
software
tool
Populations
##iye
dig
##llis
Middleton
##canti
Nurse
trade
##ziki
Gabon
##grat
2551
Andy
##oche
Bloom
##sbury
Under
##nue
##chromis
anders
##onii
##roch
Til
##api
renda
##pio
Procambarus
clar
##kii
Harvest
##stus
##arias
##pinus
871
ilha
801
cidade
distritos
##ministrativo
##idades
##pios
localidades
Decreto
lei
nº
Janeiro
Julho
##ár
Chef
Zimbabwe
##venil
libera
Digest
Station
noin
Musa
##emu
Solomon
policies
##band
##gabe
front
outdoor
Liter
##acy
reporting
nine
##bang
##zama
amin
wire
Dre
##nou
Matthias
##üst
##gaben
Rei
##anz
##tsch
##tliche
##fragen
Sarajevo
##enz
Schutz
Fischer
Serbia
či
naj
##đi
vojni
Prvo
svet
##skog
rata
##če
novos
Sergeant
SMS
Emden
Kaiser
Elisabeth
Navy
Beckett
تنها
Tarn
Jess
باشند
##nei
Nürnberg
Leipzig
Osbourne
##voy
##lü
Came
Alliance
##right
arme
eliminated
##portation
massa
Constantinople
capital
Istanbul
##kara
Constantino
renamed
Tot
Bart
Jacobs
ël
Lise
##schi
رمان
Murat
Battlefield
##cas
##cote
##olt
##prey
Baker
Stan
Woodrow
Cliff
Praga
Lux
##ardo
##rdini
Mussolini
Barrett
##lude
Blitz
Romania
##ă
##tă
pentru
##cure
##şti
twentieth
##دند
##volve
469
738
##rran
Gilbert
Capo
##nsel
Mount
Diary
Eyes
##source
Jeremy
Jose
Reynolds
programme
##rée
supplied
Allied
requirements
transport
resources
meant
##icient
supplies
ham
##corre
lists
soldiers
biz
Gerd
veteran
Irving
Publisher
844
##eyin
Welcome
Spiegel
##roga
Ewa
Dil
Syracuse
##tir
Wat
araka
filas
Bayan
Beirut
Broken
occasion
Anniversary
excess
deaths
571
##₤
052
ute
ces
Pearson
Jahre
photographs
Bavarian
fleet
Urbino
##marine
McGill
##lando
Castle
Helmut
##fera
Kramer
##citi
Ese
Dynamic
Killing
tire
rejected
##nz
Jochen
estimates
Doe
##nys
Instrumental
##aldo
Italia
Dennis
Memoirs
##scientious
##raphic
pictures
Chester
Punch
Tod
Belle
scales
debt
friends
##usso
##rgus
Х
##оло
##дна
##я
война
froid
ارتش
Shire
##nton
##dd
Byrne
arabo
##ikas
Hahn
##onas
Elliott
Hampson
916
Patterson
##ddi
##wley
##ike
##nger
##gain
Wikipedia
acto
Macdonald
##loc
##nkin
Sergei
##brug
عبارت
ion
##nl
Masjid
Malcolm
##az
Newark
Students
Make
opened
fie
##arach
##dista
زنجان
max
process
automatic
##ѕ
Є
fu
##zzy
cruise
##timi
cycle
aftermath
Brett
914
933
919
932
Missing
Links
##jum
7th
882
Все
##она
##рх
##и
мира
##усу
##ль
##ман
##ский
Восток
вв
##ю
##ллер
Август
История
ислам
Книга
А
##б
##бас
##ид
Ф
##ати
##ми
##ды
##ме
##ст
##ники
Э
##мир
аль
ум
##ара
Cairo
879
891
کرد
کو
##کرد
کتاب
##ک
##ید
الدین
امیر
می
##قی
##دیا
##کر
ملک
لی
##یس
##کان
عالی
##ضی
##کی
تاریخ
ای
سوی
##امی
ذکر
##لک
##فی
##یان
##کم
##ری
994
ٌ
Tank
##ularis
Keys
Hartford
עולם
Noah
##vided
##raus
Giro
separat
governmental
sphere
necessary
inclusion
##lian
Spirit
Weber
Classics
Berger
veri
Really
##lative
Leiter
tâm
##ilm
##bours
ove
##tad
##grave
fue
##rok
desert
rain
##oj
Maritime
Surrey
##stria
Suba
##lter
Elite
Henning
Wie
##seh
Larsen
899
ent
Riva
##sili
##test
##rain
cabinet
Dickinson
commission
brutal
##down
continue
torture
council
Habib
fail
uno
##sed
difference
ambassador
expected
##hes
opposed
benefit
scheme
##tats
buildings
mapping
shows
categories
##ably
bid
BD
M6
HF
##cris
Parade
tat
worldwide
##word
لهم
1085
##دھ
آمد
##ttin
kb
##seri
##öre
##sine
##şen
boy
##ları
##raba
##lul
##çi
men
##lju
##lerde
Batı
##umu
belge
##vim
##doğan
##çu
devlet
siya
##şk
Yeni
Türkiye
Asie
Centrale
Roux
Fayard
1265
##ater
Knights
Ī
دانش
##oine
##vina
##ripta
##یق
آسیا
##بیر
عربی
##رسی
##پی
Robinson
Emperor
1410
1458
ایران
1501
iga
Andrew
##reus
##wder
Boulder
##rez
Vest
Birth
Similarly
disappeared
Buy
##fficial
designa
vest
Dai
Reza
assumed
revived
bureau
appel
†
##mens
##bart
Oaks
Marriage
##zon
Janssen
##chid
writer
documented
سی
876
##رگ
##چه
陳
水
Tân
##úi
##ⁿ
اقدام
##stro
##sus
BV
##TA
##iral
##bola
CDC
director
fire
hearing
##κ
##πο
##λι
##dati
Koninklijke
Garrison
Shan
Level
Strike
Pot
##entia
##enario
Seymour
##pili
Chemical
mos
weapons
##paper
Attack
stock
U23
Novak
Slovensko
##nská
Republika
kraje
##odná
Rada
Slovenskej
Republik
Turner
Interest
1743
Kis
##pson
##lok
1728
entertainment
##urn
1745
Horace
1754
Ashley
ora
Majesty
Lima
##oire
##fürst
Alison
Families
1661
atto
Thames
1692
rulers
##lde
1711
##plain
Scottish
Toto
Suprema
##ute
##icki
##duce
Jacobi
Rising
##yre
##bble
##resse
##leigh
Viscount
##roud
Sutton
##kera
##ches
Mann
##mit
Collier
Judd
Townsend
Bradford
##gler
##aris
##bric
Josephine
##eyn
##vour
##berley
Please
##roft
1493
1502
1505
Guicciardini
##rley
nouveau
king
##lie
##ynd
Inventory
1534
##cian
stayed
loyal
papa
1532
1537
Reformation
##making
Grace
ISSN
095
##tex
1519
##igde
Clement
Stark
##lga
##ication
c4
1540
##vive
##diso
Wesley
##elen
Description
##HD
Gunn
collected
Victoria
Catherine
##gon
Aragon
Feria
1499
1504
Strong
1531
tan
##gere
Graves
Corona
Somerset
About
ley
Warner
Nora
##fts
rat
Duchy
Sicilia
##mou
Limited
oft
Holz
semble
##étique
prononciation
cette
reti
Hugo
airs
##oft
1512
bed
dress
extant
fled
trois
##irt
##course
##iou
play
panel
##mpo
##raneo
pretty
##dau
participant
antics
##cleic
acid
##sorption
Dates
treated
Eliza
1558
advice
##unsel
##ades
##rse
##egi
##timate
##lose
##cluded
heir
lineal
descent
Richardson
1565
##dson
##city
largely
tuto
Calendar
##nish
Exeter
##ices
Neal
assembled
horse
remarkable
tribute
##finity
##combe
passed
litt
she
Kantor
##owicz
Isle
fortuna
vacant
##pate
Canterbury
Reginald
hours
##prese
##nted
illness
##curs
cardinal
##tha
Married
historians
unlikely
breast
suicide
explanation
Dora
##hert
lost
compatible
1578
Hammer
JSTOR
Juno
Diana
Entertainment
1561
##uise
##zone
furniture
derived
Margaret
nearest
kin
##woman
sister
coming
withdrew
Leicester
Norfolk
##rath
delivered
actively
intentions
assault
naval
commander
Medina
reached
coast
Calais
wait
opportunity
observer
Ulster
unknown
inland
thousand
Mason
Vaughan
Performing
##rdy
Collections
Camden
detailed
aspect
manufacture
rot
appropriate
projecte
herself
prestige
kept
toe
Cecil
sette
mark
bird
grandson
cousin
twice
removed
pat
##ernal
Arthur
memorial
726
encounter
heroes
Raleigh
Victorian
narratives
lay
presenting
pot
remain
observed
romantic
leadership
tim
condemned
ming
mang
##eth
fantasy
anything
servit
might
spelled
Lindsay
signed
sheet
trace
printed
##like
competed
rivalry
Lennox
Clerk
ellen
##chino
##tland
granted
##fession
Trial
morte
internal
explosion
surgeon
lying
stran
##gled
agree
murdered
Melville
castle
lain
##duction
bog
requested
attend
refused
permission
commissione
cas
ton
Hepburn
Lady
1457
Comme
Wife
Penn
Memorial
Saxon
##ertion
##nym
##leman
friend
reads
instant
faste
##ssed
desired
ninth
hour
falls
Saturday
conclusion
Browning
deemed
##dicated
##ited
throne
1659
Gibbs
Peer
eye
wife
til
##mark
##tress
pena
1667
Adrian
Perm
impact
thinking
converted
shortly
Restoration
1669
reaction
agreement
corona
crowned
proclaimed
Macau
##filiation
##all
iz
nominee
reputation
##erre
nomination
uncertain
happened
##uari
analyses
1626
##rke
peer
Parish
Germain
transcription
##érique
##Leod
parish
church
disputes
scattered
stating
broke
exhibition
ground
ordered
buried
Monmouth
##moor
sitting
##lya
URL
brit
asp
##justed
1670
Hutton
pounds
earning
##utto
Porter
intention
convert
##iller
باليمن
Bryant
KG
Worth
1629
1621
1459
##itan
Ak
##oll
Pauline
Basin
##gst
##oke
Palgrave
Godfrey
Scots
Fantasy
Mortimer
Gloucestershire
fate
summary
isa
##isa
Isabelle
Angoulême
Hugues
Barlow
Danzig
##pente
Carpenter
ensin
##gton
##byn
rum
##ency
##clamation
saving
##sort
##tda
Packard
Maud
Harrison
Shane
Cork
Kenny
château
Wight
Château
Versailles
Cherbourg
Museums
Greenwich
343
Buck
##penn
##sfield
Baron
Baronet
Ani
##att
Carol
##oty
817
Destiny
2555
Mala
actor
Alman
##csi
##mile
##erson
Merr
Թ
##ոնի
##ր
##dır
##ənd
##ûr
##lex
भ
##ूट
ा
##न
##ू
उ
##त
##ोट
अ
##न्त
Bhutan
forward
##ternal
financial
neighbouring
technical
advances
governments
##dig
##spects
Revision
reliable
##final
##ellan
##armaceutical
##pien
BP
PhD
Scientist
##ske
Midland
Marian
Quinn
##ceu
Dry
règle
Mancha
Castilla
##tys
زاده
همه
Qara
url
##arta
school
Juden
##staat
Alien
808
Cabinet
draft
Declaration
Cynthia
Hansa
##kul
Soft
DOS
Grammar
##mā
Ü
cui
hui
tantu
plural
##vus
geni
##tivu
nau
##rico
##ēm
domi
corpus
ī
##gni
##ūs
##pite
corn
ver
##īd
ē
nef
XIII
XIX
XXIII
XXV
XXX
Rhein
##chs
ohne
Teilen
##änkischen
836
Bochum
Arbeit
##eme
##ßte
##rmes
##üsse
1186
Adolf
Lambert
Johann
eus
Ruhr
Rhine
Witt
##lae
Schwarz
Bezirk
Duisburg
##krat
Lange
##mage
Meer
##utt
Kunst
##akademie
##oß
Jäger
Faust
##museum
NRW
Wir
Kultur
Heine
##eden
##kst
Opfer
##zial
Schloss
Oper
Komödie
Freie
Ton
Garten
##ssel
##nev
Ascher
##mitt
##perate
seeking
Kraftwerk
spent
musical
genres
catch
pop
band
Propaganda
hip
hop
trip
syn
##lash
##gine
rock
sound
Krupp
##brate
Himmel
##ött
Fortuna
Bundesliga
Esprit
arena
Voda
##fone
Ericsson
##vik
BB
Og
##liv
##hodu
Henk
ler
WDR
Handel
Clara
Schumann
Musik
##schule
##lee
Fach
Planck
comprehensive
Bahn
Konrad
dena
Platz
##bahn
Stadt
Dortmund
##örp
##öv
contribution
Essen
##spiel
##verein
Borussia
##bare
Publikationen
##hei
##nische
##sku
Jahrhundert
Lager
##reg
##ister
##leitung
Namen
Kapitel
Verwaltung
##grund
Reino
##kir
SPD
CDU
##tadt
DH
HB
##rkas
Signal
Regionalliga
Oberliga
akt
##ueel
Eis
##zentrum
Westfalen
Innenstadt
##üt
##gendo
##cka
##rde
Menge
statistik
dort
assets
764
##elsen
##kirchen
Leverkusen
Mönchengladbach
Galicia
Estatu
##onom
##ía
##tí
lengua
propia
galleg
A2
##BC
ψ
Patel
##rela
##itted
Forma
##trin
##cilla
##än
##kung
Icon
Bee
##solidated
involving
dissolution
Crimes
reports
criminal
dimensions
##HC
surrender
##code
ITIS
NCBI
##oda
##yli
##dae
##lidae
##nidae
##foni
caer
##ule
##porus
##rana
##pte
##chy
##ado
##anya
mutual
pico
pu
##lse
pairs
##AG
ls
Laser
fe
Rocket
Shoot
giant
Statoids
tobacco
##mus
##osis
##ropa
##gare
##ttes
sale
##low
##eti
classical
sz
Quick
##ometer
Catalonia
Dante
##ncia
##jera
Méndez
García
##mil
FN
Communes
Région
administration
collectivités
locales
##ogh
battle
coup
seize
##ké
##idh
##ène
Inca
##itur
##koa
ako
##jon
##rona
##kona
Ola
Hg
Malik
##wak
Kobe
Ulla
##nta
Hana
##uka
ua
toca
##rvo
##bamba
##ash
##نگ
1497
##jor
بهمن
psi
dialogue
##cí
##ducción
Cañada
ediciones
##iter
##ráneo
novembre
Albanian
Poe
Spiritual
##ità
##iden
##ritt
Premio
##zzati
##roni
Cada
##stre
##zé
Noël
##uille
##lende
##scu
mots
Mana
bleu
parole
Mediterraneo
poesia
ospita
##lita
##rao
editore
##rmi
##yin
río
##caria
Federico
##bó
Kabinett
mét
auteur
deux
séries
##èm
##ése
bord
lumière
jardin
eau
##ella
petits
classiques
##ér
##bour
Livre
Moun
paroles
##gique
traduzione
Edizioni
Genova
parola
##lità
cura
##rdu
##itar
rio
traducción
árabe
notas
Muhammed
Türkçe
ş
Kitab
türk
##çesi
Mehmet
##kki
##bische
Gegenwart
穆
罕
默
德
貝
尼
斯
沉
Nights
ich
hk
climat
eng
##rica
1495
makt
Θ
##άλα
##σσα
ἐ
##ὰ
ק
##צב
frac
monster
log
##sburg
Allgemeinen
Tourist
Clubs
Hotels
Restaurant
Presse
Bild
Bremen
Bremer
Weser
Altstadt
Neustadt
##ürt
##recht
Jerome
Prague
##ým
##žský
Palatinat
1618
Magdeburg
Regierungsbezirk
Lech
Wert
MAN
##zler
Augusta
##lico
dB
S1
db
Pure
Tone
##quen
##plitude
##ensi
Valenciana
##à
Països
##cat
##gula
Telecom
Games
Triple
GPL
##entat
Stal
Porto
Alegre
Else
##GP
FS
Target
Windows
##pad
##edit
##md
boot
Linux
Java
NET
drivers
lecture
slide
Imagine
##wave
##vois
Kerr
Él
##aire
بنسبة
##meran
elements
EX
##jam
lire
ligne
lang
Fink
##phin
Abdul
Guérin
village
construct
interference
differenti
Different
geometry
branch
surfaces
differential
pieces
##äck
Haus
dab
kama
jak
bak
kis
maga
nad
yi
dadi
bai
##raut
lah
aula
aka
##mna
masu
kulle
Hause
##msky
Lombardia
Access
ARM
##kens
check
anar
spaces
##enstein
statements
##leb
Logo
زنان
##agen
Skin
بحسب
##yme
Quartet
hra
##cato
井
寺
##sung
Motors
LED
ويوجد
summer
olid
Son
##nho
##shof
##zach
rud
##fs
Neue
##kommen
Frei
Salzburger
Österreich
##villa
Kap
Glacier
resort
Salzburg
##höhe
eller
Köhler
##graben
Alpine
Reservoir
040
verb
riding
##iru
1409
EPA
Screen
##stitution
##ido
وهذه
##metry
surgery
لأنه
لذلك
羽
曳
南
##وری
##یش
Omar
Isis
##uba
##iyat
##vaded
surrendered
##unta
##rily
alien
dynastie
##yat
tell
extending
Wine
##iest
poet
##erbit
865
##ioni
bil
##dung
##vitas
Rousseau
##leno
Bean
##rtu
Monat
##pere
Gottfried
Herder
ml
##eld
Bastia
Element
##anken
Boa
Prima
fac
##ege
pani
##ello
sapiens
Visa
##lberg
##eat
##aque
chim
Kruger
##htar
Holloway
##ckett
Deacon
##dw
##inia
Baldwin
##cine
Lyman
Patty
##tzer
McGraw
##ndt
jedes
wie
Sprache
##gleich
##ende
##studium
Beziehung
verschiedenen
##poche
Sprachen
##twicklung
Saussure
Mannheim
##lock
##xis
##asa
Burnett
Alaska
Oscar
Martinez
Mint
Sidney
Mead
##kow
##nowski
##dock
##aires
##ogiques
##ndres
manière
Radcliffe
Ira
##jun
Ferguson
Clifford
##eert
Wagner
##itze
Marvin
##yda
Augustin
##dige
Lindl
Sony
Walk
Gay
1203
##big
mah
ahli
loved
Motiv
Robin
Annie
##jar
Belo
Yusuf
##yik
Detective
humanity
feedback
Broadcast
##ctura
Bourne
quer
corte
##lal
Els
##ometa
Morrison
Boyd
Cummings
اسفند
قریب
##علی
##دید
مشترک
والی
##دین
##یت
##وک
##ریا
##کا
##یه
##ودی
کا
##حی
##کن
##یا
Professional
##brica
##ads
##maq
##fiq
##IB
701
للسكان
Seattle
Ama
ASP
Libraries
License
WC
TCP
Pack
network
##llon
##gong
##nsky
Oleg
UNIX
##quire
##ctural
##MP
Stream
##CP
API
Server
DNS
##pose
Extension
Internal
Framework
MF
Message
ITU
##sula
##weight
##fic
integrated
circuit
Talk
##ahan
Fidel
##å
Grass
Tyson
Siehe
auch
Übersetzung
experiment
platforms
motion
Einstein
ray
starting
ends
platform
εκ
##λη
##σια
ek
Thorne
##oco
##avier
Allgemeine
musika
##lische
Beethoven
remembered
Trump
##onan
Plate
19th
Dominique
##upil
Salt
Musical
Maynard
Listen
Für
##rechte
nobili
handed
Vienna
##istrat
prove
Edoardo
##ild
Wim
dea
e5
##novi
Hits
##poser
terminal
hair
##dle
##dition
##iant
Genius
Mani
Depression
Creative
##mortal
##ssandra
1a
Allegro
Requiem
##lce
Cavalry
بولاية
##phi
##ponent
Objects
Integrated
Anders
##jl
##sberg
Studio
##sser
##hé
Unicode
DL
Property
Event
program
begin
sim
function
String
##ωμα
##ston
##plom
##ומר
##ונים
##eton
⊕
ESO
negative
Premierminister
Ministerpräsident
##skan
Führer
##zle
Vorsitzender
DDR
##gesetz
##dida
##regierung
Herr
Frau
Enrico
Fermi
division
formed
Mountains
##lets
Ἀ
##σία
expertise
emerging
##drag
##bound
campagne
##éographie
Smithsonian
Weird
##rkin
planets
##sola
Alexandra
Bender
Travis
Blake
Andersson
Jonas
stella
picture
##mospheric
Observatory
Lloyd
Comets
##biti
layers
ocean
Glas
dem
gibt
Molecules
percentage
composed
McCartney
eight
Physiology
Dartmouth
Hampshire
##vsky
##pona
Aur
POP
Molde
Problems
simply
##owe
poids
mesures
ger
##mina
quartier
Queensland
Cycle
##ative
irrigation
Goals
##WS
##iven
governance
instituti
Steen
##terns
Archived
projection
Peterson
##sona
##lied
Bibcode
Wilder
Mathematical
Elementary
##μα
##θη
##τικός
##kó
##τι
##ὴ
τ
##χνη
té
##nē
##ēma
##tik
##τικοί
##τικά
##bly
inspired
Regina
opp
viewed
posse
##sses
##preme
sol
effort
focused
evolved
mani
frequently
##pted
conventional
##quate
symbol
underlying
operations
##plication
##izes
addition
Ivar
properly
##ppes
branches
unique
exceptions
anal
classes
clay
Put
Estonian
Estonia
Estland
##chor
##lts
##tog
Esto
communication
december
Maa
##konna
##maa
##kond
Viljandi
##SF
##SR
maakond
oma
linna
##osa
##rsti
##tiin
Must
Põhja
Baltic
einst
##tree
##ritu
##öö
##lust
jaanuar
andis
##llu
kod
##akon
inimese
##enta
##AX
measure
##child
Statistik
Lääne
kommun
gles
Enn
väga
##skas
##žių
##tuva
##iniai
osti
posti
##ivo
##udence
Nigel
##ík
Olav
##sons
vald
812
raid
##gt
lib
##tica
Vir
##daja
##mbit
Ordens
##taat
1481
##stad
Pärnu
Landes
##wehr
losses
Latvia
Lithuania
Viktor
##akov
##rena
Cousin
offering
authorities
removing
armed
##rmed
Defence
##niku
##andre
NKVD
Diplom
##õgi
##iance
Hitler
Lande
soo
##isi
##zko
##zej
##gol
ein
file
##nad
##amat
SSR
1980s
Vabariigi
pull
nationwide
voting
admission
NATO
##tse
##väg
Õ
##lii
##teen
Euroopa
##lge
##poli
SDP
tou
##jaka
##über
##kait
##äeva
##leh
##sek
##kust
koht
meer
##ikide
riigi
Saar
saab
##matu
heritage
esto
gross
##ähe
decrease
rapidly
Boom
Silla
##mä
##lev
Soome
##jaa
või
Eestis
Finnish
joint
located
##sized
Curse
1950s
võib
kerk
mitu
##sada
##uli
##kut
##üüd
##mine
saanud
##uks
##üp
##kers
Take
##alu
##ärt
photo
gun
beam
spot
cassette
##ryk
Tv
Ante
##idi
艾
弗
फ
##़
ef
698
villa
voli
##real
Johan
##iro
Vader
##any
Suomi
Suomen
tasa
##valta
Republike
##tiary
graduation
Pekka
##ummer
##rja
##cede
arrives
stone
Lappland
Mick
Raul
##eet
muut
##äi
##vä
Leningrad
across
Helsingin
Mets
##stys
##ditions
##onen
##tii
##isto
##lä
PD
##untary
##jona
##kset
##uvat
##olus
##ista
##app
Niels
Electric
prices
communications
Rail
Railway
subsequent
Andersen
Bengt
##kap
##röm
##inen
##tym
perusteella
laps
kans
##isuuden
kun
##tyy
Suomessa
eikä
saada
minkä
valtion
##isu
##utta
2549
Uno
Geonames
ev
fastest
grown
moving
sustainable
planning
##tade
##rave
Lau
##hant
Return
##dali
Amman
BRT
##WC
Gamma
Singapore
sg
jord
IUCN
Miriam
resource
٠
##٠
##١
١
##rov
Freak
RI
##fram
##piler
Levine
##etu
##aboration
Innovation
gratis
libre
PHP
##SQL
Wikimedia
##brar
CPU
##ched
RTL
##inu
##rest
Application
Reise
NF
Command
##pret
evel
Boots
Interface
erne
Stad
aika
##vudstad
##maan
##sblad
##فته
Commons
##omme
##ported
##nome
Lesser
Gli
license
Mozilla
##yle
Firefox
Browser
forests
ça
Given
##orse
1489
Lebanese
Tourism
mondiale
ספרים
Vai
Beste
Vergleich
risks
म
##हा
##्मा
બ
##ા
##પ
##ુ
##vat
Gandhi
##abad
Hindistan
Maha
##tma
Garland
##open
##pach
Shift
lines
elu
Maji
##sler
Trail
Estes
959
nai
went
##lger
##curi
##cud
missiles
reter
Saddam
##pression
unes
gul
IK
##plete
##aniu
linking
Thunder
passages
##ebb
##rrow
Luther
Funeral
Hakim
Jazz
##dina
fjell
##kje
महाराष्ट्र
Silver
mind
##iani
##rad
Mining
metal
##work
##lur
##hren
Strecke
##gica
Gert
Hauptmann
839
Interscience
799
substances
Kammer
##lim
K2
ner
Friese
Goes
Tun
meg
##rost
Bone
Juli
Winkler
bacteria
Nummer
##rren
funds
Fay
Silber
##lty
Select
Herstellung
Ingenieur
Technik
##vul
##plained
##erti
##unia
ONE
track
##ysis
Ova
##paro
lys
nta
##sou
##rans
##hz
sud
##bras
nat
##idae
##chard
‖
Corse
Corsica
Monte
##nto
action
régi
undergraduate
##OX
معمولاً
فارسی
ژ
##کستان
##hian
651
##mian
پور
##ینی
##هی
##این
تک
##تی
##شیا
##لوی
یعنی
پهلوی
اصفهان
##بیل
کرمان
کم
##عی
ولی
کل
##گی
##بری
طبیعی
##تین
بی
##غی
##ادی
شرقی
ترک
##جی
##ونی
##مای
شکل
##ایل
##یار
##یو
بنی
##ندی
##یم
##رک
مکان
میلادی
سبک
حتی
اکثر
##کت
##بیت
##الی
عثمانی
تیم
غیر
حاکم
##یز
##اسی
ترکی
##شین
##پس
باقی
##ایا
تاریخی
##چی
##زی
##ستی
##رانی
##کز
شهری
پس
دی
شیر
حالی
Peso
string
##omial
reduction
##nma
Bryan
Calle
##stati
capilla
meni
##VA
absolute
conductor
alternate
convention
performed
chemistry
define
##δ
delta
entro
Mustang
sah
三
猿
匹
の
Wolff
Bedford
Titanic
##ritis
##reck
Eaton
##bili
Swift
Famous
Survivor
SOS
##boat
##rook
Same
Later
##pse
maso
lyrics
shooting
BMW
Judge
##chny
Я
##зы
##к
че
##чен
##цев
Но
##х
##чал
##ла
Всесоюзная
перепись
населения
г
Со
##ь
##лж
Г
Ӏа
##Ӏа
MSK
kay
769
823
##ieties
void
Typ
Nes
برابر
رفت
##szi
##eche
Neumann
functions
##vich
##yak
programming
pioneer
##ovich
##lanta
1403
##نوی
ἱ
##ό
##τα
##μος
ι
##πος
Origins
taxonomy
##cene
species
vulnerable
##ategi
Andre
##ustration
##ั
##านี
##tani
Idris
##sides
##ilio
Senior
##ור
##אה
زبان
Voice
Waves
Pioneer
Days
Recorded
##lain
Vargas
Roosevelt
##torial
Editors
Administration
archives
Construction
Sud
static
broadcasting
##lass
##٩
##٢
٣
٥
٤
##٥
##פת
##dah
##zul
Montserrat
##titut
referendum
defeated
stato
##quia
Wireless
cand
Trinidad
Tobago
Borough
County
VW
Koning
##inne
gai
##ande
##nchi
CB
platt
ime
hosts
desa
##lina
Coral
tourist
Blade
IGN
Devil
Clash
Titans
Ark
Soundtrack
##گن
Gaming
##GO
Tower
Directors
##پور
arte
Polar
Ward
Griffin
NSW
Trinity
##chie
##orp
##£
stands
entrance
Theme
Olympics
Fabio
editores
elecciones
partidos
coal
##iciones
##tantes
transición
hil
##enti
##sion
Solid
##arity
Eduardo
founder
Smoke
DSM
CW
##edde
LP
FK
HP
D1
Woolf
Sunset
Vinci
Inferno
25th
Reunion
Connection
erst
Roads
morning
broken
##mara
bourg
##iski
Classification
##later
##clic
##tang
interactive
##rating
recta
crossed
##kamp
autobiography
reveals
Arsenal
Flying
Dutch
manage
##enal
##cier
##cense
##ís
Rocha
junho
##ónimos
##eiros
##dú
##vidas
##gua
##itado
janeiro
##ência
##ícias
##ntu
outubro
Fernandes
Ivo
##íl
##icos
Editora
Educação
##oze
duca
clan
Jill
Supporting
21st
climate
Districts
##elle
Job
militants
##mns
Bataille
##uss
Banque
Occidentale
9967
##μό
##σ
##romos
centro
##mere
##ῶ
sanger
database
genome
UU
##NI
¢
Barbados
Caribbean
Davis
1641
Rihanna
Heroes
##coding
Rules
##χ
##έλα
##γος
##ági
1366
parler
##ptive
satellite
object
##bino
##witz
Antarctic
spelling
silent
Arctic
Antarctica
Hobart
##gence
##vet
Falkland
Estados
Ramírez
Île
Tristan
Cunha
Fabian
Gottlieb
##zare
##jø
Jacobsen
Ships
##plosion
Lille
protected
##oes
Milo
Rodrigo
Moldova
##ča
##ingia
##iad
Export
##erate
Haziran
##cena
##krasi
Yunanistan
Temmuz
dili
##dote
Şubat
Cea
Kreis
##ckle
Hutchinson
Bizans
##rator
##lise
nin
##ızı
Teodor
Leute
##rung
durch
##dalen
##gian
##ır
##ık
##ası
nay
##cı
##lığın
##üş
kuru
sal
temel
774
hakkında
maka
##lele
Almanya
##llin
Albrecht
##üre
Charlemagne
Italya
##İ
##üzyıl
##larda
parla
##kları
Carta
dan
asr
kadar
în
Büyük
tarafından
nın
##ümü
##sil
yapılan
##şma
Bourbon
angl
##lusi
Constantine
##chnitt
Meister
Ravenna
##gir
Savaşı
Clermont
##dü
##sü
##ını
##şı
##fas
İstanbul
Gutenberg
Nantes
Nisan
Taking
Columbus
Mill
##nies
hari
Isabella
##üz
##ğan
kişi
عنها
Dominion
palm
pine
##bull
Fransız
ğ
##ğu
##lları
gerçek
##şi
biti
vapor
Yayınları
##kla
Bismarck
Dünya
##nın
Baş
Rifle
Somme
##gile
##eki
##llen
Buna
##lı
##mı
##ışı
önce
bug
##ği
Warsaw
Curt
ı
##pı
##yk
##üsü
destroyed
apartment
Bosnia
Herzegovina
##mates
##usto
##bista
Bosna
##oru
##wards
##tow
executive
##gement
Maastricht
decade
Torre
##nine
Phoebe
captured
outer
##xion
##ake
##works
Dunlop
##aret
Track
##zion
##nul
046
outcome
medical
attending
resolved
conservative
successful
##kor
Remo
Asti
##ceo
##mise
cache
stages
2539
bright
banner
bearing
##eady
##cipation
##mez
Faz
##rchy
אתר
##וג
ארבע
##מינים
##nské
##ô
anime
topic
Conan
episode
博
士
##meu
humour
##شتن
##dao
nera
meters
##kuk
Action
Figure
##isal
##minence
elevation
measured
peak
Sainte
stick
Jeux
Hamm
entries
Method
8th
Mueller
SAM
hyd
##dole
##illy
##tography
Carsten
Bernd
Engels
Medizin
Studium
##zne
##ynt
##zeu
ω
Bates
Abel
Aron
JK
meet
##kich
IMDb
Movies
Feature
##servation
Zoe
مختلطين
##atte
Fool
Batman
##WN
dad
##aram
Finally
##shing
Training
023
##eak
Fantastic
Comic
Situation
##cycle
bat
##mobil
##arang
##falls
stable
Guns
Sinn
##nten
Gaeilge
080
exposed
assim
##mino
Observatoire
##tique
Speaker
Lars
Á
##gnes
##used
Literatur
##nast
بالقرب
438
سپاه
##onor
հայ
##եր
Marina
hac
##uria
Lisa
Formation
##action
dali
##luk
zat
Հայաստանի
ս
##ոցի
##ալ
տնտեսական
և
քաղաքական
դ
##րությունը
թթ
Ժ
##ող
##ով
##րդի
Պ
##ատ
##մություն
gh
##dik
gavo
Gábor
Masters
##kian
Burning
##gris
Features
##λλα
##ζ
##sium
organized
municipality
covering
Mojo
Krause
Core
dual
processor
##anc
Entre
Milton
##vento
##yó
##éke
##zés
Bí
##ró
ő
Hungarian
Instrument
Taipei
Ленин
##гра
##́
##д
Петро
Guinness
Ла
##до
##ж
##ское
озеро
##atok
Nebulae
##gno
##wiki
##nn
eni
##gma
##fall
IRA
##inha
##gien
##pressa
amit
MBC
Dallas
Happy
Johnny
Cool
Kalifornia
Romance
Sleep
Devils
Meet
Twelve
##cea
Troy
##give
##kles
##ters
wis
principles
conduct
Selected
Fragment
##imon
##ἄ
##ρο
Vogel
Cicero
publica
influenced
teaching
##umen
Ethics
Rooney
Audi
##otus
proper
eighth
##risti
precursor
Desmond
Augustine
Further
running
Sua
Newman
faced
sight
##dering
##erated
enlarged
previously
partially
bulk
none
conception
autonomous
personality
founding
##ctar
contract
building
gradual
separation
discipline
operating
acht
##parts
##lip
begun
appeared
existing
options
seemed
##ened
öld
professional
Wait
Continental
Sul
##iman
##haf
option
蔵
村
新
築
図
録
には
が
##い
##っ
##ぱ
##♪
##udan
Daddy
##orio
Dirty
Brescia
edificio
##hotep
Egitto
##μ
##άν
##mban
##CD
depot
injection
Classe
##renia
signs
Blind
Halo
##dol
##done
Volunteer
Following
##ients
##mitted
intervention
##pica
Kansas
D2
2A
1A
pressure
Released
Mental
##icie
##pine
descriptions
diagnostic
revision
##chia
##ranu
Mystic
Pizza
Rotten
Tomatoes
##not
Nicole
##ἰ
##ιο
Herodotus
hero
Seventh
happen
hali
elite
##ument
##watan
بدست
##nya
2a
彩
娱
乐
票
台
登
录
盈
网
saha
##writer
##cedo
##bii
##anum
##gur
##šu
##šili
š
##duk
##arra
usu
##ʾ
##manu
##pak
akit
Β
##λών
##בל
Monuments
Raw
ved
گل
gade
Nara
##tla
Uma
##radu
Ponte
##βία
Jeffries
##tena
ien
##وبی
##رید
Oda
בת
ז
##בי
Julia
##elia
Zen
##obia
نفسها
##iri
Samo
##sata
Valeria
##bur
Palm
仮
名
##jir
「
」
とは
凡
な
や
##さ
##しい
##という
意
で
当
普
に
使
用
する
文
字
体
系
であった
##ことを
味
。
は
簡
要
章
などを
く
合
いる
公
的
である
##のに
対
して
知
識
乏
しい
々な
##ど
##が
私
性
格
##もので
##あった
Translation
simple
limited
ー
##cito
##yr
bone
density
Turn
mineral
##oros
##pogon
##sant
##toi
##onar
mala
##bros
cel
##iac
trails
##ndro
##ators
##tures
##hini
reso
turno
##EB
NEC
dens
##ito
marker
GO
community
##cius
sociali
Bono
Gori
preso
##oci
##éta
parent
Clare
Hank
Ludovic
##iana
نسخه
##ngt
huit
##ette
مرگ
特
攻
隊
apan
##vención
desastre
sí
##smi
Japón
##mea
Prefecture
近
遠
四
方
九
州
basque
Euskal
Cantabria
Italien
Academia
068
للمدينة
Ř
##ź
##ř
##š
##ż
##ů
##ł
##ą
##Ř
##¨
##ľ
##diocese
général
habitat
vice
secretary
Distance
Account
ACC
FCC
arter
##onta
##neous
##TS
Based
x86
##biq
Ubuntu
proposed
restricted
MP3
Steam
Terminal
##cuum
Pressure
mula
Puerto
Rico
##ñ
Tribunal
Pueblo
Español
proceso
Revista
Universidad
##rme
##urado
idi
movements
reach
revolutionary
América
Sudamérica
##américa
##érica
Ñ
Panama
deu
##iosa
segun
CAD
##Á
Planeta
Buenos
Ecuador
Paraguay
intensity
level
courant
capa
##nesia
alba
acido
##bis
##צר
##וצרים
##zzare
##enna
elleni
Archaeological
##egan
Roots
poca
##ptic
Churches
דו
ח
##גרות
של
##צרים
##ובי
##לים
Tunnel
connects
##ago
منجر
Lama
soccerway
Wimbledon
##peda
##ερ
##της
connect
frequency
ρ
sensor
##mmet
gates
reverse
GND
2013an
##BS
Flash
bilen
##west
##bedded
Identification
##uting
immer
generic
expand
Laboratory
Design
Cyber
Ms
##unce
Eden
kN
807
Beginning
##gona
##zali
##loads
##rag
active
passive
Practical
Hello
toto
vaut
##tate
VG
Scala
pale
##mous
ALT
##sir
##گاه
##vore
##nymous
dra
##conia
surveillance
##tali
##nski
##ckt
ports
##mbling
message
pk
Platform
##vacy
##ference
Loop
##hole
Enough
##fina
alphabet
2D
TER
Ping
hands
flood
queue
##wall
Check
##udio
tools
Flood
worm
##cked
default
HTTP
Apache
tip
##cte
##dos
##dru
chu
##egen
##TF
##force
##rts
Aircraft
predator
##aper
banque
présent
Yong
LDL
بالإضافة
بعنوان
ayat
##olla
##hola
exclusively
manual
aims
enjoy
北
Madeleine
##omis
##aille
Grade
##½
##ʊ
deutsch
##isches
Politik
##adt
Hamburg
─
##werk
##nberg
##ees
##xte
Hagen
##beck
Tier
##park
##uro
Wand
Platt
##deu
kur
##piel
##nage
Gallery
##onik
Symphony
Phantom
Dancing
##yor
lige
delu
##xe
Deluxe
Running
Hafen
##brücken
##epe
pau
##hnen
##eck
##feln
Rote
##rü
##tze
Labs
##kau
##wasser
##tü
SV
stadion
##zers
Hockey
Dock
##ß
Hamburger
Axel
Stern
Brigitte
Damm
Beier
##sdorf
Astra
Verkehr
Berge
##ède
musique
illa
043
Bass
##tedt
##tert
##istik
Gazetteer
entity
variants
maj
fina
condition
engineering
##BL
紫
禁
Zij
Cheng
##staaten
##länder
Bund
Länder
Staaten
Bundesland
##urg
Gesetz
km²
Witte
Donau
Passau
Landkreis
Städte
Landtag
Senat
##änner
##raat
Ned
##derd
Verfassung
Brandenburg
Rechte
##rben
Wende
Europäische
Regio
##heiten
##sprache
seit
##nosti
##νω
##στικό
##nosi
Easter
Creed
Biblical
Texts
##tav
scho
##shu
##tge
##HF
Bentley
##ures
Against
Irena
Ridder
##üe
##laine
##urance
Herbst
Rheinland
##lz
indigenous
Silva
ont
##udi
Sie
##mpre
##ísima
Isla
Batista
mafia
boss
profits
Familia
Paradise
Hacienda
Sancti
##roja
Month
permis
construir
viviendas
esfuerzo
propio
##icias
scenario
museo
##resi
##raciones
##ración
propriétés
rurales
appartenant
##erted
graduate
MSN
##lució
Ministro
cual
está
desde
##iem
##vost
Rowland
Nursing
Bartlett
Tobias
Dessau
ß
Mathematik
##önt
Sachsen
Halle
Mittel
DB
Süd
Pass
##enger
visitors
Seite
existiert
leider
nicht
##riss
Niedersachsen
Lüneburg
Heide
Suez
Preußen
1466
##änder
##äs
##orden
Herzogtum
##änge
##dischen
##retung
seinen
hier
Prussia
Prussian
pie
capacity
##ordination
cause
Eliot
Phase
Breite
Wonderful
##iques
##ztor
##wicz
Janusz
##szy
##cki
Poland
##preußen
Trek
##kant
##ilis
##ußische
usw
##kungen
beschreibt
Militär
##kraft
preußischen
deutschen
Reine
Polen
großer
König
Freiburg
Würzburg
Duca
Fürsten
Sied
Vom
öster
##reich
##ären
Hera
##owski
Preußischen
Armee
Staat
Habsburg
historischen
##pektive
noch
##zeit
##ntz
Prinzip
konst
Folgen
vgl
starke
##schnitt
politische
##politik
##isierung
Lutz
Danish
Austro
Lippe
Lübeck
Mecklenburg
Schwerin
Oldenburg
Saxe
Altenburg
Coburg
Gotha
##ders
##ürmer
Mitte
polnische
##renz
##ifen
Beitrag
Krieg
Ersten
Weltkrieg
große
Konflikt
##kampf
##wels
##orn
Weimar
##tät
##ktor
##ösung
alten
zwischen
##dert
Ende
Joachim
Netz
politischen
##vene
##tke
Ebert
Barclay
Livingston
##uch
Benedetto
Benedikt
publish
offers
selle
Bishop
creature
##forts
artikel
Ausgabe
Papst
Named
teen
Cardinal
##zinger
##esu
##atore
##itati
doctrine
abuse
##arian
##bem
Names
Cardinals
Bis
papal
##viser
Sacra
##mentu
##icum
##CT
ROM
##ows
##lesia
rules
breaking
anger
homosexual
##gay
##itate
##nore
boys
trying
cover
priest
##firmation
allegations
tries
Reflections
RJ
visiting
##dog
##alem
##ód
##owych
roku
##ń
##stwo
Instytut
##iczy
##łek
##prawy
Krzyż
##ndr
##orde
##enn
##plin
Pasha
##market
neighborhood
שב
##יט
##aut
או
##פק
Fou
Oskar
##dong
Bend
Jörg
Schröder
##jas
##neg
##rina
##opidae
赤
軍
JR
Collège
##ége
Œ
roue
jeune
volt
##ige
volte
##atile
##ué
lettre
Voltaire
Lettres
##lais
##rey
Essai
poésie
##mé
docteur
kaki
Orleans
##did
diari
##pédie
##ères
curva
##ndri
##uce
notice
Molière
siècles
Friends
Tall
##enty
esprit
quelques
neige
##posto
Volta
lowest
perform
opposition
proprie
cruel
errors
representative
feet
piece
request
protection
hopes
##dest
##eren
##eurs
Captain
##ait
pas
##udra
##vente
##baret
graphic
seal
##vab
separate
anden
Lui
Briggs
soon
##üler
##yü
Yahudi
##öz
##zete
##yı
##īm
oxygen
Beta
nje
Tara
Dios
##vom
##rych
##lone
tas
##mising
factor
kap
Bolt
colore
dependent
##lch
olan
tumor
ika
##ryn
##sli
##mia
##şik
##vant
##manes
fraction
aina
vivo
activities
Malaysian
##rude
multiple
##istant
HS
##fung
lor
liver
Chin
Yen
##yga
dio
hep
##niya
asing
##unge
##mmi
##goda
diet
##lni
##tros
comprised
##mides
Salim
##kushima
##reven
survival
pattern
Partia
rege
##nera
##life
toj
##mide
pero
##bbit
##eka
JJ
##inea
isolated
##chea
KS
##yti
calcium
medicina
injury
##kat
secret
##aha
Saga
##emia
##duz
##mek
enzyme
##cave
Zao
fixed
##ostas
##imit
Dubois
ator
Jis
##osta
Lawson
ونسبة
Ion
erat
##ogische
Beschreibung
##rato
descrito
Linn
publicado
##arum
Χ
##ρου
##ια
##ladi
Pflanzen
Bibel
##spor
cili
ایرانی
nobile
##itis
Kino
Using
Jacqueline
Soul
Tucson
AZ
basi
##sif
##lora
##rio
tenu
##σι
##λε
##bius
garden
##tot
bel
##bah
Palma
##tee
##aze
Sweet
##ymus
argent
Radical
##felder
rice
vale
za
##uela
##bada
##turi
##sot
wedding
bir
##avo
##inum
zin
sing
##gave
vera
inch
##bera
gingen
og
Poison
Plants
##wijk
kat
ข
##ิง
##dang
sala
khoa
##ỡ
sor
Jamaica
gay
zang
##laas
finger
##bergia
##stol
##bere
##ndre
bisa
##nese
##pei
oso
##asco
Ses
linn
varieties
Mrs
##anica
mg
##mh
ym
Riviera
##lgar
##ofa
essential
##rine
Pierce
spots
scientifica
pod
kills
Denise
##κα
##zin
##hiza
Morse
atomic
##nach
RF
origine
##lée
rap
Eure
##kale
க
##ரு
##வ
##ா
##mom
##nicu
##ilan
##mum
lig
longa
Turm
bos
Anjou
working
calle
##rya
bet
##olia
sensa
bana
خانه
binary
MW
##κι
##σμός
Italiana
Italiano
##rlo
cifra
##mma
ghi
zion
nazione
alam
algebra
algoritmo
fonda
##miraglio
##cche
bello
vols
Conrad
Bergen
##pendium
Kirchen
Tübingen
Lutheran
eius
##ligi
Aki
Nash
Baptist
Gonzalez
Justo
##posed
fost
##gati
##tans
Lombard
##riam
Cost
spread
Landscape
None
Have
##brand
##fully
finding
followers
growing
faster
Munich
##regation
##ious
##ded
##erda
##ital
##lexikon
##cko
Fernand
Trevor
##pit
##pka
rear
proportion
denomina
proved
involved
winners
category
striking
especially
contrast
prizes
##kam
##flower
Courage
955
Morrow
##elt
##wein
##pisch
##هاند
Certain
##gregation
longest
river
##gott
Tao
desire
escape
taxa
##dry
##rices
Inde
studying
cannot
struck
##une
routes
took
predominantly
fortress
remote
interior
yok
yet
##φ
πόλεμο
pole
KK
##dari
Therapy
vector
##RNA
JG
##ώ
##τε
##ιος
##icular
remis
Ini
##mune
Corp
##ille
##awa
Vox
##xel
terrain
##kou
aime
Vierge
moh
Loch
tau
omega
##sari
##ître
WM
##mette
doute
énergie
noire
meter
Interpretation
##ξαν
##δρο
ὁ
Μ
##γα
##ιά
##χο
##ου
##λος
##κε
Hanson
##ولی
##basis
پنج
pm
Greece
##tato
ene
Cathy
Dayton
Providence
Eski
##wki
suggest
designated
genus
##cina
##cinae
illas
prima
biology
Erwin
##ología
notable
Algebra
##f3
e4
d5
##aun
##cista
Leonardo
Torres
##vedo
את
##ך
##ון
andra
##ERO
prac
##hya
Kent
##mand
Tex
bilan
journals
scholars
##nok
Gard
བ
##ོ
##ད
་
藏
##īz
##àng
न
##व
##ग्रह
श
##नि
ச
##னி
土
星
Finale
Help
vor
explained
Cassini
Praxis
Uranus
probe
Astronom
Berliner
Astronomis
Jahrbuch
SAO
Planetary
Neptune
1°
Dalai
##hab
##adan
Nine
##lā
##īt
Gomes
terres
quand
orbital
Chao
asteroid
##eries
Stella
allows
determine
upper
limit
exploration
Exploration
Observatorio
Lunar
##pace
1088
##gun
##onde
Fehler
##hoben
##fahrer
##berry
##ints
Spitze
Telescope
Arizona
Lowell
Cornell
Frontier
feature
##mentos
fly
##aches
##aching
Marcia
mystery
arXiv
accessible
IAU
Gabrielle
##yka
Sofia
Tada
Icarus
classified
orbit
otra
Dynamics
Planets
##plications
Chiang
Cain
plain
Dwa
Harrington
Cele
##stial
satellites
Christy
Position
Bath
##lang
##shaw
Sao
Allison
##tail
Annual
##rni
##ngs
Edge
Greg
Outer
##erin
Prediction
Clyde
nitrogen
Pisa
Calvin
Brent
earn
Mean
radius
##innon
Weaver
##enga
Manche
theories
##2013
TOP
Horizon
Neil
Margot
##sno
Britt
Holden
Constance
abil
Terrestrial
legislature
Legislature
Mickey
chosen
##kind
Workshop
maps
Benson
##nance
##anen
Motion
Hannes
Hubbard
Fuente
Marcos
accident
quasi
Mens
Odd
Masse
atmosphere
Merlin
imaging
Asteroid
Eugenia
occurs
kilometers
collapsed
minus
centered
Bruno
tempo
vert
##hane
Zhu
determination
Milli
Samantha
Could
##oked
Worlds
##smann
##ohn
sized
Parte
##eba
Bey
Bertrand
Forget
##ço
Kimberly
##hler
velocity
centimeter
##nik
Surface
pone
mur
##sterio
Frozen
Vigo
layer
Hubble
Villar
STS
improved
Nadia
##oat
##uya
##mata
fault
loading
monitoring
Beatty
##unds
##ndan
L2
##alter
rotation
Primo
##aile
##ulations
050
##hoven
month
focal
length
Crane
Fernández
Buckley
Returns
##biter
Fusion
Vancouver
##lung
##lī
Monetary
##νά
##ριο
hurricane
Hurricane
##egas
Tropical
Camille
Davida
##vere
Tornado
Alley
##SL
##veda
##tores
##atos
flight
dollar
Hercules
Loeb
##bih
清
真
礼
堂
拜
化
革
命
foundations
structures
##pas
Για
##τρο
##rium
sodan
Davy
einige
Erscheinung
Veränderungen
welche
##ität
werden
insbesondere
##etzung
feu
##ständig
##kali
Darstellung
neuen
Körper
ihre
achieved
electricity
metall
bases
Physik
würde
lagen
wenn
Herrn
geb
##raucht
mehreren
angenommen
völlig
##klärung
dieser
bleiben
Oder
vielleicht
findet
##ssig
Erste
zwei
Klassen
machen
letzter
setzen
För
##sök
genom
använda
##ndet
##erna
grund
vette
##nskap
##ligt
Gade
##mica
Linus
##rsi
##lach
##aps
##elem
##sika
##ctic
##leis
##tand
##gram
legi
##erungen
eit
##schrift
##ěk
##rsa
Bauer
##ecker
##ride
##ög
##tat
Ange
##wandte
Sb
##tje
Siegen
##tler
##nä
##hrung
##werte
##stoff
##fuhr
strategies
prepared
Sitt
Weiler
##burger
##anik
sel
##lanze
Gabriele
Ziegler
##llt
##smus
##sä
##gte
Kohl
##stoffe
Justus
Werke
##ulator
##ener
pound
##ikh
##kaan
hos
Lur
##site
‹
›
Pay
clothing
beliefs
##culture
préfecture
indicato
##building
Always
##DP
indice
WP
Partnership
malaria
skill
Straits
departments
##istent
##bers
Commonwealth
##uj
ç
##ão
##vada
São
Tomé
Principe
##lho
##uet
##afrika
##sland
Horst
actual
battles
ended
##mination
governor
colony
##chua
##nala
continues
Namibia
ting
unter
Kolonia
##öss
Wirkung
Oos
##weer
##fund
Stefano
Kristina
CBN
WWF
Hands
##dhi
tight
jobs
##ranie
##ütz
##uali
##sina
##hoek
##sprachige
Medien
Frederico
##ulun
##africa
gael
grants
sin
##sea
##úil
agus
شوند
##rkan
##lara
kyrka
##orto
##ott
##gatan
##atan
##tä
##juk
##inska
sju
Göran
##kä
Olof
##gården
##nky
##ånga
##irea
Sean
Éireann
##áil
Wilde
##kley
##ród
Ryan
##rish
##TB
instal
##lmen
##ako
FF
Lesotho
7°
078
Cabo
Verde
CV
UCI
seek
membership
##zew
##ław
##zd
##ów
remaining
parks
square
metro
##cultural
##vite
##wska
##lej
##jazd
##bka
##wiec
##kie
##skiego
##ząd
PK
Stadion
##zie
##ę
##łu
##że
##iego
professors
Marek
##zyński
Zbigniew
polski
##zna
ونادي
##inent
Companies
##reda
sente
Galilei
chose
Lodewijk
Wade
epic
##frontation
Bergman
Rembrandt
Pembroke
Sommer
jer
##usal
Ghetto
Ridley
laat
##zono
Traffic
Bruxelles
Brussel
##naie
##uw
##arden
##øb
954
##vn
##nborg
Prins
##øp
Fork
##voli
##borg
1479
Oslo
norsk
##ødte
##ldre
største
gruppen
##valg
kommuner
Baile
Átha
Cliath
dub
T2
Rīga
##sted
Liverpool
Waterloo
##ño
matrice
##rà
sis
##cone
##igo
Porta
Pepe
##elas
según
##rón
municipal
##creta
aparecen
##grafía
línea
Julián
##entes
##ajes
referencia
anterior
establece
artículo
bella
Rafael
vida
##tidiana
durante
guerra
España
Lig
equip
##aje
##unto
pág
cita
también
cómo
¡
árbol
prisión
##ground
Puerta
##zana
Mayr
##erit
##verde
##rile
##ños
##ña
Educación
Derecho
##ónico
Letras
##ificia
##illas
Europea
##ística
País
Eusko
Ranking
Mayor
##boa
##ª
recebe
##gres
##sos
##ânt
##rro
Parque
Nações
##ês
##brunn
Mariah
Straße
eat
Riding
##tier
##eum
##sement
##iesen
Ferris
##uds
Alberti
##latz
##platz
Karls
##tras
Praha
Beograd
Београд
سمندر
##ža
##ánd
##vár
##ndorf
حوزه
Niko
##lić
Nikola
##ć
##čilo
##ije
Исто
##рија
##ћи
раз
##ред
ги
##мна
##зије
##grade
##visna
Država
Hrvatska
##äng
##iger
Kroatien
Novi
Tuesday
##ović
Mustafa
Historija
##šnja
##maks
Rod
Macedonia
##gari
По
##ма
##ците
##ска
##т
да
бъдат
##нати
като
##тно
OM
##rza
##€
companies
ć
##rija
Pod
Miroslav
##lje
##đe
Mir
##иро
##слав
##ље
##во
је
##ван
##ђе
manuscripts
parc
پاس
##ća
muzik
kuri
danas
ž
##erz
##itet
Beogradu
Tesla
##jub
##lja
spor
##azu
brat
glavna
grada
##še
mando
##vá
##onika
Slovenska
Bratislava
##vek
pies
Slovak
organ
frei
Kaufmann
Progressive
Judaism
Kiev
temporary
minimum
mln
folklore
##xpected
083
##boy
Ukraine
Т
Та
##ва
Яков
##лева
Иван
Вы
##гов
Е
##дино
##рог
##ъ
Материалы
по
военной
истории
Восточной
Европы
эпохи
##них
веков
##анне
##го
Нового
времени
##п
Под
влиянием
польск
##ой
об
##щественно
##сти
сильно
ди
##кта
##та
##кана
се
##йм
мае
принял
##ад
##яч
договор
более
чем
##рез
##ан
виде
##дея
Кн
##жества
##усь
##кого
вообще
была
ун
##ич
##то
##жена
равно
как
положение
со
##ране
##нии
союза
##ос
##вой
От
##мен
##яла
##сь
ли
##кви
##ии
цел
##ый
ряд
других
##зит
##ивных
статей
##tioner
healthy
stopped
labor
Doug
Dynamo
Triumph
Tragedy
Mitch
9965
responded
distributed
follows
wishes
##КА
##Д
Аз
##аро
##в
дал
добро
на
строительство
кол
дороги
вокруг
Киев
Газета
##Ы
ко
##мента
##рии
Вторая
##цева
дорога
##дет
##ся
млрд
Однако
направлении
ок
##ру
##жной
уже
вся
земля
##куп
##лена
##Е
##О
##Н
##Я
про
##г
##зи
##рует
начало
строительства
второй
году
Agency
##union
##пустил
Киеве
город
##скую
электр
##ку
##И
Ново
Украина
##cional
biblioteka
provincial
András
##óc
Sabrina
Macedonian
Planning
758
Authority
##enic
##nā
##ή
##να
tha
##ὸ
##λει
ἄ
##στ
η
πρωτεύουσα
##ε
##καν
##διο
##τικής
Мінск
##mesi
tot
##DM
Ак
##аде
##город
##о
Siberia
##nay
##rava
Portals
Mandat
##pani
gallery
##sua
edge
Damien
atti
##ems
Kuala
Lumpur
Malaysia
origins
##shima
Seis
aras
##hima
乘
诃
衍
容
易
讀
錯
詞
现
汉
语
词
典
远
东
英
辞
增
阿
含
經
勸
請
品
八
：
爾
尊
拘
羅
便
說
此
偈
種
果
不
同
眾
趣
亦
然
覺
我
無
辯
禪
智
解
脫
憶
眼
能
盡
苦
原
須
深
女
逝
有
質
直
瑕
穢
勇
猛
所
伏
求
於
行
吳
汝
鈞
印
度
佛
教
思
想
色
之
指
崇
這
後
但
非
全
其
發
展
基
理
並
離
順
期
起
源
與
開
第
〈
序
〉
傳
國
始
譯
已
是
元
世
正
兼
暢
以
統
部
派
在
沒
造
成
堅
強
上
情
也
許
適
勢
雜
類
整
編
宋
出
遲
了
些
跋
陀
位
唯
心
師
偶
義
菩
訶
稱
呼
受
到
影
響
過
每
立
就
審
定
承
宗
張
修
多
分
攝
依
致
即
證
當
長
流
會
因
少
差
別
為
完
誤
謬
！
kira
##alse
Nagar
##juna
##trina
Tibetan
Imre
Mirror
Hook
Sang
Lanka
##sins
##java
##gut
##taka
##piya
##uen
Chung
Bandar
Sinh
##ád
##ares
Colombo
##kawa
##āk
##کار
Pereira
##zal
Ryu
Luzon
##nfo
##®
Andrews
Franken
Sanctuary
Spurs
##cist
ricca
variant
##tó
haber
haya
##bett
##tını
##fı
##çmiş
kong
yaptığı
Rupert
Murdoch
##gul
##loji
##çı
##ıcı
##sı
olarak
##yordu
eğitim
yardım
##ına
daha
fazla
duy
##ulan
başka
olduğunu
sö
kamu
ön
##fet
etti
##atı
##ağı
parti
##ında
çoğu
bunun
##şe
##ğini
##ünü
Rady
denen
yüksek
##ğretim
yaygın
##şim
sağ
##cağı
##nı
özellikle
##lerin
##lana
##cile
iyi
##lamak
için
tek
##oji
##ladığı
kol
##sinin
öt
insanlar
ikinci
verdiği
modest
Opposition
committed
##olition
##festo
attracted
opportunities
offered
##olc
chance
autumn
expensive
agreed
reduce
immediate
colleagues
allowed
Sparta
##arı
##ldı
Eylül
##öl
Bakanı
##gisi
##nları
dönem
boyunca
kaldı
sistemi
##zı
ortaya
Shadow
##lined
replace
faire
günü
Bütün
kabi
##yeti
olur
##ının
halk
deste
konusunda
olmuş
convinced
getting
Judy
sayı
Kensington
##ük
##üm
wake
Sovyet
onu
küçük
adını
##tı
##kab
beni
dubbed
nickname
sind
yeni
açık
gaz
##etes
Granada
##wamp
##çim
poster
##zetes
Bil
olduğu
sık
##ydı
Onlar
süre
##ıl
zen
sever
söz
##sinde
alır
##sak
şu
gelir
##nem
##kten
aynı
fik
nado
##ünün
isti
Kuzey
##rland
##yasa
mese
##rinin
yalnız
##lesi
##dir
constitutional
affairs
hung
tarihinde
Farewell
##asy
##ştir
İngiliz
##likle
yerine
gibi
yerel
##vvetleri
persone
##llan
##ören
##ülen
##lerinin
sayısı
##üde
Fear
Unionis
##ınır
##landı
##rma
genel
etki
##sini
##meyi
hed
##etin
iki
dur
##unun
ağır
##ştı
##ış
gör
iş
##siz
liste
dalar
savaş
##ıyla
ilgili
bilgi
Coal
##sation
Supply
nden
Brighton
##aları
##lmesi
özel
büyük
başa
##larından
biri
Bunun
çalışan
kes
olmuştur
onlara
orta
##lerini
##lamış
kapital
##izm
##seda
baş
##rat
##mıştır
Martino
scene
##bbed
don
##selt
funding
Ekim
Fontainebleau
##vesi
Birleşik
Kral
##laşma
göre
Krallık
unu
geri
geniş
##leme
amacıyla
##enin
kısmı
##runda
got
##lık
iç
Kasım
daki
lider
##inde
neden
oldu
Conservative
Agreement
effectively
##öp
firm
##manı
daya
##nara
kendi
altı
##uğu
beats
Sense
bölüm
##vana
Lords
Amendment
Stop
Bogdan
Vernon
##arti
##inden
##ındı
Thatcher
fights
birthday
Wedding
Kira
heads
diye
şey
yoktur
yılı
Lauren
Benton
##deki
ekonomik
##rın
np
channel
eva
Butler
Walden
returns
weekly
günümüzde
##delen
##diği
bronz
dair
##üne
Julie
##reep
##atz
##aida
lietuvių
kalba
##аке
##дон
##ски
##žine
latviešu
Swan
##εν
##αι
##fähigkeit
steps
completed
correspondent
abad
Constable
Pakistani
boom
election
##ason
ovo
##rupt
##backs
##aja
##rta
##uza
Bala
##wat
##dama
##tev
##üller
Babylon
describes
talking
##III
##bene
voci
##tata
##uris
##ddon
##wce
contour
continuing
نیو
##tila
regional
Voor
tours
Australian
##odia
##ê
ê
dî
Creek
مقيمة
عرقين
معيلات
واقعةً
معهم
nomi
##eration
Filme
1691
rasa
perception
judgment
rete
compound
naming
relation
##bining
modes
Nomina
forfatter
##nyt
Jens
##bliotek
##erne
##aic
onto
primordial
manifestations
hatt
Potter
##tsi
Martins
Contributions
sé
##uelle
Lectures
##klar
##kowski
consequences
manuscript
reprinted
Rivas
##äus
Collected
connection
Rene
tida
extraction
flow
speeds
Venne
kV
049
##dici
width
lave
آتش
mase
talks
lava
lab
passes
Jimmy
##wag
##js
##rno
##vator
##ρη
Ч
##ерно
море
შ
##ავი
ზ
##ღ
##ვა
##ёр
##ное
##ор
##не
Π
##όν
##τος
ם
##dean
##vers
Autonomous
Want
##inite
##lite
##tao
##vasi
##lici
##ül
Fourier
10th
operator
ultimi
fog
materia
##cao
Jing
##ipes
Cary
rast
##dani
doctor
magic
##logen
mito
##idia
meio
fer
flowering
##wyn
##sele
##ymi
travail
Algérie
##ptes
rendu
elles
castell
##dita
Cristóbal
Colón
Cristo
##foro
Ville
classique
XIV
FactFinder
Garner
1448
##stant
principle
rex
defensive
kingdom
sell
promise
frame
instrument
courts
droit
##sworth
Legislative
Ewing
gras
##llum
sine
##eia
lege
Corpus
wing
##wu
Klan
Puy
Lionel
Messi
##liste
ワ
##ン
##ピ
##ース
##hone
Piece
Wanted
##jis
Inoue
ono
Season
بنام
Pirates
##nee
Manga
influential
nime
##wan
huet
refere
٭
WWW
##IA
##VO
forts
Ghana
##sée
Cosimo
Palazzo
Medici
mutations
##ória
Santos
tribus
Gustave
##nologie
royaume
##lies
1508
##nose
attitude
Morgen
##Ô
##Ç
##Ţ
##Ď
##Ó
##ages
restoration
fons
modules
1475
fort
##äfer
Barros
Sousa
##träge
internationalen
Kosova
##care
hautes
Wally
Württemberg
Haupt
##enten
Schweizer
##sées
Mexique
Etienne
##ourg
##thus
##nologia
história
dee
##cimento
##dique
Pardo
Navigation
dite
emperador
##xica
##être
Kuno
Foster
Buffalo
Ivory
Ok
##echu
collect
fragments
##kup
##ština
##čko
distrikt
##шти
##на
Б
##рч
##ко
##стри
Počet
Stil
Josip
##mija
Vale
##ujo
Ć
##šić
##DH
گاز
л
##сар
##ева
Наталья
Александр
##овна
Некоторые
полу
##за
##бы
##тые
страни
##цы
из
язык
##оз
##нания
де
##сс
У
##ит
##ней
Об
##щее
роман
##нание
летию
Бу
##даг
volumes
material
##bant
contre
Cours
langage
##veau
sau
##ssu
##risme
Limoges
##nement
##rul
gros
anchor
##kee
##vit
Laurence
misi
##azo
18th
1920s
ilk
audio
Evangelical
cartoon
##uten
##hawk
Adi
Brook
haven
Erie
Finger
NYC
Fields
093
094
tog
##اشی
##édée
Beaufort
##dli
##bé
industriel
moyen
##rte
état
Baxter
##zog
##uchi
Léon
##meer
envers
##nami
Ming
archéologique
##lén
##ogo
Clément
##mella
armor
mail
##bow
##ntar
##xar
##nato
##ziger
##mem
Produced
Horror
producer
##oju
Ved
ह
##िं
##दू
धर्म
Karma
Reichenbach
Nya
##vaart
##tika
rei
Sant
##prava
Religious
Sanskrit
##ु
##स
##्म
##ृति
##ह
##सा
##त्य
##म
##स्त
##ेय
##ं
##च
##िन
##्द
##्रिय
##ः
।
ए
##ाम
##ास
##िक
च
##ात
##ुर
##्वर
##्ण
##्य
##े
##ऽ
##ब
##्र
##वी
##न्
##raya
cât
pou
consumer
patterns
indicate
##etaria
foods
pari
##inda
##pun
kuwa
##kuwa
Hij
##acker
Nightmare
##itation
Investment
##Ý
Exchange
aviation
Sabah
Emirates
Glottolog
developing
مدال
Beijing
UNICEF
kuni
Towers
delegation
kuna
Arts
interpreta
lunar
mémoire
Arno
##éritage
##rimo
##ρι
##νι
##τός
##stos
##רי
##ussen
##yang
pred
##nza
AIDS
tende
spiritual
contributions
Nestor
AAA
langue
Mighty
Ekkehard
##ɣ
Hayward
Ruben
Charlton
##walt
lieux
prise
Leclerc
##istique
aménagement
Université
Laval
تعلیم
##ós
tower
##atories
defined
##éral
Como
Loi
Lys
protocol
Secretaria
nebula
rede
Pete
Miki
DOI
متولد
##verte
##lios
portal
##hv
##PM
##idt
dl
##ISE
quatrième
junta
mau
##ž
État
Méditerranée
##eille
##teil
##nien
##uaire
CNRS
arrested
possibly
arrest
exile
presiden
##gade
officers
Sagan
##zky
史
吉
汗
pinyin
kang
鐵
Бо
##ржи
##гин
Laufe
##liche
Vlad
##urrection
##תו
##שאר
##גון
##יון
##מית
##פגש
Yahya
##cente
∈
ℤ
Guo
##demia
cour
telle
valeur
##mée
dont
##teur
##nomi
deviennent
acu
lorsque
dire
tombe
donné
demande
quelle
être
alors
prend
qu
divise
apre
avoir
value
numera
denominato
asks
sought
∞
Turismo
##tivos
##adores
Bowl
Ε
##το
##έν
##ης
Groupe
##ōnen
OVA
Oro
##bibliothek
Daughter
##otis
##tul
Krebs
Experiment
##mogen
##rsus
Hora
triangle
doctorat
réseaux
points
Plana
Circle
##metrie
Lagu
##stellen
##Ö
##mètre
Similar
##rix
##latus
##ctum
lat
disse
proposition
##wice
##amar
noto
differences
Hier
academia
##opes
academy
Eerste
##tie
Nasir
Alban
##lasi
##lta
vant
##garde
##rir
findings
Hr
##čan
Cet
volum
Poco
Detroit
##dhur
Fine
entirely
substance
arteria
##atica
magna
##lů
petition
##xes
attacks
CK
##ricu
entrant
VF
لمدة
muscle
scores
##agle
Cruz
Workers
FAQ
Prairie
Appeals
proteins
triple
chromosome
##valent
init
##iati
termina
carrier
nucleo
Esch
coli
regulation
genes
promote
##lato
proti
activa
##bry
##ode
##ulos
vegetation
funded
Agent
Survival
Range
##biology
##nnet
##pliance
intensive
Stacy
##clave
##ticu
Kids
cca
##vd
poc
sweet
##coli
##phobic
##pola
##mehr
Teil
Flora
##vind
##jee
dedicat
##stid
##enu
gran
##lako
Caro
theta
µm
##sero
##vre
corps
particulièrement
leurs
##cali
##amen
homme
jag
fil
sheep
nomme
bile
##τερ
##ος
solide
cristal
gall
collection
Leonhard
strings
acoustic
Norwich
slov
##čina
standard
electrical
electronics
chair
##wid
##ths
##blast
Chair
lett
kor
Slovakia
Robbins
##pura
##teria
develop
##fert
Thursday
adel
Palau
##vala
Đ
##vica
##jak
Bing
RTS
##cun
nesta
regionu
##cek
Millionen
external
encourage
##mande
قدره
Formel
##zeichen
hom
soldado
bere
nació
noviembre
año
calendario
##mán
niño
vivió
contacto
naturaleza
montañas
##quí
##vidado
permit
##ieron
lograr
puesto
gobernador
Tá
##bí
accusa
pond
moves
Zeitschrift
Palais
Examples
weak
Sakura
Kark
Greco
Gardner
##loh
Liam
Gareth
makala
##kui
##kwam
##dek
##mium
aur
tube
flux
##ngton
##nnie
gases
diffusion
kinds
تصمیم
کر
stake
Yorker
resident
##zor
elevato
grow
Ente
Unlimited
مدیریت
halt
ruling
##mble
Revolutionary
##anja
Ahmad
illes
Kimi
Dreams
Hamid
protests
retirement
##ستگی
برای
دانشگاه
##oya
##nej
##vocacy
Frances
fashion
##ژاد
دارد
Ready
ties
Joshua
rada
Leandro
Dina
seeks
patch
partner
fund
visits
##bollah
friendly
pipe
meets
Fars
landmark
Address
outra
Obama
Censo
Messenger
Evening
##iser
##opa
##iul
##olari
Pavia
Nuova
Aria
delle
Deal
Progress
solen
##opsis
spp
Sole
##psis
olib
Tito
Alessandria
Guerra
##bali
Hannibal
Hann
Carthage
Grecia
##brück
##nko
بیش
میلیون
تهران
شدند
##nim
##زاری
##داری
回
##íz
Gloria
Orlando
fur
##ioso
rito
bem
##ganza
財
閥
Nakamura
Powell
爆
ド
##ーム
信
濃
fuga
jazz
Ravel
Piano
cantata
sona
chiesa
Sonata
##tare
Lied
Rond
manuscrit
Biodiversity
##sect
εν
##τομο
##natha
##tery
##ptera
Odonata
##pido
##optera
Terry
##odea
neo
insects
##kud
Watanabe
sequences
wood
feeding
parasit
Bonnet
##det
rapid
syna
Molecular
##apte
Megan
Yates
Birds
Urbana
##itt
pain
##phis
##ssy
##pii
Homoptera
phi
##didae
variation
reproduction
Jahn
Entomology
##menes
##otu
##ڭ
##closed
##ナ
IMDB
百
科
探
偵
銀
翼
奇
術
Magic
Sting
Friendship
Wish
Shot
気
stream
iu
periodi
Architects
##sya
Build
movie
Notable
##graphie
vit
Cincinnati
Guangzhou
opera
Riverside
museum
##case
nord
stations
Cable
Pictures
designs
draws
thousands
weekend
Pavilion
Guggenheim
##mita
Vilnius
Deze
joc
innovation
hadi
Polytechnic
Concert
##oven
fest
bon
Galaxy
mei
facility
venue
tok
##dito
seats
organize
##tent
Navarra
9°
##onat
physician
##tted
footage
fine
defa
flag
##vaja
##fida
Rory
Peck
seconds
Rees
marble
blessure
##furt
Simons
##oge
##wei
Drei
##geln
totes
##guin
französische
Sender
Kontakt
minute
##ité
##ander
Vos
élus
Neuilly
Seine
##çat
criticized
resulted
killing
staged
##êt
Wake
mort
celle
enfant
mains
##etto
Varsovie
##٣
##cev
navi
ships
constantly
houses
blocks
##زین
Platte
circles
Label
Extended
##uvia
##monds
elsewhere
##logist
##ogs
≡
Beni
protein
درون
Hirsch
##kowe
Monty
##hard
Alone
Winston
Anglo
Diaries
##prise
##lent
immense
movement
mere
plis
##tima
ක
இலங்கை
##iles
lk
Ones
Ceylon
roots
##endi
ා
Namo
##sje
##yar
lank
Hien
Lourenço
Almeida
##bury
Tamil
tamo
##ond
honours
Lester
nominated
Mee
orientation
Clinton
central
Ferenc
##áli
##sain
Seas
##chant
illustrated
Morning
fala
Φ
##ελ
Godzilla
exception
declaration
prototype
functional
primitive
module
##lean
assignment
window
##neau
nationales
##eller
Movie
leading
Rowling
Especial
Witness
Joanne
##eson
##lema
##cestors
##aten
honors
Wizard
##bourne
Angeles
Connie
Lindsey
##versa
Feld
ride
tale
bottom
benefits
degree
Melissa
nell
Fans
##cribed
##volo
##øger
Ricci
Heather
Rare
##active
trick
Gibbons
##zard
Filmin
##uld
movies
WB
literacy
Liz
happy
veto
Spielberg
Bitter
Exclusive
mentions
Baby
##lotte
Fest
Charlie
herri
##night
Writer
Calling
Abe
lawyer
detective
ego
Chennai
trust
compensation
revela
Pola
##worm
fond
Decca
everyone
##ingly
Questi
sob
brings
Tears
fans
spell
ilan
OBE
fet
##iving
Dona
##ined
##iona
Rachel
##quel
Carrie
Leach
Jenny
##cello
##risten
invisible
sería
dle
Fantasia
Hale
miss
wants
Democrat
##times
Vieira
lit
aboard
##wart
sue
phone
participants
Claire
Holland
Crimson
波
##zhi
##ë
##ôn
##ehr
sem
##pone
vari
vene
##gore
##vinu
##drom
##urre
Nicolás
quién
obras
información
Ramos
##taining
commercial
Draft
Cymraeg
Gymraeg
Britton
音
韵
蒙
韻
官
话
話
言
点
點
实
實
识
石
时
际
際
认
認
头
頭
间
間
还
還
蜜
狮
獅
马
馬
猪
豬
犬
鹅
鵝
葡
萄
榴
反
律
风
电
電
视
視
脑
腦
手
机
機
芭
蕾
槟
咖
啡
高
夫
沙
发
樂
製
济
濟
経
済
冇
係
沖
氵
考
试
年
外
总
数
##iration
Entdeckung
Elemente
##icate
##gène
##nsa
##gert
Éric
Lew
2616
##chner
Kaye
viri
##efficient
##kare
##vski
##para
##nnung
##lade
##betrieb
Harald
##dgren
##tration
##iegel
##motive
Runt
Sens
Forst
Heidelberg
##etter
##raith
mao
Klima
sensitive
Waters
Nolan
emergency
Gallo
companion
Bock
駿
ス
##タジオ
##ジ
##ブ
谷
##ウ
##シ
##カ
ملی
##یف
قوانین
venir
partners
clubs
Maja
VizieR
Cosmos
Reds
##rode
##hode
mol
##FC
##pito
Concerto
蘇
##рк
##ів
##рь
nen
##suite
##nology
##izer
Johannes
##bato
Blätter
Thema
Ihr
##gee
steht
Won
cool
##richt
Chopin
Liszt
##kreis
دسمبر
Chorus
##sce
lied
##fahrt
Glück
Guadalcanal
Resident
Evil
Capcom
Norris
##ṭ
ṭ
î
##gón
##یقی
##ہ
##ۃ
##که
اللہ
۔
##ھر
بیر
Alfa
dias
Laden
tape
internationales
accord
bela
assassination
contraste
suburban
Marjorie
##dico
candidates
elde
Such
Burmese
Overseas
Brother
Sonia
Harcourt
Wigan
july
reste
solely
##rots
reca
broadcasts
useful
##fallen
quiet
##burgh
grid
##emos
architect
##zli
##deo
بوده
Wilkes
Coppa
Goodman
Eleanor
Victory
Colonna
USSR
Abs
Minds
##vyn
##nibus
##stal
ung
Burma
Shooting
Mabel
Denny
Astor
Meyers
gone
translations
##utati
reading
##chon
##riot
Aldo
Brave
پادشاه
Mumbai
hava
##arna
989
شاہ
##izat
##iuo
##یتی
##hang
##ڑ
##ٹ
##nnis
##hán
دیلی
##iges
diffuse
funda
Mariano
conflit
Latine
diplomat
Nove
##liko
Tomás
Bár
Sá
mund
Toby
Bluff
petites
##uvres
##resta
##contre
##jim
militant
clients
Konstantin
##idor
Mundi
Qaeda
discours
salvo
paid
palace
Monique
##maga
heb
dare
expose
feat
regi
voices
enlisted
##plosive
proposal
30th
anniversary
Sociedad
Naciones
kant
Kendrick
Igor
Velika
##gann
vojna
Лига
##ций
Bois
Polizei
##amt
##stve
##nno
GPU
##ipo
##drich
Amt
##mando
Jerzy
Gestapo
Snyder
Widerstand
Studien
Prinz
##zei
##tellen
##ekte
Krim
##retär
Stettin
##zeitung
hoch
بودهاست
Göring
laget
CAS
##rend
sic
aussi
directement
##mt
##führer
##sdienst
##stelle
jüdische
##sze
##ntra
algo
##äu
##mung
##sang
##eleg
##erat
##ینه
های
Shqipëri
Shqipërisë
Albania
##ower
Pino
##sher
Tirana
##naut
features
##piro
##zë
Rescue
Balkans
Nebraska
Nato
Reforma
investment
##nje
motor
##kur
##ptar
Č
dhe
##pida
Yuri
Filip
Fish
##bëtare
##jet
##ër
items
Romanian
extension
Europi
poorly
##ested
jos
##ckel
##tira
një
ende
##avour
Departament
Andorra
##etat
##ació
Merit
hospitals
##reu
pobles
afecta
viure
hits
Україна
Crimea
##vile
Jude
Brooklyn
##ider
##croft
##oki
##eln
Piotr
Cornelis
##hoff
##pair
Weinberg
historian
##рив
##ош
##еев
СССР
века
потери
во
##ору
##женных
сил
##тати
##ческое
исследование
Stanislav
Minsk
reactor
Sharpe
comeback
picked
##uko
Russo
##phone
territorial
##iness
joining
keep
Fungi
checklist
##sana
job
respond
Donetsk
##osten
rough
positive
##sl
dame
##mate
sample
##ovna
offices
Bez
##dko
greatly
Rostov
denied
whether
Latvian
Sejm
nationality
Assembleia
##âmica
Mga
##eres
##ίο
##ψ
Pastor
Lower
Sieg
ez
##tuar
Yes
Deng
##tait
##bena
##emen
Mord
##echa
Tek
##este
Uppsala
##tet
Ḫ
##əl
##lase
Vivo
##mits
##idad
slow
Afro
Finch
Katarina
Wildlife
##ager
##pec
emissions
tonnes
flows
Animal
Parry
planter
Futures
##tay
##eks
Gud
##lih
dry
##pian
Addis
##dera
##2010
##fah
##lani
##hidi
societies
Lynne
##zero
##eiz
##äm
##tott
##essa
##barra
##trix
bras
##rand
gur
mich
##fter
FIBA
affiliated
##grafi
##rijving
##gische
##heid
Belgium
##mde
bevolking
##data
Emploi
marché
uit
het
januari
eerst
##okk
##aanse
Italiaanse
speakers
Flanders
facilities
##ijn
##iato
##uiu
corresponding
driving
precise
abolished
choice
Rudi
municipalities
housing
dialects
neighboring
Luxembourg
Kerk
lopen
zeer
##lijk
describing
##aard
Ruanda
rango
Leopold
Vlaanderen
season
processi
Dende
##messe
Several
examples
architectural
##yden
presentation
artistic
artists
artwork
##eke
painter
Vieux
##ÿ
Thiele
discussions
Lil
##affe
Edith
remake
zijn
haar
kort
liet
##vaux
Doom
lot
Hendrik
Doo
een
##liet
Stille
Hubert
##ief
cinéma
cinema
till
Беларусь
##ело
##рус
##сия
Olson
##nikov
loans
Belarus
goods
abandon
Campus
britannica
##erad
Eurovision
Contest
Flags
Eat
##bran
##roat
##āt
##ŭ
##žić
##rua
##ρού
##θος
##ρό
##vije
sabor
##ovanja
ov
##nskih
##vato
Croatian
##enland
##lavo
Hungary
##čić
##vić
Hrvatske
##klad
##ši
##hov
otac
##nskog
AVN
##dnik
##bora
Luka
##bić
##žav
##anju
##tni
##jede
##ćeg
##usko
##oin
##vatsko
Franjo
Yugoslav
##ssimi
Serbian
Chun
Slovenia
##ša
Hrvatskoj
##ovac
##occo
types
Dubrovnik
Premi
Zoran
Milano
##žili
kao
članovi
##jima
županija
gradova
općina
Republici
##šće
kojim
država
oba
##vljen
##stvo
##jskih
##pski
integra
##cija
##će
##ška
blok
aktivnosti
##skih
##žno
parlament
##arn
sura
##dn
##vnošću
##štine
##dno
##jeti
Hrvatski
negotiations
Champions
##ični
prema
hain
##jni
rok
##ać
##dje
Broj
##nika
##ovni
##jama
još
vojnika
##sori
##užbeno
##sov
##voz
oru
##žja
milijuna
compare
Despite
Monsters
Iako
čini
gotovo
dalje
##skop
grana
doma
##čki
će
prvi
nakon
##ekom
attractions
##luka
##stava
##nju
##vnih
cesta
##mjena
ceste
##inje
##vno
##ište
##šta
##Ž
FAA
##čka
luka
##laz
##dbe
godinu
##ncija
##jski
Oko
sustav
safe
stanovništva
##ruga
Hrvata
BiH
iza
novo
če
##štvo
##kova
##gios
Poore
postaje
##užbe
jezik
##pske
##đen
##nog
zakona
pravi
nacional
##nih
manj
##šku
##ču
potrebe
##loga
hrvatskog
jezika
##ži
##vanje
visoko
##obra
##zov
##anih
zna
niti
jedan
strani
Hrvati
uglavnom
engleski
##bno
stanovništvo
više
godina
starost
tren
##čnom
##šeno
##koli
popis
broja
prva
nama
rođen
##ško
dao
##klo
##oje
novi
kata
što
znanosti
imati
##ću
##tvo
##ržava
##vak
manje
dne
##vnik
opis
programa
##zije
##šil
##či
veze
Prva
##zija
##šlo
kabel
##leda
Holding
##nji
##čit
##vni
rekord
broj
filmova
hrvatski
##ovima
kop
##kcija
##fal
##psa
pola
stoljeća
Kako
došlo
##vatsku
utakmica
##NL
##čno
medal
##atia
Johnston
##aging
Trouble
##dira
1ª
mulher
única
economista
Daerah
Indonesia
Jakarta
Batavia
Nihon
ジ
ャ
カ
ル
タ
Jak
##aru
toku
Pulau
##dada
Putri
##onda
suma
##teran
##guna
plc
Урал
##ál
##ик
Ж
##ай
##ық
Delta
Lungsod
##nila
##walk
##viation
distinguish
monet
symbols
recommended
guides
package
Hà
Nội
Thành
phố
Hồ
Chí
Minh
Sài
Mafia
Scribners
Sicily
Messina
tsunami
Slade
Hood
Strom
private
smaller
##plies
palazzo
appellation
postal
referring
followed
Gaetano
nostra
presence
sacra
Naples
Laos
##اک
Bursa
seca
Genel
##üdür
##lüğü
dana
Bakı
##ekli
##jes
Yunan
giri
##logisch
##erter
##ντι
##χει
##ῆ
ἡ
Ա
##տան
##ա
##դա
##նա
##sas
##önetim
kanal
kent
tuy
##cılık
tem
yil
sini
##forma
##tır
##ımı
##ksa
##elin
##maz
Güney
Spor
##lübü
TK
şubesi
cet
Şehir
dall
indult
Basso
##tto
##onn
Banca
Francesc
Carla
Elvira
Lucia
Dall
Canale
##rax
##chio
##ento
Forza
Lega
Luigi
Boss
Massimo
Renato
##quilla
rios
##tieri
##iuni
##nzia
Lugano
##ziali
##iare
Giacomo
##lano
gruppo
editorial
Mondadori
Editore
Formen
Giulio
Einaudi
##erling
##pfer
scuola
Napoli
Riccardo
##bust
Ovo
##ès
Medio
Programm
##dotti
nun
Serie
Calcio
jet
Dot
Parts
emerge
driver
Driver
plates
##ncies
Purcell
require
travels
speed
strength
direction
portions
spectrum
narrow
carries
radiation
absorbed
Thorn
Donato
laboratory
1119
Invisible
##uvo
##llia
matrix
##grad
##zym
happens
##utor
##desi
##pf
##niche
Sonntag
##kke
Ritual
Content
Rubin
##llata
##ława
Curie
##zny
##ński
Polski
Wojciech
##zenie
Marii
##wiazd
##week
##wise
##lat
driven
marginal
Brenner
mixing
coral
##atu
dela
Richmond
##chap
Courtney
Jørgen
valued
informed
##lank
Delft
Used
paintings
Colour
Kuhn
##nique
##yck
Lopez
viaje
Flandes
##gast
##elet
Netherlands
Montreux
Lausanne
Heer
##rche
##jnik
Novgorod
Cahiers
tensions
##ijs
Hollande
Uit
##geverij
grant
ACB
انسان
Ц
##рна
Гора
Gora
RSSSF
Taliban
park
##yx
Instead
consists
##jects
eren
merely
mask
moral
Smart
opponents
obvious
exists
assume
##common
##ttain
surprise
hear
serve
exclusive
##into
Oracle
##cated
pret
probability
##babil
divine
array
##ntic
##erts
labels
seriously
robot
eating
chocolate
superior
##huri
viz
##vole
existent
##kk
##erbach
lav
##žek
Among
divorced
##doro
concern
morali
wise
ruler
dreams
Contribution
إليها
Amazon
##cang
candidate
##dino
Idaho
##ibility
##pera
##pris
rive
worker
passenger
##fest
##öhm
mentor
Bobby
Connell
Felice
Quarter
Chess
FIDE
##iset
##kov
Kaufman
television
Anything
Fisch
IQ
Hooper
gegen
##liset
D8
Kaspar
##DNA
##wne
já
##ður
##ýr
grave
d4
1e
##f6
Schon
##ouse
##kala
Марк
##ген
##ьев
##йма
##нов
³
щ
ю
##з
Ь
ь
##пар
##ух
imperio
něm
Carleton
##citus
##πε
##zino
##ρά
##κη
##рак
##ия
##dess
##cchi
wearing
Archiv
##kirche
Bulgaria
##özpont
Devletleri
Центр
##ални
сили
##teral
##lasti
pseudo
larvae
troch
##hore
segment
##zoa
tenta
flat
spiral
##bella
##poda
Pius
##laus
Xaver
Naomi
Bulgarian
cutting
##dington
Impossible
boli
وذلك
titles
Epstein
Kamen
##auer
##stici
Christen
Pound
Barber
Britannia
1205
Avignon
##plar
Stars
##ually
organisms
groupe
hierarchy
##raid
latina
##lainen
##оме
##н
ки
##рі
##лл
##інен
##ак
##сет
corner
Федеральная
служба
государственной
статистики
Пред
##вари
##тельные
##тоги
Всероссийской
переписи
Всероссийская
Unesco
drainage
rises
Русская
Земля
Ρ
##ωσία
Här
##pato
Riders
mounted
warfare
##mila
Maiden
Esther
##pene
Goch
##zki
##ewicz
Dimitri
##space
##oron
##cov
##ctat
militer
horror
Ritter
narod
vek
Moskva
casualties
ook
ums
##eseen
##lzer
Branko
credit
Putin
##еки
##rats
recognize
##away
Steel
Senators
telling
Nikon
pilots
proud
flights
shore
Nowa
federal
grain
owners
import
Pedersen
Panzer
##wagen
demographics
millions
leva
##sii
pravo
##slav
##yong
roads
Transportation
tente
roof
Постановление
ЦК
КПСС
##М
##стра
##нении
##ли
##ше
##ств
проект
##ирован
строительстве
decree
liquid
##iary
Genève
##enar
Sessions
november
Stara
##kso
##chsen
Berna
Librairie
Floyd
Angus
##Bride
editions
Flavius
anaa
Bug
Technology
##rria
##ezer
##scal
##tour
##enos
##dots
##holt
Horta
##mans
##ئیس
##ھی
علیه
Tanaka
Nguyen
##elles
##oot
##yote
nasce
Lodi
Camillo
##lones
##jian
Caledonia
Gregor
nem
Lamarck
Singer
mutation
flies
##vt
Switch
acknowledged
##oning
##guo
##quence
enne
dynasty
##rable
##risi
cult
Alfonso
Poza
##dzi
##oen
Brandt
diplomatic
Systema
Natura
Linnaeus
boreal
Taxi
##ις
##νό
##ranno
##saurus
##glen
##cium
##laria
zoon
##tista
Plantae
ubi
forme
résistance
##mose
##lord
Teams
Standing
Bronx
##wg
##felt
Jessica
Pieces
Drum
##polita
Frey
Billboard
Sister
Teen
Veronica
##celle
##once
Nicky
Hilton
MTV
Gift
Album
##pso
Ego
Gwen
Christina
Katharine
Sounds
Britney
Younger
##pini
Christensen
##master
##iston
##cats
Denver
##وانی
تعریف
##یی
##سین
##ئی
کد
##دیر
##بیا
رئیس
بذلك
دلیل
دین
Oklahoma
seasons
Malone
Stockton
Lakers
Warriors
playoff
finale
Cola
centers
theme
ESPN
##ایی
##آورد
مرکز
##های
کشور
شمالی
سبز
غربی
##ژ
ایل
həm
##əd
ə
##əti
Tehran
diagram
colored
##یات
یا
بزرگ
پشت
##یلان
که
چهارم
##یاری
بلوچستان
اطلاعات
آمار
##داشت
Done
Schuster
##tene
armi
Nicaragua
Takes
##dose
Shortly
Due
Exodus
Ces
Ranch
prose
Und
climb
sharing
summit
theatre
depends
something
Joyce
Athena
artist
##parti
##vori
readers
XVII
adapted
##ех
##онте
##ша
Человек
без
селе
##зен
##ки
poti
##merk
##vens
flying
##rigo
sort
Olga
##edett
Dear
champ
##agne
##chenko
truck
##vey
Oy
##sters
##zze
ستمبر
Sites
##toe
До
##сто
##евский
био
##граф
##ическом
справочник
Freud
##ertoire
Leonid
##menn
##chuk
motive
Anthem
portrait
Patti
Stunden
##ед
Михайлович
##тих
##от
##вор
##ени
Poems
##hte
собрание
сочинений
##евского
##брание
Владимира
Сергеевич
Сол
##ьева
##ществе
##нная
##hti
##tale
##eger
Радио
miles
##уль
##тат
Интернет
голосов
##ани
##blin
delayed
metr
##tn
censo
libraries
Д
З
##bidden
##иги
отдельных
писателя
##ран
##ё
##ного
па
##пу
##аса
Papua
kabupaten
kota
Rolling
Gera
##deka
Pembangunan
Jawa
Barat
sia
##pkan
Provinsi
≪
≫
##داران
##duduk
Menurut
##ggal
Jenis
Kementerian
##ranti
##isasi
ballot
Models
##cja
bez
##redni
ñ
##lco
##τον
##μία
autonomia
##τό
##νο
Rue
##meyer
Bring
##luat
##nomy
selve
anda
Yogyakarta
##nition
violent
contains
strike
regime
##vestor
abroad
##cking
Swiss
Confederation
##stent
Sveti
Mexican
Nobody
Motoren
Monsieur
Marke
##aus
##kunft
hry
Mercedes
Platinum
##fing
##ctivo
Statue
##ening
smart
Carry
Eva
Pulitzer
Lazarus
##ibert
##olle
frontal
Een
##erten
Qin
Loan
beri
powered
##itch
Kentucky
Busch
##ods
Moll
nid
Discogs
hori
MCA
Feel
Bottom
Thank
##plugged
Easy
Crazy
##rnia
Witch
Rocky
Colorado
premiu
définition
##rive
commune
##érer
pourtant
même
famille
##viennent
registre
proche
##ǐ
cine
ATP
yard
Inga
Otte
##lifi
titled
##strate
setting
experiments
awareness
sens
Merle
##oste
##teg
Tolosa
##part
##rolle
##vola
nucleus
pare
##γκ
##ίς
Armstrong
Engel
##motor
Goose
Blume
Eagle
Scout
Scouts
USS
Squadron
Panther
Engagement
Lieutenant
##hter
1B
agli
Kappa
##lino
angles
Boeing
Butch
Gemini
Buzz
accuracy
Beaver
Apollo
##blad
Gaga
Gus
Hornet
##PER
Valentina
Marathon
ulan
Bold
Goddard
Aerospace
Langley
##stellation
landing
nog
naar
Oceano
cercle
Deniz
Solanum
##dori
##ulent
##rasi
##forme
Foley
##cule
##ête
union
juillet
Helm
Darmstadt
statistique
cinquante
indépendance
##ffre
##éry
Jets
paru
affinis
materials
Petroleum
comte
Savoie
Valois
Cambrai
Blanche
Provence
Marche
##nze
##koro
##okan
Troisième
pont
compte
commencé
Esso
pointe
soins
belle
hôpital
exige
qualité
esso
##unces
##rát
##bbia
Bale
Endless
Magnolia
##jos
Lions
Tomorrow
##tesse
dice
opus
##atum
##micu
musi
romanu
moll
pasta
beaux
Леон
Ил
##ьи
##ч
##жне
forth
##coming
##ezh
Beats
Chiesa
##style
subsp
##ococcus
##ivar
##ğun
##сел
##ля
##лек
##ər
##regar
##chnik
Dann
##lé
##kár
Cream
##zdo
##sting
##lars
Dad
द
##ही
##zat
jog
داده
meest
ख
##ट
##्टी
##ә
Sears
cream
##laki
maya
##ij
##gama
Dance
##schop
##sna
##etas
##िव
ś
##pne
describe
perfect
Kurt
Gavin
##twa
##quité
romaine
grecque
Banks
SQL
##sert
minor
##fly
Chicken
##oer
Atlantik
Glass
İmparatorluğu
##uler
Nasional
expanding
##ristiani
restore
Duffy
Barbarossa
##ross
Marso
conquest
Tibor
Iván
dera
##sholm
arrival
Glory
Antony
##tae
ibi
##lha
Vaughn
slavery
##nificent
##nar
##layan
Taste
##luğu
nüfusu
##bakan
Marcin
Protected
Loyola
Daniela
##lkan
Elles
submarine
intervención
Península
Ibérica
##zano
Rodríguez
Cristiano
batalla
cristianos
##ceno
portugais
fundación
primer
##át
mundo
López
Virgil
##rado
árabes
Madras
##ológico
Sevilla
##tuelle
Rabat
##jell
bibliothèque
Ý
Mey
僕
読
んだ
から
itt
校
った
Moto
値
Hokkaido
ア
##イ
##ヌ
イ
##ク
Nippon
##ム
##ィ
⟨
⟩
ɣ
ٹ
rak
Jobs
##kula
##oney
fired
mee
doesn
##mail
Minutes
coverage
Elk
olleen
Curry
chat
Linz
##initive
##jib
Reese
##cable
owns
Sylvester
Udo
Sage
explorer
##uana
Shang
artifacts
##utica
##hair
gan
paz
Yun
khan
terre
sainte
##ilt
Countdown
Johansson
##fon
Trujillo
##sara
Ring
Alois
##lada
Guillem
##ñas
Cueva
Ignacio
##iese
Ortiz
Paar
##deko
Cristina
Sarmiento
Mikko
##auri
##citation
sider
eine
##liert
historische
blei
Englisch
Nauk
##ousse
##rell
Parke
Floor
Forschung
aktuell
##ldu
##ngen
haben
Entstehung
Monster
##stern
##traße
entdeckt
##terne
##emon
beiden
hau
##chste
##ikan
##PS
nearby
##nzi
Spagna
Steele
Sébastien
extended
Bernat
##uder
Hodges
##cque
##oux
##itative
##wami
##escu
Suns
hal
Accessed
Heikki
Webber
Voyager
##alni
##lme
circulation
shorter
Oort
##anha
##gono
##lament
Hyde
sie
beschrieb
lambda
##drome
##urne
Shock
Alam
##hda
Itä
##meren
##ogia
Arabian
Vogt
Mateo
Díaz
Eugenio
Rivera
Lagrange
fai
Comet
Tennessee
Søren
Guillermo
##tham
Howell
Auge
##reau
##fero
##õi
##jano
##jf
romance
masculine
soleil
gender
##nima
celebration
Latina
Wessex
##loge
clearly
Kaplan
Celtic
Brittany
Dion
##sierung
##vang
Biblioteca
##rú
##prenta
##ogía
Diccionario
México
Promise
##dlem
Christmas
Dalla
Infinite
##song
habita
lights
Venus
Teachers
Twee
Twist
ede
stare
featured
##itude
duration
hide
Galaxies
bell
Coma
Milk
##rens
Gott
Clusters
Fountain
##llion
##iak
Sánchez
##räume
Spectrum
Kilometer
##idar
Photography
##nics
moderne
Astronomie
Ramsay
Geoff
Chapelle
##finite
##nomen
##tea
ring
diameter
Him
immediately
##lski
Observe
Cloud
radial
##pik
Sono
##redo
plane
Kort
Jura
voida
Leading
##clei
Duna
guidance
Next
repair
reflected
gap
personnel
mirror
##cret
Perez
barre
UCB
##erk
##tains
##icz
##vici
Meets
Dollar
##uster
Gros
##tva
Slim
Jakob
rings
##gus
error
observations
oval
##demie
success
Alabama
Sato
Muller
Active
Maio
##ksen
Savage
bnf
12148
vila
sequence
Mexicana
##mill
##dacht
neues
##rle
##kana
Carnegie
brown
taking
##ruck
##isio
Sloan
Pob
Birmingham
Dahl
Girard
indicated
IPAC
##rare
ESA
andere
appointment
Rerum
##poru
##dore
Germania
Tours
Poitiers
Landmark
Mittelalter
Quellen
Eit
##lési
##astique
##ires
##ées
##τες
##rations
noms
Texte
Mein
Monk
##nsis
##xa
##nensis
D9
B3
##aam
Numéro
universelle
egli
##rdin
slaves
##ristianisme
##zz
Tā
toile
nuit
##velle
théologie
##tient
storico
Autriche
Ferrand
Occidental
frontières
##astic
abbé
bé
##né
Mahmud
Italie
##rgie
Adama
Fontana
Siri
lucru
sept
Bernstein
traffic
Filipe
Antonio
autres
Ehren
##umna
Boulogne
Gouvernement
##ridge
withdrawn
danger
nights
Pays
piso
Lato
werk
##loze
samen
baan
focus
Sioux
Bull
##vano
kas
##tude
conquête
nationale
sino
beider
Hessen
##wert
hommes
##dant
Fulda
Manchester
église
douze
Kwa
##ogique
maîtres
##prime
uso
alumnos
escuelas
officielle
Rouen
Vienne
Égypte
années
Pasteur
##acher
##iology
Louisville
##tely
Chamberlain
##bolic
##hrax
##arde
announced
Loir
mouvement
##itaire
traditions
populaires
examen
Moreau
duché
Âge
历
记
载
次
震
majeur
##nisme
##dak
construction
##jov
##lko
##mies
primi
##elio
investigate
##bies
##dov
##nega
PCR
##ckie
##chov
Milwaukee
##cious
##nty
oan
aerial
Codex
poste
mouse
##ím
##vine
##lans
##dorff
##eda
amar
Philosophie
pnas
biological
Vries
pang
##enes
mutat
##imate
Evolutionary
vise
nr
Sunderland
Sina
Associates
##pista
traits
angin
##lny
nich
foundation
affect
RK
quantitat
Natl
##maker
Genome
Genom
Caetano
##llé
adding
strand
##bination
Burt
##fica
##yot
fragment
##lba
insect
Gladys
##sels
horizontal
fusion
measurement
Goldberg
Doll
Hoa
##olver
wild
##cursions
cricket
difficulty
##ckey
##posa
adaptation
##iere
##bile
Felix
drift
##aen
##ally
##rando
JB
plastic
specia
Leigh
relevant
##tide
Caen
##nheim
##auto
Tempo
reconstruction
Whitman
Coleman
##ptation
defines
Any
suite
##inosa
pump
##yras
##coded
##isted
pathway
##gradation
loro
##dil
Poole
modification
##igia
gde
nova
Abigail
##vci
##risto
machine
##tava
Toma
##ruit
Garcia
##àn
##dez
prey
Ride
dangerous
geographic
snake
yang
##oses
Reeve
##öll
##bler
models
1462
fitness
##rije
##ggins
vinta
##cza
VR
##elja
exploitation
Moritz
##forcement
##unct
##uate
Freeman
fram
contro
reception
developments
organic
predecessor
unde
##ously
raising
priority
convince
drew
inspiration
replaced
salt
Davenport
##ldo
arguing
exhibited
continuous
jump
din
bande
Holdings
##fini
º
Parc
bilo
杏
ginn
은
##행
gwo
白
bá
bạc
quả
ぎ
##んな
##ん
##은
##nki
3A
Marko
Donovan
dose
Psycho
PubMed
##oides
Baie
##itys
Shirley
##eois
Clint
##tton
##edra
Paula
otti
Twins
##gida
ʾ
##ən
##ač
##əs
##ət
##fə
##ədə
Ευρώπη
facto
residence
İtalya
##rut
Unix
savanna
##lings
Virus
Boot
autor
##tting
killer
##ywa
payment
##ذیر
طریق
تھا
##ازی
##نین
##دایت
Automatic
اختیار
##χή
##λο
Commander
pack
graphics
این
KDE
introduced
XP
administrator
Window
Kors
Shannon
vann
Gara
joins
##ulli
Marconi
بالاتر
girls
##orte
##plus
Males
##vena
##σει
##δών
Gaia
##ῖ
Erin
Luft
Hz
listen
limits
Rossi
favorable
obtain
tona
cycles
##fand
Büro
Gewicht
ott
compagnie
Hierarchy
dimensional
shaped
Niet
founders
namely
Dialogue
##ۆ
بعدها
##زاده
##ρία
Taurus
Levante
##וי
דבר
הימים
ולא
##ומות
העולם
ירושלים
תש
ד
Extragalactic
##many
Lemon
Colonel
failed
possibili
try
dedicated
objective
##cendent
moment
pulled
##self
conversation
showed
observation
Timur
rivers
descendant
rivals
représenté
étant
bien
##llant
illustre
##marque
seconde
basse
principes
Mais
été
écrite
supervision
personnelle
petit
autre
ennemi
également
établie
cependant
ordre
directe
##tré
siège
##cié
Parmi
matériel
##éputé
peut
deuxième
connue
seule
vivant
fabrication
tardi
plupart
faits
soient
juste
κόσμο
niso
directions
iii
trap
Torah
##fait
Eno
Byrd
Senator
##ffen
Jubilee
##ğı
##րա
##տ
Catania
κατά
##νη
##oed
##erata
##biu
##ridor
Città
##omu
wall
Magno
##yta
ovu
لحاظ
Keynes
larger
brak
bag
implement
##systems
ATM
函
館
##rata
Crescent
Eleonora
Ninja
jika
nek
teka
Kuna
ninja
Messe
Industrie
Monachium
##nsä
Glocken
##rto
##dling
##straße
Maximilian
Vier
Jahres
##zeiten
##aler
monument
##theater
##mphe
##ktu
Frauen
##atin
##saal
##tigkeit
##zerk
Dixie
Hund
Bavaria
Films
##eros
##stras
Fünf
##itto
Siemens
Verein
Straßen
Münchner
Hän
服
##miu
呉
倭
歴
と
移
変
わり
冠
階
##hiko
王
権
肩
Beauty
##ugi
戦
活
素
実
施
令
制
式
例
Jimi
Hendrix
剣
wear
き
##もの
称
｜
紋
販
サイト
##bita
（
##ビ
）
详
细
构
衿
襟
形
振
身
つ
寸
測
袖
前
付
裁
家
shop
##umon
泉
##kata
略
喪
##iji
Insight
##osing
け
だ
##た
夜
畳
み
宅
洗
濯
##よう
腰
板
紐
##あ
刀
弓
##bezirk
Stadtteil
##gels
Köln
##ässer
##ikos
##οί
Dama
##menti
##Ő
Ē
##Ā
##ø
##ű
lange
longs
##bücher
Doppel
##hän
Zwei
espada
##vona
small
Schott
##kit
FAO
ergibt
Mosca
##erta
jau
viral
لديها
##έρ
##μη
##ύν
##kun
##bereich
##etik
Kleine
Weltgeschichte
##dler
##lichen
##elu
##ält
##dust
Heft
##amik
##gänge
##lungen
لهذا
BK
Computing
realizat
Fram
Barnett
Clock
Minute
##ocke
##rology
זמן
##νος
##lista
Offenbach
Römer
Kaisers
##elos
tourisme
Nuit
##ério
début
civile
Euskadi
##cey
##zoni
Extreme
yao
JAPAN
##rance
##brique
##lca
Liban
##nting
quest
##ahl
Rayon
Warwick
Myers
##koi
##pek
U19
##ико
##ин
##мин
##мик
##ф
##фе
##пе
##хи
##из
##ических
##ук
Isola
Atom
##irn
##mui
##setzung
bezüglich
inneren
einzelnen
##mäßig
##keiten
##mane
##blem
Hydrogen
##gato
##witsch
Lillian
Laurie
##rdan
Dresden
proton
VV
Mohr
Newell
Atomic
##chten
Tests
Forever
conservation
virtual
device
electrons
##hwin
##bewegung
Would
Known
Sra
##gone
Dordrecht
Martinus
##ndar
Voss
fut
managing
Ruiz
Aleksander
Baltimore
##urst
Pape
confidence
##Ú
##nete
##udesta
Comuna
diario
cree
##ncias
Cá
##figur
izen
##rdon
##ajo
##ují
##nzo
Bajo
##fondo
Gina
Negli
##lez
##mend
##itos
##uras
alfa
##teris
porte
Página
Guevara
##rets
circumstances
traveled
student
##upe
##dden
Galway
##deva
Plains
detection
Monterey
informations
obtained
##ylum
Porifera
كالتالي
websites
Images
Claudia
Vasa
##fio
##lione
Ott
##nischer
Künstler
Florenz
Walls
Goya
##dami
stroke
sequel
Valle
Battista
Sigmund
Kindheit
Bord
Cunningham
Duff
Jensen
Neto
Carvalho
##logica
Blaise
Elke
##öne
##یسی
انتشارات
هفت
بیست
##mali
##χου
bor
Bora
Marion
acide
Annales
physique
dess
##ärk
##gaste
före
##ningar
##lingar
deren
merk
##ggen
reserves
Krzysztof
Alfredo
Amb
##pou
Bond
Owens
##ussion
platinum
Віктор
Андрій
##ович
Ю
##щенко
Сил
##род
requires
inclusive
司
遷
Ao
叔
敖
reservoir
lasted
mainstream
investigated
ingen
punct
artes
Steffen
Rocks
allant
ٔ
##bier
##dale
##geri
ouest
beach
##tzar
##arten
beau
navigation
avant
Pearl
Kendall
Baroque
Verso
Edison
deficit
USA
##DA
Permanent
alumni
##ddle
Emily
Hemingway
Armor
Lt
hie
##ffin
legati
offen
beautiful
Marlborough
Randolph
Eugen
Aero
Clive
Mainstream
##tna
Exit
send
ultima
aired
##brook
Potsdam
Documentary
##zhen
Aleksandr
##ipelago
funeral
anh
Phillip
##zid
Armed
Livingstone
Cobb
Liberation
Ortega
Arap
##ısı
Aaron
##ulu
adjacent
##plici
##ccia
##מבנה
##כור
פי
ת
##חק
##יר
##נדי
##יי
##מס
כללי
הארץ
庁
Therefore
prefectura
町
bij
##ukan
Compilation
Piper
4a
##tius
弥
##gold
sixteen
##legen
هجری
Usher
politie
intelligence
kale
##lki
##nius
Februari
maxim
##sigen
Gare
modernes
Perugia
##DC
choix
textes
##itaires
malgré
détaillé
chinois
manuscrits
historien
peuvent
effet
moindre
ample
ayant
lieu
ailleurs
plusieurs
événements
collision
én
##cée
conviction
communauté
scientifique
##crit
##lons
##hire
saint
##ïs
##vated
reveal
NFC
##רב
##וע
dele
##telling
exil
Bibliotheca
Jeune
Affair
##iqué
Tunis
détail
officiellement
signe
nouvel
entraîneur
janvier
crée
##imin
numérique
Cameroun
signé
hale
ballad
gens
Abdel
sont
Esperanza
##cida
##dors
##rano
vidéo
championnat
milliards
Chevalier
Castrum
##lvestre
##upa
Conway
efficiency
##cky
Caspar
##geni
##rissa
##zaren
forcing
##ilities
Dua
##ubility
solutions
invitation
responses
##ossa
Moreno
##ratos
Ralf
Grundlagen
##dungen
##ktik
heute
resta
Anwendung
##verfahren
Entfernung
Kessler
Nutzung
Übergang
##lka
##ierten
##ädie
##gebiete
##erze
elf
Kerry
Advances
Photos
colos
##onga
##tette
##eräte
Aqua
Oberfläche
##igung
kom
##mier
##lma
##ò
##ướng
lá
##ốt
##iyada
Provinzen
Einwohner
Karten
Plateau
Cooke
menu
cooking
##rds
##nú
Jón
Edda
ý
Rasmus
maxima
##male
##core
Bloch
##usse
Alvin
Gear
Crew
##ématique
##ھیل
امریکی
XL
stabil
bounded
Estimation
gods
faculty
##ohr
Rex
##itische
ersten
türkischen
Aden
Ludovico
antique
ère
chrétienne
Bibliothèque
B0
##sende
patrona
scenes
AFL
loan
devices
##زدهم
Javier
Peña
Pérez
Mio
Cid
##éroe
##íle
Zaragoza
pus
wer
##gint
scope
dati
raka
Bangkok
Infante
##ntara
hrad
##onica
##ëm
##lido
vent
##medi
##lobus
intern
Wegen
Nieuw
سردار
Counties
Towns
Ruby
بتاریخ
Walther
##plex
partial
vitamin
humo
##tty
storage
##cible
Bangladesh
strain
##rud
presents
dozen
Blanc
##fected
Airborne
##FL
Centers
##nded
strategic
##eering
ومنها
grade
Mto
Wednesday
orange
utan
Aida
##aux
Asteroids
Naked
Provisional
##elé
##isie
##rington
##ło
rota
Pallas
##aste
controversial
Seri
##watch
##jeva
##rve
##patra
Fellowship
Dust
samples
outre
Alonso
Jedi
Emery
asteroida
spotted
wet
masses
ranging
orbite
lande
Analysis
Killer
Falling
Quiet
##enter
Sheppard
Carolyn
taxonomic
classifica
##chtung
##bst
##warte
Pilot
Orion
##iben
Herausgeber
Eventually
##oren
Gerrit
Springs
Tanto
ket
Brno
##ünn
Existen
Marino
Mimi
existencia
##lisme
identité
personne
##xie
##ה
##מו
##ϊ
##μων
##δης
mimo
##viers
valley
mayo
##odes
MAX
anima
rende
↓
↑
Ostrava
cz
##rque
Де
##мос
##коп
##nost
##vins
##aty
Dok
##hany
Kampf
##äinen
##сят
ми
##фов
Второй
мировой
##кс
##мо
##уза
##ель
##тю
##хов
##щен
##ный
ша
##нс
Сталин
Советский
Союз
бо
##рьба
##вр
##опу
гг
##менты
факт
су
##ждения
Изд
исп
доп
##ulier
ХХ
Ол
П
##ресс
год
Kamera
##jetische
##ngene
##tny
##nnon
distinction
possibility
Dickens
antic
méthodes
##ètes
Jeden
##zeug
daß
Plzeň
rossa
##קד
שלמה
##forte
Even
##emba
##marka
Lyons
Georgetown
Casey
ils
pouvaient
##ète
##raient
Eiffel
##lami
Doha
##DB
mide
german
##rail
##contra
##yde
nav
##edd
##unted
##aso
Solaris
fand
culturel
Collective
##lmer
Firma
##tage
Morte
اگر
باشد
##وشش
##estan
Ə
##rəb
##yeng
Пер
##сона
##жи
##ради
##ционных
р
##ели
##ги
##ных
представлен
##ий
аз
##ер
##бай
##джа
##нцев
##аран
Ön
etnik
Halk
Lorentz
Louvain
##τρα
Malo
##omosom
byte
advertising
campaigns
##xer
##ünk
damit
etwas
besser
wird
##rgen
ihren
Familie
Zürich
##bericht
##rko
powerful
weapon
##bela
Ά
##βη
##jord
Remote
♂
Much
Speed
Valentine
Once
Clayton
aval
##anche
caught
soil
Alicia
Landing
covered
Norbert
Ode
##iwal
streak
##ánt
##marker
Rover
Figur
gull
flowing
Eo
typically
latitude
temperatures
emplacement
zones
smooth
Feat
##tudes
Toda
##jna
recurring
slope
2546
##ndas
Selby
Rovers
Radar
radar
##effer
##kina
beneath
##ehan
##names
##mert
Christiaan
SEDS
##bne
##lyse
spatial
Feng
Everest
##professor
zone
caves
Eros
Manning
Trainer
Kemp
Edgar
Wellington
##rpen
##isan
##èvre
Sparks
Nadine
ecc
##dicate
implica
Nickel
stores
##ára
flora
##joki
preserved
deposits
Tiny
molecules
Ares
##verka
##ρης
Ellis
Barack
##ieti
Berta
twee
##pusi
Unfortunately
##ramm
huge
proceeded
crash
reaching
intact
losing
##finder
##ications
##fano
Fuller
Anno
permanent
unsuccessful
##tren
radios
commanding
backup
##erea
##pore
##ctra
Gets
spacecraft
alte
Ingrid
##ufer
Lili
retiring
##ει
##llius
sons
火
Tato
##eyer
Basa
Champion
Série
Salisbury
Talking
##borgs
##cere
Darling
Kathy
##zony
##דו
##או
##אש
##יג
##סו
##גו
##dow
Lucy
##му
##ни
##зм
slo
reviews
##atta
##yni
passing
Matthews
administered
affected
grows
##diya
Jeho
belli
##geren
Heights
directly
these
Ethiopian
##national
proven
##iewe
Filippo
##etti
聖
摂
政
関
氏
頼
満
応
仁
閣
玄
織
豊
臣
秀
徳
康
謙
尾
今
桶
狭
幕
府
将
ヶ
景
虎
条
輝
勝
桃
棄
琿
奔
壤
複
走
願
內
屬
議
駐
險
待
；
號
召
勤
圖
恢
復
毀
墳
墓
劫
陪
剽
庫
幾
旦
暮
且
渡
鴨
綠
援
絡
繹
侍
浪
歌
伎
松
左
蕉
俳
句
箇
誓
茂
伊
慶
喜
戊
辰
争
##tula
##tret
##zora
mye
##izar
danske
Flag
وعشرون
conta
fluid
فروش
Tore
##östa
##ån
##ficie
Soto
Engineer
##cale
nome
grego
sua
influência
cultura
ocidental
Geral
agosto
termo
##cionário
##nha
Duarte
##dução
##rítica
Arte
Ní
trabalho
##pione
##ição
mitologia
grega
##ários
novembro
##usk
##αν
##ὶ
καὶ
##άλ
##σος
Ribeiro
##óg
Lovers
Peder
grec
##iaan
setembro
Alguns
##iban
##ác
##ínia
Templo
##lsey
##puis
##ografia
peça
##rí
Só
##lida
versos
Argo
##putati
##omen
Approach
Gap
citado
Crowley
Lies
Έλληνες
northwestern
synonym
ό
##στών
##υμο
bear
##κοί
Silent
ὅ
##κο
Imperium
##uario
mun
##bona
##runt
marked
maintained
belonging
##ioi
Athens
streets
##kell
Editorial
Riga
Moldavia
##χα
##γε
##οι
##νες
ellas
##claves
##sok
ilin
##ismo
missions
apod
##imos
##θε
θάνατο
##κας
ἢ
##χους
##ταν
##ῦ
##ντας
##dette
uz
Ν
##μά
##δες
##midae
##éter
##bent
##éves
Rusi
africana
##rème
Sulla
##mur
##otto
Pacifico
##pulation
Sowjetunion
##zane
Romain
jure
Melbourne
alles
kilo
fertile
Snake
modelli
SBS
piano
wine
ἀ
##ντ
##ρκ
##ντα
polos
##ulse
seme
##placement
males
##bation
##jom
axe
Holly
Tae
##mosa
Kang
관
##리
##소
Loving
당
##신
이
없
##으면
조
##국
도
없다
enemies
##girl
Армии
стран
develops
fighter
Torpedo
factories
reporter
##madan
Jang
reden
lasting
Abt
doing
##tling
Mobile
##onne
##bong
##gye
##ondo
februar
##בר
יוסף
מלחמת
##שת
lai
contest
Damascus
Gant
Maar
Pode
##uesa
##laga
##uing
ESP
bias
##inou
Fernando
Nueva
##enza
##pá
arc
assassinat
downtown
Bogotá
mejor
clima
político
Consejo
Seguridad
ONU
##dó
Ángel
##gido
##curo
##ógico
Dirección
Latino
##óm
##etro
##uale
Brasile
##cando
kick
##start
snow
Regione
##endente
Province
Gobernador
sinensis
##gall
¾
بجماعة
##tür
与
謝
蕪
Verdi
Mound
agit
méthode
calendrier
nous
Tokugawa
橋
浮
絵
##jur
ownership
employee
citizen
equity
socialist
goals
massive
seems
producing
easier
Calhoun
##Millan
##litz
rein
Andrzej
Harmony
mises
Dari
Compagnie
##ovan
##presso
##ppio
Café
Viena
Coffee
ソ
##ニー
株
会
社
Vive
Roll
crossover
manufacturing
solution
守
護
sei
tais
征
夷
黒
##gata
Iki
##urai
##zok
jogo
##zala
##usha
##aday
Congo
Suriname
Resort
Yvonne
Nederlandse
##ador
##LD
##ienda
audiencia
Roca
##erte
##ubi
Mapa
ª
##dula
##encia
##tiny
##full
##uren
##oyer
##bone
Bolivia
Judicial
Escuela
##nella
titular
hoy
noticias
sitúa
crecimiento
##nómica
Caribe
##aciones
##cua
##zame
eut
completo
##cae
Industria
##file
overseas
destacados
bonds
##ulación
##lón
Ferrocarril
##ylus
airport
passengers
Airport
Quito
Gateway
##lación
joven
##verso
católico
afirma
##syn
##día
##kán
##úa
Synagoge
cima
inga
##fan
##wia
Sion
pasa
##juan
##tado
##cados
Borja
##ceto
Poesía
Literatura
Dolores
##pung
##rrea
Vida
Salud
abogado
##rcio
sociedad
##miento
##prende
##dores
desarrollo
nuevas
rod
##preso
##esc
Ciencia
##tischer
Louisiana
paroisse
##rmen
##ulte
##viu
Islas
Canarias
Fue
##ventura
Canaria
##aña
Roque
Oeste
Lobo
Movimiento
##odet
Independencia
##arios
##taria
##בו
Ono
environs
Colbert
Mildred
태
##도
跆
拳
##tky
##ùn
截
限
藩
功
tudo
europea
##valet
metric
metri
##gator
##oar
##că
României
politician
##Ī
نشان
Cesar
##eae
Rode
##aat
##ønland
Greenland
Vikings
titre
##zira
Below
Essa
Saison
##izione
longo
##bard
##nais
receiver
##ètre
Aquila
Tracy
Boyz
##runk
ár
##enda
Systematics
NHK
放
送
協
業
務
報
告
料
##し
Ḥ
Göttingen
Reilly
tenth
Flores
##asse
##latan
reino
Asturias
##íg
nación
española
Colección
##órica
Gijón
medie
medievale
##cionada
##ientes
véase
número
atacar
##vado
precedente
bí
unas
##ból
nominal
quart
Violin
##ntet
##arin
choir
##venta
lema
##tean
##festa
##uire
##bacher
Reef
isolation
neste
##ĕ
##pán
##eman
Combined
##walde
outbreak
Pau
##dha
fraud
Wolfe
mening
##abb
Sharp
##daj
noti
despite
olim
##ticus
İki
şehrin
##zingen
کار
##lala
##tonu
mal
شروع
##vanie
arrivée
hongrois
Futbol
Més
Ramón
##دارد
##europa
copa
crop
##eran
breeding
Ciutat
##portiva
Barcelone
Blau
Azul
imdb
més
Cuatro
siglo
días
##Ì
abril
Kleiner
Josep
Jammu
Kashmir
क
##श
##्मी
##र
##īr
Cove
Satan
worship
sail
Follow
##éu
##graphia
##ίος
##ράφει
##arii
##lą
Schlesien
Silesia
##indo
##ktop
##ppet
elva
ḥ
##vah
pista
Santo
Crosby
olive
##fast
℃
##℃
thu
##iensis
Giang
store
McCoy
##father
clause
Font
scolaire
Monet
marina
Bassi
独
##wm
henne
##ək
kon
oro
##dern
Там
##бов
##ская
область
Оценка
численности
постоянного
января
среднем
комп
##оне
##нты
её
изменения
человек
##kti
##som
Factory
Arti
ABBA
ξ
Mouth
mois
relieve
Clear
##oks
##meti
segments
attached
##made
lettere
equations
##plied
completion
opposite
sides
##drat
mastering
Gand
##oman
Osiris
entitled
concerned
capable
##iple
numeri
##placed
usato
tackle
∗
Ruska
Zero
##āri
numero
##ʿ
ँ
ओ
##dée
Lauf
monuments
##rout
του
##νίκη
Colonia
Iulia
Downtown
barra
##sef
##orce
##rms
transportation
##visor
Londres
Wolves
##terra
participate
Gauss
sap
Drie
##etos
aquatic
coastal
Hub
##ēr
Fulbrook
##sache
Günter
Bevölkerung
##wicklung
Zweiten
##blick
politik
##brik
awal
##region
##ologische
##erman
##stisch
[...]
